#version: 0.2 - Trained by `huggingface/tokenizers`
Ġ t
h e
č Ċ
Ġ a
Ġt he
i n
Ġ w
Ġ s
Ġ o
r e
n d
e r
Ġ b
Ġ h
o u
e d
a t
Ġ f
Ġ Ġ
i t
i s
Ġ c
Ġa nd
Ġ m
Ġo f
e n
o n
Ġt o
o r
in g
Ġ d
a r
l l
Ġt h
Ġ p
e s
Ġ čĊ
a n
a s
Ġ in
Ġ l
Ġ he
Ġ n
o m
Ġ g
l e
a d
u t
Ġb e
Ġ I
o t
o w
i c
i d
Ġ T
Ġ e
Ġ "
ĠĠ ĠĠ
l d
v e
Ġw as
g h
Ġ y
s t
i m
s e
l y
Ġo n
Ġth at
Ġw h
en t
i on
a y
Ġ u
Ġ re
e t
a c
Ġ it
a l
r o
it h
Ġ S
i r
v er
Ġf or
Ġy ou
Ġw e
Ġw ith
Ġ A
Ġa s
r i
Ġh is
Ġs t
a m
gh t
u r
ĠT he
he r
c e
o o
Ġh a
Ġa n
Ġh ad
Ġ is
c t
Ġn ot
i ll
Ġa t
a in
t er
c h
Ġs a
k e
Ġ H
ou ld
Ġ M
Ġs h
Ġ B
Ġs e
a ll
Ġ C
Ġ P
i f
i l
re d
Ġh im
Ġ r
Ġ W
Ġthe y
' s
Ġs o
Ġhe r
r om
. "
Ġm e
Ġo r
o re
t h
om e
Ġ k
Ġ G
Ġa ll
Ġd e
Ġs u
Ġb y
es s
ic h
a nd
p p
i ght
Ġth is
g e
- -
at ion
Ġb ut
Ġf rom
Ġwe re
Ġsa id
Ġu p
ar d
Ġha ve
Ġn e
Ġw he
, "
Ġwh ich
e ct
Ġs he
ĠĠĠĠ ĠĠĠĠ
Ġ F
u l
n t
q u
u s
ou nd
Ġw or
Ġthe m
Ġd o
u st
Ġ L
Ġ D
a p
es t
er s
e m
an t
Ġ v
ou t
Ġc h
i e
a b
am e
Ġm y
on g
Ġ R
as t
o p
Ġf e
Ġc on
Ġon e
o l
oo d
Ġ 1
Ġthe ir
Ġwh o
Ġa re
is t
re s
Ġs p
Ġa l
Ġe x
ar t
Ġo ut
Ġ E
Ġm an
Ġa b
b er
Ġ N
u n
Ġ O
ver y
in d
Ġn o
i ve
u m
ou r
ow n
Ġin t
Ġl e
ĠH e
it t
ou s
at e
Ġk n
r y
a g
Ġc om
re at
Ġg o
k ed
ĠĠ Ġ
Ġp l
Ġthe re
on e
t her
o s
i g
id e
ac k
ou gh
Ġw ill
a k
Ġa g
i v
Ġw ould
Ġ J
ac e
Ġwhe n
a ke
Ġt r
Ġan y
Ġp ro
c k
e l
Ġ j
e ll
se l
or t
he d
o st
a u
Ġbe en
' t
ĠA nd
Ġ ro
Ġa r
e p
Ġb r
Ġo ther
re e
Ġint o
Ġc an
Ġt im
Ġu s
Ġg r
Ġwor k
o d
? "
Ġc ould
Ġl i
Ġd id
o se
itt le
Ġ if
oo k
Ġ qu
a v
i es
as s
j ect
p t
ad e
Ġc l
Ġab out
Ġa f
Ġt w
is h
e ar
ĠT h
u re
Ġyou r
nd er
ur n
Ġs ome
in e
w ay
an ce
Ġl ittle
Ġ very
it y
ot her
p l
it e
ic e
a ve
Ġ _
Ġm ore
Ġu n
e red
Ġg reat
Ġtim e
ĠI t
Ġd ay
a re
e nd
v en
ĠB ut
Ġ en
ut en
ou ght
Ġb l
Ġwh at
! "
Ġd own
f ore
ĠP ro
ber g
Ġb o
i re
Ġag ain
Ġc o
Ġo ver
Ġ '
Ġse e
sel f
uten berg
Ġd is
Ġp r
Ġa m
u d
Ġo ur
ou nt
c c
m ent
Ġth an
u ll
a ge
a w
Ġof f
Ġc ame
Ġ ri
ab le
i le
i ld
Ġthe n
Ġn ow
i p
Ġto o
h ing
n g
Ġf l
ic k
Ġli ke
ĠG utenberg
f f
at her
Ġha nd
in k
Ġ K
Ġup on
an g
Ġm ade
Ġth r
Ġ Y
o ve
ing s
Ġp e
Ġkn ow
Ġst r
an s
ĠPro ject
Ġaf ter
Ġp art
Ġa d
Ġ (
ar k
Ġl ong
Ġsh ould
Ġp er
all y
Ġtw o
w ard
u e
t ain
b le
ar y
or d
ac h
at ed
Ġa pp
Ġw ent
Ġf o
Ġwhe re
Ġbe fore
w n
Ġ im
u ch
Ġ 2
Ġh as
ĠĠĠĠĠĠĠĠ ĠĠĠĠĠĠĠĠ
Ġm ay
ĠS t
v ed
Ġg ood
res s
en ce
f t
ĠI n
c l
i ed
or n
h at
Ġm ust
ion s
Ġo ld
Ġh ow
Ġm en
Ġb ack
he n
Ġw ay
Ġp o
c i
Ġon ly
ri ed
Ġc ome
am p
Ġs ay
Ġit s
Ġs m
b l
Ġs l
if e
Ġf ir
Ġw at
Ġp re
Ġu nder
at h
Ġm uch
is s
Ġs c
e w
f ul
Ġcom p
Ġ U
Ġthr ough
Ġbe c
Ġs w
p er
ĠM r
Ġre m
ac t
Ġ [
s o
is e
re n
ĠThe n
ll ow
a il
a ir
t y
ot h
ĠC h
Ġc r
Ġd ist
t m
Ġa way
Ġfir st
Ġsu ch
Ġwe ll
ĠThe y
Ġthe se
op le
t ed
ri b
o nd
Ġbe g
Ġhe ad
Ġg et
ou se
Ġf ound
or m
Ġbe t
i z
Ġo wn
Ġm ake
Ġe ven
Ġsh all
Ġpe ople
Ġp ass
ĠS he
os s
Ġe very
Ġ ke
Ġth ink
or s
n ess
a id
Ġa cc
Ġne ver
on s
i ly
Ġm ight
he s
m er
Ġd es
Ġs et
Ġc all
Ġe ar
ĠT H
Ġg l
or y
Ġth ought
i ous
ĠS o
Ġin d
le ct
Ġsa w
m s
i gh
Ġth ose
Ġl ook
l ed
Ġd on
Ġhe re
as e
Ġbe l
Ġe y
a red
ation s
Ġman y
en ed
r on
Ġy ear
Ġj ust
Ġch ild
Ġl ast
Ġf ri
Ġ *
e re
Ġw r
Ġcon t
o ld
u nd
Ġpl ace
Ġd r
n e
o y
ĠĠĠĠ ĠĠ
Ġt er
ad y
au se
Ġo b
Ġ V
T he
Ġre t
Ġc ar
Ġre s
Ġt urn
. .
Ġhim self
Ġsp e
E R
at es
Ġse em
l and
Ġat t
it ed
Ġwith out
an c
ĠThe re
Ġl oo
oo l
Ġt ake
Ġwh ile
e en
Ġl o
Ġl et
Ġe nd
Ġn ight
Ġri ght
ĠW hen
Ġ ent
Ġp ut
e ver
Ġm ost
Ġyou ng
Ġ 3
Ġ1 8
Ġtoo k
re w
ĠY ou
Ġu nt
d s
ĠA s
Ġbe ing
Ġo p
v es
ĠTh is
Ġc op
Ġt ell
Ġw ar
Ġre p
i an
Ġc ount
v ing
ig n
it ion
Ġh ouse
Ġwat er
ar ge
om et
r u
i a
in t
Ġex p
en s
au ght
Ġne w
Ġbo y
l ess
' ll
if f
ĠTH E
o g
Ġth ree
Ġim p
Ġle ft
ak ing
Ġfo llow
Ġfri end
ĠI f
Ġst ill
Ġb u
k s
Ġe lect
Ġc our
Ġal so
s s
Ġne ar
Ġf ar
Ġl ife
n ing
Ġey es
o ck
rib ut
x t
at ter
Ġg ive
o b
Ġcom m
Ġp res
Ġloo ked
Ġret urn
Ġa c
Ġw ant
Ġcon s
f orm
iv ed
pp ed
Ġs er
l es
Ġon ce
Ġe ach
p h
l s
m an
r ow
Ġwork s
Ġas ked
ĠW e
Ġfor m
n ot
Ġh ome
Ġse c
s w
Ġan other
ot t
Ġs ame
Ġf ind
ĠW h
is hed
Ġso on
Ġf ull
Ġe ver
ow er
Ġs ide
ent ly
Ġw om
ul t
em ent
Ġhe ard
ĠA t
Ġl ight
ĠA r
Ġf ather
Ġt e
Ġm ar
as ter
g et
Ġto ld
u ck
Ġsu pp
c hed
Ġe m
p e
od y
Ġg ot
in ce
Ġs omet
Ġhe art
Ġyear s
ic t
Ġth ings
Ġy et
Ġagain st
Ġl and
en se
ri ght
Ġst re
Ġsm all
Ġcall ed
Ġan sw
Ġf ace
Ġin st
Ġs ur
Ġg ir
Ġgo ing
un g
c ess
t he
al k
Ġha pp
i ble
ro ss
d en
ce pt
en er
i x
v ent
Ġor d
an ge
ĠI nd
Ġth ough
Ġhand s
u nt
Ġre f
Ġw ind
Ġg ave
ar s
u g
Ġk ing
Ġre st
al f
Ġhe l
ĠU n
Ġs ent
Ġcop y
Ġa ct
it her
er tain
ust r
c ed
ĠJ o
ie f
ou th
at t
E N
ĠF or
Ġg iv
th ing
Ġp le
ron ic
Ġm orn
re ad
al s
Ġth ou
a ut
Ġelect ronic
Ġbeg an
Ġri ver
Ġunt il
ĠB r
Ġkn ew
Ġg u
Ġh or
Ġke ep
Ġre c
way s
Ġu se
Ġbec ause
Ġfe w
Ġ 4
e e
Ġh ard
Ġk ind
Ġs at
Ġmorn ing
an k
Ġse en
Ġth ing
Ġre ce
i red
Ġday s
Ġnot hing
Ġs k
t ing
Ġdo or
Y ou
Ġd one
_ ,
Ġd iff
Ġwor ld
l i
l t
Ġpro v
ĠO n
m ost
Ġm ind
ic al
le t
Ġcount ry
ak en
Ġm other
et er
Ġv o
Ġp oss
Ġchild ren
e y
a h
he re
Ġb ro
Ġre ad
Ġc le
Ġp ers
ĠS h
Ġdis c
Ġad d
ĠT o
E S
is ed
Ġr un
in ed
Ġp u
a z
ow s
Ġh igh
Ġt re
Ġl arge
Ġm et
Ġw ood
Ġc ried
om ent
O N
f ect
Ġfe et
Ġm oment
a le
Ġn ame
l ing
m ed
Ġp ur
Ġseem ed
Ġm o
p s
n er
Ġb oth
Ġam ong
ĠK ing
s h
. '
Ġ &
ĠĠĠĠ Ġ
ustr ation
ch ool
Ġst e
ill ed
Ġn at
ĠE ng
Ġal ways
Ġh alf
in s
ie ld
Ġc he
g ed
Ġbr ought
ain s
Ġwh ite
Ġhel p
Ġn um
Ġp ar
ĠT om
Ġro om
Ġqu ite
w een
N D
Ġst ood
Ġr ound
Ġw a
I ll
Ġre pl
u al
r ap
Ill ustration
it s
Ġc ap
Ġc are
Ġag re
, '
ĠF ound
Ġs il
I t
Ġturn ed
A R
Ġh old
ul ar
Ġbet ter
Ġen ough
ĠO F
ĠFound ation
Ġfe el
Ġh op
Ġl ove
sel ves
Ġre l
h y
ull y
Ġbet ween
Ġre d
Ġn or
Ġs le
i b
ĠA l
Ġd ark
Ġother s
Ġsu b
Ġm on
c es
Ġ es
Ġe l
Ġop en
Ġ 5
Ġe ff
Ġdist ribut
ire ct
Ġpl ay
h n
Ġc ol
Ġsu re
o ke
Ġne ed
Ġf ore
Ġf ree
ĠH is
Ġin c
ĠĠĠĠ ĠĠĠ
ap s
ain ed
ĠN o
Ġf our
Ġre g
Ġas s
' m
Ġsomet hing
Ġf ire
Ġto get
n ed
Ġtoget her
Ġl ay
ĠG od
iv es
ut h
at ing
Ġbe h
Ġh our
Ġc ertain
Ġb est
ac hed
Ġne xt
Ġl aw
i al
O R
Ġto ward
W hat
ter s
Ġcour se
Ġb us
Ġ ed
ment s
d ay
Ġf all
ĠM iss
Ġsh ow
I N
Ġwho le
o ver
id ent
i er
Ġpass ed
at er
re t
s ide
Ġal most
e ed
Ġex t
Ġsu n
ĠJo hn
Ġst and
ou d
at s
Ġal ong
Ġter ms
u res
u b
Ġ =
Ġp rom
ant s
Ġus ed
Ġbe aut
p le
Ġm ount
a im
Ġbl ack
i ans
Ġs n
Ġwom an
Ġar m
Ġf am
one y
ir d
il es
ĠA n
as ed
ĠN ow
Ġha ving
u p
os ed
Ġb re
Ġhe ar
f ully
Ġm in
Ġch ar
Ġt aken
it er
ĠW hat
Ġvo ice
Ġwh om
r a
Ġcon f
Ġs on
en g
p ect
Ġgr ound
Ġgo ld
in ess
id ed
Ġm atter
Ġs chool
Ġg re
Ġg ener
Ġo cc
Ġab ove
Ġthe e
0 0
Ġd irect
Ġbr other
Ġde l
Ġa w
u red
I T
Ġsh ip
bl ic
a pp
Ġgiv en
Ġfe ll
Ġpo or
if t
as on
an y
o ll
Ġfe lt
mer ic
o ot
ĠB e
Ġbel ie
Ġde p
und red
Ġin ter
Ġst art
Ġapp ear
i et
Ġl au
' d
Ġf in
it ing
cl ud
Ġg one
d u
ĠN or
Ġpo int
Ġv is
Ġde ad
a x
ĠI s
ĠTh at
' ve
Ġa ir
Ġs ound
Ġh undred
Ġt ill
f e
ut e
o nder
Ġfor th
ce ed
Ġb ig
Ġc ut
I S
Ġpres ent
g s
ĠA meric
ver s
Ġdo es
Ġhe av
Ġpl ac
et s
ur ing
Ġansw ered
m en
id es
Ġwith in
av es
Ġhor se
Ġw ife
ĠP r
Ġp ie
ate ly
ak es
ĠSt ates
ĠS p
Ġl ess
Ġgir l
Ġf air
Ġar ound
c le
O h
Ġad v
Ġthem selves
Ġear th
Ġsec ond
ag es
ĠA f
Ġh o
Ġm er
rap h
Ġp ap
at ch
Ġm oney
Ġo pp
Ġhow ever
d den
is on
Ġp ower
Ġany thing
Ġwor ds
a f
u ed
Ġrepl ied
Ġwor d
Ġre qu
Ġr an
ĠP h
Ġse a
ress ed
ĠA ll
Ġagre ement
Ġe v
ect ion
Ġw all
Ġth y
Ġde ep
Ġpr in
Ġt ry
Ġ 6
A N
Ġ Q
Ġstr ong
Ġcont in
iss ion
Ġcl ose
en e
Ġsu dden
Ġle ar
ĠG r
ang er
Ġp ri
am ed
Ġh um
ĠO ne
Ġpers on
Ġb ed
o c
t s
if ul
e c
Ġfe ar
ĠAr ch
er ing
ĠH ow
Ġcan not
k en
Ġr ather
as h
Ġw ish
Ġser v
Ġb ody
B ook
Ġm aster
ou n
an n
r ing
h aps
it ies
Ġle ad
Ġbeh ind
Ġde ath
Ġbec ame
an e
or g
ent s
iz ed
Ġst ory
Ġd ou
ie w
Ġex pl
um p
Ġme an
e ad
ĠUn ited
Ġhe ld
ere st
ĠC l
I I
in es
Ġro ck
Ġde c
Ġse ver
Ġw onder
Ġe as
Ġar t
Ġsh ort
Ġm id
Ġde ar
us ed
er y
N o
aught er
Ġnum ber
ĠC on
Ġs ince
b y
Ġme et
ap e
Ġbr ing
ab ly
Ġe at
l ish
Ġto wn
Ġd ri
-- --
Ġlook ing
Ġof t
ar ch
Ġreturn ed
o e
Ġind eed
p r
Ġt ree
A T
b r
d le
Ġqu est
Ġac ross
W ell
Ġcom ing
Ġf ur
Ġpu blic
Ġsever al
Ġme ans
Ġf act
Ġst ate
Ġfo ot
ĠS ome
Ġc ur
Ġc reat
ĠMr s
Ġdr aw
o f
e ared
Ġs ing
) ,
ent y
Ġh ur
Y es
Ġin clud
Ġqu ick
Ġle ave
Ġord er
Ġd ro
Ġin s
' re
Ġin v
Ġp ay
Ġs im
ent ion
ĠD e
u c
Ġfriend s
Ġunder st
Ġtim es
Ġf ast
Ġf ight
. ,
ar ing
et h
id er
Ġint erest
Ġc ent
W e
R E
Ġb ook
ĠW ith
Ġt alk
B ut
y ing
ve l
ar m
O U
ĠS c
Ġs ight
g er
Ġc ity
im es
Ġsle ep
Ġin f
Ġco ll
Ġp ol
t on
Ġ 8
ri es
or row
Ġal one
Ġrece ived
Ġ 9
on es
Ġsu ff
Ġsw e
Ġb es
Ġbeaut iful
ĠAf ter
ard s
Ġhop e
Ġre ached
Ġpre p
Ġre ady
o es
if ic
Ġl ive
ct ion
Ġar ri
Ġg ent
il ed
Ġoff ic
ow ed
Ġrem em
Ġeven ing
Ġes c
b e
Ġfe llow
Ġpart y
Ġke pt
am es
Ġh ill
Ġm ag
Ġc or
T h
Ġe Book
al ked
Ġth us
. ]
Ġl ost
Ġb ad
iter ary
ort s
Ġas k
ot s
Ġre al
Ġple as
em pt
Ġw on
on y
Ġoft en
.. ..
Ġbel ow
b ed
o on
Ġpre t
ic ense
Ġco nd
Ġw ild
Ġmy self
s er
ĠF r
al t
end ed
g r
ĠS ir
Ġb ar
Ġcar ry
Ġtr ou
Ġcle ar
ĠN ew
Ġper m
Ġm iles
Ġgr ow
s on
cl aim
Ġst o
id ing
Ġpar ag
ain t
iz e
ag ed
b it
ĠC ap
Ġparag raph
Ġtr ad
u ff
Ġsp ir
Ġs ix
Ġ ill
Ġbelie ve
b t
Ġsay s
Ġk illed
Ġkn own
Ġar ms
Ġwho se
* *
g y
ĠJ ack
Ġgent le
E D
w w
ere nt
u se
re am
ĠĠĠĠĠĠĠĠĠĠĠĠĠĠĠĠ ĠĠĠĠĠĠĠĠ
e x
Ġh on
A nd
Ġl ist
ĠC om
itt ed
ot e
Ġin form
re ady
o or
ri e
ĠP eter
Ġ 7
iv ing
Ġv ar
er t
C T
Ġha ir
Ġbeg in
b ody
us h
im e
Ġb ur
ect ed
ĠT r
ĠL iterary
Ġme m
Ġgl ad
ĠBr it
ĠArch ive
ber t
. --
Ġtr ue
Ġpro p
Ġ18 0
a ld
Ġl ad
u ally
ĠR ob
Ġwat ch
Ġacc ess
r ic
Ġspe ak
ĠR e
Ġher self
pp er
Ġc ast
ĠEng lish
Ġs y
Ġc ir
Ġf ive
av ing
g in
Ġ ide
Ġs ign
Ġe ither
Ġro ad
ĠH er
Ġm aking
f ort
Ġst ri
ĠL ord
Ġcon st
Ġb it
Ġsu m
Ġto p
Ġan im
Ġr a
h o
ter n
A L
Ġv ol
Ġw ide
Ġy e
-- "
Ġl ived
il t
Ġpro per
Ġapp ro
I L
Ġh ast
Ġal ready
T ER
Ġe qu
Ġst ud
Ġde m
Ġfollow ed
not e
Ġtre es
Ġab le
Ġ X
Ġf ine
Ġcar ried
Ġwh y
Ġstr ange
Ġdid n
Ġt en
Ġj o
Ġc ry
Ġad m
anc es
R O
Ġf ield
Ġre ally
ors es
Ġm ed
Ġm outh
Ġd est
Ġt ri
Ġfollow ing
Ġf r
Ġl ow
il ity
ar p
Ġboy s
ĠA d
Ġcopy right
ĠC H
Ġfor ward
ver n
Ġl im
at ive
Ġs qu
or k
Ġv ill
bl ed
Ġdiff erent
Ġw alk
Ġel se
ous and
A P
Ġf a
T hat
Ġdon ations
os ition
Ġco ld
Ġd aughter
g l
Ġse nd
ĠS m
b ers
att le
u ri
Ġcomm and
Ġp ost
Ġpart ic
Ġh orses
Ġtr ans
i ant
Ġnear ly
Ġst ay
b ut
Ġp ast
Ġch ief
Ġb ott
Ġwom en
er n
i ke
Ġf le
ut ion
ci al
Ġre ason
ne y
is ter
Ġgre en
Ġde f
Ġle ast
ĠW ill
Ġso ld
Ġh ung
sh ip
g g
c y
Ġbl ood
Ġsl ow
ud e
t e
Ġt ried
ĠM ar
Ġp al
itt ing
Ġposs ess
Ġl ed
H e
Ġv iew
ĠS e
t o
Ġpr ot
Ġs ir
Ġob ser
Ġfam ily
Ġgir ls
f or
Ġdist ance
ove red
Ġsp oke
ĠEng land
Ġear ly
Ġne cess
r ist
Ġt ou
Ġsw ord
Ġth ousand
Ġl eng
Ġfor t
Ġlo c
Ġg rew
c hes
i am
m y
Ġp h
ur d
Ġde v
med i
Ġapp eared
en n
Ġunderst and
Ġbec ome
IN G
Ġm ove
ang ed
Ġsudden ly
Ġst ep
ron t
Ġc amp
Ġf re
e k
Ġpro du
is ing
Ġlong er
Ġob tain
he ad
Ġb right
ĠInd ians
Ġ ir
Ġbre ak
S E
ĠA p
Ġc ase
Ġswe et
Ġleng th
Ġw in
Ġper form
Ġdou bt
ĠM y
Ġex cept
Ġc ross
ĠR ed
Ġqu iet
in ted
Ġt able
Ġbo at
ing ly
Ġbus iness
Ġsur pr
Ġt em
Ġposs ible
Ġd anger
w here
Ġcons ider
Ġm is
le y
Ġc a
Ġex c
un e
Ġlaw s
= ,
d e
Ġp ain
Ġc aught
Ġsay ing
ĠB l
L E
so ci
Ġb ir
ĠB y
Ġd om
Ġs it
us s
) .
Ġper haps
st er
Ġro se
Ġ ut
ĠA ND
itt en
Ġpie ce
Ġey e
us hed
Ġcon c
ĠD o
Ġ1 0
ĠRob in
th at
Ġm ist
Ġtr ave
o red
Ġm us
g es
ĠC ol
Ġhapp ened
Ġpur p
Ġth ick
ĠD r
Ġst at
Ġansw er
ac es
Ġag ree
ĠNor th
Ġch arge
Ġkn ight
Ġtw enty
t t
Ġj oy
ar a
Ġso l
Ġaf f
m e
z e
Ġen em
it ions
Ġd uring
em ark
Ġ1 7
ĠR o
Ġ1 2
Ġf ish
ĠN ot
Ġst one
Ġwant ed
Ġb ound
ĠCh rist
or ies
Ġpartic ular
Ġso ft
Ġp aid
Ġc ause
Ġcomm on
ar r
Ġm ot
ic ked
I C
Ġstr a
Ġquest ion
u ly
Ġw alked
o k
Ġthere fore
Ġpl an
I f
w hat
ow ers
Ġim medi
Ġbu ild
Ġt aking
Ġc orn
um b
Ġout side
ĠL ittle
Ġt reat
Ġm od
Ġan g
Ġsu cc
i ent
Ġas soci
Ġsub ject
Ġh unt
Ġpro ceed
Ġbe ar
Ġtoward s
Ġpap er
Ġf ront
ĠO ld
U T
Ġc re
Ġrem ain
, --
Ġl ady
ĠP er
Ġf ood
th ough
Ġob ject
ow d
Ġsh out
air s
u es
re nt
Ġl ater
Ġfur ther
ap ed
ur ch
Ġ1 9
Ġop ened
Ġwhe ther
Ġ1 5
Ġb reat
ĠL icense
Ġgo vern
c rib
are nt
Ġc al
ĠC an
? '
al es
Ġa ge
Ġfe e
ear s
Ġl aid
Ġman ner
Ġvis it
c o
Ġcontin ued
i ence
ic es
Ġdiff ic
ĠHe re
Ġs ort
ur y
Ġ est
Ġc e
Ġp ull
Ġit self
el s
W hy
Ġn one
ĠO f
s p
oo se
om p
ĠE l
Ġlau gh
Ġco ve
ĠAmeric an
u ct
Ġsc ar
ant ly
Ġimp ort
Ġwind ow
ous ly
Ġqu ar
al th
Ġcl ot
Ġpe ace
et y
Ġpl ain
ĠL e
u ght
Ġsa fe
Ġper fect
ward s
Ġfor g
Ġac cept
ĠBrit ish
ĠInd ian
N ow
Ġd et
A M
Ġen c
Ġdo ing
v al
Ġf av
Ġplac ed
Ġset t
c ul
Ġ ver
Ġs ad
Ġe le
m on
i pp
Ġd ied
Ġpro f
let e
ĠThe se
Ġde cl
Ġsucc ess
Ġne igh
r aid
as k
Ġg ard
Ġle g
Ġstra ight
Ġj our
Ġpret ty
Ġd rew
th s
Ġhour s
Ġhum an
Ġth ir
Ġab s
Ġpr ay
ren ce
in c
ĠG reat
Ġfore st
Ġspir it
Ġc ost
Ġl ord
ĠPh il
Ġbl ue
ist s
ĠS outh
Ġd am
Ġhapp y
Ġv i
Ġneigh b
ow ing
Ġcom pl
anc ed
Ġremem ber
g hed
Ġent ered
Ġeff ect
Ġstart ed
o x
Ġr ich
Ġarri ved
if ied
Ġgr ass
Ġt ail
Ġcomp ly
d y
i ver
Ġlet ter
Ġk ill
Ġvill age
Ġd eter
ĠP res
in ing
Ġsh ore
ĠS T
at ure
Ġ1 1
Ġm ine
oll y
Ġcon tain
Ġsomet imes
ut es
Ġsa ve
F oot
Ġp at
Ġl ine
ĠI N
Ġheav y
Ġide a
en ing
Ġsupp ort
Ġaf raid
Ġtrad emark
Ġcove red
Ġex per
Ġtrou ble
The re
Foot note
on t
Ġstre ng
Ġb ene
Ġbott om
ĠS w
Ġpurp ose
Ġpr act
ri ble
Ġcomp an
Ġinclud ing
ll ed
ro om
/ /
: //
Ġv al
Ġtr uth
Ġen g
Ġf ing
Ġm ain
u el
Ġsa il
Ġacc ount
Ġevery thing
in ary
a j
Ġdeter m
Ġd ie
Ġcom es
w h
is f
ound ed
T H
Ġ1 6
ĠCH AP
Ġh ot
Ġdr ink
Ġt ax
Ġl ab
Ġs ou
ĠCHAP TER
in ation
Ġb urn
Ġlau ghed
Ġquick ly
i um
b s
Ġf ail
Ġbe y
Ġperm ission
Ġd ream
ro y
Ġmount ains
Ġp ict
er r
Ġb ow
ree k
ĠĠĠĠĠĠĠĠĠĠĠĠĠĠĠĠ ĠĠĠĠĠĠĠĠĠĠĠĠĠĠĠĠ
Ġh us
Ġh tt
I ON
k in
Ġy ell
b and
Ġadd ed
Ġbro ken
Ġsto pped
claim ed
ious ly
Ġbey ond
it ation
Ġ -
Ġassoci ated
g ing
Ġl ie
Ġm ark
Ġb all
ist ed
H ow
at he
Ġse ven
Ġne ck
pl ay
ac hing
Ġe ight
Ġacc ord
Ġf ly
Ġr u
ĠG er
Ġb attle
Ġr ap
Ġar r
Ġdis p
Ġdis app
Ġis land
Ġres pect
ĠE ls
Ġ i
ren ch
y ou
Ġch ance
res h
ĠS ee
Ġf ig
EN T
Ġw it
Ġwh is
Ġprov ide
Ġstr uck
Ġpr ison
Ġa p
ĠF rom
pl oy
Ġsk y
Ġdel ight
Ġbes ide
Ġp ort
ke y
Ġslow ly
w ell
d d
Ġfor ce
Ġsh own
Ġcl ass
ac ter
Ġfri ght
Ġmid dle
Ġb and
Ġb ird
Ġdo g
Ġgr and
ĠĠĠĠĠĠĠĠ Ġ
Ġfeel ing
Ġ18 6
Ġsp r
am s
Ġr ul
Ġ1 3
Ġstand ing
y r
Ġpro b
ĠCh ar
l f
Ġch ange
Ġwr itten
it ude
Ġexp ress
Ġbo ard
a ff
Ġjour ney
Ġhis t
iv id
Ġf illed
Ġnew s
Ġsh arp
Ġl iving
. _
Ġdis play
Ġme re
re r
Ġun less
Ġan x
ĠEls ie
Ġatt empt
_ .
ĠD an
al ph
Ġe ag
Ġref und
Ġf ut
e es
st on
ĠB ill
Ġnat ur
ĠQ ue
C H
r act
ĠE d
all ey
o ved
Ġst ates
Ġf un
Ġth ird
n ight
i en
as hing
ar row
Ġem ploy
Ġ* **
Ġhus band
k ing
unt e
Ġwor th
Ġwr ong
ĠR alph
Ġbe ast
ĠD av
ab bit
d om
p ed
ĠC ar
led ge
R I
Ġstreng th
Ġl ate
ci ally
Ġent ire
i res
Ġany one
as ion
Ġthink ing
Ġcl im
n y
um e
Ġ1 4
ĠWh ile
c ip
Ġget ting
Ġr ain
Ġsp read
Ġseem s
Ġto r
Ġg un
Ġwar m
Ġn ation
Ġha ll
ĠE m
ent ed
Ġrun ning
Ġ2 0
ĠM an
Ġesc ape
ĠG re
E M
h ood
ĠN ed
ci ous
Ġj ud
Ġsp ring
Ġgener al
M y
ĠM ary
! '
Ġsupp ose
Ġde al
Ġo ught
Ġnat ure
id ence
gy pt
Ġex claimed
Ġspe c
ĠW ell
Ġex am
Ġmo ved
se m
ous es
ci ent
Ġsat isf
Ġo ri
Ġmount ain
id ge
Ġun c
Ġsec ret
b o
Ġd er
ĠE gypt
Ġb orn
Ġse arch
ĠA b
Ġdes p
Ġne ither
Ġvi ol
Ġdem and
w o
Ġa v
Ġd ry
Ġ ve
Ġeas y
Ġrap id
Ġ |
ac ed
ĠTh us
ce nd
ĠeBook s
Ġr ing
l ine
i ers
Ġn amed
Ġnecess ary
Ġplac es
Ġev il
ĠWh y
ĠAmeric a
Ġcir c
Ġfut ure
Ġshow ed
h a
Ġy es
Ġpal ace
O T
Ġmin utes
Ġbegin ning
ĠL et
A S
Ġsn ow
Ġdom ain
ug g
Ġm akes
Ġm aid
Ġfl oor
over n
ĠY OU
i ar
Ġj ump
Ġrep res
Ġrem ained
r or
Ġcop ies
i or
Ġf ol
Ġbel ong
Ġw id
uth or
Ġsee ing
Ġd iv
op e
Ġm ess
est ed
og n
Ġst ick
i ance
l er
Ġs itting
Ġscar ce
Ġlear n
Ġf at
Ġl oud
ĠA nt
ĠM ay
ĠE x
i pped
Ġp osition
Ġinst ead
Ġpri v
Ġfa ith
Ġcap t
Ġdest roy
est s
un k
h od
Ġdisc overed
or ge
ĠQue en
Ġst op
Ġh arm
ac her
Ġsh ad
Ġsh ot
Ġori gin
Ġcomp any
Ġv ict
Ġlear ned
ud d
bl ing
Ġbro ke
Ġeas ily
Ġag o
Ġd ress
ic ed
Ġcour t
Ġbo x
Ġbir ds
Ġw ise
Ġinc re
il ing
ĠCap tain
g utenberg
li ke
Ġrece ive
Ġint ell
ed er
as ure
ĠS ection
ĠP l
Ġdistribut ing
Ġarm y
Ġgard en
Ġal though
ĠY et
Ġdirect ion
e ks
ou red
as hed
w ise
ĠF rench
ĠF l
Ġbe at
Ġatt ention
Ġreg ard
Ġv es
ĠO r
ep t
Ġd ut
Ġple ase
Ġatt ack
Ġro b
Ġd in
ĠT O
Ġrem ark
Ġcr owd
Ġle gs
ort un
Ġapp l
Ġcom fort
Ġsu gg
Ġd read
ac ked
pe cially
Ġunt o
Ġgl ass
ĠD on
Ġsil ver
w e
Ġc uri
Ġhe ro
Ġgu ard
i k
Ġrequ ire
f ather
Ġl ives
u ro
Ġme ant
ang u
Ġs ick
ic s
Ġves sel
re l
Ġchar acter
Ġh at
Ġpur s
v ol
Ġs or
Ġbr own
m a
ch ing
C l
Ġim ag
Ġyour self
Ġvar ious
ĠS l
Ġcertain ly
Ġc atch
ĠG e
Ġgold en
Ġvol unte
Ġhead s
ĠO R
Ġpie ces
Ġf ro
j oy
om an
Ġ Z
Ġc at
am ent
ĠG overn
w ood
Ġspe ed
Ġbe ll
Ġmag ic
Ġs ister
ad ed
ĠA m
ate ver
A G
u an
Ġres ult
Ġho le
Ġpart s
Ġknow ledge
Ġwall s
a ft
Ġh ig
Ġgreat er
Ġre ach
Ġsp o
ru ct
Ġo bl
Ġus ing
Ġm iss
Ġf ix
Ġcap tain
Ġt all
Ġw is
i o
rie f
Ġind ivid
ĠWh o
ic ally
ust om
Ġclot hes
Ġrep ort
er v
Ġmo on
ĠIs land
Ġh id
Ġtre m
Ġwa it
Ġh un
Ġl ar
ir t
Ġc oun
A D
e ch
ĠO h
bl es
j o
Ġappear ance
a very
u nder
Ġbreat h
O O
Ġwa iting
u ge
Ġdep art
Ġgentle man
Ġafter n
z z
Ġle aves
Ġro y
Ġbu ilt
Ġcomp lete
Ġwr iting
Ġinform ation
Ġtry ing
Ġenem y
ener al
ĠN e
Ġrec ogn
Ġwood s
Ġsou l
Ġocc ur
Ġdr ag
y n
ck et
c ome
is m
Ġship s
Th is
n ow
ĠW est
Ġsp ot
an ks
ol f
hy s
ound s
Ġsome what
Ġter rible
Ġimmedi ately
ĠP e
av en
Ġl atter
Ġme at
Ġprin cip
Ġes pecially
Ġsing le
Ġin side
Ġocc asion
ay s
Ġth rew
ĠS am
Ġsa nd
Ġsl ight
Ġsil ence
Ġstud y
Ġp ath
Ġra ised
g an
Ġadd ition
Ġb ag
Ġear s
Ġconc er
AN T
Ġir on
ĠDav id
Ġse lf
Ġex act
Ġstre am
Ġw ished
Ġnot e
are r
Ġed ge
Ġs ong
ru pt
Ġs ides
Ġbrother s
us ion
ĠL I
E L
Ġexp ect
ist ribut
is es
Ġg all
Ġnor th
Ġdistribut ion
Ġcon n
Ġaftern oon
Ġown er
Ġle aving
Ġgr ave
Ġserv ice
ĠM other
Ġagre ed
Ġcould n
Ġnot ice
at or
Ġsh ut
b ered
e al
st r
Ġf ool
is ion
Ġm ad
Ġwe ek
Ġoff ice
Ġan n
Ġb ank
Ġext re
l ight
Ġpre vent
Ġlo ved
ri f
Ġbr ave
re ct
Ġf resh
att ered
Ġl ower
Ġch urch
Ġut ter
m p
Ġent er
Ġg ate
Ġro de
Ġg ame
Ġmet hod
Ġimport ant
p gl
Ġh ouses
pgl af
_ _
Ġt ears
Ġf if
h ow
Ġn arrow
Ġmin ute
m orrow
i od
Ġeff ort
Ġyell ow
il s
ĠPr ince
Ġdec ided
Ġen joy
Ġtr ust
Ġyou th
P ro
Ġway s
T hen
ri pt
ĠF ig
ĠR oss
ĠP ar
Ġres ol
in ct
ĠC r
Ġinf l
Ġp un
ĠE very
Ġbl ow
Ġanim als
ri l
Ġgo es
Ġtr ain
ĠD or
Ġsp ace
Ġk iss
pp ing
uro pe
ĠR E
Ġprob ably
The y
Ġbro ad
ĠA N
Ġopp ortun
ĠW here
Ġsure ly
ed s
Ġgu ess
Ġeag er
Ġm ach
ĠH ar
ĠP RO
Ġp en
ĠPres ident
ant ed
ott en
vel op
Ġhill s
Ġh ang
in a
ĠD ick
D o
al ity
Ġac qu
ĠG eneral
Ġmed ium
Ġwin ter
Ġfin ished
Ġpleas ure
a pped
Ġp hys
Ġs ize
s c
Ġon es
Ġfle w
. _,
I n
ĠWill iam
ri ll
Ġdin ner
Ġco ver
f ast
ĠE urope
Ġb read
Ġwould n
Ġpre v
athe red
p ar
Ġst ar
Ġde g
Ġcl aim
Ġhist ory
Ġal t
Ġang ry
Ġindivid ual
Ġst ro
. )
Ġb ab
Ġg iant
Ġper iod
Ġm il
Ġhard ly
Ġcast le
Ġdiffic ult
Ġopp os
f ace
Ġa uthor
Ġt ro
Ġs ense
Ġp it
ri age
Ġeff orts
Ġocc up
Ġtw el
Ġin qu
ol es
Ġple ased
Ġs outh
Ġs ens
Ġform ed
Ġstr ugg
Ġproceed ed
Ġn ice
Ġfree ly
Ġv alley
Ġus ual
Ġthir ty
d on
Ġpass ing
m ing
our s
Ġconsider able
Ġl ot
Ġsu per
Ġturn ing
Ġgiv ing
ĠQ u
w ith
Ġdes crib
Ġprov ided
Ġsor ry
s y
Ġmar ked
ve re
Ġobser ved
Ġprep ared
Ġfor get
Ġch air
a ul
Ġfl owers
c her
Ġan t
iv il
ĠRo bert
Ġbene ath
Ġf ier
Ġsu c
Ġ3 0
Ġar row
Ġmus ic
Ġw and
Ġed uc
Ġch anged
le ep
Ġrock s
ĠA g
L A
c he
Ġim m
ur s
Ġrep e
ĠJ ose
Ġass ist
Ġdes ire
Ġsl ave
le ase
Ġwe ak
Ġm ill
ĠF ox
Ġg az
Ġqu e
Ġis n
st em
Ġcon ce
Ġwonder ful
Ġbook s
ond on
.. .
Ġpres ently
form ation
ess or
ĠBr own
Ġind ic
Ġanim al
ĠThe ir
se ll
Ġst orm
ww w
Ġp op
ive ly
Ġnatur al
Ġto w
I G
Ġh ar
ell ed
Ġmight y
ill e
Ġop in
er c
ail s
Ġf ru
as es
Ġm ass
o om
Ġde fect
Ġl if
Ġwh atever
ĠH en
Ġsurpr ise
Ġsum mer
ĠJose ph
N ot
Ġm ention
Ġord ered
Ġs orrow
Ġu pper
Ġacc omp
Ġli ps
Ġd en
Ġu nd
Ġl od
Ġact ion
ĠB rer
Ġno ise
ers on
ĠPr in
h ab
ĠU p
im ent
Ġcond uct
Ġb le
Ġdeterm ined
Ġc ott
Ġknow s
Ġpost ed
Ġth in
out her
Ġgovern ment
Ġoff ered
Ġpass age
ĠJ im
Ġafter wards
Ġ" '
Ġad vent
Ġfor mer
ol n
Ġbl ess
Ġl ying
end ing
Ġne g
Ġwat ched
Ġsuc ceed
Ġin n
angu age
ru ction
Ġdark ness
Ġsh ook
ĠCh ief
Ġkeep ing
ĠF OR
Ġdo ll
Ġcoll ection
Ġall owed
Ġaf fect
Ġvolunte ers
Ġc ab
ĠL ondon
Ġtr uly
L et
Ġshould er
inc oln
Ġh ost
I V
ĠY ork
ĠSm all
es h
n a
k n
a it
ĠJ es
ĠUn cle
Ġimp oss
Ġgener ally
B ER
op s
ĠB en
Ġdisc over
Ġwr ote
Ġg athered
C ome
ĠW ar
ĠR abbit
ol og
Ġwr ite
Ġcur rent
I ES
s pect
Ġst ories
Ġco ast
Ġw ond
Ġc ow
ct or
outher n
Ġmon ths
ĠL incoln
Ġtalk ing
Ġtou ch
Ġst ones
Ġt ired
Ġl a
Ġ2 1
Ġsy stem
Ġread ing
Ġdistribut e
Ġprom ised
I R
Ġproper ty
ĠM any
ĠR ich
Ġstre t
Ġpict ure
Ġfall en
ĠGr and
Ġbur st
Ġa id
Ġthought s
ĠP olly
Ġsil ent
Ġexp ected
ĠM ike
Ġ ice
Ġsur face
Ġprot ect
= =
Ġr id
aw s
Ġdecl ared
Ġl ines
iet y
C E
et t
Ġ2 2
Ġp arent
Ġ2 5
Ġf urn
Ġm ission
ac y
Ġgreat ly
Ġstr anger
n est
is k
g ar
Ġsold iers
ĠAp on
Ġs ons
Ġhur t
ĠPrin cess
ide red
Ġobl ig
Ġs ac
it es
Ġch ap
ick s
in y
Ġspe ech
Ġfam il
Ġscarce ly
I D
Ġ .
ES S
h ip
ll ing
qu ently
ĠR us
Ġno se
Ġart ic
E CT
an ch
Ġall ow
Ġde velop
Ġun cle
m n
ĠJ ust
Ġm urd
ĠJ e
Ġ2 3
Ġph r
Ġcorn er
e rence
Ġr ace
Ġbo ld
Ġsm ile
Pro ject
Ġin vent
ill a
p ered
th ur
Ġfir m
Ġfe ast
Ġpo inted
Ġh ide
ou is
ĠFr ance
Ġ2 4
Ġbeaut y
Ġpleas ant
Ġr ise
ĠB ob
Ġtwel ve
Ġinst ant
D on
Ġwe ap
Ġstep s
Ġor gan
om es
ew is
Ġshout ed
Ġstre et
at ic
at ur
ag ue
Ġcreat ure
Ġsim ple
Ġpull ed
b ing
ann y
Ġdro pped
Ġsk in
Ġcle an
Ġimposs ible
pl es
ĠTH IS
Ġmag n
en ess
Ġt ale
Ġt one
ĠT wo
Ġcon v
Ġcont act
Ġcl osed
Ġsl aves
z en
Ġth ro
Ġw est
ink s
re st
ĠS ide
ĠJ uan
Ġro of
Ġgr ou
c ript
Ġsa v
Ġentire ly
am b
Ġl uck
ic y
it al
ur g
Ġr ub
i as
Ġse par
Ġdraw n
Ġf it
ad es
Ġno ble
Ġqu een
Ġfig ure
Ġe vent
Ġdut y
it able
Ġg ro
Ġr ough
Ġqu oth
Ġ5 0
d ing
Ġt ur
Ġst ir
ation al
ĠPro f
IT Y
al ed
Ġfol k
ĠGe orge
ĠF ather
Ġ180 5
in et
Ġplay ed
Ġprin cess
aw n
Ġsw ift
Ġp ress
Ġwar ri
Ġsuff ic
Ġfre ed
Ġc and
.... ....
ĠAr thur
Ġcare fully
Ġbit ter
e b
Ġb od
Ġpro cess
anc y
Ġent r
Ġfing ers
il ar
Ġc up
Ġal ive
Ġhtt ps
h ouse
Ġco at
ons ie
Ġrepres ent
Ġfif ty
Ġ --
ĠM e
g o
Ġ( _
Ġc ook
Ġsee k
Ġche ck
Ġde er
Ġpr ince
Ġfav or
Ġt rib
Ġh ath
Ġpap a
Ġres p
ĠC o
Ġgo ds
ĠW AR
Ġcol or
m ber
ĠM c
Ġte a
Ġmer ry
ad s
Ġst ore
Ġopin ion
ĠJes us
ĠH ouse
Ġrem oved
Ġwa ited
Ġoffic ial
Ġcirc um
Ġn on
Ġanx ious
' ,
ro g
Ġprom ise
Ġheav en
Ġrep ly
r id
w ork
am ber
um ent
ll y
Ġm ater
O L
l o
Ġdistribut ed
Ġwas n
ĠB E
Ġphr ase
p ly
ĠRus sell
1 2
l in
Ġd at
Ġas leep
ĠBl ack
Ġd a
Ġp ale
ĠF ar
Ġca used
Ġt akes
ex ic
W ho
Ġmar ried
Ġem pt
Ġu r
Ġte acher
Ġadd ress
O W
Ġdirect ly
Ġinfl u
Ġt ong
ent h
Ġter m
Ġpriv ate
se t
Ġw ire
ashing ton
Ġin hab
Ġshould ers
Ġe ld
ep ing
ĠAl ice
ĠCon t
Ġd ressed
Ġwe ar
ir st
ĠM in
Ġgreat est
ĠK ath
Ġy ards
Ġgr own
Ġpr oud
Ġhold ing
ĠM exic
if y
ĠE ven
Ġt ast
le en
Ġsur r
Ġrel ig
Ġfin ally
---- ----
ri ff
Ġ2 6
r s
Ġsp ent
Ġs al
Ġjo ined
Ġv ain
el t
Ġpo cket
ĠGovern ment
Ġo w
Ġle an
Ġcom b
Ġche er
00 0
s m
Ġfe ather
Ġoff er
h old
ab ility
av ed
ĠWh ite
Ġc ou
Ġinform ed
u ation
Ġth reat
ĠW ashington
Ġse at
anc ing
os es
end s
Ġbuild ing
Ġlike ly
o inted
Ġh orn
Ġtr ade
Ġloo se
Ġbelie ved
qu e
as p
is ters
Ġv ast
ci ety
Ġs ite
Ġpers ons
Ġloc ated
Ġappear s
c il
Ġa ston
er ve
Ġserv ants
Ġb ull
ar ked
ro du
ĠKath leen
Ġm ile
et her
Ġsp ite
Ġfright ened
Ġopportun ity
Ġ id
Ġn ames
h am
Ġm or
Ġtr ail
Ġperfect ly
U S
v an
Ġw ings
Ġbreak fast
G ood
Ġwe l
Ġremem bered
Ġsurpr ised
Cl ark
Ġhon our
Ġpossess ion
a ked
Ġgrow ing
Ġap art
Ġfo nd
Ġrequ ired
Ġwor se
Ġhe n
Ġprov iding
Ġexact ly
t ered
Ġt y
k es
Ġcont ro
Ġsh oot
Ġopen ing
ĠCom m
Ġb id
Ġroy al
Ġlab or
ĠOn ce
o int
ĠSp an
ĠProf essor
Ġd im
Ġse ized
ot ion
ro se
Ġst out
Ġbl ind
Ġwor ked
Ġfl ed
1 8
it ive
Ġcon vers
ĠE n
it ical
i xt
ĠG l
ag on
Ġest ab
A B
Ġthan k
oth y
ĠS et
Ġpri est
ĠS ever
ish ment
ĠCol umb
S he
Ġso le
is ions
Ġcr uel
ib ly
A h
Ġf ought
ĠN OT
Ġg ar
ĠĠĠĠĠĠĠĠĠĠĠĠĠĠĠĠ ĠĠĠĠĠĠĠĠĠĠĠĠĠĠĠĠĠĠĠĠĠĠĠĠ
Ġexpl an
ro p
amp ed
J ECT
f er
er ous
Ġsc r
Ġdist ant
ch ief
Ġrequire ments
d er
Ġbu ff
Ġwalk ing
Ġru le
ot ed
Ġex ist
Ġlook s
ĠM ount
os ing
Ġhe ight
Ġr ide
Ġspe aking
U R
Ġe t
Ġaccept ed
ĠH ood
ĠJ er
Ġbu y
Ġcarry ing
kn own
BER G
Ġh uge
Ġsec ure
Ġhunt ing
S o
ul ty
Ġmeet ing
IL L
c om
r ict
Ġpres ence
ash ion
j ust
et ch
le x
ĠC ount
Ġl ake
ce ll
Ġf aces
Ġmer ch
ip e
Ġte nder
Ġhold er
Ġoffic ers
Ġmere ly
UT EN
Ġhig her
Ġwatch ing
Ġstat us
Ġcompan ions
Ġb are
ĠSever al
A ll
W here
Ġlar ger
O M
Ġh y
Ġfl esh
Ġknow ing
Ġwat ers
Ġfight ing
Ġ err
Ġat e
Ġsh ape
Ġcomp ut
ĠG UTEN
Ġact ive
Ġbre ast
Ġparticular ly
Ġlaugh ing
ĠGUTEN BERG
Ġan cient
Ġdisplay ing
ĠHen ry
ter day
Ġv ent
ĠX X
Ġexpress ion
c on
o is
U L
Ġ er
Ġcons idered
Ġtou ched
oy al
ro o
ĠS chool
Ġmem ory
R ANT
Ġquest ions
Ġr ushed
ĠE ast
Ġte eth
ock s
Ġoppos ite
u it
ĠA S
Ġtell ing
Ġcour age
Ġcond ition
Ġsh are
Ġfe es
Ġcent ury
Ġconcer ning
AT ION
I s
Ġtem ple
1 5
Ġhe alth
Ġoblig ed
em ber
Ġcon se
ĠJ ames
Ġmatter s
Ġfru it
Ġb ent
Ġed itions
Ġmot ion
Ġwhis pered
ĠPRO JECT
Ġ vers
le nd
Ġsy mp
p or
u blic
as ing
us hing
Ġhapp en
Ġour selves
Ġparent s
ĠAN Y
Ġl anguage
Ġdis claim
oc ked
Ġt ight
Ġf ill
Ġha bit
ĠB ar
Ġsc ene
Ġord inary
Ġcopy ing
Ġg ather
Ġfier ce
he st
Ġw ore
Ġp ot
ĠM er
Ġlet ters
Ġappl ic
Ġ ident
Ġw et
Ġre jo
ac ement
Ġsm o
Ġlist en
Ġcompl iance
Ġm ut
Ġfor ced
Ġdis m
Ġnat ive
Ġ2 7
Ġdraw ing
Ġfreed om
Ġsu sp
Ġkn ife
Ġfor ty
ab les
ĠHow ever
ĠR ep
Ġc rew
Ġfl at
cl ock
ĠTr av
Ġshad ow
g ress
i vers
Ġwe eks
ĠW in
Ġ2 8
Ġrec ord
s es
Ġf art
Ġc ustom
Ġd ust
ĠJ uly
Ġthr own
Ġord ers
Ġprodu ced
ĠWAR RANT
ish ing
ĠTh om
ĠC reek
Ġacc om
Ġmar ry
Ġmach ine
Ġrul es
ĠS uch
Ġwe ather
ar i
Ġp ick
ĠIt s
gr ound
Ġf aint
Ġas h
Ġnum bers
Ġcal m
w en
Ġsp lend
Ġper ce
Ġsm iled
ĠV an
Ġhung ry
Ġquar ter
ĠGre en
a i
Ġwe ight
ĠIn formation
anc hes
Ġserv ant
ur m
p re
ĠS omet
Ġfl o
1 6
ific ation
Ġfix ed
ĠDor othy
ĠC ome
Ġv an
ĠR iver
Ġn ine
Ġpro ved
Ġsupp osed
Ġenem ies
Ġcircum st
Ġli ber
ĠCap t
Ġquiet ly
Ġa head
Ġsim ply
Ġob ey
Ġon line
ĠV ol
act ion
Ġjo in
Ġke y
Ġnat ives
Ġinterest ing
Ġfield s
Ġform at
Ġp age
Ġwork ing
Ġking dom
Ġt aught
Ġplay ing
Ġm atch
ĠSm ith
Ġch o
ĠR uth
Ġfall ing
: --
Ġheart s
Ġmo ving
Ġc ivil
Ġsim ilar
Ġa rose
Ġp ig
per or
Ġprep are
Ġear nest
Ġs ought
ĠB ab
ĠJ an
Ġhon or
Ġrepe ated
p et
Ġp air
Ġnot iced
Ġextre me
Ġd are
Ġesc aped
Ġ180 6
Ġyes terday
Ġentr ance
Ġcomm un
Ġw icked
Ġc ave
Ġem b
Ġdri ven
n ers
Ġland s
Ġcont r
Ġf ac
IS T
un ch
Ġspe cial
Ġequ ip
S t
Ġhur ried
ĠS u
Ġadv ant
Ġunderst ood
Ġforg otten
Ġphys ical
Ġsa ved
Ġr ising
ter ing
ĠL and
Ġlove ly
Ġdiffic ulty
Ġexper ience
Ġl oss
or ough
ad a
ut s
ĠM ag
Ġre n
Ġref used
Ġspo ken
Ġd well
Ġmon th
Ġext ra
ĠBe fore
Ġbod ies
Ġclear ly
Ġkn ees
ĠJ une
Ġprincip al
Ġcr own
Ġdes cend
R A
i ently
ther n
Ġspr ang
ĠC ON
Ġthrough out
en cy
Ġbu ried
l ook
Ġp ure
he l
Ġlist ened
Ġempt y
Ġinc hes
Ġhur ry
ĠGrand father
ĠT it
ĠSh ann
Ġlead ing
Ġinclud ed
Ġhtt p
Ġbuff al
Ġd iam
ĠL y
ĠA ug
Ġgrou p
Ġcon qu
Ġfing er
t le
ad d
ĠE ar
Ġcent er
m ore
Ġw ine
Ġre ve
Ġbr anches
Ġcl oud
Ġimmedi ate
Ġexplan ation
f le
Ġde li
Ġcompan ion
Ġ18 5
Ġsent ence
Ġbus hes
ĠS pe
Ġb ore
ick et
Ġmem bers
Ġd ate
Ġwe alth
ĠM aster
f ord
Ġd ar
Ġg ift
ĠU nder
Ġend s
Ġbes ides
or se
st it
ĠO ur
or ld
Ġli ked
a el
Ġis s
Ġv oy
Ġrem arked
Ġo per
Ġsqu are
Ġaddition al
Ġimp ro
Ġfor ms
Ġb ark
u ous
ĠS k
Ġcl oth
lect ed
i pt
Ġsett le
Ġcuri ous
Ġas ide
Ġint ended
Ġdescrib ed
g ard
m it
it ary
Ġse vent
ĠF air
Ġex erc
f l
Ġw ounded
ĠT ar
Ġwe b
Ġspir its
Ġtong ue
b re
Ġl ose
og ether
Ġcol on
Ġw ed
Ġb ade
Ġdel ic
Ġh it
Ġfart her
Ġdo gs
Ġch oose
Ġdoes n
w as
Ġp icked
ĠS er
Ġsa f
ĠTh or
Ġsle pt
app y
ĠChrist ian
Ġequip ment
Ġc red
Ġhe at
H ere
o h
ĠP al
Ġequ al
Ġeng aged
Ġimp ress
Ġthr ow
Ġsm oke
_ )
Ġ $
ill y
Ġus ually
Ġmon key
Ġoffic er
id ently
Ġst ars
ant ic
Ġ2 9
Ġmet al
Ġe ast
ĠS und
Ġput ting
M IT
os p
Ġfind ing
Ġpossess ed
Ġmot or
Ġdread ful
n es
ig g
Ġexpl ained
Ġgr ay
ĠInd ia
p es
Ġf er
Ġre vol
Ġm ir
Ġin j
ĠL ady
Ġsc attered
Ġgiv es
ĠD own
ra el
Ġdri ve
at ched
Ġp ill
ay ed
ĠS un
Ġi i
Ġlif ted
ing u
ĠC ong
Ġneed ed
ĠPeter kin
Ġintell ect
Ġhid den
Ġbab y
Ġpl ant
Ġun s
Ġch amber
ield s
Ġany where
ĠS outhern
ci ence
Ġdro ve
Ġaccord ing
Ġsa ke
Ġpur ch
Ġcal cul
Ġfav our
Ġsett led
Ġhun ters
b id
ce an
ell e
Ġdes ired
Ġn est
Ġfl ight
Ġhear ing
er ted
ri et
ep end
ĠSt ill
Ġex cell
ren ces
ail ed
ĠĠĠĠĠĠĠĠ ĠĠĠ
Ġhands ome
Ġorigin al
Ġp ack
Ġexp ed
bo ard
Ġt alked
ĠM aj
um ed
ang ers
Ġtrave l
g u
Ġf ift
ar ily
Ġsp l
is c
Ġkind ly
d o
en ces
Ġinhab it
am m
Ġne arer
Ġ* *
Ġp or
Ġpl enty
ĠSt ate
ĠT e
all ed
Ġsymp ath
ĠM ad
Ġgo d
Ġtreat ed
Ġa ut
Ġun f
o le
ĠWe b
ĠOn ly
Ġfam ous
a e
Ġb ase
ou ds
ĠT ur
Ġsw im
Ġsmo oth
ĠS ept
Ġnum erous
Ġho llow
cript ion
ĠCon f
Ġet c
Ġ ?
Ġste am
Ġbus y
Ġprin ted
Ġperm itted
ĠPhil ip
Ġjump ed
Ġwill ing
Ġstre ets
Ġcreat ures
ĠEl k
Ġde fe
Ġser ve
Ġw aves
Ġf ashion
Ġknight s
Ġintell ig
Ġinflu ence
y l
Ġ ign
ro ad
ĠA G
ĠSo on
Ġmist ress
ĠGer man
Ġrapid ly
m as
Ġp et
ĠC ity
Ġav o
b ly
Ġha ven
um ph
Ġneighb or
Ġshe ep
Ġreg ular
ĠAg ain
ol ute
Ġfo x
Ġfull y
Ġcreat ed
r it
ĠG o
Ġtw ice
amp le
Ġcry ing
Ġsol ic
est y
Ġinst ruct
ĠIs rael
ĠAp ril
Ġfail ed
ir gin
Ġr ag
Ġgre y
Ġlad ies
ĠAug ust
re y
Ġappro ach
Ġa x
Ġb ill
Ġg rief
ut ed
Ġle ap
Ġter ror
AR T
Ġdisapp eared
ĠS ara
ĠF red
ĠPer haps
Ġsugg est
c ked
ĠM ed
Ġdist ur
r al
Ġhe s
Ġme l
Ġext ent
c hen
h ost
Ġg as
Ġfar m
ĠCong ress
Ġt um
ve y
ĠĠĠĠĠĠĠĠ ĠĠĠĠĠĠ
Ġcare ful
Ġobtain ed
Ġapp arent
II I
Ġc ool
Ġd ue
le g
ĠR uss
Ġres ist
m und
Ġre sem
Ġqu ant
Ġpo et
Ġdes ign
Ġatt end
Ġp a
Ġas sem
ĠShe riff
Ġrequ est
Ġt est
Ġste pped
Ġshe l
ak er
Ġt ales
ĠY es
Ġwood en
Ġhelp ed
eder al
Ġt ied
ĠG u
Ġevery body
Ġperform ing
y e
Ġre b
Ġpl ate
Ġatt ract
Ġth under
ip s
Ġwind ows
oc r
h ib
Ġs in
Ġpower ful
oun ced
ĠTh ose
Ġl one
Ġ2 00
Ġwit ness
o ly
Ġser ious
ĠT er
ĠC amp
ĠJ ew
Ġmaid en
st and
ĠO ct
Ġpro ble
iz ard
4 1
Ġfly ing
Ġaccom pl
ĠL ewis
ĠJ ac
Ġf al
ĠH igh
Ġsupp er
Ġprov isions
ĠSc ot
ĠSund ay
T o
Ġm urm
Ġp in
Ġle vel
wh ile
y er
at ives
ar ies
Ġme al
el ess
Ġfeather s
Ġbe nd
Ġwhen ever
Ġce ased
Ġbeast s
RE E
ĠAd ams
ĠL uc
ĠE X
Ġcir cle
Ġsucceed ed
ĠB o
Ġfriend ly
v ille
Ġsl ain
a ly
Ġg en
ĠTh ree
Ġfore ign
Ġfa ult
Ġn aught
ĠS im
Ġlead er
er able
Ġth orough
ĠS ig
ge l
art ed
ĠMiss ou
Ġdanger ous
Ġconvers ation
as c
ĠE r
Ġfellow s
Ġfort une
Ġfre quently
Ġvessel s
Ġw olf
Ġsh oes
eng er
Ġ180 4
Ġsaf ety
Ġro pe
Ġb ask
se e
Ġme asure
are st
ere r
Ġland ed
Ġc ous
Ġan ger
Ġfl ag
Ġf ate
Ġpoint s
Ġassist ance
Ġcall ing
Ġsoon er
Ġcreat ing
Ġmess age
it ch
Ġh ither
Ġre ward
Ġr out
um n
Ġfall s
sm ith
Ġf ile
es tern
Ġresol ved
k er
Ġmention ed
U N
Ġt ask
ĠG ood
ack s
Ġro lled
Ġadv anced
Ġmid st
Ġdro p
Ġadm ir
cul iar
Ġmove ment
Ġb an
ĠN ature
ort ed
Ġmean ing
ĠBrit ain
1 0
ĠCh urch
v iew
Ġp p
us es
Ġreport ed
ĠM el
ĠD am
res p
O S
Ġsh ame
Ġdo ors
ĠO z
Ġexpl ain
Ġfast ened
Ġstrugg le
m aster
on ed
Ġfeel ings
Ġadv ice
Ġsit uation
Ġm ort
ĠS qu
Ġgr ad
Ġprev ious
Ġse ated
Ġyour s
Ġpe culiar
Ġhop ed
r ant
Ġcommand ed
Ġcl iff
OO K
ar med
Ġg le
ĠI I
Ġsu it
c ing
am a
ĠJim my
Ġdoll ars
Ġconst ant
Ġl icense
Ġsa iled
og raph
Ġser ved
Ġtem per
Ġp owers
Ġthr ust
and er
Ġdemand ed
Ġwel come
E T
Ġs ang
ad ing
Ġafter ward
Ġatt ached
Ġsur v
Ġsh ining
i us
Ġl inks
ĠM on
Ġex ec
Ġke en
Ġcross ed
Ġver ry
ĠS ec
Ġst ation
Ġint rodu
Ġun h
Ġam az
Ġelect ric
Ġstri ke
Ġsugg ested
Ġsplend id
G o
i als
m es
Ġd ance
ĠM arch
ĠR om
Ġun w
Ġc ord
ing ing
ĠJ ane
Ġbr ide
Ġsuff er
Ġt ent
Ġam id
Ġadvant age
on a
ĠN ever
ĠTh ough
Ġam ount
Ġconf ir
ĠRich ard
Ġcl ouds
Ġdisc uss
Ġaccomp an
Ġst ern
iz ation
Ġche st
C II
ĠD AM
in ite
it ement
Ġwh ist
ĠD em
Ġdefect ive
Ġfamil iar
Ġc ell
m other
ĠD es
Ġpr a
Ġinc ident
Ġpay ing
ive red
Ġear li
Ġcount ries
ĠLI MIT
Ġapplic able
. =
e rences
Ġar g
Ġbo ats
Ġold er
Ġpresent ed
A l
Ġm ud
Ġn av
Ġsh op
Ġar med
Ġgu ide
Ġburn ing
Ġalt ogether
an ic
ĠC he
ent al
Ġpro of
Ġpre c
Ġgl oom
Ġcol our
Ġp ity
ĠM en
IL ITY
if orm
em s
Ġpl ains
Ġapp re
Ġparagraph s
Ġbir th
Ġabs olute
Ġder iv
Ġun l
Ġsk ill
Ġstat ement
ĠChrist mas
ĠLIMIT ED
W hen
ĠG ree
Ġno body
Ġpro gress
Ġlim itation
ĠArch ie
l ot
ad el
un n
Ġgr ace
Ġsl ay
Ġsound s
Ġfift een
Ġro ots
Ġbr ain
Ġin cl
Ġr age
Ġval ue
Ġdesp air
_ [
Ġd w
ĠH all
ĠD E
ĠV irgin
Ġste ad
Ġless on
ĠSe a
ĠDAM AG
ĠW orld
ict ion
eng ers
Ġs isters
Ġb ones
ĠG wen
ist r
ĠO ut
fort un
Ġsuffic ient
Ġb rief
Ġc ities
ĠF irst
Ġbl ank
ĠJack son
Ġble w
onsie ur
ĠT err
Ġun known
Ġcircumst ances
Ġfe ed
Ġbeg un
Ġwant s
Ġinst antly
a ver
ĠM ich
Ġbl ock
; --
h and
er ved
Ġsing ing
Ġsend ing
Ġclim bed
Ġexcell ent
od e
hen s
Ġrepl acement
Ġpay ments
Ġexc itement
e ge
v ation
os en
Ġeduc ation
n et
Ġe ating
Ġwe ary
Ġno dd
Ġen er
Ġdon ate
Ġmil k
Ġc aut
Ġli es
Ġcont ent
Ġuse ful
Ġprodu ce
Ġarrow s
op y
Ġcomply ing
Ġcred it
ĠC at
Ġr ate
Ġle aped
so ever
2 2
Ġse vere
ĠC le
Ġwhe el
us ing
Ġv ig
Ġent ity
Ġred istribut
ĠM id
Ġind ust
Ġw ound
Ġshe ll
Ġfe ared
Ġgener ations
Ġclose ly
Ġforg ot
Ġb ased
Ġc it
Ġn ations
ĠS and
Ġme ad
Ġus er
cl usion
Ġpre cious
Ġprom in
Ġh al
ĠSw ift
Ġarr ange
H T
ĠE ach
ĠCom p
1 3
Ġto m
Ġre aching
Ġmater ial
ĠAS CII
Ġde ck
Ġdo zen
Ġbeg ged
ĠAb out
Ġartic les
Ġderiv ative
Ġg ain
Ġr ail
Ġconse qu
f all
ĠY our
Ġappro ached
ĠChar les
m ond
ĠD id
ĠCh ild
ĠM ore
Ġpro ve
Ġdes per
re g
Ġme as
Ġmar riage
Ġvis ited
Ġhon est
Ġintellect ual
v ah
re amed
Ġst ock
ĠC oll
Ġso ciety
ust ed
ĠL a
ĠAn y
Ġsatisf ied
e enth
Ġprep ar
ĠLy ons
t r
Ġpop ular
Ġstret ched
it chen
Ġinst r
ho vah
Ġo dd
ĠN E
Ġgr ate
Ġvict ory
C K
g gs
Ġl ack
Ġremain ing
Ġtow er
Ġtre asure
Ġrel ations
Ġs our
or ious
Ġcon cept
pl ace
Ġsoft ly
Ġb ought
ĠL ong
ĠAnd re
Ġacc ident
Ġcol ored
i est
Ġcom mer
Ġwarri ors
Ġtast e
ĠMissou ri
I M
Ġp ushed
ĠH aving
Ġlim ited
Ġwond ered
Ġd ig
ĠB ear
Ġcl o
Ġdist inct
ĠHer bert
Ġl amp
ĠS il
Ġse ason
Ġother wise
Ġcott on
ĠW H
Ġjust ice
Ġaff ord
Ġpict ures
Ġfl ower
Ġexp ens
Ġvo ices
ay en
Ġde em
A re
u le
Ġbr anch
Ġstay ed
he t
Ġp ine
ac hes
Ġun iform
Ġlo ck
Ġyoung er
Ġho ly
Ġt ub
Ġp ipe
ac le
iz ing
Ġres c
Ġadv ance
Ġjud ge
ul f
ol s
Ġun able
u f
om ing
ang ing
Ġtri umph
Ġg ently
ess ion
ĠSe ward
Ġthro at
ĠThom as
Ġh oles
ĠR oyal
the less
Ġhapp iness
Ġarri val
Ġc art
Ġsp ear
enn y
Ġneighb our
Ġincre ased
ish op
Ġburn ed
Ġworth y
Ġcomplete ly
ad dy
Ġsl ipped
Ġhundred s
Ġmain tain
Ġremark able
Ġque er
Ġc ro
Ġst ared
ĠB es
Ġch osen
ĠJo e
Ġev idence
ĠRom ans
Ġp ressed
ĠS aid
ĠR oman
Ġex ample
.= --
al ks
Ġfle et
look ing
ĠD ane
Ġvoy age
Ġend ed
Ġfo ld
; "
m aid
Ġn et
Ġwor st
Ġ9 0
ĠI ND
Ġre tain
Ġpap ers
Ġse ll
ĠC our
ĠF in
Ġev idently
Ġleg al
Ġregard ed
Ġkiss ed
t ter
om en
Ġg ained
ain ted
s he
Ġp il
ver t
ĠSt r
Ġexc ited
ĠJe hovah
O f
it ated
id s
Ġeat en
Ġadvent ure
Ġsole mn
L ook
Ġb as
Ġport ion
Ġgun s
roo ge
k y
t ree
ĠH ad
Ġav ail
Ġinhabit ants
Ġcon clud
Ġsuff ered
Ġcor rect
Ġfool ish
f ive
o ber
Ġv irt
cl es
Ġmount ed
Ġ" _
Ġst uff
Ġdo ctor
ĠDam on
b its
Ġf ired
Ġcap ital
z an
re es
ul ation
Ġunder t
ER S
nd s
Ġd ull
Ġbring ing
Ġm aj
Ġbe aring
ĠM aid
Ġsm iling
ĠSc rooge
Ġtreat ment
Ġlod ge
A CH
ĠR em
ist ered
itt ee
Ġbr idge
ib ility
d r
Ġr ow
ig hed
u ary
ĠW as
Ġk itchen
Ġneed s
n o
as ant
Ġst aff
am ing
ĠL ake
Ġsupp ly
Ġcontro l
wh ich
Ġsac rif
adel ph
Ġc ere
ot ing
Ġcle ver
ĠOct ober
o very
Ġany body
ud den
Ġgre et
Ġperform ed
I RE
Ġto day
Ġl est
st airs
ie ce
Ġfair y
Ġa in
Ġa im
Ġex ch
Ġex ceed
um ents
Ġpr ide
Ġfl ung
Ġim pl
Ġind epend
Ġoccur red
adelph ia
Ġd i
ĠM ake
Ġtim ber
Ġrem ains
Ġe re
ĠW ood
Ġup ward
ĠD uring
ĠAf ric
Ġconn ected
ĠM ass
ĠW izard
Ġal arm
Ġsc ore
n am
Ġbr ass
Ġmem ber
l aw
Ġpu p
ĠApon ib
Ġt ar
Ġm am
ĠT ell
Ġsupp l
Ġact ually
Ġdirect ed
Ġal oud
Ġar ch
Ġdist ingu
Ġinter rupt
Ġprison er
Ġaccompan ied
Ġl in
Ġliber ty
a o
Ġo cean
ĠH on
ĠR ose
Ġret reat
Ġshow ing
ĠS us
ĠA unt
Ġcr aft
Ġinterest ed
Ġsh r
Ġlo g
Ġaffect ion
IV E
O SE
Ġh ate
A s
p ire
Ġaw are
Ġfair ly
crib e
F or
t een
Ġc ult
ĠM ost
Ġwor n
sel ess
Ġfal se
resp ond
Ġb al
ol in
un ning
Ġtr ick
a res
ang es
ĠGr ace
ri er
Ġmind s
tern al
Ġfort un
P l
ĠM o
Ġgr at
Ġpr int
Ġsl avery
A V
ir ing
ĠP ort
ĠP aul
Ġwar ning
ĠSept ember
D id
] .
Ġs igh
oo p
os ity
ott ing
Ġpol icy
Ġimport ance
Ġdelight ed
Ġfaith ful
Ġl aughter
Ġg rie
Ġso re
Ġbut ter
ĠRed dy
Ġf ancy
Ġsh aft
Ġr are
Ġsp ect
Ġfollow s
Ġmar ch
Ġdou ble
Ġhang ing
Ġent ertain
Ġlead ers
Ġspec ies
ĠSomet imes
i ally
u ced
se y
Ġr iding
p ort
Ġth ine
ĠS aw
Ġab und
um ber
ance lot
Ġsw ept
Ġgl ance
Ġkind ness
e av
ĠI II
Ġst age
Ġthr one
Ġsign s
ĠPhil adelphia
t ime
ost on
Ġkind s
OR Y
Ġf ederal
ve lt
Ġde ce
ĠĠĠĠĠĠĠĠĠĠĠĠĠĠĠĠ ĠĠĠ
Ġcons cious
Ġsold ier
is her
Ġdestroy ed
al ing
own ed
Ġte ach
Ġdiv ided
Ġsurr ounded
c ent
i ge
i ation
nd ered
Ġp ounds
Ġg ay
ĠVirgin ia
ĠMich ael
Ġe ase
Ġc ard
Ġc ases
Ġlight s
ut ch
ĠG reek
ĠD ay
Ġbl az
Ġ3 2
Ġsp ark
Ġsmall er
is hes
Ġd ared
the re
Ġpract ice
Ġprison ers
Ġda ily
Ġcar riage
Ġproble m
Ġy ield
Ġign or
Ġman aged
Ġun e
1 4
Ġhad n
ĠH art
Ġle af
Ġj ew
app ing
Ġcomp elled
Ġmer cy
Ġfr ame
Ġsafe ly
Ġbene f
Ġexped ition
a is
Ġpr ice
Ġenc our
Ġevent s
Ġm at
Ġth read
Ġsh alt
Ġr abbit
ĠF ore
qu et
ink ing
ĠFr ank
oose velt
at ory
the y
Ġhor ror
Ġcontain ing
ĠConf eder
ĠLuc y
Ġthorough ly
B e
g ly
Ġsu spect
Ġrel ief
Ġfig ures
Ġf il
ĠB oston
ĠC y
Ġsm ell
Ġask ing
u ce
Ġe mer
ĠC al
ie ve
Ġpro ject
EN D
Ġt ear
ĠN O
ĠSp ir
Ġgentle men
Ġwis dom
Ġtro ops
Ġshel ter
n ut
Ġa ud
Ġb anks
ĠL ancelot
Ġpart ies
Ġposs ibly
Ġperson al
p ent
ĠO ther
ribut ed
Ġdiff erence
Ġprom pt
Ġele ven
Ġp os
Ġp ages
Ġless ons
Ġsol id
ar f
Ġst iff
ĠR oosevelt
Ġcl er
Ġdes ert
Ġfour th
ĠEm peror
Ġexist ence
Ġcit iz
Ġw ret
en ced
ĠN ove
ĠHe aven
ous ed
Ġsusp ic
u z
Ġwh ir
Ġdr ank
ĠPar is
u ke
Ġt iny
Ġd awn
Ġexp ressed
Ġste el
Ġaw ful
Ġclim b
Ġmerch ant
ĠB art
cl am
ĠCan ada
Ġaccord ance
ĠEd mund
Ġlone ly
Ġ ...
Ġb ol
Ġf em
Ġoccup ied
g est
Ġw ilt
ĠU se
Ġsub st
C h
ĠE v
Ġpers u
Ġvar iety
O n
Ġre ck
Ġse as
ast ic
Ġimp at
Ġdeg ree
Ġsav age
ĠTrav is
1 9
Ġb er
ĠS n
ci ples
Ġent h
Ġweap ons
Ġe ggs
k a
ĠA R
Ġle ather
Ġthousand s
e f
l ished
ĠH ill
ot ted
id ay
ĠT w
ĠL ouis
Ġhun ter
ĠAn other
Ġaff airs
Ġnodd ed
Ġwhat soever
ĠK ay
Ġapp eal
Ġref lect
Ġ4 5
Ġpu bl
Ġobject s
Ġvers ion
ĠI ng
se ct
Ġli br
ĠTh ou
Ġtell s
Ġass ured
Ġtown s
Ġs ch
Ġm ix
ĠE le
Ġce ase
opy right
m et
s l
Ġmod ern
Ġauthor ity
Ġcou ple
en ance
ĠA lex
ul s
Ġobtain ing
Ġinqu ired
b ow
im s
Ġco ff
Ġri fle
Ġcomm itted
ale m
Ġmark et
Ġhig hest
Ġexpens es
Ġt it
ĠS udden
Ġhand le
ĠCh ap
Ġcar pet
ah am
Ġdel ay
Ġsound ed
Ġcab in
he a
ĠL ike
ast y
Ġstr ing
Ġrem ove
Ġschool s
Ġnatur ally
n al
o ff
Ġm ult
Ġd ign
Ġj olly
a ult
ĠD el
Ġgood s
Ġdeep ly
Ġmethod s
ĠA h
Ġpre fer
Ġcontin ue
Ġgr anted
Ġcr aw
Ġend eav
Ġconf ess
ĠI m
Ġsh one
Ġwor ship
ap ers
Ġamong st
up on
Ġeager ly
k ins
ill ing
Ġbec omes
Ġwis hes
Ġn igh
ĠS ax
Ġman age
Ġrece ipt
Ġpain ted
Ġmist ake
Ġcre pt
Ġcommun ic
Ġp oured
Ġarr anged
L ouis
Ġad op
Ġbel t
at ures
Ġg ates
ch o
ĠD al
ap an
Ġmy ster
ars h
Ġaff air
Ġm our
ĠI r
ol k
ĠJ ud
Ġatt itude
Ġser ies
Ġf ires
Ġpass ion
Ġadm itted
Ġmor al
1 7
Ġd uck
Ġe rect
ĠL ook
ĠInd eed
Ġact iv
Ġconf idence
Ġwhis per
e a
Ġl ion
Ġ6 0
Ġfact s
Ġcous in
ĠNove mber
Y our
Ġre se
ĠF ri
um s
Ġunt ill
ign ed
Ġpu zz
Ġdef end
Ġph il
Ġinn oc
Ġweap on
olin ayen
ĠSudden ly
Ġcan oe
ĠIn st
Ġpol itical
ĠColumb us
ak s
Ġen v
Ġb ord
Ġc ries
Ġsw all
Ġrun s
ĠBob b
ĠSpan ish
B y
Ġh iding
Ġwas te
IT H
Ġb atter
or ous
ĠTH AT
Ġconst it
Ġemploy ed
== ==
W h
Ġa unt
ĠT ex
Ġequ ally
ĠGer ald
Ġd ying
Ġk ings
qu ent
Ġra ise
N ay
u ated
Ġh ind
Ġin ch
ĠM ark
Ġapp ointed
Ġinst ance
Ġsatisf action
ĠEx cept
Ġenth us
I B
Ġthan ks
Ġbask et
u able
u ries
Ġf ug
Ġg host
ac c
ĠA re
ĠF ort
ens ive
Ġfar mer
Ġdri ft
Ġsleep ing
ĠX V
Ġbelong ed
V ery
Ġsh ows
Ġal tern
Ġro ll
Ġsc rew
Ġright s
ipp ing
Ġr is
Ġsil k
Ġw ing
Ġb ul
Ġc oo
Ġsh ield
Ġr um
iv al
Ġfl ood
Ġhast ily
g ment
ist ic
ind ing
Ġ18 9
Ġn erv
Ġtrain ing
atur day
ĠBes ides
Ġb at
ĠT em
im ents
Ġsp are
Ġind ign
aster n
t hen
Ġas cend
Ġref erences
Ġste ep
Ġbeh old
ĠEd ward
A n
f oot
Ġs orts
Ġlight ed
Ġtrou bles
Ġtri al
Ġeng ine
Ġw ww
Ġcr ack
Ġsubject s
Ġsympath y
et e
ure ly
Ġmar ched
ĠB uck
Ġextra ord
Ġbo ots
let s
Ġche eks
Ġstand s
Ġhast e
yr am
Ġimag ine
he ld
Ġb ree
ĠF eb
Ġsp ake
um es
Ġcomfort able
Ġso il
Ġmoment s
ĠW ILL
ĠTh r
Ġgl ory
less ly
Ġaccomp any
Ġbe w
ĠP smith
Ġfl ame
EN SE
TH ER
Ġb en
Ġr ush
Ġgr im
Ġprop ort
P er
l ers
ĠM ab
Ġde b
Ġget s
for ce
Ġcost s
l ock
Ġpl ans
Ġsub s
Ġlibr ary
ĠH ave
Ġbre aking
ĠAponib olinayen
Ġs ank
or th
Ġy ard
im ate
ook s
Ġfore head
UL L
l ong
Ġsc ream
Ġcr ime
Ġrest rict
Ġbad ly
Ġpa used
c an
ri ly
ĠP lease
Ġar rest
ĠDe er
Ġisland s
Ġrelig ious
Ġapparent ly
Ġnot es
ĠR ou
au nt
ep s
Ġim per
ĠNe xt
ĠSpir it
Ġto ss
Ġl it
om ed
le br
Ġcom r
Ġover t
Ġset ting
az y
Ġroom s
L I
d in
n ie
Ġw ol
Ġcop ied
aught ers
ĠDe ce
r is
re ls
at ors
st one
Ġr isk
os er
Ġestab lished
e el
p se
Ġwas h
Ġv en
Ġevery where
Ġbel ief
Ġdam ages
Ġtrib e
ĠTar zan
m in
Ġpo ison
Ġreg istered
alt ies
Ġswift ly
ar se
Ġrece iving
Ġmon ster
u x
Ġf itted
ĠE B
Ġbl ows
Ġr ust
Ġr ice
RO M
ustom ed
Ġrese arch
R Y
S T
b orn
Ġf iles
Ġst airs
ĠD ou
pl ess
Ġreturn ing
Ġdream s
Ġb rill
ĠW il
ĠSp ain
af ter
Ġbott le
Ġeld er
Ġex ha
Ġwhen ce
Ġown s
Ġlist ening
Ġnation al
Ġresp ons
re et
Ġst y
Ġkn ocked
Ġsome where
Ġperce ived
Ġf etch
Ġhe ed
Ġst uck
ap es
Ġex empt
Ġhop es
Ġo il
ĠS aturday
Ġr ic
ĠR ome
Ġhand ed
ec ause
ĠIN C
2 0
Ġs cient
it ol
ld om
Ġr ad
Ġde y
Ġhigh ly
oo s
ust er
Ġun us
Ġstr aw
int s
ribut ions
Ġwit ch
Ġst up
Ġapp ly
Ġimm ense
Ġfore ver
ĠSc ar
ĠHon or
ĠDece mber
Ġl iter
Ġg e
Ġu gly
ĠB ro
Ġkn ock
Ġte am
olog y
Ġexerc ise
Ġshe d
ĠD anny
ĠK at
Ġsw ung
ins more
Ġsolic it
om s
ĠB RE
ĠL ok
Ġbr ush
Ġcan oes
Ġinst inct
RI B
ĠS um
us hes
Ġgr in
Ġexper ien
ur se
Ġatt acked
Ġnight s
Ġaw ake
Ġce lebr
Ġtor n
ul ous
Ġab ide
ĠO N
Ġam use
ung le
Ġdep end
ĠJan uary
ac ious
ĠD insmore
ic o
ain ts
ĠW olf
Ġdisc overy
Ġbuffal o
in al
ĠS al
ĠM us
ul ated
ĠRo ad
owd er
Ġgovern or
EM ENT
f und
Ġo h
Ġf are
or ing
Ġsee king
Ġrep orts
Ġsn ake
Ġaw oke
ĠDan es
Ġrecogn ized
D e
d ated
Ġ z
Ġd aughters
ĠM onsieur
Ġr ange
Ġkn ee
Ġcl ub
Ġemploy ees
S h
li ament
ĠAm ong
Ġ ess
Ġh ol
ĠP G
ĠW igg
Ġen orm
Ġinv ited
3 0
Ġt empt
Ġh am
Ġde eds
ap er
Ġlike wise
Ġcomp osed
Ġob st
Ġcor respond
Ġincre asing
Ġavo id
f ield
ĠE nd
Ġen s
ĠWh ich
ipp i
clam ation
Ġin sect
ain e
ag o
Ġdepart ed
Ġg ri
ĠS U
ĠM ac
ĠW OR
Ġsp end
Ġcount enance
Ġreg ret
ĠFr anc
ĠNot hing
Ġwid est
ker chief
ac ing
ri g
ĠB ishop
th is
Ġout er
ell ing
Ġpr im
Ġpri ze
Ġsum mon
Ġappro aching
ĠJac ob
ĠWigg ily
ou l
Ġco pper
Ġextraord inary
Ġrestrict ions
ĠEB OOK
er ation
Ġb ay
Ġse es
Ġread able
Ġlear ning
Ġgaz ed
IRE CT
8 0
ĠAnt hea
Ġslight ly
Ġmil itary
Ġmagn ific
Ġur ged
riet ary
r ous
Ġs alt
ĠI ll
ag g
Ġstr ict
Ġte le
Ġpray er
Ġe p
ĠS now
Ġper man
Ġbet r
Ġpri ests
Ġval uable
ĠWin ona
Ġvan ished
p her
Ġd ancing
Ġwe pt
ĠF rog
Ġun fortun
Ġwa ist
Ġsuff ering
Ġcomput er
Ġr ank
og rap
Ġdam age
! --
ĠN an
Ġtrou bled
i ants
ĠM ead
os op
Ġpart ly
Ġsuccess ful
Ġdam sel
Ġspec ified
Ġbeat en
b es
th a
Ġli ability
Ġcr im
Ġcoll ect
Ġpract ically
Ġty pe
Ġs en
ĠW ind
ant a
Ġro ar
Ġrest ed
Ġtrans l
ĠPres ently
ĠComm ittee
g re
p ro
ĠS ince
ĠW ITH
ĠF our
Ġtr ack
Ġdis s
iss ippi
A Y
ĠSt one
Ġste ady
Ġtri p
uri ous
Ġele ph
IG HT
Ġhen ce
Ġcho ice
] ."
b ar
ĠD un
Ġsome how
Ġcr icket
in ced
Ġha bits
ĠF ULL
ĠD IST
Ġwho lly
ven ge
Ġexp ense
S ee
Ġs ne
Ġp ool
Ġne at
ĠL u
Ġconclud ed
b all
w ho
Ġh omes
ĠP ut
ĠW al
Ġconst antly
Ġrelig ion
Ġdeli ver
k ind
ĠH ol
Ġsh aking
Ġprom oting
ĠDAMAG ES
uf act
ad o
ĠM or
ĠB oy
ĠG old
Ġelectronic ally
Ġw ave
ĠT re
ĠH im
ĠM R
ie l
Ġform ats
Ġfin al
Ġcut ting
Ġprot ection
Ġtrem bling
C an
ĠS ch
ol en
Ġthink s
ĠTr ot
Ġide as
Ġaston ished
H ave
is p
es e
ĠĠĠĠĠĠĠĠ ĠĠ
Ġdist ress
Ġhel pless
Ġfr ag
Ġlie u
ĠT ake
AR D
Ġpromin ently
er a
Ġm ental
ĠS her
Ġpro s
Ġsome body
RIB UT
Ġan ch
Ġsh ade
Ġpl at
---- "
Ġrepres ented
Ġcott age
itol au
Ġa pe
Ġse z
ĠL IC
ĠD addy
ĠE s
Ġsec ured
Ġhor rible
Ġsign al
Ġhar b
ĠWARRANT Y
ĠWARRANT IES
i ot
Ġt end
Ġp ier
one l
Ġte xt
ĠMiss issippi
ĠEl iz
Ġsad dle
ĠDon ations
Ġinvent or
Ġh oney
it or
Ġbus h
Ġmaster s
ĠBl ue
Ġtrib es
ĠVan illa
ĠLIC ENSE
N ever
al a
ap t
um ps
Ġcr ow
ĠNor thern
Ġill ustr
Ġdev il
Ġmark s
Ġutter ly
ĠMe an
Ġu seless
ĠB oth
Ġso cial
ound ing
Ġam b
Ġsw amp
OR E
Ġ8 0
ĠTer ms
Ġearli er
ĠDIST RIBUT
. [
f our
ep er
Ġref er
ĠUn ion
Ġ*** **
Ġviol ence
Ġroy alties
ĠApon itolau
Ġabsolute ly
ĠP ers
Ġdel ivered
Ġconst ruct
Ġdiam ond
ĠMab el
Ġt in
Ġse ldom
Ġcon ven
Ġsp in
Ġdis ch
Ġ18 4
Ġloc ations
Ġconcer ned
ĠLI AB
ĠRoyal ty
ĠBRE ACH
b on
pect ed
ĠDo ctor
Ġfirm ly
Ġc unning
st ers
ac les
ĠW all
Ġno on
ĠHe l
Ġfl ash
Ġsl ip
Ġem ail
d a
ĠB ru
ru ary
Ġrel ated
Ġdisplay ed
__ __
Ġneg ro
Ġcomput ers
Ġdisclaim er
Ġsh ake
ĠTom my
Ġfun ny
Ġviol ent
Ġcapt ured
ĠDown ing
b ol
ĠA cc
Ġpro c
ĠSpan i
ĠAG REE
uck y
Ġaw a
Ġdut ies
Ġener gy
Ġclo ak
Ġd ish
ĠS ol
Ġtr ap
Ġco ck
ĠAs he
Ġsword s
ĠRed istribut
Ġadvent ures
Ġgrad ually
Pl ain
ĠFeb ruary
Ġd anced
Ġsh ock
ĠP ant
Ġint ent
Ġint ention
ig r
ven ue
Ġacc ustomed
" --
Ġter rit
vent ion
Ġreal ized
Ġreason able
Ġconn ection
Ġc her
Ġc ake
ĠA br
Ġmy st
Ġpol ice
arr ison
Ġplain ly
L D
b ted
Ġd ashed
us alem
Ġal ter
Ġgl anced
Ġwr it
Ġte aching
Ġp atter
Ġbe ard
ĠS aul
ĠP enn
Ġde ed
qu is
Ġab road
Ġyoung est
Ġcoun cil
ĠMag ic
stand ing
Ġo x
Ġf ed
our ing
Ġpo le
Ġadm it
Ġsuper ior
b urg
Ġsp ort
Ġle ge
Ġsc rap
Ġdesper ate
IB ILITY
I ND
m ir
Ġm ap
Ġsh ared
and s
Ġcomp le
te xt
Ġimag ination
ĠEurope an
f ly
et r
Ġfe atures
Ġcomp ar
Ġgl im
Ġcons ist
Ġdirect ions
ines e
Ġmed ic
ĠST ART
Ġdrag on
Ġimpress ion
ĠCy ril
Ġd ir
Ġg ames
Ġre v
Ġj ar
Ġbu ck
Ġ4 0
Ġcoll ected
Ġresult s
Ġne arest
Ġch ase
ĠR ock
Ġj ungle
Ġriver s
Ġhor iz
Ġcontr ary
Ġmurm ured
ĠMean while
8 7
Ġw re
re c
Ġh ated
ĠS erv
Ġfl our
Ġpurs ued
ĠJer usalem
ĠTerr an
ĠCour t
ĠC or
Ġhung er
Ġclass es
Ġder ived
Ġquant ity
ĠAlex ander
Ġenorm ous
M ay
he arted
ĠB urg
ard on
Ġqu al
Ġcl ock
Ġpres erve
Ġpol ite
Ġcand le
s ed
Ġw alks
Ġd ed
Ġl ift
ĠF ROM
um bled
Ġche ek
Ġdest ruction
Ġloc ked
Ġdevelop ment
C ont
Ġn aked
ĠG aw
ob e
ĠDe ath
Ġstick s
Ġcuri osity
h ot
p ir
Ġin ner
ĠC ab
Ġr av
Ġfollow ers
Ġwonder ing
Ġprop osed
Ġnecess ity
Ġabs ence
ĠScot land
Ġphil osop
n on
Ġc attle
Ġth ither
ut ions
se c
Ġsh ru
Ġab and
Ġpl ung
land s
Ġem br
Ġgrow th
Ġsix ty
Ġut tered
Ġwed ding
Ġd ried
ĠH aw
ĠB O
Ġprov ision
Ġ186 2
Ġjud gment
Ġorgan ized
ois elle
Ġconsequ ence
Ġto t
Ġpoint ing
ĠBill y
Ġunc om
ll en
Ġman ufact
Ġgr ows
Ġapp le
Ġbec oming
Ġsur re
Ġadd ressed
Ġshad ows
Ġpun ishment
ĠA T
Ġpl ants
Ġhand kerchief
ĠTo ad
Ġdrag ged
Ġsepar ate
ĠMaj esty
d ed
e ven
Ġb att
ap ing
ĠN ear
Ġvol ume
Ġann ounced
Ġbless ed
Ġs ighed
er ness
as y
ĠA pp
ri al
ĠCh inese
Ġ186 1
ĠIsland s
Ġenjoy ed
Ġfamil ies
Ġdar ling
Ġinstr ument
' .
l or
Ġs ixt
Ġnot ed
ĠP an
em oiselle
ig er
ĠK ir
Ġcons ent
Ġinter pre
Ġpurch ased
Ġbrill iant
Ġa ck
Ġturn s
Ġgu ests
Ġrec overed
Ġcontain ed
Ġ50 1
en c
am in
ĠC ame
ell ow
Ġfriend ship
Ġdem on
Ġmis erable
Ġcrowd ed
ĠPe ople
Ġextreme ly
Ġwas hed
ĠC ast
ĠC orn
ore s
Ġun ex
ĠEgypt ian
ĠJew s
) (
e v
o en
om m
ĠA li
ĠH or
Ġar ise
Ġexam ined
Ġsac red
Ġash amed
Ġn arr
Ġ3 3
Ġprof it
ĠGovern or
Ġestab lish
Ġcommer cial
M P
b ack
it ic
ic ing
Ġre ar
Ġr ude
ĠW he
ail ing
Ġown ed
ĠCl ark
ĠCar ol
Ġpurs uit
Ġack now
W ill
Ġt al
Ġt ide
ĠB Y
ĠG ar
Ġro ot
ĠIn ter
Ġlo ving
AR K
Ġnerv ous
Ġb owed
Ġc reek
Ġfor bid
ĠP at
Ġret ired
Ġthir st
ĠRE AD
b en
b ell
r at
u ing
Ġh ay
ing er
as ons
Ġhe d
Ġn urse
ĠC ould
Ġdes cription
Ġwar rant
Ġmiss ed
Ġwarri or
Ġs cience
ĠS alt
ĠA c
ĠĠĠĠĠĠĠĠĠĠĠĠĠĠĠĠ ĠĠ
Ġdev oted
Ġartic le
Ġassem bled
p he
Ġp ause
ic ted
ĠP ol
Ġev ident
Ġdelic ate
ĠTem ple
Ġw ake
Ġb und
an z
Ġbe held
id ity
Ġman ners
Ġstr angers
Ġdep ends
Ġheav ily
Ġanx iety
Ġcalcul ated
ĠAfric a
Ġo ak
or ter
Ġbe ach
ĠĠĠĠĠĠĠĠĠĠĠĠĠĠĠĠ Ġ
Ġrem ind
ĠYou ng
Ġhouse hold
Ġdri ving
Ġinf ant
Ġcoun sel
Ġsty le
Ġh osp
ĠD ave
est ic
Ġpro spect
Ġcr u
Ġcent re
Ġm ast
Ġst ated
ĠM oses
Ġch ain
ĠV er
ES T
.' "
IC E
cher s
in n
Ġst olen
Ġ5 9
Ġsun sh
Ġstri king
Ġproper ly
Ġve get
Per haps
Ġw uz
Ġh ut
ĠW oman
Ġch ose
ĠN ap
Ġmay be
Ġinv ol
Th ank
Ġdeterm ine
Ġhist or
Ġconv inced
Ġunh appy
ar n
Ġfor ces
Ġper il
Ġneighb ors
Ġpract ical
Ġvent ure
g ain
Ġs illy
Ġshe et
Ġpass engers
Ġinterest s
ĠAnt ony
W N
ĠS ent
Ġan gel
Ġr ang
ag er
Ġter rif
Ġcount y
Ġmar ve
Ġfish ing
Ġtrem end
ĠUp on
Ġtub e
ĠS H
ĠS en
ĠE st
Ġcl oser
ĠK h
Ġgl orious
Ġreturn s
Ġconf usion
Ġair ship
ĠFar mer
Ġpubl ished
m ar
ĠThere fore
ĠHar ry
Ġgather ing
Ġappre ci
Ġ ing
Ġthr owing
Ġwind s
Ġimpro ve
Ġresc ue
Ġinterrupt ed
yram id
c ol
Ġb ath
Ġp ace
ĠM ouse
ĠD ar
uten ant
ia h
Ġwa x
Ġfoot st
Ġobser ve
Ġfol ks
Ġacqu aint
Ġcom ment
Ġpr air
ĠSh ort
Ġarr ay
Ġlean ed
ĠSig urd
ĠBobb ie
' -
5 7
ĠPro du
Ġsc orn
........ ........
stit ution
Ġaccompl ished
Ġcitiz ens
ĠIr ish
w ill
Ġtr ace
ond ay
Ġpresent s
Ġut most
Ġquar rel
an ed
as ped
ac he
ri a
ĠR ail
Ġfe ars
Ġgr asp
ĠPh oen
Ġcapt ure
Ġcheer ful
ĠCON T
ĠLok i
c ause
Ġm ock
ĠP age
Ġso b
out s
Ġindic ate
Ġresist ance
O ne
T ake
ac ity
ĠS E
Ġpl ates
os h
Ġdis k
Ġmyster ious
ar ms
ĠT R
Ġr at
ul ating
Ġfe ver
un s
Ġlight ly
Ġhast ened
Ġ19 0
ĠThr ough
ri ved
il ty
ĠW ater
ul ted
art s
Ġthen ce
Ġ18 7
Ġperman ent
Ġst aring
ĠH ans
ĠB ert
ĠL h
ĠD rew
Ġag ent
Ġgr ain
Ġstrong ly
an i
Ġbr id
Ġexc use
Ġattempt ed
Ġsepar ated
Ġavail able
1 1
U D
Ġwe eping
ect ions
Ġrep ro
Ġinst it
Ġcap able
Ġarm our
Ġins isted
Ġappl ied
Ġdepart ure
ĠCount ry
ĠM onday
Ġlight ning
Ġmid night
Ġwol ves
t wo
Ġf ain
ĠS y
ct ions
Ġpass es
Ġgu est
ĠRuss ian
ur ate
ĠB u
Ġpur ple
Ġcur tain
ĠMexic an
r onsie
it z
Ġd oth
Ġn urs
ir rel
em on
Ġwr ath
ĠAs ia
OO D
Ġaston ishment
Ġp ant
Ġp aint
Ġhe els
ĠB uff
Ġim age
cept ion
let on
Ġlim bs
Ġfle e
Ġlar gest
eal ous
Ġinqu ir
Ġproport ion
Ġsunsh ine
Ġp ir
Ġli qu
Ġbl ade
ĠSt reet
Ġext ended
Ġo d
ĠM ason
ĠJ on
Ġwr apped
Ġreg ion
Ġground s
ĠCan oes
Ġgall op
Ġstead ily
Ġw estern
Ġint ense
read ing
Ġcol ors
Ġstrong er
Ġph ot
Ġsacrif ice
Ġcult iv
c r
ch an
ick en
ph one
Ġref use
Ġhor rid
Ġfin ish
Ġvis ible
ĠMar tha
Ġclot hing
Ġmam ma
Ġmix ed
ĠProdu ced
c ast
Ġt yr
ĠT own
Ġe gg
ul a
ĠN at
Ġdet ails
ĠSpani ards
A ND
k i
Ġ #
Ġ x
it ate
ĠL ight
Ġ3 6
Ġ18 3
ĠAl an
Ġinter view
Ġfear ful
Ġsto le
Ġmove ments
vol ution
ĠChap ter
T LE
ed y
Ġl an
le e
ĠC ur
Ġr om
Ġcomp ass
ĠShe en
Ġcol ony
Ġwand ered
ĠRep ublic
Ġincl ined
Ġtit le
Ġinnoc ent
w ing
ut ation
ch in
ĠH u
ang le
Ġsm art
Ġcent uries
Ġquar ters
Cl ock
Ġmurd er
Ġhal ted
9 7
Ġa ver
ĠB ig
th ren
Ġup right
Ġal ike
ĠJ O
Ġun b
ĠAl though
Ġ6 4
ĠMount ains
M r
Ġm ood
en es
Ġbe ars
ĠB al
ĠF ion
ĠL at
Ġex hib
ĠE lect
Ġ3 5
Ġcond itions
Ġgaz e
Ġmagn et
R ight
re land
ag ger
Ġro be
Ġcr itical
ĠGr ay
Ġgrand father
Ġthreat ened
ĠColumb ia
Ġintellig ent
y s
ĠS ar
ĠM ill
ĠN ight
itt y
Ġoff ers
Ġfl ames
Ġinv est
Ġc ong
ĠI V
ĠI reland
oo f
ab led
av al
Ġread ily
ĠJohn ny
Ġstir red
Ġren ew
Ġconfir med
m ony
Ġf aster
it ure
Ġtr unk
ĠSt ep
ĠPh ronsie
Ġwild erness
ĠSl avery
ĠSam uel
V ER
i ber
l a
he red
Ġb ars
ist ory
Ġexam ination
Ġmess enger
Ġsong s
2 5
V EN
Ġcon clusion
Ġj ack
Ġconf l
ann el
Ġpray ers
Ġharm less
Ġpit ch
Ġdeem ed
Q U
or ation
Ġbe ating
ot es
ay ley
Ġse lect
Ġch uck
Ġpre ced
Ġland ing
Ġgu ilty
Ġed ition
Ġvis ion
Ġmead ow
Ġmaj or
Ġfem ale
ĠBuff al
Ġto re
Ġp an
ĠH ome
Ġv ic
Ġv ague
Ġro lling
Ġcl ay
Ġdown ward
Ġsw ear
Th ou
yn asty
Ġsuffic iently
A K
Ġf anc
Ġwor ry
Ġj ealous
Ġ( "
Ġatt ended
Ġinc omp
Ġbur nt
ĠPe pper
Ġtom b
Ġham mer
er ves
ĠI nt
Ġj ob
Ġrock y
Ġshout ing
Ġdrink ing
ĠEar th
Ġwret ched
pp ose
OU ND
Ġglad ly
Ġiss ue
Cont ributed
ĠLh ari
Ġo Clock
Ġp ink
ĠW ed
our se
Ġsome one
ount ain
ĠSim on
Ġcere mony
Ġdistingu ished
ĠFore st
P T
b an
Ġm ing
om in
ĠB et
ĠJ ul
Ġact s
ĠSh all
Ġbuild ings
Ġcre ation
Ġeag le
Ġow ed
Ġw ives
Ġm ild
ĠB el
ĠAr ab
ug ged
Ġneighbour hood
e ep
ĠH OW
ĠD irect
EN CE
Ġstart led
ĠCont in
L ewis
Ġt ones
ac co
ĠP art
od ore
Ġpre y
Ġunus ual
ĠFion n
ĠS ix
Ġsh rie
Ġwr ought
Ġrec over
Ġnor thern
Ġbre thren
Ġstart ing
Ġenc amped
oint ment
Ġcolon ies
ĠPort ug
Ġdign ity
P H
Ġb orrow
Ġg oose
ut ive
ĠF o
Ġag es
Ġj er
Ġover come
Ġfl ow
ĠĠĠĠĠĠĠĠĠĠĠĠĠĠĠĠ ĠĠĠĠ
Ġlo ver
Ġneed le
Ġhero es
ĠDrew yer
] ,
ĠN otting
Ġpl ague
ĠK night
ĠIs a
Ġunderstand ing
Ġmist aken
Ġhorn s
Ġpra ise
Ġplat form
l ow
Ġp ed
Ġcl aws
Ġinv al
Ġkill ing
-------- --------
Ġdiam eter
Ġmagnific ent
ĠV ill
Ġlo aded
ok ing
y ard
ĠH am
ol ic
Ġshould n
Ġshort ly
Ġincre ase
Ġwand ering
ĠBen j
ĠNotting ham
Ġc ared
Ġch in
Ġex cess
Ġj un
str ous
Ġsour ce
T ell
ĠL au
Ġbr ow
ĠAmeric ans
oun ce
Ġdec ision
uc ked
Ġband s
ed ge
Ġwith dr
Ġcall s
Ġlo ft
Ġfur y
Ġtax es
EL L
Ġcomple ted
Ġto morrow
Ġse ed
ens ed
Ġdisc ont
ĠPh ara
Ġview s
Ġpatter n
T ON
Ġo ath
Ġc u
as per
ĠI S
ĠH IS
ĠP et
Ġcl ad
Ġfl ut
Ġrest ored
Ġcor rupt
Ġinstruct ions
ĠOz ma
l iness
Ġro d
Ġdes k
Ġsk ins
Ġcond em
Ġexcept ion
ĠGre g
Ġdefe ated
Ġdistur bed
Ġintrodu ced
Ġw aved
Ġf ame
an a
ĠC ayley
Ġcor rid
ĠFranc is
ĠServ ice
A t
v als
at us
ĠB ible
Ġk ick
ie ved
Ġdr owned
Ġru in
Ġexam ine
Ġann oy
Ġsav ages
Ġty pes
Ġdescend ed
ĠMad emoiselle
ĠBru ce
Ġb os
Ġbe ings
ĠRe volution
Ġextre m
Ġopportun ities
ĠChild ren
ĠAbr aham
Ġb ite
Ġe cho
ĠL ife
ĠD IS
os al
Ġour s
Ġbel oved
ens ion
Ġsecond s
ĠWith out
Ġvill ages
ĠRou let
D ear
w in
Ġd ug
il ities
ĠF ull
ĠD og
ĠE ND
Ġco al
Ġpr on
Ġinv is
Ġaud ience
s ing
ĠAcc ord
Y ea
t ts
Ġat tain
ab ille
Ġpo nd
Ġfind s
Ġra ft
Ġdef inite
Ġacqu ainted
ĠPant her
Ġhe ap
al og
Ġbo ot
ach use
Ġchar ges
Ġnecess arily
Ġcover ing
ĠGree ks
achuse tts
e em
is l
an or
ĠI van
ĠC a
Ġdo ct
Ġthere of
Ġbl ame
Ġdr unk
by e
Ġsum m
Ġprodu ction
Ġdevelop ed
Ġstup id
R ESS
Ġp ist
Ġre asons
ĠP ri
ie ves
Ġcon vey
og er
Ġins pect
Ġcor por
Ġeffect s
Ġborn e
Ġax e
Ġsch ol
ĠPhara oh
Ġp ile
Ġp owder
Ġl ap
ĠW ould
Ġab ility
ĠJ ell
Ġbl ast
ang erson
Ġsto red
Ġadm in
Ġdoubt less
Ġpray ed
Ġre ign
op eration
ĠO din
ĠJ ones
Ġsw am
Ġmon strous
Ġmis chief
Ġexch ange
Ġbenef it
ĠKat y
ĠRoulet abille
om b
ver se
Ġob v
Ġlo ad
Ġnew sp
Ġste al
Ġcol umn
Ġappear ing
Ġdelight ful
bo at
Ġenter pr
Ġmurd erer
Ġeld est
Ġin fect
Ġch amp
Ġ3 8
Ġbar n
Ġrub bed
Ġintellig ence
AV E
ĠInst ead
ograp hy
Ġto es
Ġp ardon
Ġbo ast
Ġhop ing
Ġfin an
AT H
Ġstud ied
ĠAd d
Ġrob es
Ġconce al
Ġfurn ished
con om
ĠMass achusetts
Ġpuzz led
Ġto ler
ll a
Ġfor k
ain ing
Ġch anges
ĠSt angerson
Ġgu ards
Ġsn apped
Ġbig ger
Ġcow ard
d ie
w hen
Ġbe ads
Ġwe aring
Ġha w
Ġaccord ingly
Ġterrit ory
r ical
Ġf ulf
ĠM il
Ġbo nd
cl us
Ġchief ly
Ġview ed
Ġrul er
Ġmill ion
Ġadmir ation
ĠMel ville
Ġ ----
Ġb one
Ġd az
ĠB ook
Ġher d
Ġex ists
Ġtw isted
ĠK en
Ġsc he
Ġstro ke
Ġgaz ing
ke eper
ĠC am
ĠO ver
pl ic
Ġgood ness
Ġevery one
Ġform ing
Ġpal m
ĠPar liament
Ġant i
ĠUnder ground
c est
Ġs ack
Ġf iew
Ġm ouse
Ġl os
ĠP oor
Ġfl ies
Ġ3 1
Ġimp r
ative ly
Ġloud ly
Ġfro st
Ġprincip le
ĠFin ally
Ġs way
ĠM art
ĠC ow
ul se
ind er
ck ets
Ġdist rict
Ġmis ery
Ġgift s
Ġunex pected
2 3
I nd
r un
v ir
Ġp ush
ĠC ivil
ĠĠĠĠĠĠĠĠ ĠĠĠĠ
Ġdis gr
Ġwhere ver
ins on
Ġinter ior
Ġobey ed
Ġvirt ue
Q ue
l est
ab or
ak ened
Ġun ivers
Ġdes erted
Ġwr iter
Ġdom in
Ġsad ly
Ġpriv ile
ĠTit anic
g age
Ġ :
Ġa st
Ġm a
as ions
Ġse ction
all el
Ġout l
ber ry
os c
Ġdoor way
ax im
Ġdeep er
ĠSc ott
ĠFr iday
Ġearnest ly
ĠS it
ĠB udd
il st
Ġcan non
od ing
Ġref uge
Ġid le
Ġconfl ict
p iece
an ing
Ġl ux
ĠA L
ur t
ĠC ross
Ġv ac
ĠSo ciety
Ġroad s
Ġdisapp ointed
Ġflo ating
Ġpros per
ĠKir by
Ġshe pher
ĠHe ad
Ġtr ump
Ġfl ashed
Ġem otion
Ġsupport ed
Ġeng age
Ġtur tle
ĠIng red
Ġenthus ias
Ġr ushing
Ġch im
ang led
ĠAt l
Ġrest ing
Ġbro ok
Ġmon arch
ned y
Ġserv ices
Ġarri ve
Ġprof ession
Ġgall ery
Ġdifficult ies
ĠMexic o
Ġsevent y
mir al
ou ch
Ġy onder
Ġre ndered
ort ing
Ġen ch
Ġact ed
ertain ly
Ġinter f
br idge
ĠFair y
Ġsubst ance
Ġexha usted
4 0
G L
Ġ vel
Ġm al
Ġwh ip
ĠB ay
ĠC ro
ian o
Ġhop eless
Ġhum ble
Ġsto pping
arr in
Ġcoun ter
Ġrecogn ition
Ġpup ils
ĠIsa ac
z es
Ġl ately
ĠT ime
ĠM oon
Ġ1 00
Ġwar ned
Ġimp osed
ĠUn less
Ġsle nder
Ġrob ber
ĠDou gl
O P
w est
Ġth ief
Ġl at
ĠB ha
Ġch all
Ġco ach
Ġbeg gar
fect s
Ġbow l
Ġprair ie
Ġenthusias m
! )
b oy
z ed
Ġc ows
Ġm ob
Ġp ad
ĠP ac
Ġso vere
Ġare n
Ġsp ell
ful ness
atter ing
Ġdec ide
p ri
he m
Ġas pect
ĠM ah
ĠB UT
Ġme chan
um pt
Ġbeg ins
ĠBr other
Ġrec oll
Ġlay ing
Ġchar m
Ġlad s
Ġpurp oses
Ġwid ow
Ġeduc ational
ATION S
Ġiss ued
or a
ĠR af
Ġmar ble
Ġbur den
AL L
Ġfail ure
Ġunc ons
Ġteacher s
ĠTrav illa
H N
ĠP ublic
Ġun like
Ġexp osed
Ġfavor ite
Ġmut tered
ĠDes p
ĠFrank lin
Ġmedic ine
ĠPhoen ix
O D
b ur
Ġp red
ĠB er
ĠP ass
if ully
um per
Ġdis gu
Ġcons ult
Ġdam aged
Ġpat ience
Ġsharp ly
Ġmiss ing
van ia
J ust
e g
Ġp ear
ĠH o
Ġse am
Ġdo st
ag ing
Ġdis ag
Ġinst ruction
Ġrec all
ey ed
ib r
Ġed ges
Ġgard ens
Ġbelong ing
Ġunfortun ate
Ġt ie
er o
am o
ĠB uster
Ġkn eel
ĠCh ina
ĠV ery
Ġsent iment
ĠAl so
ĠCon n
Ġca uses
Ġeight een
Ġerr ors
ole on
Ġdefe at
Ġhes itated
Ġadop ted
Ġplung ed
Ġtremend ous
b ury
m ist
nd ed
er al
ĠS anta
ĠM ine
ol ate
ress ion
Ġfound ed
Ġcle ared
ĠKen nedy
Ġd reamed
Ġth orn
Ġan ge
ill ings
ĠF ields
ĠL aw
ry n
Ġsc reamed
Ġsk etch
Ġpat ient
Ġanx iously
Ġdress ing
Ġsettle ment
Ġdw arf
Ġcomr ades
Ġacquaint ance
h um
Ġb ough
ll is
ĠC ons
ĠG ive
Ġpro hib
Ġdef ence
Ġactiv ity
Ġf ence
Ġre in
Ġas c
Ġha unt
ĠW y
ĠG ir
ĠR EM
Ġsp ears
ĠE ver
um in
Ġheart ily
Ġrel atives
Ġstri p
Ġsou ls
Ġbree ze
" ,
Ġre nder
ĠD arrin
ĠE Book
ip ation
Ġprin ciples
Ġvict im
sy l
Ġbitter ly
Ġconqu er
ĠCarol ina
it ter
Ġd us
Ġth umb
Ġal armed
Ġwill ow
Ġun ion
Ġbl oss
Ġad just
ĠSt ar
Ġ3 7
Ġread er
Ġfour teen
Ġcry st
Ġcommand er
Ġmyst ery
T r
b ook
u ish
v ald
Ġf ow
Ġf isher
Ġl ic
Ġn inet
ĠT ree
Ġy o
ĠC ut
ĠW ry
Ġinclud e
Ġlad der
Ġexper iment
Ġfat ig
Ġtrem bled
Ġbag gage
Ġinvis ible
B ecause
Ġc y
Ġg ross
ĠC oun
qu es
ĠL o
ak ers
Ġfl ock
Ġlo ves
Ġact ual
Ġrepl ace
Ġsun set
Ġcontin ually
Ġconce aled
Ġgar ments
Ġsurv ive
I E
r d
Ġas hes
oo ped
Ġab rupt
ĠO wn
ig s
Ġen l
Ġbu g
Ġvo id
ĠDr agon
Ġforest s
Ġpen etr
Ġindic ated
Ġshoot ing
A r
t ic
ĠD utch
ĠSh ould
ĠBe aut
fe rence
Ġbed s
Ġconc ern
Ġdisapp ear
with standing
Ġlean ing
Ġdwell ing
Ġdeli ber
ĠNap oleon
Ġa ch
ĠS an
ri ve
ĠC ape
ĠJ apan
Ġtw ink
Ġmin ister
Ġheav ens
Ġadv ised
ĠAd miral
Ġobser v
Ġhunt ed
ĠEX P
Ġstatement s
Ġmeas ures
Ġgrat itude
syl vania
Q u
y es
Ġto ols
Ġday light
form ed
ĠSh arp
ND ER
Ġca vern
ĠDan iel
ĠE li
ci pl
ons ense
Ġtre acher
Ġbar gain
Ġdisp osition
Ġbold ly
Ġamaz ement
L ES
S ir
it ives
Ġd aring
ĠF e
ĠSt an
Ġent ering
ĠBe cause
Ġcoll ege
ze vir
Ġclaim ed
Ġpress ure
Ġow ing
B r
G E
Ġb on
Ġh arsh
Ġapp ar
rib ly
ne ath
ition al
Ġbed room
Ġloc al
head ed
Ġdistur b
Ġprepar ations
Ġt id
Ġt ables
Ġm axim
ĠC ath
ag s
Ġcont est
ian a
Ġpur se
Ġsing ular
Ġtrave ll
Ġsail ors
Ġperce ive
Ġpil ot
ĠSus y
Ġsixt een
ĠBha er
m o
Ġthe ory
ar ation
ĠC ook
ĠD ark
Ġpl anted
Ġdis e
ip ed
Ġrest r
Ġchar ged
Ġdisp osed
Ġspec im
Ġsens es
Ġbless ing
d oor
ĠĠĠĠĠĠĠĠ ĠĠĠĠĠ
op es
Ġal ien
Ġbr and
Ġpu ff
Ġsil ently
ĠEl zevir
Ġaccept ing
ĠColl ege
Ġliter ature
Ġfinan cial
Ġs outhern
Ġf und
it ud
ĠA uthor
ĠH oly
ĠC ent
Ġgr ant
Ġdis g
Ġpe ep
Ġcont em
Ġref erence
ĠMar ia
Ġpull ing
Ġele ment
ĠBab a
ĠPal mer
Ġmort al
Ġsummon ed
Ġbos om
5 0
f ig
Ġsh oe
if ies
Ġman if
Ġtr ait
Ġind iff
Ġcont empt
Ġres umed
ract ed
Ġspec ific
Ġoccasion ally
ĠGree ce
Ġindepend ence
ĠJO HN
Ġinvest ig
Ġs ke
Ġm oss
Ġst able
ĠB ull
Ġr att
Ġri val
Ġsc enes
ĠGod s
ĠAn na
ony m
Ġra ising
Ġfre quent
Ġhither to
Ġexec ution
Ġexceed ingly
ĠDougl as
f les
Ġ iv
Ġa pt
Ġw ounds
Ġm ale
ent ial
ĠP ed
ab b
Ġab ode
od es
Ġhold s
ĠNo ah
Ġconf ined
Ġaw fully
Ġsol ution
Ġt ap
Ġc ub
Ġso ot
ĠL ove
Ġun se
Ġun ited
Ġsle w
co at
Ġfif th
Ġchap ter
ĠNE W
ĠNear ly
" ;
I X
k yn
Ġto ps
ĠS ame
ĠC reat
ĠC opyright
ĠD istribut
Ġfo e
Ġmod ified
Ġconfir m
Ġwhist le
Ġscient ific
Ġtele phone
i i
s ome
ĠT ed
ĠT urn
il ation
Ġup stairs
Ġ3 4
Ġem peror
ĠCl oud
Ġdro ps
Ġcoll ar
wh ite
ĠEgypt ians
Ġresp ond
nes day
Ġneighbor hood
Ġsuspic ion
Ġc ure
Ġan cest
Ġse ize
ĠR ip
Ġle nd
Ġpr ow
Ġob ed
ĠV alley
Ġran ks
Ġsy n
Ġgrand mother
Ġspeed ily
Ġmoon light
ĠRich mond
, -
Ġg est
Ġre venge
ĠP re
ĠP apers
ĠPro of
Ġnever theless
Ġcomm ission
Ġcomm enced
ĠJo el
Ġpol it
Ġforg ive
Ġrul ed
ĠMexic ans
G ive
U M
b al
n ew
v est
ay ing
Ġu m
ĠM ont
Ġr ays
ĠSh ore
Ġpret ended
Ġobser vation
ĠST ORY
ĠSec ret
ĠPenn sylvania
) ;
2 6
Ġto b
ĠL E
ĠCh uck
Ġrel ation
Ġdead ly
Ġelse where
Ġremark s
Ġdw elt
Ġsuppl ied
E x
I AL
h ile
Ġse ar
Ġno bles
Ġtr icks
ĠSt and
Ġbet el
Ġocc asions
ĠĠĠĠĠĠĠĠĠĠĠĠĠĠĠĠĠĠĠĠĠĠĠĠ Ġ
Ġdet ach
Ġsail or
Ġprob able
Ġindic ating
Ġignor ant
Ġexperien ced
Ġlan tern
2 9
N ESS
Ġf aced
Ġp udd
ic ated
ĠP AR
Ġbut ton
Ġne phe
ect ure
ĠL IT
ĠN a
ry ing
Ġthan ked
ĠIn tern
ĠU r
Ġdr um
Ġinclud es
Ġabs ent
Ġsail s
Ġident ify
ĠWOR K
Ġnephe w
ou ched
Ġn in
Ġsh o
Ġne ut
ag ues
Ġcomp ared
ĠU NDER
Ġred uced
Ġpat ri
Ġviol ently
Ġconduct ed
Ġaddress es
Ġgrate ful
Ġcelebr ated
ĠDIS C
R AP
z y
Ġb ows
om ach
Ġbe et
ĠG iant
Ġun ple
Ġri b
Ġind irect
Ġrec omm
Ġwish ing
ĠAd air
Ġtou ching
Ġdir ty
ĠWed nesday
ĠGreg ory
A IN
S ome
Ġd angers
Ġse lected
Ġj est
ĠAn ne
IL D
ĠCol onel
Ġplan et
Ġball s
Ġprepar ation
ĠEle anor
Ġt unn
Ġl as
ĠF orm
Ġint end
Ġwhere as
Ġback ward
Ġtre as
Ġtrans p
Ġpain ful
Ġprof its
Ġoppos it
Ġben ch
ĠDistribut ed
Ġf et
Ġg ang
th ree
Ġapp les
ath an
Ġfather s
ho le
Ġguess ed
Ġpop ulation
ett le
Ġgrate fully
Ġfug itives
t is
v or
ve t
Ġr ises
Ġtr ained
Ġcount ed
ra ft
Ġbid ding
Ġfootst eps
ĠBenj amin
c er
Ġs an
ĠS aint
Ġor nam
Ġsu gar
ight y
ĠPro v
IS H
Ġsail ing
Ġpun ish
ID ENT
Ġabund ance
ĠWry kyn
, [
I F
Ġh ired
ic a
Ġv ine
ĠHe nd
ass es
Ġpo ckets
Ġexp end
og ue
Ġtrave ling
ĠCol in
Ġvent ured
ĠDal gard
Ġinsect s
Ġsurre nder
d ig
Ġw rest
Ġl azy
ight ed
Ġcon vert
Ġsk ull
Ġsun k
ik i
Ġash ore
Ġacknow led
S ON
s ix
Ġf t
Ġth o
Ġgo at
Ġbl owing
ĠBe ing
ĠSomet hing
ĠWall ace
ĠVill age
2 7
as m
-- '
ĠF enn
Ġgl ow
Ġlast ed
ĠV I
row s
ĠJe ff
Ġmater ials
Ġsuggest ion
Ġalter ation
b urn
i able
m outh
Ġc as
ro l
Ġse x
ĠL ie
Ġro ast
Ġrob bers
Ġquant ities
onym ous
G od
b u
n ament
Ġw oke
Ġd il
an ag
ĠT ales
ĠH ind
Ġr am
Ġsu st
Ġch ill
Ġcomp ressed
Ġchild hood
Ġkeep s
ann a
Ġprot est
ION S
Ġslight est
ĠThor vald
Ġarg ument
Ġcaut ion
Ġjew els
Ġsuspect ed
Ġchall en
m ade
Ġd amp
Ġha re
ĠH appy
ĠB alt
ĠW estern
ĠD om
Ġ18 8
Ġwar n
ob ody
Ġimpl ied
Ġbund le
g t
p in
Ġse ats
ĠF ire
Ġaw hile
Ġsy m
Ġcross ing
add in
Ġsez ee
2 8
i que
Ġg orge
Ġst air
ĠM ER
Ġbut t
Ġv ir
Ġtr amp
Ġthr ong
Ġpre cip
Ġsc ent
Ġcare er
Ġdep ths
Ġreal ity
Ġlin ked
h is
x ed
in ate
Ġf urious
Ġst omach
Ġsh aring
Ġk in
Ġup set
ĠĠĠĠĠĠĠĠ ĠĠĠĠĠĠĠ
Ġch airs
Ġno is
Ġsl ope
Ġind ul
Ġmer c
urs day
Ġrepresent ations
Ġlege nd
Ġth rill
ur ance
il ight
Ġde bt
ge ance
ĠO THER
Ġrep utation
Ġcons cience
Ġreal ize
Ġtem por
Ġdet ail
Ġprevent ed
Ġphys ic
Ġwond rous
Ġa ught
ad em
ĠT AL
Ġsh irt
Ġwhe els
Ġsm ote
Ġcorn ers
Ġpurch ase
Ġgas ped
ĠPalmer ston
? --
id ers
ĠD ate
ab eth
Ġro pes
bl er
ĠAl addin
Ġconsider ation
Ġbottom s
Ġcapt ive
ĠTe am
Ġinterpre ted
= :
m osp
in ent
or us
ur r
ĠM em
Ġsh rill
ĠC arm
ul ate
ĠE rec
ĠO tter
ĠAn n
Ġdec or
ues day
atur al
Ġindust ry
Ġeleph ant
Ġdisag ree
Ġf est
Ġbe aver
Ġst ag
ĠR O
Ġcon vention
ck s
ĠIt aly
ud ge
ĠJohn son
Ġabs urd
Ġfurn iture
Ġaut umn
Ġmajor ity
Ġming led
2 4
Ġn ails
ĠT uesday
ĠH AVE
os ure
ĠTh ursday
Ġ3 9
ute ly
Ġpol es
ĠAb b
ĠLIT TLE
ar ged
ĠH ume
ĠL amb
Ġter r
Ġser pent
Ġtreat y
Ġsett lers
ĠEm pire
Ġdescrib e
Ġtob acco
E Y
p ers
Ġt our
ic ient
id ering
al ian
ce l
Ġch ains
Ġback s
Ġadd itions
ra ising
Ġprep aring
Ġvisit ors
Ġbell s
Ġprocess ion
OS S
ĠLat in
RAP H
P r
d oes
Ġn uts
Ġg n
ĠK ar
Ġact ing
Ġprov ince
Ġcor pse
ĠCan oe
Ġtor t
Ġcatch ing
ĠRE P
Ġdeg rees
Ġstore s
Ġpoet ry
Ġbew ild
ĠSher wood
Ġmaxim um
, =
t w
u ction
Ġw ard
Ġat mosp
ĠH istory
ĠD ey
ĠO ff
Ġcl am
Ġyour selves
Ġen cl
Ġcar ved
Ġser iously
Ġansw ers
Ġrec on
Ġpar allel
Ġpeace ful
Ġleg isl
Ġhat red
Ġmagic ian
Ġfierce ly
Ġaltern ate
U ND
h ad
ĠI ce
Ġwh ilst
Ġre le
Ġj oke
Ġgener ous
Ġins ult
Ġtrave led
Ġwid th
udd er
Ġspl it
Ġmult itude
ĠIntern ational
o ard
Ġt ip
ĠI MP
ĠS P
Ġan ts
ĠC ass
Ġro ses
Ġoff ering
Ġcons ented
Ġexpl ore
ĠMary land
Ġaut om
ĠScot ch
Ġconstruct ed
Ġhed ge
" ),
I A
a ur
im ore
if ted
Ġk id
ĠD ear
Ġbr ings
Ġco il
Ġsw ing
Ġgl obe
Ġcont ents
Ġland l
Ġagree able
ĠZ eb
Ġscr am
ĠComp any
Ġanch or
G r
in ity
ĠI R
ass ed
Ġpart ed
ord er
Ġprin ces
Ġshore s
Ġunc ertain
Ġgall ant
ĠMin chin
ĠNever theless
Ġbatter y
Ġqual ities
Ġchim ney
o ves
ĠM al
ĠL ion
Ġv ote
ĠO WN
ĠAt hen
Ġinter p
ĠĠĠĠĠĠĠĠĠĠĠĠĠĠĠĠĠĠĠĠĠĠĠĠ ĠĠ
Ġbox es
Ġfac ility
Ġnaught y
ĠRem us
ĠSax ons
Ġven geance
ĠPac ific
Ġw ires
it tering
Ġe conom
ĠG al
ĠD ec
el f
Ġen abled
Ġunder neath
iz es
Ġhapp ens
Ġprom otion
Ġfin est
Ġbreat hing
Ġtight ly
ĠMaj or
Ġnet work
Ġbal ance
ĠHol mes
ĠTre vor
Ġincomp lete
m ark
ac ters
em an
Ġfo g
Ġob sc
hy llis
Ġsle e
Ġang rily
Ġgloom y
Ġfortun ate
Ġdisgr ace
r ane
u v
Ġw ig
Ġo ars
Ġn ut
ĠT enn
Ġwe ep
oo ked
Ġr idge
un ge
ĠAnd y
Ġcont ributions
ĠOn line
ĠMiss ion
Ġeas ier
Ġlab our
Ġrevol ution
Ġinj ured
Ġswim ming
Ġdistinct ly
ĠWil son
on ly
Ġp ains
Ġu lt
ĠA ct
all s
ĠL anguage
Ġdis cipl
Ġri g
Ġperm it
Ġperform ances
Ġder ive
Ġber ries
Ġtoss ed
I P
L Y
W ith
z ip
ĠL ast
op ing
Ġab ol
Ġdown lo
ĠAs gard
Ġaccess ible
Ġstud ent
Ġest ate
TH ING
Ġperiod ic
Ġfru its
Ġcheck s
Ġscr atch
Ġfold ed
ĠBO Y
ĠDesp ite
ĠProof reading
Ġindirect ly
H ara
f ull
Ġc am
Ġc ats
Ġto il
ĠP R
ĠP hyllis
ĠK ent
Ġcomp lex
Ġmar vel
Ġchar itable
Ġdep th
Ġfr ank
Ġprof ound
Ġvolunte er
ĠMid dle
Ġarrange ment
ĠCast le
Ġimpr ison
Ġsovere ign
! _
in ue
Ġw oe
Ġbe fall
et te
Ġk itten
qu ar
Ġcl ung
Ġgood ly
ru ly
ribut e
ĠWh it
Ġ17 7
3 4
g ent
in ations
ĠC ave
ĠN ile
Ġthere in
Ġlong ing
Ġpres erved
Ġfeel s
Ġchar acters
Ġopp on
Ġang le
Ġmeant ime
Ġdat a
Ġcalm ly
Ġcalcul ate
Ġattract ed
Ġhoriz on
ĠJeff erson
. ;--
b ox
c ut
i h
v il
Ġd u
Ġg ig
Ġy er
ro s
ĠH ard
Ġbo ards
Ġcare less
Ġmill ions
Ġgen ius
Ġmaintain ing
F ORE
h orse
Ġf ert
Ġc age
Ġwh ither
ir ts
ĠC hat
ĠW ild
ĠD en
ab s
Ġbr isk
Ġqu ality
ress es
Ġend ure
Ġstraight way
Ġluck y
ĠSpe cial
ocr acy
Ġdiscuss ion
ĠConfeder ate
Ġfare well
Ġcorpor ation
F ig
a ign
Ġb its
it o
Ġm ule
Ġg a
ĠThe odore
Ġag ony
Ġar oused
Ġbl oom
Ġover w
Ġcr ash
Ġdes ir
Ġcons ists
Ġrest ore
Ġaw akened
Ġcent ral
Ġenc amp
Ġ186 3
ĠChar acter
Ġsu itable
Ġro ared
Ġbr ick
ĠV en
Ġscar let
Ġalt ar
Ġdism iss
Ġenterpr ise
A SE
k ward
Ġon ward
Ġwith al
ur al
ĠC ott
il ion
ap h
Ġout ward
Ġri pe
Ġsc ale
Ġhapp ily
Ġgener ation
Ġdom estic
Ġfat al
Ġcorrid or
Ġw aving
Ġre lease
ro ft
ĠS av
ĠD ON
Ġtw ilight
Ġcons isted
Ġem p
Ġinc red
Ġass ure
ĠCom pl
Ġimag ined
Ġtow ers
Ġcand id
US T
leg raph
Ġconscious ness
Ġprompt ly
ĠEliz abeth
ĠAtl antic
g bert
p rop
z ing
Ġh ound
Ġl ust
ĠI F
ir m
ir ds
ĠA CT
ĠM and
Ġher s
Ġany how
ĠĠĠĠĠĠĠĠĠĠĠĠĠĠĠĠĠĠĠĠĠĠĠĠ ĠĠĠĠ
Ġleg ally
Ġtor ment
Ġmass es
Ġfac ing
Ġconven ient
i u
r age
Ġwas hing
ĠS ub
ir on
ĠM AN
Ġse eds
ĠC oy
ĠF re
Ġstre ams
Ġlarge ly
Ġdep os
Ġplac ing
Ġprop het
Ġlord s
Ġsearch ing
Ġmerch ants
Ġconqu ered
e ous
p en
Ġt ents
Ġs ink
it ory
Ġm ant
om on
im m
Ġr ings
act ory
Ġhelp ing
Ġchar ming
Ġrequ ested
Ġlow ered
Ġprev iously
don ate
olog ical
Ġhide ous
Ġamid st
Ġloft y
Ġl ots
Ġl unch
Ġg it
if ying
ĠL ard
ĠR IGHT
um bling
ag a
Ġstr uct
Ġsc old
Ġref lected
Ġposs ibility
az e
Ġaw kward
Ġcontain s
Ġru ins
Ġcuri ously
Ġfurn ish
ĠBE FORE
Ġcivil ization
bre ak
Ġgreet ed
ĠSum mer
T is
Ġin k
ac on
ĠL ang
Ġch anging
Ġwill ingly
Ġapp et
ĠU SE
Ġgl owing
ps on
Ġfast en
Ġinf inite
fort une
Ġview ing
ĠMore over
Ġpersu aded
Ġw ool
ing le
Ġhe ll
ĠH E
ĠD ry
Ġpe asant
ĠSt ri
Ġsun light
Ġprodu ct
Ġmod ification
ĠEx ec
ĠDick on
RA CT
Ġindepend ent
ĠElect ric
Ġunple asant
f aced
Ġf oul
Ġbe ak
Ġind ians
AR Y
ixt ure
UR P
ĠRep l
P lease
m itted
Ġw agon
Ġin ex
ĠS ign
ĠC OM
Ġmy th
Ġex isted
ind s
Ġtr aces
Ġdis aster
Ġlong ed
ĠSt ard
ĠCon stitution
ĠPhil ist
Ġcirc uit
Ġroyal ty
Ġtum bled
Ġcliff s
Ġaver age
N e
m ans
ly ing
ĠA E
ĠH and
Ġsh ine
ĠF OUND
ie ge
ĠR ay
ick ly
ĠK anag
Ġconf ident
Ġinf ring
Ġstat ue
Ġdiv ine
ĠJer ry
fund raising
Ġwithdr aw
ĠBalt imore
Ġatmosp here
m ail
n uts
u a
Ġm ice
ar ie
ĠS aints
Ġle is
Ġgr an
Ġcont ented
Ġ17 9
Ġbelong s
Ġpun ished
ĠRE F
Ġstrugg led
ĠMount ain
Ġsevere ly
Ġcondem ned
Ġprohib ition
Ġasc ertain
I AM
t ell
at o
Ġl iterary
Ġn ail
Ġbe f
ĠT ill
ĠP ark
Ġex clusion
Ġno vel
ud ent
ĠK IND
ĠĠĠĠĠĠĠĠĠĠĠĠĠĠĠĠ ĠĠĠĠĠĠĠ
Ġsl umber
ĠSp art
ĠGr anny
Ġdet ect
Ġrag ged
sl avery
Ġbatt les
ĠCoy ote
R e
c ar
r idge
Ġin acc
Ġg y
ĠP ur
ĠP UN
em n
Ġsp ared
Ġcomp et
Ġfound ation
sh ire
Ġarm ies
Ġopp osition
Ġinf er
Ġmus cles
Ġerr and
ĠSer gt
Ġ200 1
Ġrefer red
Ġded uct
ĠPet ers
ĠEXP RESS
U AL
p ence
Ġp enny
ld er
ver ty
ĠW ere
th o
Ġwor sh
ap a
Ġfo lly
ĠSt ark
Ġrest less
ĠAl bert
Ġlive ly
Ġjo int
Ġele ments
TH E
Ġclim bing
Ġaffect ed
CE PT
Ġnav ig
Ġswall owed
Ġconfirm ation
m at
re a
er ate
Ġm as
ĠH y
ĠB ell
Ġsp ur
ĠE VEN
Ġgo dd
ĠAnd rew
av y
Ġtw ist
pl om
ĠĠĠĠĠĠĠĠĠĠĠĠĠĠĠĠ ĠĠĠĠĠĠ
so lete
gr am
Ġtem ples
Ġbreat he
Ġenc oun
ĠST RI
ett a
Ġaband oned
Ġange ls
Ġappar atus
Ġsear ched
L UD
Ġh om
Ġc akes
ĠM at
ĠB ald
Ġse m
Ġman kind
ĠK itty
Ġpo verty
Ġob solete
ĠĠĠĠĠĠĠĠĠĠĠĠĠĠĠĠĠĠĠĠĠĠĠĠ ĠĠĠ
Ġprof ess
ĠMc G
Ġhy per
Ġmir ror
ĠSec ond
Ġamuse ment
ĠDar z
ĠExec utive
im ony
Ġv ivid
Ġqu iver
ĠK n
Ġper f
ĠSt ory
ph as
let ter
Ġreg ions
Ġdear ly
Ġprop rietary
Ġsign ed
Ġsqu ad
Ġguard ed
Ġfro zen
Ġrecogn ize
ĠRuss ia
Ġpup il
ĠTR AD
Ġgodd ess
G et
ĠS at
Ġha ul
ĠP OSS
ĠG ib
Ġde w
Ġex ert
Ġkn elt
Ġset s
Ġrec ent
Ġext ensive
ĠSp ring
Ġprot ected
Ġ15 00
Ġdeterm ination
Ġexam ining
Ġsick ness
Ġwel com
ĠSqu irrel
ĠDem i
f ish
Ġm ate
Ġd ining
Ġl osing
-- _
ĠD IRECT
Ġli kes
Ġheart y
Ġhard er
Ġcol ours
Ġass umed
Ġbur gl
Ġpurs ue
Ġren amed
ĠFred die
Ġincident s
Ġcommunic ation
Ġcoo ked
Ġsche me
3 7
U n
] ;
_ ;
p res
Ġt ick
Ġa le
in ery
Ġh arp
at a
ĠP yramid
Ġsp orts
Ġdis hes
Ġent it
Ġwind ing
Ġstand ard
ĠCom mon
Ġmouth s
Ġdisapp ointment
Ġattempt s
ĠPRO V
Ġsens ation
Ġant ic
Ġearli est
Ġdisagree able
O ur
_ ."
b anks
w ed
Ġd re
Ġn ought
Ġsh y
Ġgo als
Ġam used
Ġ4 7
ON D
CH ANT
Ġemploy ee
Ġspo il
Ġstro de
ĠGerman y
Ġprec ise
Ġpist ol
b el
Ġm u
Ġp acked
ĠS END
ill s
Ġsh aken
Ġcr itic
orm al
ĠTH OSE
ON G
Ġabs or
Ġtrust ed
LA IM
Ġemb ro
Ġcryst al
w hy
ed ing
ll s
ĠA ng
ĠP ool
ĠR ing
ĠE astern
ag r
ull o
Ġelect ed
Ġwon t
Ġ7 0
Ġtrave lled
Ġfright ful
Ġident ification
ĠVol unte
tr ad
Ġencour age
Ġconstit ution
Ġphot ograph
Ġw ag
Ġc odes
Ġp add
Ġst amp
Ġro aring
Ġsw itch
Ġind emn
Ġmost ly
IT IVE
Ġcontin ent
ead s
Ġmem ories
Ġneighb ours
Ġformer ly
Ġrejo iced
Ġflo ated
Ġextrem ity
3 5
i ou
r icks
Ġw its
ou bted
Ġl ament
Ġe astern
ĠS on
her s
ĠG et
and o
Ġhand ful
Ġcomp re
Ġplay s
ĠRe venue
Ġide al
Ġmis fortune
Ġthir teen
anch oly
Ġreck on
ĠDirect or
ĠLie utenant
F rom
I AN
m od
Ġt on
or ks
ĠM O
Ġso ber
ell y
Ġsl ipp
ĠCl over
Ġbar bar
Ġconst ruction
Ġappro pri
Ġfee ble
Ġreve aled
Ġmel ted
ĠSil ver
rane an
Ġf id
Ġf ountain
Ġst ump
Ġover head
Ġpres ident
Ġchar ities
Ġsign ific
ĠAd el
Ġcamp aign
Ġquestion ed
Ġcre eping
Ġresol ution
Ġblank ets
Ġsuppl ies
Ġarrest ed
ĠSol omon
ĠBuffal ow
v ous
en force
ĠS in
Ġag ed
ost er
Ġlet ting
Ġsur vey
Ġprop he
ship man
Ġdev ice
Ġru ined
RI V
Ġoper ation
Ġcell ar
ĠOther s
On ly
Ġsubs cribe
Ġinfring ement
Ġinacc urate
LUD ING
l eness
Ġin her
Ġl oyal
ĠT au
Ġwh it
Ġsh an
ĠB ow
ĠC all
ĠG IVE
ĠD is
ĠO LD
ĠJ asper
Ġcl ut
Ġfl ushed
Ġown ers
Ġent reat
Ġwar s
Ġreg ulating
Ġsix th
SE QU
Ġcre ep
Ġconn ect
Ġweak ness
... ."
Ġelectric ity
Ġcraw led
ĠINC LUDING
Ġlic ensed
Ġoverw hel
h in
n ce
ĠS ur
Ġdo c
op h
Ġconf used
Ġcre st
Ġhot el
Ġball oon
Ġeight y
ĠUp dated
Ġbend ing
Ġascend ed
ĠINC IDENT
ĠHel en
6 22
J o
N ITY
e ight
p ing
Ġd umb
Ġp iled
ĠF IT
Ġsp ed
Ġen able
ount ed
Ġnow here
ĠIn ternal
Ġseem ing
Ġlo gs
ĠDe fect
ĠRe lease
ues e
ĠPhil ipp
ha ired
Ġwand er
LA C
ĠXX V
Ġdisclaim ers
ĠCON SEQU
Ġmel ancholy
Ġimpat ient
ĠSax on
ĠPut nam
ĠMER CHANT
H is
u als
our ce
Ġgo ver
Ġbl ocks
Ġper ple
Ġdon ation
ĠV II
Ġcons idering
Ġansw ering
Ġchief s
LE CT
Ġshout s
Ġest eem
Ġstreng then
ID ED
ĠCont act
Ġapart ment
Ġpill ow
Ġproof read
Ġcoff ee
LI ED
ĠREM ED
Ġhyper text
P ar
b a
o v
p ic
v as
Ġs its
Ġm ould
ĠS een
Ġtheir s
Ġtim id
Ġun re
ĠU T
Ġ4 9
Ġstud ies
Ġplan ned
ĠOh io
Ġexpect ing
Ġrepe at
ĠTit le
Ġamaz ed
Ġinstr uments
ĠWal ter
Ġshepher d
id a
ĠH an
ĠP LE
ul pt
ĠL ee
ab a
iv s
Ġbr ains
ord s
Ġhead ed
Ġdon ors
int on
ens ions
Ġrel ieved
Ġtrans cribe
Ġeffect ive
Ġstret ch
icy cle
Ġcomb ined
reg ular
Ġcommer ce
ais y
Ġcoff in
Ġmour n
Ġtunn el
Ġt iger
Ġthe at
Ġst im
ĠB ess
ĠR over
ĠE ag
Ġthere by
Ġmore over
ĠY ellow
Ġ( $
Ġrec ently
Ġcle aring
Ġport ra
Ġpurs u
Ġfro g
roo ked
Ġrout e
ĠIND IRECT
Ġbol t
ĠSU CH
Ġspin ning
Ġinterf ere
ĠUr rea
ĠVolunte ers
i ors
Ġnot ion
ĠB re
ĠP URP
ĠR oger
Ġint r
Ġsw inging
Ġmo ist
Ġel bow
aps ed
OU R
Ġjump ing
Ġself ish
OL D
ĠNOT ICE
Ġmonkey s
Ġreb ell
ĠMel an
Ġdise ase
Ġvir us
g li
n at
p ast
p ost
Ġt u
Ġf an
Ġp atch
an o
ĠS ections
ĠA ust
ri pp
Ġst are
Ġsa ving
ĠH as
ĠP oss
ĠG RE
ĠL ab
ĠE D
ĠE IN
Ġdis ciples
Ġthought ful
Ġdr am
Ġwant ing
sh aped
Ġye omen
Ġtrans cription
IG ENCE
Ġstir ring
Al as
Ġblank et
Ġabund ant
==== ====
Ġfug itive
Ġbrid le
ĠPortug uese
Ġsyn onymous
ĠSTRI CT
Ġindemn ify
622 15
ĠREMED IES
n old
Ġn ic
ĠM ess
ĠB inet
Ġr hy
ĠW AS
Ġso f
ĠL od
ol ation
Ġcomp ilation
Ġem pire
Ġmach inery
Ġprocess ing
Ġblaz ing
Ġignor ance
Ġcler k
Ġerect ed
ĠCONT RACT
Ġabrupt ly
ĠDom ain
Ġentit led
ĠPROV IDED
ĠPURP OSE
2 1
t xt
Ġb inary
Ġc ents
Ġin ward
ut t
ĠH alf
Ġr oused
Ġsu pre
um ble
Ġbo iled
Ġper pet
Ġelect ion
Ġem phas
Ġcountry men
Ġass ault
ĠRe fund
Ġfa ire
Ġmod el
Ġpaper work
Ġele g
ENT IAL
EM NITY
Ġmaid ens
Ġorigin ator
Ġgrave ly
Ġsens ible
Ġrid ic
ĠANY THING
Ġredistribut ing
ĠNE GL
ĠIND EMNITY
Ġrespons ible
De fects
ĠLIAB ILITY
Ġwarrant ies
Ġ59 6
Ġing en
Ġrenew ed
Ġdiscont inue
ĠDISC LAIM
ĠIMP LIED
ĠRepl acement
ĠPUN ITIVE
Ġdeduct ible
ĠPOSS IBILITY
ĠINCIDENT AL
ĠFIT NESS
ĠCONSEQU ENTIAL
ĠNEGL IGENCE
ĠDISCLAIM ER
a way
Ġth ieves
es c
ĠA K
ĠP E
ĠR aj
Ġbr on
ĠK ad
Ġcr ushed
Ġear n
Ġhur led
ĠĠĠĠĠĠĠĠĠĠĠĠĠĠĠĠĠĠĠĠĠĠĠĠ ĠĠĠĠĠ
Ġpen cil
Ġacqu ired
Ġimm ort
18 87
Ġcontr ast
Ġens uring
f rom
ĠB ag
Ġr ud
ĠL ine
Ġab oard
av ail
ĠIt alian
ĠU N
Ġcour te
Ġ4 8
Ġrel uct
Ġcur se
Ġmem or
Ġnews letter
Ġdelic ious
Ġsolic itation
Ġgrace ful
Ġvig or
Ġris en
Ġdemon str
ĠStep hen
olic ited
ĠCarm el
Ġdownlo ading
b ird
l icense
w ater
ic ago
ver ted
am bers
ĠH old
Ġr aw
ĠD aisy
Ġv est
Ġcan e
od d
Ġri fles
Ġsc re
Ġhel m
Ġopp osed
Ġ8 41
Ġlim it
ship s
Ġenc oding
AG E
AG RAPH
Ġuns olicited
ĠAdd itional
ĠPAR AGRAPH
Ġpatri ot
62215 41
i w
Ġm ul
Ġd ash
Ġl angu
Ġre form
ir s
Ġst em
ĠB right
Ġsu l
Ġup wards
Ġgr unt
Ġbl own
Ġdis ple
Ġim ages
Ġfir ing
Ġres idence
Ġbu b
ĠAl f
ĠBe at
Ġadv ancing
Ġswe ep
Ġviol ates
In formation
ĠEX CEPT
Ġcere mon
ĠREP LAC
ĠOWN ER
ĠFOUND ATION
3 6
A y
e z
j ud
o ft
w he
Ġh alt
Ġm ail
Ġre nt
Ġsh rew
ĠC row
ĠR and
Ġtr acks
Ġexp orting
Ġinter vals
Ġins ist
Ġcommand s
Ġaff l
Ġclot hed
Ġhuman ity
ĠGer da
Ġwest ward
ĠCont ributions
Ġcheer fully
Ġvig orous
Ġredistribut ion
ĠTex as
ĠWILL IAM
Ġ80 9
Ind eed
Ġvel vet
itud es
ĠPLE ASE
A C
c opyright
Ġin ev
ĠT y
ur ity
Ġnot ifies
Ġsa le
Ġsh illings
Ġr ows
Ġde let
Ġatt ent
Ġ9 97
ĠNew by
for th
ĠDr um
Ġaccount s
Ġloud er
ĠNe ither
ĠCr aven
Ġauthor ities
ĠFair banks
ĠDAMAG E
ĠAR RIV
80 1
ĠSecret ary
ĠACT UAL
Ġ841 16
H a
b new
f olk
n atural
o ven
Ġ 0
Ġf ishes
Ġl ur
Ġg bnew
ĠT a
ĠT im
ĠS or
Ġst ub
Ġnot withstanding
if orn
Ġout dated
ĠN one
au d
Ġar k
Ġun enforce
Ġgl ittering
Ġwr ist
anc ipation
ĠWh ose
Ġadd ing
Ġste ed
Ġpar r
Ġsub stit
Ġchar iot
Ġrequ ires
RE EMENT
Ġaccess ed
Ġrespect s
ĠEm ail
EM ARK
LA F
Ġinvent ion
Ġnon prop
ĠAG REEMENT
Ġaccompl ish
Ġmurm ur
Ġunl ink
Ġfeed ing
Ġredistribut e
Ġrare ly
Ġpos itive
ĠSn ake
Ġ45 57
ĠPG LAF
ĠDISTRIBUT OR
ĠLIAB LE
ĠRedistribut ing
ĠRedistribut ion
Ġwre ck
Ġinval idity
ĠCreat ing
ĠIR S
ĠDON ATIONS
ĠCompl iance
ĠREF UND
ĠTRAD EMARK
trad emark
ĠREPLAC EMENT
Ġdelet ions
Ġ997 12
Ġgbnew by
Ġunenforce ability
Ġnonprop rietary
4 7
c ase
Ġc yl
Ġp ark
Ġv ow
pl ed
Ġco arse
Ġdis ob
Ġpo em
ci er
aid a
Ġimp ulse
ret t
Ġperform ance
ĠPl ace
Ġcomb at
ĠThom pson
Ġinj ury
ocr atic
ĠMart in
ĠDarz ac
R AN
Ġre aches
ri end
ĠB ird
Ġhorse men
Ġinv ite
Ġpost s
Ġtail or
Ġfier y
Ġcup board
Ġsevent een
Ġbord er
ĠDISTRIBUT E
ĠCab inet
V v
X X
Ġh oof
ar c
Ġl ing
om er
Ġbe er
Ġbe es
Ġha z
ĠB ur
Ġr ushes
ĠO ri
Ġj u
ĠK illed
Ġacc used
Ġind uced
Ġimp ressed
Ġ4 6
Ġvo c
Ġrel ative
Ġlaw yer
uff led
Ġval iant
Ġb inding
Ġl ance
ĠS ER
ĠB ee
ĠF ree
Ġdid st
ĠĠĠĠĠĠĠĠĠĠĠĠĠĠĠĠ ĠĠĠĠĠ
Ġnew ly
Ġread ers
Ġprop osal
Ġstrange ly
Ġce iling
Ġwond ers
ĠTit us
Ġleap ing
Ġappre hens
Ġreflect ion
Ġprefer red
3 9
h al
p it
Ġc aval
ĠG en
ĠG host
Ġch ances
Ġsp ots
Ġrem ote
Ġact ions
Ġstri ps
Ġvisit or
ĠChief s
Ġthank ful
Ġcolon ists
ĠStr ong
Ġcrim son
Ġdiscipl ine
c ont
h ild
Ġw ot
Ġp ip
ad ers
ic ate
ic ial
id able
ĠD ynasty
Ġsp ider
Ġj aws
Ġar d
Ġcl osing
ĠBut ter
ick ens
Ġsw ore
Ġsw ell
Ġdr aught
The se
Ġhel met
Ġdisc our
Ġsum mit
Ġtail s
Not hing
Ġden y
Ġgrou ps
Ġpress ing
Ġmam my
Ġharb our
Ġglim pse
T imes
_ --
Ġs inking
Ġg own
Ġas ks
Ġsh aped
Ġr ats
ab out
aw are
ĠU tter
iet h
ets y
ĠSm iling
Ġir regular
Ġmus k
AS T
sy ch
Ġconce ived
Ġlod ges
Ġmotion less
Ġlandl ord
s u
al ia
ĠS uff
Ġst ove
Ġk icked
Ġwor m
Ġv ault
av ilion
Ġper sec
Ġrepl ies
Ġlaw n
Ġthy self
Ġpol ished
crib ed
Ġbrave ly
Ġstrugg ling
Ġcook ing
Ġrecord s
Ġprec aut
Ġcaut iously
Ġuncons cious
o ons
r ice
ĠA st
ri ft
ĠM orse
ĠC O
Ġor ch
ĠF er
ol is
ĠO x
Ġkn ot
Ġbr ut
Ġbo nds
IN E
Ġmer maid
Ġinv itation
Ġill ustration
Ġprof essor
Ġpath s
Ġden ied
ivers ity
Ġawa ited
L e
h or
r ine
Ġ ze
ĠS ult
ĠC arp
ĠC arr
ĠW r
th ou
Ġpl um
Ġgr av
Ġche ap
Ġbeh alf
ĠNor a
Ġshell s
Ġadmin istr
ĠCott on
U E
m ission
t was
Ġt ough
Ġs iege
Ġb ust
on ies
Ġin it
Ġe ternal
ĠS urely
Ġfor ks
Ġli p
Ġsm oking
bl ance
oss ie
Ġmag istr
Ġtrans port
Ġprot ested
Ġsatisf y
Ġremark ably
ĠFred er
Ġfarm ers
Ġuncom fort
ĠBeaut y
c ies
t an
Ġf aded
Ġd ense
Ġd iver
Ġp ound
ad ise
Ġsh ower
ĠP oint
Ġde af
ĠCh icago
Ġput s
Ġsuccess ion
Ġbag s
ĠSk unk
Ġpill ars
Ġwhir l
Ġbul k
gre en
ĠCa es
c a
p o
Ġf ist
Ġc ush
Ġl am
Ġl ump
Ġwhe at
os qu
ĠJ ason
Ġen qu
Ġstr ain
Ġfo es
Ġret orted
Ġlead s
Ġfr own
uss y
Ġmurd ered
Ġinvent ed
Ġmead ows
Ġarch it
Ġgig antic
Ġfert ile
A CK
l ur
Ġp ushing
ĠT W
Ġha il
ĠP il
ul c
ĠL ESS
iv eness
ĠWith in
ĠDan ish
Ġstro ve
Ġsurr ounding
Ġid ol
Ġdece ived
Ġyield ed
ĠCal iforn
Ġmarve ll
Ġbough s
" .
4 4
Ġf asc
Ġst ooped
ĠB etsy
ĠC old
ĠF ive
ĠJ ay
Ġcl aw
Ġsc ulpt
Ġret ire
Ġnat ivs
Ġhear th
Ġmean while
ĠAd am
Ġdecl are
Ġwarm th
Ġmess engers
Ġlif ting
Ġrejo icing
ĠMead ows
Ġremind ed
avail able
S ay
n or
Ġb other
it ating
ĠM E
Ġch orus
ĠR ight
ist en
el ed
Ġdown stairs
Ġbo iling
Ġco ats
ink led
Ġpart ing
ĠV III
Ġel o
Ġmer rily
Ġtrad ition
Ġadm ire
Ġlim b
Ġconc ent
IC K
Ġspirit ual
ĠMead ow
Ġtot al
I bid
M iss
z u
Ġt read
ri ous
ĠM et
ĠR am
Ġbreat hed
Ġerr or
Ġneighbor ing
Ġcler gy
Ġfanc ied
Ġtid ings
ĠPed ro
ĠMERCHANT IBILITY
ĠLESS ON
b out
Ġt une
as hes
ri an
ĠM a
ĠM ist
and a
un ks
ĠO sw
Ġpro clamation
Ġper ish
Ġpo ems
ĠAl amo
Ġed itor
Ġpol ic
Ġjoy ous
Ġcand les
Ġcommun ity
Ġnav y
ĠFri ar
Ġindign ation
orth y
Ġrele ased
Ġstruct ure
ĠAlf red
Ġshrew d
U RE
e er
Ġm ixture
ĠT ob
ĠM Y
Ġkn ives
Ġgo ats
Ġar chers
pt on
Ġad orn
Ġcar ries
ĠAll ison
Ġdec ent
ĠCH ILD
Ġ17 8
arer s
Ġcruel ty
Ġarrange ments
Ġschol ars
Ġsquad ron
Ġwelcom ed
se ven
Ġor nament
ĠL ars
Ġint im
Ġarm or
ĠMar g
Ġdesp ite
Ġcirc ular
Ġhar vest
Ġchap el
Ġavo ided
Ġbrief ly
Ġgrie ved
Ġencour aged
Ġpir ates
S u
d id
g d
Ġth a
ĠR at
ĠN obody
ig es
Ġun p
ans as
Ġhas n
ĠU rs
ĠCh all
ung s
att ing
Ġspr ings
._ --
ĠAnt i
Ġtender ly
Ġentertain ed
ĠARRIV AL
A f
V E
W ould
h ire
i y
l im
Ġb i
Ġp aw
ĠT in
ĠR ead
ĠJ ess
Ġcr is
Ġbur y
Ġlad en
uri ously
Ġsol itary
Ġ186 4
Ġspread ing
ĠFl ossie
Ġenjoy ing
Ġsurr ound
ĠTur key
yl on
Ġmat ches
ĠTex ans
Ġgri p
ĠHor ace
Ġchallen ge
ĠIce land
i ated
nd ing
Ġd ur
Ġd orm
ar on
Ġhe ars
Ġwe igh
if ull
Ġor ange
Ġout line
Ġfl owed
ink er
Ġold est
Ġ5 5
Ġsn iff
ĠBe h
Ġsince re
Ġstud ents
Ġled ge
Ġtor ch
Ġwise ly
amb oo
ĠĠĠĠĠĠĠĠĠĠĠĠĠĠĠĠĠĠĠĠĠĠĠĠĠĠĠĠĠĠĠĠĠĠĠĠĠĠĠĠ ĠĠĠĠĠĠ
Ġdism ay
ĠShann on
Ġfavour ite
ĠEag le
3 8
a us
i pper
t ales
w all
Ġs ins
or o
Ġg iants
st ri
ay an
th rop
ong s
Ġab st
ĠN aida
Ġj aw
Ġbr ute
Ġbl uff
Ġass ume
Ġbeaut ifully
Ġpret end
ĠPer cy
Ġclaim s
Ġtro op
Ġcustom s
Ġactiv ities
Ġdiamond s
Ġobv ious
Ġdus k
oubted ly
c od
t a
Ġb rig
Ġd irt
es y
Ġg otten
im med
ĠA be
Ġr ot
ie nd
ĠN ag
Ġany way
pl ing
Ġrep ent
ĠAr t
Ġcap acity
Ġdou bted
Ġdro pping
Ġcommon ly
Ġprincip ally
Ġsorrow ful
ĠCount rey
ĠXX X
Ġfill ing
ĠEar l
ĠOsw ald
ĠUrs ula
G HT
p ress
in ction
Ġw iped
on se
Ġl ions
id o
am an
ĠM ong
Ġthere with
Ġpe as
IS S
Ġhorse back
Ġspeak s
ĠGe org
Ġhar ness
ĠEar ly
Ġune asy
Ġconfess ed
Ġric hes
Ġacknowled ged
ĠLars an
c row
m our
Ġt un
Ġh ook
ed ar
Ġc ream
Ġl ass
st able
st aff
ĠH ence
Ġun just
Ġsc ant
Ġshall ow
.. ."
ER E
Ġins p
OU S
Ġpossess ions
Ġthick et
Ġ15 0
Ġdiv ision
Ġdecided ly
Ġneg lected
ĠSu ppose
Ġexch anged
oop ing
Ġjack et
ĠAccord ingly
p gd
Ġo le
Ġo we
le ans
ot ions
ĠS kin
Ġfor b
ĠM ow
ĠD uck
orn ing
Ġdes erve
Ġspe cul
Ġmo or
Ġhum or
Ġdou b
Ġesc aping
Ġprop ose
Ġsend s
Ġthick ly
Ġremain der
ENT S
ĠGl ass
Ġblock ade
ĠWhe ther
Ġliqu id
Ġdaz z
Ġobserv ations
pgd p
F F
M urd
i ens
Ġm art
Ġm orrow
Ġto ken
an im
ĠH ast
Ġsh iver
ĠF if
ol as
un ter
Ġar ts
Ġaf ar
ĠSt utely
Ġstri kes
gl ass
Ġconsider ably
Ġquar re
Ġrul ers
bo ats
Ġve il
Ġoccup ation
ĠMc K
ĠEr nest
Ġmanufact ure
Ġhaw k
Ġdisg ust
Ġunse en
ĠPhilist ines
b ug
b ably
f o
Ġp avilion
Ġg arrison
ĠT en
Ġre ception
ĠA M
ĠE N
ĠN etta
ag ers
Ġtr a
Ġpe op
Ġper ch
ĠSt ories
Ġrem o
ere rs
Ġmar sh
li ver
Ġexpl os
Ġart ist
Ġwild ly
Ġtrans fer
Ġsit uated
Ġmus ical
Ġemb arr
ĠCle ment
ĠSult an
L ittle
S m
p ot
w ind
Ġb ud
Ġh ight
Ġy oke
ĠH AR
ĠP ost
Ġr asc
Ġwho ever
Ġsp y
ĠE ben
Ġco co
ĠSt e
Ġsc ru
Ġpass ages
Ġthought fully
Ġcour ts
the l
ĠBe ck
Ġmeet ings
gr ims
Ġsurpr ising
Ġmis er
Ġsad d
Ġremember ing
Ġcompan ies
Ġsecret ly
Ġdress es
Ġgrave l
Ġow l
ĠMer ry
Ġhurry ing
Ġgle aming
Ġmeas ured
Ġenthus i
Ġtrump et
Ġancest ors
O r
O tho
r ise
Ġb icycle
ent le
ĠS id
Ġsu ng
Ġv ibr
Ġj ars
Ġro sy
Ġcl apped
Ġco b
ec hes
Ġoffic ials
Ġfun eral
Ġrob bed
Ġconv iction
ĠTur k
Ġban quet
Ġlin en
Ġess ential
Ġpolit ics
E Book
M other
T S
Ġg asp
id ays
Ġse al
Ġher ds
Ġshe er
ĠD ur
Ġch ur
Ġman ey
Ġpro dig
Ġj ug
Ġbr u
ear ing
Ġac id
ump ed
Ġfoot ball
Ġsleep y
Ġbar rier
Ġblood y
ĠMar j
Ġmot ive
ĠHar riet
Ġbill s
Ġrail way
Ġafford ed
ĠPers ian
Ġornam ents
ĠCaliforn ia
. -
v ant
Ġp ony
Ġwas ted
ain ty
ĠH s
ĠC amped
ĠG orge
em en
ang s
Ġter ribly
ĠV i
Ġhome ward
Ġinst ances
Ġhapp ening
Ġneed n
Ġadv ise
Ġpleas ing
Ġcompl ain
ĠSee ing
ĠCar l
Ġrough ly
Ġcircumst ance
Ġdi plom
ĠScar let
Ġforbid den
Ġindiff erent
adem y
Ġinfer ior
Ġbron ze
4 6
f are
p ie
s al
Ġ ]
Ġs om
Ġb ind
Ġn ormal
Ġbe llow
ĠS ay
Ġsh apes
ĠG ud
Ġhave ing
ul ations
ĠL es
Ġal as
ĠE ight
ig aw
ud ed
Ġcr acked
Ġcomm ence
Ġread iness
Ġche cked
Ġel abor
Ġlear nt
IR D
ĠIsrael ites
Ġcous ins
Ġappet ite
i our
u ously
in th
ing ton
ĠI d
ge red
ĠF A
Ġal oft
Ġgr asped
Ġpers ist
Ġmon sters
Ġart ific
Ġbar rel
ĠPer se
ik ki
Ġtast ed
Ġbull et
ograph ical
Ġhol iday
Ġstrict ly
Ġhosp it
Ġinvol ved
Ġmanif est
Ġuncomfort able
Ġconcent r
Ġh ounds
ic ular
Ġre ather
Ġk ettle
Ġman s
ĠO b
ĠO m
Ġqu oted
ĠSt ra
az ine
Ġ5 7
Ġfair ies
Ġdri ll
Ġobject ion
Ġdream ing
Ġdisp atched
ĠOr leans
Ġcharacter istic
Ġwis er
Ġrecogn ised
Ġoccasion al
Ġeduc ated
ĠMR S
ĠGaw aine
Ġdisgu ise
Ġrespond ed
d own
h ap
i ate
Ġs ly
Ġh anged
ĠT our
ly n
ro d
ro ll
ĠP erson
ĠR ad
ĠR el
Ġpe b
ĠV al
Ġform idable
oll and
ĠGr ant
Ġpret t
ĠEnglish men
Ġstri pped
RO W
Ġexc iting
Ġstat ues
Ġsatisf actory
Ġmad ness
Ġmach ines
Ġbas is
Ġdistingu ish
Ġblaz e
ĠCoun cil
Ġcontem pl
Ġgest ure
a ide
n ir
p art
Ġt act
he art
ĠM iles
ĠB ack
Ġgo al
au a
Ġus es
are t
cl oth
Ġdes ires
ph in
Ġte legraph
ĠUn iversity
Ġmother s
Ġaw e
Ġho arse
Ġtrad ers
ĠMar quis
Ġfaith fully
Ġsevent h
Ġtest imony
Ġuncom mon
Ġterrif ied
Ġchamp ion
Ġach ieve
Jo hn
h ouses
k ers
Ġw ages
Ġd ict
Ġre ef
ĠS ic
ĠS ey
Ġfor s
ĠA ld
Ġst urd
Ġan on
Ġat h
ĠL inton
ure ka
Ġfl owing
Ġper ished
ci a
Ġhead master
Ġacc ur
Ġdef ense
Ġrich ly
ees e
Ġorgan ization
Ġbuffal oe
ĠEliz a
Ġcher ry
Ġfatig ue
3 3
h ave
o ch
r ality
Ġt as
Ġh ats
ĠM uch
Ġr aven
ab bed
ĠE th
Ġle agues
Ġpl uck
ip ated
Ġwhere in
Ġmust n
ĠV ye
Ġsub mit
ĠNo v
ats on
Ġpay ment
Ġhast y
Ġenjoy ment
Ġbab ies
Ġsurv iv
Ġstern ly
Ġunivers al
hum an
_ .,
e qu
Ġh int
Ġl ecture
Ġn erve
Ġbe e
ĠH ud
ĠM ink
Ġch annel
Ġal ert
Ġcan vas
Ġcl asped
Ġad vert
Ġmay st
Ġunder ground
Ġdiff er
Ġhigh way
Ġext end
Ġgrow led
ĠĠĠĠĠĠĠĠĠĠĠĠĠĠĠĠĠĠĠĠĠĠĠĠ ĠĠĠĠĠĠ
Ġappro val
Ġbound s
Ġproceed ing
ĠChar ter
Ġjud ged
cket t
ĠDor a
Ġcou ch
Ġlabor atory
ĠIm m
ĠEst elle
Ġinquir y
Ġnewsp aper
ĠChall enger
T Y
Ġw icket
Ġd arted
Ġl ame
Ġbe am
ĠI X
ic ious
ac hel
ĠD er
ĠR hod
Ġal way
iv ity
Ġbr ack
ĠTh y
Ġri bs
Ġref r
Ġvi o
ĠCr us
gu ard
Ġrag s
Ġeleph ants
Ġtrait or
l oe
m aking
s kin
u cc
Ġm ou
Ġp our
Ġy ds
Ġwe ird
ĠG ard
ant e
ĠE gbert
ag an
Ġj ail
Ġstr ings
Ġfo am
Ġsc out
omet er
og s
ĠRob inson
IC H
ien cy
Ġemploy ment
ĠEvery thing
OM E
Ġlamp s
Ġsore ly
Ġproc ure
Ġconsist ing
Ġobed ience
nat ured
ĠUtter bol
ĠSey mour
u ity
Ġwh oles
ĠA B
ĠA D
ĠC L
Ġso oth
th y
Ġch anced
ĠR un
ag ged
aw ned
Ġ4 1
Ġtrad er
Ġ7 5
Ġstud ying
Ġtrave ls
Ġperfect ion
Ġspring ing
ĠSl ow
Ġdrag ging
ĠSen ate
Ġrebell ion
Ġcris is
A z
E AR
m ag
Ġto e
Ġp ouring
Ġn erves
im a
Ġst ool
ĠC ir
ĠP ry
ĠW atson
Ġde arest
Ġwor ried
ĠR ec
ast ing
ĠO liver
aw l
ink le
ĠCh loe
Ġbu zz
Ġill ness
Ġ17 6
Ġregard ing
ĠUp m
Ġoper ations
Ġimpro ved
ĠAfric an
Ġrespons ibility
ĠIll ustr
Ġborrow ed
ĠFo anna
Ġcy cle
Ġencoun ter
P ER
m ates
w ixt
Ġf itting
Ġto oth
an as
Ġn ests
Ġg at
al ay
ir l
ĠP el
ĠP ope
ĠR ey
Ġex ult
um a
Ġbr ace
Ġco in
Ġdis order
ick ing
ĠInd ies
Ġdri ver
Ġdest ined
Ġorigin ally
Ġresp onse
Ġkey s
Ġexerc ises
Ġsteam er
Ġconsequ ences
pir ation
Ġnarr ative
ĠKent ucky
ĠMow gli
L L
O ld
b ia
c ourse
g ate
u ine
y g
ay lor
Ġwe e
Ġan k
ĠC alled
Ġk ins
ĠF olk
ol ved
Ġsp arrow
un a
Ġpro claimed
Ġqu it
ĠK or
Ġcont ract
Ġloo s
Ġsmall est
Ġprov in
Ġrepl aced
Ġrel ax
Ġyell ed
Ġring ing
Ġvict ims
ĠEvery body
Ġadop t
Ġnegro es
ĠCro ckett
ĠHend ricks
Ġprecise ly
a ired
b ons
g a
m ill
n i
y m
Ġf ring
ĠS CH
ĠH um
Ġsh ove
Ġr owed
Ġsl ide
Ġste aling
Ġmod est
Ġann ounce
Ġinhab ited
Ġhistor ical
ĠWy att
bal aua
ĠUpm eads
f old
i ac
Ġd art
Ġp iano
ĠT ag
Ġst umbled
Ġsh ots
Ġr ained
ĠD ulc
ĠR ak
Ġal iens
Ġri pp
Ġche ese
Ġsun ny
Ġsn ar
Ġfort night
Ġtrave lling
Ġver se
Ġ186 0
Ġopin ions
Ġgro ve
Ġpig s
Ġnav al
Ġtreas ures
Ġencamp ment
Ġmarvell ous
ĠHud son
b ecause
t rees
ou bt
ou che
ill er
ĠH ay
Ġsh ields
Ġall owing
Ġdo ings
Ġch um
ol ent
Ġsp here
ĠE ureka
Ġgr acious
Ġbo il
ĠU t
Ġdes cent
omet hing
Ġopen ly
Ġsn atched
Ġsqu ee
te enth
Ġdev ils
Ġdev otion
Ġmot ives
ĠST OR
Ġoccup y
Ġinqu ire
Ġconse quently
Ġpick ing
Ġhes itation
ĠSig mund
Ġbirth day
Ġsolemn ly
Ġtend ency
Ġproc ured
ĠJon athan
Ġgy mn
ĠAdel aide
C ertainly
z er
Ġp orts
ot a
Ġst ake
ĠB OOK
ĠP udd
Ġr aces
ĠR es
ĠO l
Ġdes olate
Ġworld s
Ġvar ied
Ġtem p
Ġang uish
Ġneck s
Ġdisp ute
Ġcomfort ably
Ġspo iled
Ġrub bing
Ġtur f
ĠMin ister
Ġunw illing
Ġpromin ent
ĠRem ember
Ġbetr ayed
Ġpolite ly
Ġpreced ing
umpt ion
Ġworsh ipped
ĠBeat rice
H ullo
ĠM ir
ĠD uke
Ġam using
ĠK ab
Ġrem edy
Ġcr ouched
Ġind uce
Ġcir cl
Ġstri fe
ĠRo om
Ġdemand s
ĠFl ore
Ġnorth ward
Ġgro aned
Ġeast ward
Ġprim itive
ĠGold en
Ġdisch arge
Ġimprove ment
Ġcultiv ated
Ġcong rat
Ġtravell ers
Ġscre en
A ny
B less
v is
Ġw oo
ĠT or
Ġe h
Ġwh ipped
Ġre ass
ĠA ustr
ch ild
ĠC ub
um m
Ġli ken
urn ed
Ġcol oured
ĠDe cl
Ġreal m
Ġadm ired
Ġjourney ed
Ġgar ment
Ġleap t
ĠCamp bell
Ġgle am
Ġimpat iently
Ġwrit ers
Ġnin ety
E very
m ay
t own
Ġh uts
Ġhe aps
le gs
ow es
ĠB RO
Ġr ay
Ġr attle
Ġpl ot
Ġcl ust
ĠK ate
Ġpre jud
Ġend ing
Ġmar ching
Ġbro od
OR D
Ġfear ing
ĠRe g
Ġdoubt ful
Ġexpress ions
Ġstret ching
Ġapplic ation
Ġlack ing
ĠRock y
Ġecho ed
ĠTed dy
Ġleis ure
ĠDulc ie
F ather
W ARD
c up
e et
s is
w ould
Ġp aces
ĠM ak
Ġr amp
Ġbut cher
ĠL ar
ĠL ater
Ġcl inging
Ġfl av
Ġspe ck
Ġem igr
Ġoccur s
Ġlod ging
Ġrepresent ative
Ġfaint ly
Ġflo at
Ġgen uine
ĠDE F
Ġundert ake
Ġbord ers
Ġhol idays
Ġintent ions
enc ies
ĠInt o
Ġench anted
Ġwig w
Ġze al
A meric
g ency
u bl
Ġh ob
Ġc rooked
Ġd ainty
as il
ĠThe bes
ĠH unt
Ġshe lf
ĠD ep
Ġv iz
Ġpl edge
Ġqu aint
Ġfl ocks
ĠSh aw
Ġchar ity
ĠBe ast
ĠNor ris
Ġcur led
use um
AM P
Ġbell y
Ġeld ers
Ġsusp ended
Ġscream ing
Ġinstit utions
Ġslee ve
Ġabol ition
Ġcam era
4 5
W ait
Ġa er
Ġa ided
in ois
Ġc alf
Ġp anic
Ġn onsense
Ġst un
Ġst amped
ĠH op
ĠP o
ĠW at
ast e
Ġex clus
Ġtr ous
Ġapp e
Ġsl id
Ġsl im
ult ure
Ġass igned
Ġmin or
Ġmin es
Ġbright ly
arr is
Ġjud ges
Ġhost ile
Ġrub ber
ĠFar ley
Ġdig ging
Ġune as
Ġmour ning
ĠConn ect
Ġdil ig
ĠButter fly
Ġadministr ation
R EN
l ings
Ġt ank
Ġb apt
it an
Ġhe el
Ġan aly
ĠC overed
Ġch icken
Ġsp un
ĠE llen
Ġbo b
Ġbet wixt
Ġgl are
Ġgl oves
und ered
Ġcons ul
Ġinc on
ĠPr arie
ĠTr ans
ĠRe v
ĠSe ven
Ġsweet ly
ĠCr ab
Ġneg ot
Ġthreat ening
Ġwhist ling
Ġretain ers
Ġcompar atively
Ġnurs ery
Ġpron ounced
ĠBudd h
Ġemp hat
o ked
p on
u k
Ġp ump
ad or
ĠG il
ĠN ome
un ched
Ġpl ent
Ġwould st
ĠU s
ĠCh op
Ġrep ublic
Ġ4 3
Ġvis its
Ġadv oc
Ġver ity
Ġmain ly
Ġsouth ward
LA ND
Ġhealth y
Ġrecord ed
Ġreve rence
Ġpor ch
ĠSqu ire
Ġscrew s
Ġexperien ces
ĠIll inois
Ġpier ced
ĠFrancis co
Az yr
C on
H o
r im
Ġd yn
ĠM arsh
ĠF ortun
Ġv ap
ab outs
our ces
ĠK now
Ġdes er
ĠV ict
ĠWh atever
ĠAt hens
ĠAl most
Ġprom ises
ĠCl iges
Ġdec re
Ġwin ning
Ġscr atched
Ġdesign ed
Ġstock ings
Ġlock s
Ġswall ow
Ġgrin ned
Sh all
Ġtal ent
Murd o
ĠPerse us
ĠCharter is
_ .--
Ġt ribute
in ter
Ġo ven
it ched
Ġc ul
ke l
Ġsu lt
ge ant
ĠD et
art ment
ĠN ich
ĠO w
ĠO cean
ĠAs s
Ġopp ressed
ĠCon st
Ġtrans formed
Ġcourt esy
Ġneg lect
Ġproud ly
Ġgrim ly
Ġtransl ated
quis ite
Ġkneel ing
Ġspecim en
w ife
Ġb unch
is er
Ġm ound
ic ation
Ġse izing
all els
ĠD a
ug s
Ġexpl o
br ance
Ġswe at
ific ations
Ġest im
Ġbab e
ĠMc Murdo
Ġcho ked
Ġdesign s
Ġwhist led
Ġfortun es
Ġber ry
ĠGeorg ia
' ;
D oes
h alf
p oint
Ġc ore
Ġc ig
es p
ĠC AR
ĠF a
ap ted
em ly
Ġv ital
ĠR ound
Ġare a
ag en
Ġwork ers
ount ered
ress ing
Ġsw arm
Ġspe cially
Ġrep air
Ġrec alled
Ġsk il
ĠSh an
Ġbest owed
Ġbelie ving
ĠX I
Ġpat iently
sc ape
Ġvalley s
Ġheaven ly
ĠMed iter
Ġcell s
Ġaband on
Ġiv ory
Ġsof a
Ġliken ess
j ac
l an
Ġt ack
Ġs ed
Ġp sych
Ġl ane
Ġg ap
Ġg ale
ĠA men
ur a
ĠC ru
Ġr ider
Ġv ul
Ġbr avery
ject ed
ud ence
Ġper ched
Ġdes erved
ott ie
Ġem otions
ĠCl ay
ĠCl are
ĠCl owes
Ġinv ari
Ġthick ness
Ġenc ountered
Ġap olog
ĠEd ith
Ġtor rent
Ġund oubtedly
Ġrejo ice
Ġinstruct ed
ĠOut wood
Ġcitiz en
uls ion
Ġcrim inal
Ġcomment ed
Ġsupre me
Ġparr ot
A IL
t ies
Ġc aves
Ġp ouch
im mer
Ġst ately
ĠM as
ĠF O
ĠR ic
Ġint imate
ci ously
Ġsc ared
ne cess
Ġem ancipation
Ġgu ided
az ed
Ġass ert
Ġsn akes
Ġaw aken
Ġcur ved
Ġfort ress
Ġcompl aint
Ġcapt ives
Ġcrew s
ĠJan ie
Ġtravel ers
Ġattend ants
Ġproble ms
Ġindust rial
Ġexha ust
Ġhoriz ont
Ġprivile ge
ĠPudd in
ĠMediter ranean
b in
c overed
c alled
f ashion
g room
k o
in ated
in ating
re m
Ġb ully
Ġc ad
ĠT ower
ac er
ĠM ade
Ġsh orter
Ġsu ited
ĠD isk
Ġcon j
Ġsl ack
Ġchild ish
Ġgener als
gr own
Ġcast ing
ĠX II
Ġsuccess fully
ĠWilliam s
Ġhy mn
ĠColl ins
Ġresc ued
Ġmaintain ed
Ġaffection ate
Ġjew el
ĠJud ge
Ġcomr ade
Ġamb ition
Ġwre cked
ĠCur rent
Ġdismiss ed
h ill
or al
Ġhe m
Ġg or
st e
ĠH arrison
ĠM ent
ĠF ro
ĠE ric
Ġtr am
Ġbo red
Ġsw orn
Ġcar pent
Ġfront ier
go ing
ĠBab ylon
ĠTur tle
Ġpra ised
Ġretain ed
Ġdrift ed
Ġdeb ate
Ġbetr ay
Ġrav ine
Ġrom ance
bur gh
Ġpudd ing
Ġdre ary
d ened
r ance
t ail
it ors
Ġp ail
ad le
al an
ĠB urn
Ġde alt
ĠO bed
Ġint ently
Ġcr ust
Ġdr own
Ġend less
ars on
Ġround ed
Ġ5 4
ĠX IV
Ġhero ic
ĠJoseph us
ĠGl ad
St op
Ġmir th
ĠJac ques
Ġaccompany ing
Ġshru g
Ġbond age
Ġtreacher y
Ġcaval ry
j ah
r ors
v i
at oes
it he
Ġc el
on gh
ĠT aylor
Ġe f
Ġsh ops
Ġk ite
ĠL ottie
ĠD uc
Ġfe ud
Ġle ve
ĠHe b
Ġlight er
oll o
ĠAll an
Ġca res
Ġobject ed
Ġcal am
ĠSl ide
Ġconce ive
Ġfavor able
Ġvers ions
Ġfavour able
Ġgreet ing
ĠDel aware
Ġox en
Ġembr aced
Ġpant ing
Ġchuck led
Ġtempor ary
m ind
v ain
Ġw reat
Ġb ald
it ar
Ġm es
Ġp enn
Ġp ige
Ġl ain
Ġg al
ĠA ch
ĠB at
ĠP op
Ġher mit
ĠG oose
ist ry
Ġgo ss
ĠJ os
Ġper p
Ġsc ow
ĠAs h
Ġ4 2
Ġmon ot
Ġ5 6
Ġext ending
IT IONS
ann ah
Ġstay ing
Ġpat ron
Ġalt ered
Ġcolon ial
Ġep is
Ġfrag ments
Ġdecor ated
Ġstub born
a um
t able
w oman
Ġf ret
Ġc ash
Ġm s
Ġl ent
ĠS ac
Ġsa uc
and ra
ag u
ĠJ a
are crow
Ġover l
ild ing
Ġfl ashing
Ġsm ashed
Ġrep rodu
Ġser ving
Ġ5 8
Ġass isted
Ġass erted
Ġwide ly
enn ie
Ġproceed ings
Ġdread fully
Ġtrem ble
OO L
Ġdiscover ies
Ġcomb ination
ĠSk ins
Ġcaut ious
Ġharb or
Ġawa iting
Ġattain ed
ĠJell ico
ĠEver ard
Ġbewild ered
Ġburgl ar
ĠDrum mond
Af ter
ĠBeh ind
S e
S urely
Ġc ured
ic oe
ĠB ree
ĠW ay
est one
ant ing
Ġtr aged
Ġcan al
ĠK o
Ġsm ith
Ġcr azy
Ġres ent
Ġsk ies
Ġspeak er
Ġvol umes
Ġspr ung
ĠChar ley
Ġdeal ing
ĠSam my
Ġbull ets
Ġmut ual
Ġwitness es
Ġbas in
Ġvirt ues
Ġsob bed
Ġimprison ed
Ġinev itable
ĠCaes ar
f ire
v y
he ard
Ġb amboo
Ġp ul
Ġl id
ĠT s
ĠS ize
ĠB eth
Ġex quisite
un ci
um my
Ġpart ner
Ġold en
ĠU nt
Ġdist ressed
Ġcar go
Ġend ured
Ġsur m
Ġ6 6
Ġbes ie
Ġtrad ing
Ġgard ener
Ġcomfort ed
Ġprev ailed
Ġpit ched
Ġaddress ing
hold ers
Ġmir acle
Ġwhir led
ĠBurg ess
Ġnewsp apers
plic ity
ryn hild
ĠGRE AT
= .
W as
_ ,"
Ġw ider
re ction
ed e
om i
Ġre igned
Ġan igh
ĠP ret
ard e
ĠD oes
Ġtr act
Ġwork men
hen omen
Ġdist inction
ru p
Ġref res
Ġdel ayed
Ġinter val
Ġbig gest
ĠPr ot
Ġins erted
Ġsim pl
Ġbound ed
Ġbreath less
Ġdoll ar
Ġpersu ade
Ġestablish ment
Ġcu ps
Ġcolumn s
ĠDecl aration
Ġf uss
Ġl av
Ġg au
ĠS C
Ġwe ighed
am ouche
ĠH ipp
Ġr ash
Ġv ice
ĠE ve
un y
ĠJ ad
Ġj am
Ġdis like
ĠY e
Ġpar lor
Ġcertain ty
Ġadvant ages
Ġresem blance
Ġwitness ed
ĠBoy s
Ġninet een
E n
b ot
b our
c ular
m un
r ound
y our
Ġb ann
Ġl amb
Ġyou ths
ĠH ER
ĠM eth
Ġsh udd
Ġdo d
Ġv ile
Ġv ary
ol a
ol i
ĠE b
ĠHe ll
ang o
ĠV d
Ġright eous
ĠAt t
pe are
Ġ4 4
Ġstrong est
Ġappro ved
Ġlow est
Ġlim its
ĠMer cier
Ġdust y
Ġhes itate
Ġbride groom
Ġtempt ed
Ġconvey ed
Ġpear ls
Ġportra it
ĠSlide ll
w r
w ine
er ity
Ġd ynasty
ĠS leep
ĠH olland
ĠB umper
ĠL i
Ġch ased
ol ph
ĠN ational
Ġoff ence
Ġpe ered
Ġpo nder
Ġspe eches
ĠThere upon
Ġcons ulted
Ġste ered
ib ilities
Ġprom ising
Ġobser ving
Ġmod e
Ġbow ling
ĠQu oth
Ġforget ting
Ġassist ant
Ġheight s
ĠSu pp
Ġcult ure
Ġreck less
Ġembr ace
Ġinstit ution
Ġtyr ant
Ġinfect ed
Ġprosper ity
Ġbug gy
cod ile
ĠGud run
Ġtrous ers
p ill
v a
Ġa uth
ut her
ĠA way
ĠM ISS
ĠB rynhild
Ġme ek
ul ars
ous in
Ġar ist
Ġcan st
Ġover fl
ĠSo ld
ens ity
Ġsur ge
Ġkind red
OU SE
Ġremem brance
ĠEnglish man
Ġsecret s
Ġdiv ide
zz le
Ġtong ues
Ġcrown ed
Ġtear ing
Ġdisch arged
____ ____
May be
Ġinspect ion
ĠJell icoe
Ġinfect ion
Ġninet eenth
Ġtwink ling
Ġphysic ian
Ġton ight
Ġceremon ies
Ġsturd y
g one
in ished
Ġto y
Ġl ined
Ġre view
ĠS end
ĠS ides
Ġha iled
ĠP a
Ġwere n
Ġup ro
ĠL O
Ġout law
ĠO s
ĠO ft
Ġpl under
Ġtr ay
Ġpro gram
Ġover th
Ġcomp osition
per haps
Ġright ly
Ġple aded
Ġkeep er
Ġfore most
Ġmin isters
Ġdep rived
oon er
gr im
tern ity
ĠLe ete
Ġrespect able
Ġrapid s
Ġglass es
Ġtur key
Ġer a
Ġaccom mod
Ġbask ets
Ġfortun ately
ĠBro ok
Ġillustr ated
Ġillustr ations
ĠRepublic an
Ġannoy ed
ĠTag alog
ĠDisk os
M AN
r aged
at isf
it ively
Ġd uly
Ġbe ams
Ġre vel
Ġsh attered
ĠP H
Ġr ab
ĠL iber
ĠD ie
ĠE p
ĠTh ings
Ġun necess
Ġbo ar
Ġback ground
Ġsl ed
Ġsc ales
Ġcount ing
ĠAr nold
Ġte ch
Ġgu ilt
Ġext ract
Ġdeep est
Ġide als
Ġcompl ained
Ġspr ay
Ġattempt ing
Ġstick ing
ĠSpe cies
Ġresem bles
hand ed
Ġduck s
Ġcorrespond ing
ĠHaw k
ĠBOY S
Ġdesir able
Ġartific ial
ĠFlore nce
ĠNich olas
A W
A m
l ay
r av
t ice
Ġf uriously
Ġc ards
Ġm and
Ġd ome
Ġd ivers
ĠS em
ĠS age
ĠS abb
ch air
Ġso ap
Ġsu llen
Ġch ambers
ck er
ĠIn c
Ġres ources
Ġmind ed
ĠSh ields
ane ous
Ġcir cles
Ġtri fle
Ġpast e
Ġpast ure
ĠDav is
Ġwarm ly
AS S
Ġharm ony
Ġthro b
Ġbitter ness
Ġwealth y
Ġresem bling
Ġexceed ing
Ġemer ged
Ġappeal ed
Ġlege nds
Ġdeliber ately
g ood
l ad
Ġw ick
Ġo l
Ġg alley
ĠP en
ĠG eth
ĠG RA
qu ence
Ġman e
Ġwhere upon
Ġsl ipping
so oth
Ġloo p
Ġwar fare
Ġref resh
Ġname ly
Ġche ered
Ġcap s
Ġsub se
ĠPr ay
OU N
Ġ9 5
ĠNot es
Ġlie utenant
ĠAnt on
Ġeager ness
epend ence
ĠEr m
Ġfil m
Ġge ography
Ġsen ior
Ġhosp ital
Ġappreci ate
Ġrepro ach
Ġbutt ons
ĠTAL E
ĠOx ford
Ġsurviv ors
ĠPry or
fashion ed
ĠSabb ath
in er
Ġw are
ou g
Ġm ac
Ġe ve
ro ken
Ġse ctions
rom ise
ĠF ield
ĠF IR
Ġdo om
ĠTh rog
ip m
Ġlook t
Ġrel ieve
OR N
Ġearth ly
ĠCl ose
Th ose
ĠRe view
Ġca using
Ġjoy ful
Ġver d
Ġfright en
Ġbell ige
Ġpun ct
Ġmass ive
Ġconqu est
Ġfault s
Ġexec uted
Ġsuffer ings
Ġchest nut
Ġaim ed
Ġfet ched
a fe
g iving
Ġh ood
Ġp ots
Ġp yramid
Ġhe ated
ĠT u
ĠT iger
ve land
ĠB i
ĠW el
nt on
ĠD ead
Ġch ickens
Ġman hood
ind ere
iv en
Ġpro long
aw k
Ġpre m
Ġgl ancing
Ġcour ty
ss uri
Ġdep ended
Ġinter course
Ġcut s
ĠCH AR
alth y
ĠAb ove
Ġmess ages
Ġattack s
rif ied
Ġintrodu ction
Ġdign ified
Ġlat est
ĠJapan ese
ĠSlow ly
alay apan
Ġtemp est
indere lla
g i
v in
w a
Ġt uck
Ġt ries
Ġs ire
ed le
Ġm old
Ġm onsieur
Ġg inger
im ately
se x
Ġwh ale
ĠH ope
Ġse aled
Ġr ack
ĠW ork
ĠD ist
res ist
Ġno stri
Ġbr ows
Ġfl u
Ġjo ints
Ġsqu e
Ġdev oured
Ġang les
ĠChar lest
Ġbeast ly
ĠTO M
Ġneg ative
Ġrepresent atives
Ġrejo ined
Ġmaj esty
Ġimpat ience
ĠFri end
Ġtot ally
Ġcurtain s
Ġinquir ies
Ġliqu or
ĠAccord ing
Ġoppon ent
Ġimmort al
ĠGeth ryn
4 8
A F
B l
P oor
p ical
Ġthe r
Ġn u
Ġwe eds
Ġr aid
ĠF rey
us al
ber ries
Ġno ses
um erable
Ġbr icks
Ġpr ime
Ġad ult
Ġad apted
Ġhow ling
Ġatt ach
ey ond
ĠSh akes
ĠAl g
Ġsub du
Ġearth qu
atch ing
Ġcur sed
Ġ7 8
Ġrespect ed
ĠComm ission
Ġgle e
Ġdiscuss ed
ĠScar amouche
Ġneat ly
Ġthirst y
Ġfulf illed
Ġpeep ed
ĠAthen ians
ĠPoss um
ĠKad alayapan
Ġhoof s
Americ an
Ġinvari ably
G reat
P e
Ġ icy
Ġh ire
Ġc ater
en ch
Ġto ol
Ġn ay
ion ed
ĠS ssuri
ĠB less
Ġshe ets
ĠF ederal
qu est
ĠL ower
ĠR ol
ĠO wen
ren e
Ġbeg ging
Ġgl ist
Ġcomm ittee
Ġass ail
ĠGr aham
Ġswe eping
Ġcir cul
ĠX III
Ġbene vol
Ġrob in
cript ions
Ġtum ult
Ġspect acles
Ġentertain ment
Ġproject ing
Ġindign ant
Ġknock ing
Ġveget able
Ġterrif ic
Ġprofession al
Ġsan ct
quar ters
Ġnostri ls
d rew
m aker
t em
z ell
he im
Ġf ant
is ement
Ġp henomen
ic ut
ic iency
ĠH EN
ĠG unn
Ġde cend
pp ers
Ġdo ve
ĠL il
Ġex clamation
Ġag itation
el ope
Ġun kind
orn s
ĠCh u
Ġdisc om
Ġmo ves
ps es
Ġmon ument
ĠNo el
ax ter
Ġdecl ine
Ġdread ed
Ġbare ly
Ġdism al
ĠCle veland
Ġcraw l
foot ed
Ġcompar ison
ĠSER IES
Ġchur ches
Ġelabor ate
Ġauth ors
E P
H old
U B
b ad
i os
p a
r ick
s uch
Ġt an
Ġm athe
Ġp all
an an
Ġl ark
Ġn ig
ut ter
Ġre vers
ĠS ound
Ġst ing
ĠW m
Ġch aps
ĠR y
Ġcl asp
Ġsur f
Ġmet als
Ġreg ards
Ġass urance
IN C
clud ed
Ġ6 5
Ġ7 6
Ġir rit
Ġsweet ness
Ġexper t
yr us
ĠMay be
Ġhat che
yn ch
Ġgrie v
Ġphilosop hy
col ored
Ġgallop ed
osc oe
Ġseam en
ĠMem ph
Ġstag gered
Ġbrisk ly
Ġabsor bed
ĠCarp ath
ac re
ri p
th ought
ab ama
ol ution
ist ics
Ġno ises
Ġtr otted
Ġtw igs
Ġun a
Ġen gr
Ġco vers
ĠY ue
Ġacc um
Ġres ign
Ġrep ose
Ġstill ness
ob ile
ix ed
ĠBr ad
Ġste pping
Ġmount ing
ĠNor se
ĠGr imm
AT E
Ġ9 6
Ġbright ness
Ġpain ting
Ġmod erate
AM E
Ġsens itive
Ġsecure ly
Ġsettle ments
Ġslay ing
Ġbatter ies
Ġwing ed
Ġprow ess
ĠAbb ey
ĠKar ara
ĠFif th
ĠFIR ST
T om
t in
v oc
w ere
Ġb ould
en a
Ġg eese
ad er
st ru
se a
Ġre nd
Ġre eds
ĠA ges
ri ers
am ma
ĠH ung
Ġsh ivered
il a
ĠF el
ĠR oscoe
ĠPro p
Ġsc al
Ġform al
Ġrec ru
Ġrece ives
Ġbeh aved
Ġblack ness
Ġsn ap
Ġopp ress
Ġglad ness
Ġchief tain
Ġpray ing
ĠSw ed
Ġdesp ised
Ġindivid uals
Ġ185 7
Ġattract ive
Ġarg ued
Ġwret ch
aunt ed
Ġpad dle
Ġrig id
) .]
b ooks
p an
Ġa ven
Ġf ab
Ġc ited
es ter
Ġhe ir
Ġg ust
ĠT zu
Ġwith drew
Ġr uff
Ġshe riff
ĠD O
Ġfe ature
Ġsp an
ĠN ation
Ġno d
Ġro ds
ave ment
Ġfl att
ĠK a
Ġcomp are
Ġcr ush
eng arde
Ġvis iting
Ġcoll e
Ġye oman
Ġap ron
Ġunc on
Ġur ging
just ice
Ġpor ter
Ġassem bly
ĠChe if
Ġdesper ately
Ġspark ling
Ġwhisper ing
ĠDun stable
ĠSar ah
Ġgorge ous
Ġgn aw
inds ay
Ġembro idered
ĠFortun ately
F air
N or
b one
h i
h ope
w ick
Ġb un
Ġb ats
Ġn ap
om a
ĠI l
ly mp
ct ic
Ġse lling
all ing
ĠP ART
Ġr otten
itt ered
Ġbr av
av ens
ĠSt even
iz z
Ġyoung ster
ret e
Ġsn ug
ĠSp ence
Ġ6 7
Ġwonder fully
Ġpleas antly
Ġstri ve
medi ately
Ġbright er
Ġjour nal
Ġexper iments
room s
Ġdepart ment
ĠEn na
ĠCour se
Ġsch ooner
ĠXV I
Ġhence forth
ĠMor ris
hot ep
Ġbefall en
ĠSTOR IES
ĠCarpath ia
M ar
v ate
Ġt ons
Ġth resh
an qu
Ġg ear
Ġbe ef
ĠT ad
ro ve
ĠP ly
ĠL in
ĠL indsay
Ġman ly
Ġpl ane
Ġtr aced
ven ant
aw ning
ON S
org an
Ġ12 0
ĠChrist ians
Ġdet ained
Ġdecl ined
Ġ16 8
ĠGer aint
Ġda is
com ing
fl ies
Ġpill ar
ingu ian
OS T
ĠDal zell
Ġtroubles ome
Ġsumm ons
Ġbeet les
Ġthrill ing
Ġappropri ate
ĠMarj ory
ĠRak hal
ĠDEF IN
ĠErm engarde
ipm unk
4 3
P ut
h all
i ary
o id
Ġh ush
ed o
en ched
Ġp oo
Ġbe ck
ot hes
ay emon
ĠH orse
Ġsh ift
ĠG OD
ĠF RI
ĠR et
ĠK eep
ĠY vain
oth s
Ġres erved
Ġatt ic
ĠAs sy
Ġsec urity
li est
Ġbro om
sh ot
Ġmer it
ĠCl ara
ĠĠĠĠĠĠĠĠĠĠĠĠĠĠĠĠĠĠĠĠĠĠĠĠ ĠĠĠĠĠĠĠ
Ġsqu ire
Ġjoy fully
Ġpat ches
ĠPl ain
ĠFl ag
Ġcoun c
IR L
Ġdim ensions
Ġleaders hip
Ġbat hed
Ġtransl ation
Ġvic inity
ĠGir ls
Ġtheat re
ĠHop kins
L ong
n ake
Ġt a
Ġt ame
en cing
Ġn asty
Ġe ate
et ter
ce ly
ĠF il
ag gy
Ġbr ist
are th
ĠK ings
orn e
Ġhow l
Ġsent iments
Ġdiff erences
Ġ5 3
Ġho pped
Ġsim plicity
Ġsight ed
Ġjo ining
ok es
Ġ14 9
Ġnice ly
Ġwear iness
ĠBar ry
Ġimpress ions
Ġrag ing
Ġresem bled
Ġflag s
Ġban ner
Ġkeen ly
Ġsour ces
Ġtempt ation
Ġench ant
Ġinterp ret
ĠImm ort
Ġcourty ard
D r
N OT
T O
_ ]
c ke
i age
r as
r ate
x ter
Ġb isc
ar ant
ĠC ousin
Ġsu its
Ġdo omed
Ġal ighted
ate au
el ia
ne ver
oy s
Ġgir dle
alk ing
Ġpleas ures
Ġhair s
Ġvill ain
ĠDick y
Ġpot atoes
ĠWin ter
Ġreve al
Ġener get
Ġneighbour ing
Ġendeav oured
Ġneut ral
Ġgran ite
Ġeleg ant
Ġinsp ired
ĠAustr alia
b ows
l am
n s
n ine
w ar
in ement
Ġb unk
Ġl ace
ĠT uck
im p
ĠC OL
ĠC inderella
Ġr ans
and ed
ĠL ig
ĠL ear
Ġtr out
Ġper se
Ġjust ified
ĠAr m
ĠFor th
Ġrel ate
Ġbeh av
ĠSp ot
Ġ6 2
AN S
ĠSc arecrow
Ġ9 7
Ġ9 9
Ġoffic es
Ġequ ipped
Ġdem ocracy
Ġsqu irrel
Ġ16 6
ament al
Ġyouth ful
Ġbread th
Ġburst ing
Ġur ge
ĠTerr ans
Ġsuspic ious
ĠLouis iana
Ġscient ist
Ġliter ally
Ġshru b
col oured
Ġdoct rine
ĠCam bridge
ĠSit uation
ĠProv idence
Ġmagistr ate
Su ppose
Ġpeas ants
M e
d ro
Ġ +
Ġa venge
Ġb ot
Ġh ing
is ms
Ġd ad
Ġin justice
ĠT ow
ith met
ĠH are
ĠB ri
ab ao
Ġcon vent
ĠN avy
Ġtr unks
Ġpart ially
Ġpo ets
ĠCh amp
ĠWhen ever
Ġ3 00
ia o
ott le
ĠAl b
Ġsun rise
Ġheav ier
Ġinv asion
Ġadm ission
Ġmed iation
Ġbreak s
ĠLet tice
ĠPl att
ĠZ og
__ _
Ġlod ged
Ġinn umerable
Ġvain ly
Ġreward ed
Wh ich
ĠMil ton
Ġbloss oms
Ġga ily
Ġperf ume
ĠRing g
Ġgrav ity
anas ief
A d
Y e
Ġw ert
Ġh oll
Ġh amm
ou lt
Ġn iece
Ġe text
Ġy on
Ġwe lf
Ġha ught
ĠW ang
th m
Ġde leg
ard ed
Ġam bit
Ġcons pic
Ġsupp osing
pe ak
Ġaw ait
vel ope
Ġ8 7
ĠTr ue
Ġgreen wood
ĠAp ollo
ĠFl or
ĠPar adise
Ġhurried ly
Ġrevol ver
ĠTer ra
Ġgain ing
Ġspect ators
ĠJon as
Ġengage ment
Ġbloss om
Ġneut rality
Ġincred ible
Ġemphas is
Ġdorm itory
Ġcoco a
Ġunnecess ary
ĠShakes peare
Ġwelf are
5 4
e xt
h our
i op
p ath
in o
Ġf uel
Ġm are
ar ious
Ġp ounded
ad icate
ic le
Ġre pt
Ġre cess
Ġas se
ĠM ack
ĠP s
ĠD w
ĠD in
op ed
Ġcl an
Ġcl ue
ĠTh ink
Ġco als
Ġfl itter
Ġim itation
ren ched
Ġsec re
lt ered
ret ched
app er
du c
Ġ9 2
Ġvar iants
ĠNorth wood
ĠLe g
ĠST ILL
Ġsecret ary
Ġve xed
udd led
Ġappl ause
Ġtender ness
Ġident ity
ipt on
Ġregular ly
Ġresem ble
ĠMill er
Ġjer ked
Ġspecim ens
ĠCloud y
Ġterr ace
ĠCass andra
ĠWhit ney
Ġcourte ous
Ġprecaut ion
Ġdoub ts
Ġwigw am
ĠVict or
Ġcater pill
ĠLig i
h ol
n ant
at hed
on ge
Ġwh iles
al ty
ĠS W
ĠP ot
Ġv ener
ĠR ED
ell o
end icular
Ġthr ice
Ġhere after
Ġ5 1
Ġmed ical
ĠMar ian
ĠEm ily
Ġrapid ity
Ġliber al
Ġcivil ized
Ġpet ition
Ġcro ps
Ġghost s
Ġindign antly
Ġperil ous
ĠMah omed
ĠStan hope
Ġtransp arent
ĠHan sel
Ġridic ulous
Ġtraged y
Ġsubdu ed
ĠDEFIN ITIONS
' --
b ul
c ons
c key
c raft
d ess
i ro
l ic
u ber
v ice
Ġt ut
Ġs arc
Ġm ol
en z
Ġd ame
ll ey
Ġth igh
Ġp est
ĠT able
ri ber
ter y
ke e
ĠH a
ĠB a
ĠB ad
Ġse aw
ĠP orter
Ġher ald
op ard
ind le
um sy
Ġpl unge
ak i
Ġj e
ell a
Ġbr ake
ĠTh oth
ĠK ING
ĠK ansas
Ġsc or
Ġdon key
Ġfri ar
Ġpres ume
Ġform ation
Ġhapp ier
Ġeff ected
ird re
Ġsight s
Ġesc ort
ĠTr ade
Ġgovern ors
Ġcost ume
iver se
Ġlab ors
ĠOr d
Ġstro kes
ĠBo one
Ġarg uments
Ġfold s
Ġtar get
Ġdefend ers
Ġod or
Ġfow ls
Ġum bre
Ġcyl inder
Ġpeop les
ĠPly mouth
n is
p ool
p enny
r ade
Ġw aking
Ġb in
Ġh ue
it ches
Ġd ived
Ġp aws
id d
Ġe ch
Ġst ages
ill es
ĠM ait
ĠB all
ĠB axter
ĠG E
ul ch
ĠO lymp
ind a
Ġgr amm
Ġli able
Ġfl og
Ġper cept
bl est
Ġcr adle
Ġear ned
Ġcol onel
Ġbre ach
Ġconf er
Ġhill side
Th anks
Ġbar red
Ġsqu ir
Ġdef ended
ĠBill ina
Ġfun ction
Ġfol iage
Ġda res
ĠPal ace
Ġmud dy
Ġtom bs
Ġpoison ed
ĠSal mon
Ġunfortun ately
Ġvague ly
Ġsust ained
Ġtort ure
ĠBeck y
Ġmans ion
ĠCub a
Ġtech n
Ġbellige rent
E C
K E
P P
T wo
l asting
r iment
t op
ou ching
on ic
Ġin cess
ent ieth
Ġre ins
ĠH arris
ĠM ust
ĠM od
ĠB est
Ġr im
ĠF itz
ĠR od
ĠR ipton
Ġro g
ile y
Ġad vers
Ġcr ab
ron ted
Ġent ers
ĠInd ependence
Ġrest s
Ġbar ren
Ġsix pence
ĠSw an
ĠĠĠĠĠĠĠĠĠĠĠĠĠĠĠĠĠĠĠĠĠĠĠĠĠĠĠĠĠĠĠĠ ĠĠ
ĠHar ald
Ġstorm s
ĠConfeder ates
Ġpos itively
Ġsubst ant
ĠBu zz
ĠFo llow
Ġflut tered
Ġlux ury
Ġfisher man
Ġfaire st
ĠMarg aret
ĠMent or
Ġthresh old
F irst
g us
m ighty
t erer
Ġw ailing
Ġs ate
Ġb aked
ed ed
is ation
ĠT op
ĠA y
ri gg
ĠC rom
Ġme als
em per
ĠR oy
ak a
Ġag ents
el ve
Ġday break
Ġpass enger
hes s
Ġcour ses
ĠWe eks
Ġmar s
Ġste er
ĠNor way
Ġhum ming
Ġ8 5
Ġ8 8
Ġ7 1
cy cle
ĠGre thel
Ġexpect ation
Ġble eding
Ġla unched
Ġundert aking
ĠConfeder acy
ĠJud ah
Ġhind er
Ġdrift ing
Ġric hest
Ġcollect ing
Ġdish on
ĠAc ademy
Ġsob bing
ĠJul ia
Ġexcess ive
Ġthorn s
Ġdetect ive
ĠConnect icut
c at
c ence
as ium
ĠI ron
ĠH al
ĠM oor
ĠG is
ĠG IRL
ĠN ote
Ġpl ucked
os a
ĠJ umper
Ġtr ot
Ġen velope
Ġfl ick
ci ble
ĠV is
Ġelect rical
Ġsur p
Ġmet h
Ġ5 2
Ġbeh ave
IT E
Ġinter n
Ġ6 3
Ġ6 9
ĠDe irdre
Ġbes et
Ġarri ving
Ġcommand ing
Ġreason ing
Ġ17 0
Ġver ily
ĠThese us
ĠĠĠĠĠĠĠĠĠĠĠĠĠĠĠĠĠĠĠĠĠĠĠĠĠĠĠĠĠĠĠĠ Ġ
Ġtor ches
Ġvict orious
ĠHar old
Ġwicked ness
Ġreb u
ĠDE AR
Ġenv y
Ġovert ook
ĠPortug al
Ġtravell er
Ġrib bon
ĠCOM P
Ġhospit ality
Ġepis ode
M aster
V EL
d ale
l ace
t ical
w orth
ed om
Ġf iled
Ġm ask
Ġd itch
Ġl il
ut ing
Ġbe ans
Ġfor d
ur ther
ĠM ord
ĠM urd
ĠB unch
ĠP it
Ġme nd
Ġshe ltered
ĠF al
Ġcl umsy
Ġtw ain
Ġstr ang
Ġwhere fore
Ġsm iles
ĠV ic
Ġcar s
Ġres ulted
Ġwar like
Ġhouse keeper
row ing
Ġgu arant
Ġpar cel
Ġalong side
ĠDe vil
Ġhair y
ĠTr istr
Ġdem ons
ĠSm oke
Ġpartic ulars
Ġexc urs
Ġsand y
Ġstar ving
Ġroof s
Ġgro an
Ġtum ble
Ġretreat ed
Ġdece ive
Ġemer ald
Ġseas ons
ĠIm mediately
ĠLook ing
Ġcorrespond ence
Ġrom antic
Ġchamp ions
ĠSummer lee
Ġhorizont al
Ġshrug ged
ĠOft en
ĠTristr am
_ "
o ks
p ower
er ies
Ġf ib
Ġin land
Ġl akes
le ment
ir ty
ĠH ob
ĠM ighty
ĠB ol
if ting
il ance
il ton
." ]
ĠL ess
ag og
Ġli king
Ġpr udent
ang ular
Ġstr ained
Ġapp rent
Ġsl opes
Ġsc ound
Ġcons ol
vent h
Ġste ering
Ġpar ish
Ġforth with
ĠAll en
Ġ6 8
Ġcontin ues
oe b
Ġmag ical
ĠRe be
ĠSl ave
Ġsymp athe
ĠBet ween
Ġdoct ors
Ġdaz ed
Ġprivile ges
ĠBudd ha
Ġmechan ical
Ġbeet le
Ġrecomm end
Ġpolic eman
Ġath let
ĠCrab tree
ĠGil bert
ĠLil ias
) :
d es
t ure
ĠT ao
Ġe ats
ĠS elf
ch ie
ĠH ale
Ġsu ck
ind ers
um ing
Ġgo in
Ġthere after
ell er
ĠY ear
Ġmay hap
Ġseem ingly
int o
Ġfam ine
Ġfin ishing
ax e
Ġsound ing
ĠAf anasief
ĠCl er
Ġdef iance
Ġ14 4
Ġmill er
Ġrad iant
Ġdeliver ance
Ġcrow ds
ĠTenn es
ĠHeb rew
ĠGunn ar
A CE
c ap
c ott
h u
h as
m ust
Ġt i
Ġt us
Ġt el
Ġs ings
Ġb acked
st ead
Ġre action
ur red
ĠC oo
il ian
ĠW E
ĠG all
ĠD ak
ĠR ough
Ġcon e
Ġag itated
au x
Ġbl ades
Ġam ple
Ġhand y
ĠSt ud
Ġsl aughter
Ġhead long
Ġlight ing
Ġland scape
Ġref usal
Ġpers isted
Ġpri zes
Ġ7 9
Ġye a
Ġdest iny
Ġfav ored
Ġwit hered
Ġwis est
Ġcontr ad
Ġexped itions
Ġspl ash
ĠWH O
oos ing
ĠREAD ER
Ġexhib ited
Ġflut tering
Ġkick ing
ATH ER
Ġrecoll ection
Ġcomplex ion
ĠChat terer
ĠCharlest on
Ġmathe mat
A H
f it
g le
g reat
n el
r ings
s ized
w orld
at ches
Ġf ared
or ic
Ġd ine
Ġd agger
Ġp airs
Ġst all
Ġv ines
ĠN ay
Ġgr ades
Ġsc amp
lect ion
Ġdr ums
Ġunt r
Ġhum our
Ġfear less
Ġcur ve
Ġcor al
Th ree
Ġlim p
LE Y
Ġstat ure
Ġassoci ation
ĠCan a
Ġcost ly
Ġsou p
ĠBob by
Ġsal mon
Ġident ical
ĠSer ies
Ġspect acle
Ġacknow ledge
Ġcompass ion
Ġprophe cy
Ġtas ks
ĠRol and
- .
j a
s k
Ġt enth
Ġs aint
ou ston
Ġc ough
ar o
ic ro
Ġre ared
ĠB ac
Ġse als
est ial
ĠR ain
Ġsp oon
Ġex ting
Ġint ending
Ġkn ave
ile e
Ġlong est
ĠCh ipmunk
Ġwr ists
oy ne
Ġac res
Ġrec overy
Ġarm ature
Ġhum il
ĠCl ats
Ġ9 8
Ġbott les
Ġtable ts
Ġeye b
Ġdet ected
Ġ16 9
Ġrespect ive
Ġguard ian
Ġextre emly
Ġant agon
Ġthreat s
Ġdim ly
Ġinj ure
leg ged
ĠMid shipman
Ġwrit ings
ĠGaw ain
Ġpir ate
ĠRepublic ans
Ġselect ion
Ġhaunt ed
Ġdisturb ance
Ġinher it
Ġstim ul
ĠLod ges
Ġpip es
Sm ith
Ġmars hes
S ource
c ould
c ame
g od
l ar
t ale
y ear
in i
Ġf its
Ġc ert
Ġm osqu
Ġn our
ic les
ch a
ĠW ord
-- -
ĠL ow
Ġch alk
ab by
Ġsp aces
Ġsp ending
Ġal ias
Ġgr ind
Ġco ax
Ġoff ended
Ġdark er
Ġass ass
Ġ9 4
Ġtou ches
Ġdev ote
Ġstep mother
Ġtrave ler
Ġeng ines
Ġwit ches
rer s
Ġdesp atch
AD E
ĠNe g
ĠCo ast
Ġbull s
Ġvers es
ĠMed ic
Ġpos itions
Ġbol ts
Ġfulf il
Ġdwarf s
Ġfow l
ĠCent ral
urr ah
Ġscram bled
Ġrud dy
Ġsurround ings
ym ph
ithmet ic
ĠDw arf
S H
Ġb iting
is le
Ġp ic
Ġl un
ĠM ars
ĠM ON
ĠB ir
ĠG ord
ĠD ale
ass ing
Ġ_ ___
Ġbl ot
ud ged
Ġsm oot
Ġpass ions
Ġgl ade
Ġind ian
Ġcar bon
Ġatt ending
anc he
Ġlo vers
Ġlo af
Ġbu rial
atter y
Ġcomm it
ey n
ON E
oc ity
Ġ8 4
Ġbes ee
Ġwhis kers
Ġcaptain s
Ġoccur rence
Ġsand s
Ġsens ations
Ġsepar ation
Ġbod ily
Ġdescend ing
Ġdescend ants
ĠEr adicate
ĠTw enty
ĠXV III
ĠEs au
ĠEli jah
!_ "
iou x
Ġvigor ously
ĠMong an
ĠTurk ish
mind ed
Ġwreat h
Ġperp endicular
M ENT
e ff
f ellow
g ie
l ie
o ir
s chool
u er
in als
Ġb aff
Ġh ides
Ġl az
Ġl ashed
Ġn ets
Ġg er
Ġse wing
ĠC ertainly
ĠW ales
ĠG iants
ers ed
Ġch a
Ġout rage
ĠO cc
Ġam end
ĠK e
ĠY ours
Ġknow est
act ly
Ġdes erves
Ġdr aft
Ġcar c
ult on
Ġmar gin
Ġste ward
Ġwa ked
ĠAl as
Ġdraw er
Ġ7 3
Ġtri als
ĠWill ie
umb ered
Ġdecl aration
Ġhall s
ĠEx pl
Ġann ual
Ġyellow ish
Ġkiss ing
Ġhang s
Ġtwel f
Ġconduct or
Ġrid den
atur ally
ĠBab y
Ġrevol t
Ġreb els
Ġtar iff
Ġmanage ment
Ġobv iously
ĠGir l
ĠSCH OOL
mun ition
edle igh
ĠHEN RY
Ġech oes
6 0
L ord
S ire
l orn
Ġa uction
in ch
Ġw oven
Ġb ower
it ations
Ġd ashing
ar in
ow an
ĠT an
Ġre verse
ĠH ot
ĠB an
ĠB ark
ĠB eyond
ĠG O
ĠL av
Ġdis re
Ġdis li
ip h
Ġind ef
Ġnight fall
Ġwood land
Ġche m
Ġes p
Ġgre ed
Ġadv is
Ġcontin uous
Ġorder ly
ĠAd vent
Ġele v
Ġport ions
ĠPe ace
ĠĠĠĠĠĠĠĠĠĠĠĠĠĠĠĠĠĠĠĠĠĠĠĠĠĠĠĠĠĠĠĠĠĠĠĠĠĠĠĠ ĠĠ
ĠJer sey
Al a
ĠWH Y
Ġshr ine
Ġphilosop her
Ġveget ation
Ġvic ious
Ġoutl aws
Ġtreacher ous
Ġadorn ed
ĠEth iop
ĠOw l
ĠMait land
Ġ ll
Ġt ing
Ġh ug
Ġm aps
Ġth ump
ĠT inguian
ĠS edleigh
Ġwe ars
Ġor ph
Ġint ol
Ġag ric
Ġtr anqu
Ġpro str
ĠPro bably
Ġback wards
Ġpre ach
rib e
Ġcar abao
ĠAs soci
Ġnew com
Ġboy hood
ĠAl ine
Ġconf erence
Ġinter ven
Ġfin er
br own
RE D
ĠCom rade
Ġvar iant
ĠMar iano
ĠPer ce
Ġ11 0
Ġmaid s
Ġrepres ents
Ġshad es
ĠQu est
AB LE
Ġemer gency
ĠBobb sey
Ġengine er
Ġproport ions
Ġunus ually
anz a
Ġjun ior
Ġrecomm ended
Ġskil ful
Ġearthqu ake
ĠFRI END
Ġintern ational
Ġtwelf th
E d
N ew
l it
l ane
t es
it a
Ġp avement
Ġg ains
ad ays
Ġe cc
ĠW omen
Ġme ets
ĠG ama
ĠF ace
Ġwor ms
Ġpl ough
Ġpro se
Ġgr apes
ĠTh anks
Ġen velop
Ġover h
Ġover board
Ġdis cl
Ġam munition
Ġres ide
Ġlo ath
Ġop ens
ia e
Ġbu cket
Ġfar ms
ĠWe ather
Ġsn uff
ĠTr ust
Ġhast en
ĠX L
Ġfr owned
ĠLe ague
Ġdry ing
ĠZ e
erv ation
Ġexist ing
Ġpure ly
ĠBo at
Ġtemper ature
ĠSus an
ĠHill s
Ġovert ake
ĠKh an
Ġeconom ic
Ġmant le
Ġbef ell
Ġperple x
Ġmul es
Ġapprehens ion
ĠTW O
ĠDur ban
Ġgoss ip
E ven
c us
f r
v ial
Ġt angled
Ġto fore
Ġto ys
Ġd ates
Ġwe aving
ĠM AR
ĠW ard
ĠG am
ĠL ur
ant on
Ġch at
ĠR on
ĠN arr
ag in
ep h
Ġli ly
ĠTh ird
Ġen raged
Ġad oles
iss a
ĠTH OM
Ġdr ows
ult ies
Ġsent in
Ġcle ft
ĠSh ad
Ġnum bered
Ġmin st
ane ously
gr and
Ġ7 2
co al
Ġdecl aring
Ġ16 7
Ġexpress ing
Ġexam ples
Ġrepresent ing
Ġintrodu ce
ĠInst antly
Ġgrin ning
ĠMus ic
Ġwaist coat
Ġveget ables
ĠHu gh
Ġschol ar
ĠAL L
ĠNa ani
Ġsul ph
ĠBee cher
Ġclergy man
Ġexplos ion
ĠAnton io
ĠCana an
5 9
A U
H er
S p
o a
r ich
Ġt ep
Ġw rigg
Ġo val
at i
Ġf iend
an ter
Ġl ances
ĠT ony
ĠA ge
ĠM EM
ĠP or
ĠP un
ĠP ress
Ġr ugged
Ġdo l
ist ur
Ġpl aster
ĠJ ove
ine a
Ġgreat ness
Ġcomp ens
Ġcr umb
Ġcont ribut
Ġres erve
Ġspe ce
uck le
az ing
OR T
over ing
ĠPh ot
Ġ8 2
Ġpret ending
Ġ16 0
Ġrain bow
Ġfurn ace
ĠĠĠĠĠĠĠĠĠĠĠĠĠĠĠĠĠĠĠĠĠĠĠĠĠĠĠĠĠĠĠĠĠĠĠĠĠĠĠĠ ĠĠĠĠĠĠĠ
ĠThor nton
ocr ats
ĠEv il
ĠXV II
Ġhaul ed
ĠMcK in
Ġgymn asium
Ġconspic uous
x es
Ġb aker
Ġh ips
Ġc ac
Ġc iv
Ġd ia
an es
Ġg am
Ġe c
Ġe z
ĠS ie
ri ages
ĠC elt
Ġch ival
Ġch ateau
ie ving
ĠE duc
Ġkn ob
Ġgr aves
Ġli ver
Ġun m
Ġun iverse
Ġpr ices
Ġfl int
ĠK iki
ĠSt ew
Ġhead ing
Ġey el
Ġjust ly
Ġrep et
ĠAr ist
pe cial
Ġtre ason
Ġplay ers
Ġbest ow
aim ent
Ġgre edy
Ġinter ference
be it
Ġcor k
Ġtrans form
enn es
ING TON
Ġprodu ces
Ġve ins
Ġtast es
Ġheat hen
Ġpor ridge
Ġcord s
Ġundert aken
Ġassured ly
Ġinstinct s
Ġclub s
ĠCONT ENTS
Ġx x
Ġdepos ited
ĠStri ped
ĠPark er
Ġdoc ument
Ġpursu ers
Ġdram atic
Ġorch ard
Ġannounce ment
Ġbrav est
' ?
g un
n ings
u its
w an
y ers
at on
is ance
Ġl ones
Ġbe le
ĠB on
ĠB ox
Ġr ug
Ġk ids
ĠD um
op en
Ġam ended
Ġfl ax
Ġmay or
Ġres ort
Ġimp et
ott o
ĠBr idge
Ġhard ships
Ġcare lessly
eed s
Ġsad ness
Ġ13 7
Ġviol in
Ġgate way
Ġstrugg les
Ġid iot
Ġunl ucky
Ġnodd ing
ĠSal ar
igr ation
Ġrev ived
ĠSix th
Ġencl osed
Ġsubstit ute
ĠCHILD REN
Ġscholars hip
ĠGard en
Ġsult an
Ġupro ar
ĠFlor ida
ĠTennes see
J ack
N OW
b or
e very
t ur
Ġw ist
Ġd ive
Ġd ire
ĠT E
ir ling
Ġfor lorn
ĠP ag
Ġr aiment
ĠF L
ĠF ulton
ĠD iv
ĠR ag
Ġex h
ĠE lder
os itions
Ġbr im
Ġfl ing
ĠY aga
ĠSt u
act ed
ĠTH REE
Ġmo at
Ġche ers
Ġlay s
ĠAn th
ĠAn nie
ift s
IS E
Ġless er
Ġ8 3
Ġ9 1
ĠNew ton
Ġfr antic
ĠCH R
Ġprodu cing
Ġhero ine
Ġstream ing
Ġresol ve
Ġsuper st
Ġreb el
Ġenv iron
ĠFour th
Ġjealous y
Ġantic ipated
Ġcompre he
Ġsignific ance
Ġdiscour aged
Ġbrut al
ĠJess ica
ĠThoth mes
S l
c u
j i
l on
Ġw izard
ed ged
Ġf ath
Ġd ies
Ġl ens
Ġg wine
ve red
im ble
ĠA th
ĠM olly
ĠM ARY
and y
ight ing
ĠF eder
ĠL an
ĠD i
ĠD ew
ĠD ays
Ġv ass
un ken
our nal
ig o
el come
Ġbr ushed
Ġco y
Ġco ils
Ġpe ering
Ġsc ur
Ġcr imes
Ġrep aired
sh aw
Ġel apsed
Ġinc ap
ĠPh ill
oun cing
Ġdri lled
Ġconc ert
ĠĠĠĠĠĠĠĠĠĠĠĠĠĠĠĠĠĠĠĠĠĠĠĠĠĠĠĠĠĠĠĠ ĠĠĠĠĠĠ
ĠĠĠĠĠĠĠĠĠĠĠĠĠĠĠĠĠĠĠĠĠĠĠĠĠĠĠĠĠĠĠĠĠĠĠĠĠĠĠĠ ĠĠĠĠĠ
Ġhy p
Ġbark ing
Ġtum bling
Ġpool s
Ġdisch ar
ĠSy ria
ĠBet ter
umin ous
Br own
ĠTenn ant
Ġquiver ing
Ġpeb bles
Ġvio let
Ġwholes ome
Ġincon ven
Ġfant astic
Ġeyeb rows
5 6
C om
P apa
T was
n ame
s hed
w s
Ġt icket
Ġp ious
Ġl ag
ot hed
ĠS ak
ĠH ug
ĠH IST
ĠM uss
ĠP ath
ĠP RE
ĠW ren
ĠF arr
ast ly
Ġcon verted
Ġex agger
ree ks
Ġcl apping
aw an
ile t
Ġdark ened
Ġstart ling
ĠNor folk
Ġfact ory
ĠFr anz
Ġ7 7
Ġpain fully
AM ES
ĠSw eyn
Ġ186 5
Ġclim ate
ĠGre y
Ġspot ted
Ġfool s
Ġenter ance
Ġbless ings
Ġcontro lled
ĠEn c
ĠVol s
Ġamaz ing
Ġz inc
Ġsway ing
ĠSit uated
Ġrecoll ect
Ġfund amental
Ġsoot hing
Ġnois y
Ġobsc ure
Ġwag ons
Ġslipp ery
Ġlangu ages
ĠJos iah
ĠUnt il
4 9
e ur
m ate
Ġ `
Ġo o
Ġb ail
Ġn ailed
ic able
ĠA lt
ĠB R
ĠC AP
Ġr owing
ĠW right
ab y
ĠN i
ĠN ine
ĠO ak
ide l
ĠJ oy
Ġpro claim
ĠAnd erson
Ġtim bered
ĠK u
Ġpre acher
Ġeven ings
Ġacc us
Ġgl ue
ĠUn c
ced ed
ĠAl ready
Ġinc ons
ĠAn gel
Ġdou bled
ĠDe ep
be au
head s
ĠPer ry
Ġquar rels
ĠLe if
Ġspeed y
Ġperiod s
Ġconv ince
Ġsmo ked
Ġcraw ling
Ġanch ored
ĠBal in
---------------- ----------------
ĠCow ley
Ġnois eless
Ġult imately
Ġoppon ents
Ġcandid ate
ĠMand ans
Ġfid dle
Ġrasc al
Ġenthusi astic
Ġvul gar
ĠSteven s
Ġec st
M an
P res
g um
h oles
i ature
Ġt il
re ation
Ġc ripp
Ġp omp
Ġe b
et on
ac ion
ĠA bs
ĠB ows
Ġse p
ĠP O
ĠP ussy
th ose
Ġex claim
ĠE t
un ction
Ġtr im
Ġcl ump
Ġbl unt
Ġam ate
ath a
Ġple ad
ĠBe aum
Ġdraw s
Ġ8 6
Ġtrad itions
Ġpal aces
enn a
ĠRed s
ĠĠĠĠĠĠĠĠĠĠĠĠĠĠĠĠĠĠĠĠĠĠĠĠĠĠĠĠĠĠĠĠ ĠĠĠ
Ġrespect ing
Ġ13 6
Ġfun ctions
udd ing
Ġobl ige
Ġchurch yard
sc ore
Ġtro d
Ġapart ments
Ġadmir able
Ġsacrif ices
ĠEle ph
Ġimper fect
Ġrust y
Ġod ds
Ġshrie ked
Ġrecover ing
Ġprosper ous
Ġcontem por
ĠSpart ans
Ġcompre hens
ĠPhilipp ines
Ġrefr ain
Ġcalam ity
ĠBuzz ard
G IN
r ust
w art
Ġt ire
Ġs aints
Ġb omb
Ġh atch
Ġc ud
Ġd ial
as co
ĠS ave
ĠS AM
ke w
ĠC ock
Ġr ains
ĠW onder
Ġme lt
th ings
Ġall e
ess es
ĠF am
ĠL ead
ĠL XX
Ġpl ump
ĠJ en
el ing
Ġj ury
ip le
ans ion
bl ue
ĠSo ft
ĠV ine
Ġwar med
Ġrel ating
Ġsub tle
ĠBe aver
Ġhum bly
ĠCl oth
Ġcur ls
ĠHer od
ern ation
gg ing
Ġir re
Ġplan ning
Ġport age
ĠMay or
Ġsor ter
Ġmad am
Ġclean ed
Ġcontro vers
Ġdism ounted
ĠTar ry
ĠGu y
Ġconcept ion
Ġcorrect ed
Ġbat hing
Ġascend ing
liament ary
Ġappreci ation
Ġgrasp ing
Ġmock ing
Ġpenetr ated
Ġindiff erence
ĠMO THER
Ġling ered
Ġtransfer red
T E
T AIN
g ans
i ating
Ġb red
Ġb ang
Ġh ip
Ġf ists
Ġm ats
on str
Ġd un
Ġl ungs
ĠT aking
Ġwh ar
Ġwh im
ac a
ĠS up
ĠM ind
ĠF IG
ĠF RAN
Ġch oosing
ĠN orm
ĠN OR
Ġcom eth
Ġfl ows
Ġfl aming
Ġcont ributed
ĠV a
ĠV esp
Ġever lasting
br ush
Ġinv aders
ĠSc ots
to k
ĠDr ake
Ġbow ler
Ġap ost
Ġimag in
Ġstar ve
Ġinn ings
Ġdoll s
ĠĠĠĠĠĠĠĠĠĠĠĠĠĠĠĠĠĠĠĠĠĠĠĠĠĠĠĠĠĠĠĠĠĠĠĠĠĠĠĠ ĠĠĠĠ
Ġunf old
ĠMed lock
Ġpassion ate
yram ids
Ġscrap e
Ġglim mer
Ġsurre ndered
enc er
Ġunexpected ly
Ġoutl ines
Ġpenetr ate
Ġsem i
Ġslipp ers
Ġarchit ect
igaw en
C ould
C ap
b i
b ro
b age
i ations
Ġto ast
ĠS IR
ver b
Ġan ew
ĠH orn
ĠE aster
ig an
ĠTh under
Ġen force
Ġfl ask
Ġpe aks
Ġapp oint
cl ad
ors hip
Ġrep ay
Ġcons umed
Ġmon op
ret ion
Ġ6 1
Ġsim ult
Ġprop riet
Ġsweet heart
Ġmus cle
Ġbound ary
Ġstar ved
Ġcab inet
Ġ185 8
Ġvoy ages
Ġfox es
Ġsuggest ions
ĠMon key
Ġscore s
Ġshr ank
Ġfrag rant
ĠGaw igawen
Ġratt ling
Ġdisple ased
Ġdazz ling
Ġbru ised
Ġstun ned
tem pered
C ol
E ng
K ing
K eep
U CT
r oun
Ġt ended
Ġa venue
in qu
is an
Ġc ens
Ġp ion
Ġl ash
id dy
ĠT al
ĠS om
ĠS el
ĠP L
Ġso ci
ĠN aval
ak y
ave l
orn ey
Ġloo sed
ĠAr k
Ġem inent
ĠFor bes
Ġhor ribly
Ġsil very
Ġext ends
oud ed
Ġchar coal
Ġopp ression
ring ton
Ġsleep s
Ġhope ful
Ġgrow l
Ġ7 4
Ġconst ernation
Ġanim ated
Ġten nis
Ġir resist
Ġ10 6
Ġcre ate
Ġpract ised
Ġfro gs
Ġstorm y
Ġshadow y
ĠMad ame
Ġplate au
Ġexec ute
unn ish
reg on
ĠWH AT
ĠFore ign
Ġrust ling
ĠContin ued
Ġcoach man
Ġmarvel ous
Ġcritic ism
Ġmermaid s
Ġprovin ces
ĠAssoci ation
ĠStew art
ĠCHR IST
Ġenviron ment
T ruly
d os
m uch
Ġt ucked
Ġb ishop
Ġf ren
Ġc ant
Ġp ins
Ġl umber
Ġhe ather
om y
Ġg aunt
st retched
Ġfor fe
ur rection
ĠM ot
Ġsh udder
ĠC oon
Ġr aged
Ġso bs
pp y
ĠF ront
ĠR ow
ĠR achel
ĠR ynch
ag ic
Ġar cher
Ġus ial
ĠTh an
cc a
Ġri p
Ġcomp let
ĠCh ad
Ġcr ushing
Ġacc urate
ĠThere with
unt ary
Ġrun ner
Ġneed ful
Ġext rav
Ġdri pping
Ġmag azine
Ġsqu at
Ġquar ry
ĠSw eet
Ġeight h
Ġ13 0
Ġhusband s
Ġattack ing
Ġdrag ons
ĠRich ards
Ġempt ied
Ġexplain ing
Ġsubs ist
Ġwol ver
Ġgri pped
Ġinterpre ter
Ġexcess ively
Ġtwist ing
Par allels
Ġingen ious
S C
Y et
b read
e gr
y a
Ġt ab
Ġt ape
he era
Ġw ink
at ically
Ġc edar
Ġm ent
Ġd ipped
ĠI T
ot an
st ick
ĠS ick
ill or
ĠB L
ĠP ower
ĠG az
ĠG entle
Ġdo ck
Ġch ir
ab et
op her
Ġcon clus
ĠO mar
Ġtr aps
Ġtr aff
el p
ĠTh ing
ĠTh umb
Ġun armed
ĠPro clamation
Ġcame l
Ġthr ows
iss ors
rib ed
Ġacc ent
Ġgl ared
ob o
Ġsec uring
ener y
EN S
ĠBr ah
Ġgu ides
ah s
OR S
Ġmid shipman
ĠDe f
be ard
Ġir r
Ġ10 9
Ġboard ing
Ġ14 0
Ġve x
ĠFl am
Ġacqu ire
Ġoffer ings
ĠCount y
Ġmerch and
Ġbreast s
het ic
Ġcro codile
Ġshaft s
ĠMus k
ĠWOR LD
Ġcher ished
Ġcru elly
Ġdefinite ly
Ġvac ant
Ġfisher men
ĠFre edom
Ġclut ched
Ġbud s
Ġplent iful
ĠChop unnish
. ;
8 9
L isten
M ake
b ag
b ish
h ar
Ġt ires
it ans
Ġd ined
Ġl icked
ad iou
ĠI LL
Ġre app
ri ving
Ġst ained
Ġst ating
ĠC ats
ard ly
Ġne ared
ĠL ou
res pect
Ġpl ight
au g
Ġar ithmetic
urn ing
Ġim itate
bl ack
Ġhere to
Ġexp osure
atter s
Ġser ves
the se
Ġche w
Ġche ering
Ġmon k
Ġmer riment
Ġins piration
ĠSc ript
ĠX IX
Ġmouth ful
Ġcold ly
ING S
Ġsett ling
Ġver anda
Ġfail ing
Ġ13 4
aff old
Ġsorrow s
BER T
Ġrid dle
Ġwire less
Ġexerc ised
Ġric her
................ ................
Ġfest ival
ĠRay nor
LECT IC
Ġshiver ing
Ġank le
Ġenerget ic
ĠMcKin ley
ĠHIST ORY
3 2
H all
g ers
o cc
s ar
t i
t en
in ous
Ġb rew
Ġb athe
Ġhe aled
Ġbe an
im er
ĠS ioux
Ġfor sooth
ĠH amm
Ġsh ocked
Ġsh ifted
ĠG asc
Ġbut ifull
ĠD ad
Ġv owed
Ġex ternal
ĠJ ord
ĠJ ACK
Ġgr umbled
ish ly
ĠTh ur
Ġun ch
Ġri ot
ĠK erc
Ġpe ak
Ġpo ndered
Ġsl iding
ĠU pper
Ġsw elled
Ġcont rived
Ġres ume
Ġser geant
ĠAl ong
ĠAn im
Ġinter nal
Ġheav ed
AN Y
Ġcontin uing
Ġexpl ored
Ġstri ving
Ġstri pes
Ġsqu eal
ĠBl uff
ĠLe on
Ġgrass y
Ġpract iced
ik es
Ġbid den
ĠWin nie
Ġunw orthy
Ġstead fast
Ġrail road
Ġstuff ed
Ġtar ry
Ġhate ful
Ġtoss ing
Ġsixt eenth
Ġbon net
Ġinvestig ation
ĠBald ur
ĠOri ental
Ġard ent
Ġenqu ired
Ġtra vers
Ġadvert isement
ĠProp het
ĠMEM ORY
Ġspece is
ĠAnth ony
ĠFlam beau
ĠKerc adiou
B etter
F E
N E
R em
T rent
j our
Ġt een
Ġw ate
Ġf oster
Ġm used
Ġp ite
Ġl ime
Ġg h
ĠT ruly
ro ying
ĠH unter
Ġsh aggy
ĠB ank
Ġher bs
ĠF urther
ol ence
Ġun gr
Ġnow adays
ĠK il
ang ling
ĠSt ones
Ġrem onstr
Ġcr ows
Ġwr ites
ER IC
int erest
Ġbu ying
ĠAl mighty
Ġass ent
Ġfire place
Ġlay er
OR K
Ġbelie ves
Ġclose t
Ġvol can
ship men
Ġsweet est
Ġ12 8
Ġstra it
Ġest imate
ĠĠĠĠĠĠĠĠĠĠĠĠĠĠĠĠĠĠĠĠĠĠĠĠĠĠĠĠĠĠĠĠ ĠĠĠĠĠ
ĠCar th
Ġpurs uing
Ġshut ting
Ġrepe ating
Ġdiscover ing
Ġrepresent ation
lo at
Ġaston ishing
ĠXX I
Ġfac ulties
Ġassem ble
Ġsurv ived
fortun ately
ĠCle ar
ĠAlex and
ĠFri ends
ĠPers ia
Ġtyr anny
ĠHam ilton
Ġdistrict s
Ġpuff ed
Ġske leton
Ġroast ed
Ġstair case
Ġcompet ition
Ġencourage ment
Ġattent ively
Ġhatche t
Ġumbre lla
Ġgramm ar
ĠGord on
c roft
d ress
Ġt ips
Ġw ipe
Ġo ar
Ġo tter
Ġf awn
or able
ĠT ra
Ġe ternity
ĠM ung
Ġsh am
Ġr anged
Ġsu s
ĠL anc
ĠL ock
ĠR h
ĠR oc
ĠR iding
Ġab y
Ġle ague
ag ant
Ġgr ade
Ġad equ
ark s
Ġapp ointment
cl ass
Ġind isp
Ġres isted
Ġcount less
xt on
not hing
ict ions
Ġref ined
Ġref using
pr ints
Ġquick er
Ġtrad es
Ġconst able
Ġappro ve
Ġtrans mit
Ġdev ices
Ġcamp ed
Ġexcept ing
Ġ10 5
ĠNorth men
Ġsol itude
Ġest a
Ġdet urm
Ġdesp atched
Ġkiss es
Ġfeast ing
Ġconv uls
Ġwear ied
Ġsal vation
ĠBar nes
Ġcord ial
Ġpictures que
respond ence
Ġgrie ve
Ġblaz ed
Ġspark s
Ġamb ass
Ġmarve lled
Ġtoler ably
Ġratt led
Ġesteem ed
ĠRaj a
ĠBag heera
Ġelo quence
Ġperch ance
Ġaccur acy
Ġemphat ic
Ġcarpent er
Ġrab bits
Ġmeth inks
ĠPerce val
G H
H as
S uch
V ENT
b at
b od
f irst
n ar
u ire
w are
Ġ {
Ġt ies
in ked
Ġm icro
as ian
Ġn ymph
Ġg igg
ĠT RA
ro ads
Ġhad st
Ġse ct
ĠW ol
ĠW alk
ĠG ener
ĠG OOD
ight s
ĠF inding
ĠR ais
Ġex ter
ĠE yes
Ġpro sec
Ġar ched
ĠTh ousand
Ġ_ "
Ġun acc
Ġdis d
Ġsc ored
Ġcomp el
act or
Ġinc ense
ene zer
Ġperson ally
Ġill umin
Ġ19 7
Ġver ge
Ġval ued
Ġconn ections
Ġinfl icted
Ġpen alty
Ġhost el
kn ife
Ġmission aries
Ġprocess es
ĠLady bug
Ġdiscuss ing
Ġven ison
Ġjer k
boy s
Ġdisgu ised
Ġadjust ed
ĠAust in
ĠGlad stone
Ġprolong ed
Ġtraff ic
ĠJord an
P h
Ġo y
Ġo un
Ġb ake
Ġf ag
Ġp es
Ġbe ech
ĠT at
st orm
Ġfor ts
ĠM oo
ĠM useum
Ġr udder
ĠD au
ĠR oll
Ġpl ank
ĠTh ro
Ġun in
are n
Ġbl iss
Ġam iable
ick ory
Ġhand led
ĠY edo
ĠSt re
ĠSt ation
Ġsl oping
ond e
ĠV or
here nt
Ġred uce
Ġho isted
ĠQ U
Ġ8 1
Ġbur d
Ġstri ped
Ġ10 7
Ġthick er
Ġ15 7
Ġcompl iment
Ġpat ted
Ġpract ise
Ġworth less
Ġwrong s
Ġcirc us
Ġpriv ately
Ġmusic ian
Ġsal uted
Ġadmir ing
Ġindust ries
Ġthread s
Ġbol ted
Ġmult i
Ġens ued
ĠMagic ian
Ġsway ed
ĠScott ish
Ġseam an
Ġach ieved
Ġmerc iful
UST R
Ġgrunt ed
Ġbesie ged
, )
c ry
e at
n ic
Ġw ager
Ġb owing
ed i
Ġf ern
Ġd otted
Ġl y
Ġl ect
Ġl ull
Ġn omin
id ance
ĠT on
Ġwh ome
ĠS ing
ĠS ong
am er
ur st
Ġsa g
Ġsa ll
ĠP ig
ĠG ass
qu al
ĠD odd
Ġli z
Ġpr ick
Ġstr ongh
Ġpart ners
Ġwhere by
Ġcomp act
Ġbeg g
Ġ18 12
Ġac he
Ġkind er
Ġel k
oll en
Ġfear fully
Ġins ens
Ġ9 3
ĠRe gin
for ced
Ġenc ir
Ġneck lace
Ġprob ability
aff y
Ġgall ows
Ġstro lled
ĠQu ite
Ġinflu enced
Ġsal ute
Ġemb arked
ĠMo z
Ġfem ales
Ġreck oned
Ġnerv ously
Ġdepend ent
Ġflee ing
cast le
Ġshrie k
ĠTAL ES
Ġfrank ly
Ġemigr ants
ĠDuc a
ĠProt est
ĠEb enezer
Ġtel esc
Ġrepet ition
ĠTarry pin
Ġaby ss
Ġstrongh old
1 00
O G
U CK
r an
Ġs izes
re me
Ġh ushed
Ġm ah
Ġm uff
Ġn om
Ġg ulf
ĠS alem
Ġst ooping
ĠM is
Ġsh illing
Ġsh awl
ĠC are
ĠF le
ant ine
Ġv it
Ġch ina
ĠE mer
ber ts
ĠN ame
Ġkn ots
Ġro le
Ġgr inding
Ġaf ores
Ġtw entieth
Ġad o
Ġpre ached
Ġdist emper
Ġgl aring
Ġent ry
Ġac ute
Ġsupp ressed
Ġhor rors
Ġpar aly
Ġbus ily
alt ered
Ġtri f
Ġpal ms
ok u
Ġmod er
Ġfut ile
ĠCar nes
Ġdiscover s
Ġrid ers
ĠMc C
Is n
Ġkingdom s
Ġcloud y
Ġwheel ed
Ġrail ways
Ġprint ing
Ġroll s
Ġdeb ts
Ġge omet
ĠON E
Ġunb roken
Ġbug le
Qu ite
Ġfund s
ĠStand ing
ĠGal ilee
Ġgover ned
Ġmourn ful
Ġmart yr
Ġprodig ious
Ġvap or
ĠMemph is
ĠGE OR
iae val
ĠCelt ic
5 8
N ING
c al
d ish
e ast
i ots
p ole
s at
Ġp iles
an throp
ow ered
Ġwh ites
ĠM ang
ĠB ed
ĠC ec
ĠP ast
ĠP ER
il ence
ĠL iver
ab as
res ent
Ġout stretched
Ġab use
ĠN ic
Ġle ver
ig ator
Ġar rog
Ġcl ing
Ġtw in
Ġun natural
Ġpe ach
Ġpe eping
Ġad jo
ci an
Ġsl edge
Ġpre lim
Ġsc our
pe ople
Ġopp ose
Ġpost p
Ġdev our
Ġmus cular
Ġ15 8
Ġcourt iers
ĠDon ald
joy ed
.) ]
ĠJust ice
Ġthreat en
UR ES
Ġfer o
Ġplant ing
Ġstation ed
ĠSil ence
Ġlit ter
ĠLau rence
Ġconceal ment
Ġlat itude
Ġuncons ciously
Tr ue
Ġprecip ice
Ġoverwhel ming
Ġstrengthen ed
ĠSic ily
Ġsympathe tic
Ġdisre gard
ĠTHOM AS
Ġhereto fore
Ġafores aid
M aj
m or
o ken
w ig
w orks
Ġt ug
Ġw al
Ġd unge
Ġd awned
Ġp anted
Ġhe ark
le af
ĠT oo
st ones
ĠA ut
Ġhis sing
Ġst ress
ĠG ate
Ġall ies
ĠF oger
qu er
ant es
ĠR ames
ĠR avens
Ġfe at
Ġsp ade
Ġsp iders
Ġman ager
ĠO regon
Ġlook out
Ġelect ro
Ġgu idance
Ġhard est
ĠSh ot
Ġpar l
Ġpar ade
Ġschool room
ĠIs le
ĠGr ad
Ġfight s
Ġpol itic
Ġcast les
ĠRed oubt
Ġut il
Ġver tical
Ġlord ship
Ġdrink s
Ġpict ured
ĠFrench men
Ġcrowd ing
ĠSam son
Ġhost s
ĠWar lock
Ġice berg
Ġvan ity
Ġhonor able
Ġunf it
Ġax es
Ġincl ination
Ġcard board
Ġinnoc ence
Ġpoison ous
Ġconven ience
Ġshru bs
ĠCorn wall
ĠGar net
AK E
ĠCath olic
Ġphysic ians
ĠOff ice
tell er
Ġkins man
NOT ES
Ġambit ious
Ġalle ged
I EL
Y M
b ound
c ony
f ell
n igh
in ia
Ġm un
as el
Ġn ick
id ly
gh ing
Ġre jected
ĠS ays
ce ls
ĠP ole
Ġch is
Ġthere to
ĠJ am
Ġgr otes
Ġun ite
Ġbl inked
Ġbo on
Ġsee ks
ild s
ip ing
ach i
ĠSt ream
Ġsl ung
Ġwat ches
Ġsc an
Ġsw oon
Ġsw elling
ĠCh ase
Ġwr inkled
Ġhard ened
You ng
Ġinter m
Ġappear ances
ĠIs n
ĠSp encer
ĠCon tain
Ġ8 9
Ġpleas es
Ġpossess es
Ġdev ised
Ġ12 6
ĠPer ks
Ġcompl icated
Ġ11 7
ĠĠĠĠĠĠĠĠĠĠĠĠĠĠĠĠĠĠĠĠĠĠĠĠĠĠĠĠĠĠĠĠ ĠĠĠĠĠĠĠĠĠĠĠĠĠĠĠĠ
Ġtall er
Ġpit cher
Ġ25 0
Ġcustom ary
ĠChristian ity
Ġuns ucc
ĠChe ster
isher s
ĠTw elve
Ġcommunic ate
Ġmagnet ic
ĠBeaut iful
Ġrestr ain
ĠTurn ing
Ġautom obile
Ne il
Ġrhy thm
ĠWr ite
ĠFreder ic
ĠMist ress
Ġabst ract
ĠPret ty
Ġfab ric
ĠMurd ock
Ġtep ee
ĠBows er
edi ately
Ġunsucc ess
5 5
L ady
N G
V I
l aid
Ġb ump
is ons
ri ott
am med
ur ry
all ic
ĠP ay
ĠG iles
us ive
ap se
ol ated
ĠE re
Ġno blest
sel s
ass o
ĠTh ank
Ġover se
Ġstr ap
Ġbefore hand
Ġmen ace
Ġpre aching
Ġdist racted
Ġsent ences
Ġsk illed
Ġhalf way
Ġchar ms
Ġsound ly
ĠCl ub
Ġsever ity
Ġwatch man
Ġmis fortun
Ġ10 1
ĠCol ter
ĠRo berts
sp ring
ĠYOU NG
Ġfro ck
Ġutter ing
Ġstar vation
Ġsuper natural
ĠQu aker
Ġattract ion
ĠStr ange
ĠWood man
Ġbal cony
Ġmour ned
Ġbul b
Ġge ographical
ĠWhe el
ĠPart y
Ġwithdr awn
Ġ---- =,
Ġconsult ation
Ġbrand y
Pr ay
ĠSor ce
Ġdisob ed
Ġremo ving
Ġrelax ed
ĠMas kew
ĠFro st
Ġvener able
Ġdisli ked
ĠBeaum ains
A ID
L ore
d les
e ers
j ar
s omething
Ġt iss
Ġh ark
ou st
Ġp t
es op
st ep
ent ric
ro e
ĠS uan
ĠA ri
Ġst if
Ġst ems
ĠH at
ĠC AT
qu ity
ĠR ul
ĠR iders
Ġsp lin
um bers
Ġaf loat
ven el
Ġpe er
Ġad ds
Ġrem orse
Ġgl ided
ne ying
Ġsk irt
Ġsil ken
Ġeff icient
Ġplay er
ĠPr ingle
Ġpri or
Ġbar rels
Ġbur row
Ġdest roying
ĠMar riott
Ġmis under
Ġ12 7
Ġ12 9
Ġquestion ing
well ers
Ġsuper int
IG N
Ġsplend our
Ġvan ish
Ġdwell ings
Ġgle amed
Ġtriumph ant
Ġimper ial
ĠBro oke
ĠShort ly
Ġcong reg
Ġornam ented
Ġexert ions
Ġperpet ual
Ġreluct antly
ĠRand olph
ĠIllustr ated
Ġloos ened
Ġgor illa
Ġcel estial
Ġshudd ered
ĠBac ri
Ġecc entric
Ġlones ome
M rs
O CK
b irds
p ut
r ay
r ah
y th
Ġt ying
Ġw ail
er os
Ġp arson
Ġg ait
ad os
ĠI mp
Ġst ain
ĠM erc
ĠW inc
Ġde gr
ĠF ear
ĠL illy
ĠL ET
Ġthere on
ure au
Ġco inc
Ġover heard
aw ling
ip er
Ġthr all
ĠY ORK
Ġpart ial
rib es
Ġdes olation
Ġbel ike
ĠV il
ĠV asco
Ġatt ire
ru ff
Ġimp art
unt arily
Ġposs ibilities
Ġcle arer
Ġwood lands
Ġpur ity
ĠKing dom
Ġins ign
OU T
Ġinf ancy
Ġsoft ened
ipp ers
Ġlab ored
Ġfail s
Ġ14 7
Ġlif eless
Ġgovernment al
igg ers
see ing
ĠMo ors
ĠMo ham
Ġentertain ing
Ġwhir ling
Ġtit les
Ġcommunic ated
RY F
ĠDun can
Ġtal ents
ĠHome made
Ġtoler able
Ġsym bol
Ġcandid ates
Ġconnect ing
======== ========
Ġcush ion
Ġfeud al
ĠDie go
Ġperse ver
ĠThur ston
Ġmisfortun es
. ).
3 1
P ol
R IC
i ang
i ents
r am
in arily
Ġc ot
Ġm uffled
Ġhe red
ĠT ik
al agen
am ie
Ġha ze
Ġan ci
ĠP ert
ĠP owers
il ess
Ġr ue
ĠW atch
ĠG OLD
ĠF ountain
Ġv otes
ie u
ĠR a
ĠR ap
os y
Ġco ins
Ġcame ls
Ġpe pper
Ġstr icken
ĠIn f
Ġcr ashed
ĠV ig
ug ar
Ġhard y
Ġrece iver
Ġchar med
app le
iet ies
Ġsecond ary
Ġpublic ation
Ġhon ors
Ġhon ored
Ġdest ination
Ġlim estone
to le
ĠFl ower
ĠQu ick
IG H
Ġprotect ing
Ġhonour able
Ġsole ly
Ġexplan ations
Ġmut tering
Ġlone liness
ĠJew ish
Ġindust rious
Ġaccident s
Ġpil grims
Ġundert ook
ĠThou venel
ĠTex an
Ġphilosop h
Ġpreced ed
Ġdus ky
Ġenl arged
Ġrib bons
ĠMcG uire
Ġtu ft
Ġscant y
ĠAM ERIC
ĠRy cke
ĠImmort als
ĠNarr ated
Ġamate ur
4 2
G eneral
H ush
O C
f ound
j ik
p owder
r ons
Ġb attered
ing o
id ency
ĠA z
ĠA qu
ĠA by
ĠA aron
ĠM aine
Ġse rene
ĠC hes
ĠP tole
Ġor anges
ĠF ish
ĠF oot
ĠE ll
ĠN est
iv ian
Ġqu art
Ġun anim
Ġfl own
ĠK am
ĠK err
Ġim ediately
Ġhow led
Ġdist ances
Ġfound ations
Ġdr unken
Ġser mon
unt ing
EN N
Ġsat in
Ġworld ly
ces ter
Ġfoot ing
Ġgent leness
Ġesc apes
ser v
bit r
Ġroad side
Ġequ ality
Ġmed iaeval
Ġfr ail
Ġforg iven
Ġ11 6
Ġlab ore
Ġrespect fully
Ġ13 9
Ġdiv isions
Ġoccup ants
Ġshel ves
ĠBo ard
ĠAponib alagen
Ġris pect
Ġdomin ion
Ġmal ice
illings hot
Ġpudd in
Ġsust ain
Ġscratch ing
Ġascertain ed
ĠPil grims
Ġfring e
AF L
Ġcud gel
Ġfero cious
' ."
H istory
M ER
O Y
R ather
c riber
d ling
t oo
Ġt apped
Ġa str
Ġf rench
Ġc ode
Ġd ances
Ġp amp
ĠT ry
ĠT inker
im b
Ġre he
ĠA ud
ke red
ĠP illingshot
Ġall eg
ust rious
ĠL ot
ong il
Ġsp onge
ĠE L
ous ing
Ġen light
Ġfl ush
Ġper ogue
ci en
Ġsc issors
Ġdr ug
Ġsub d
Ġel bows
Ġlaw yers
Ġblack smith
Ġconf ession
ann on
Ġrock ing
Ġdec ay
Ġprop osition
Ġmist akes
Ġ15 6
ĠHere ford
Ġsupport ing
Ġarr anging
!' "
ĠPl an
Ġresol ute
ĠCr ane
Ġdescrib ing
Ġfeast ed
ĠMc Neil
Ġur gent
hold er
Ġren own
Ġpack ing
Ġban ished
Ġexpens ive
Ġcorrect ly
Ġfil en
Ġsubst ances
Ġcoo lly
ĠWal ton
Ġlegisl ature
Ġprofess ed
ĠRaj ah
Ġbust le
ĠRat sey
ĠFO OT
Ġmonot on
ĠCHAR LES
Ġta vern
Ġrans om
Ġhaught y
Ġintol erable
ĠMoham med
C he
K S
p ents
s ir
w orn
Ġs acks
Ġl acked
Ġhe aped
Ġg ib
Ġon to
et ies
ĠS all
ĠS ally
Ġas under
ĠH ab
ĠH ist
ĠH OUSE
ĠP ete
ĠW id
Ġor gans
Ġbut ler
ĠD ame
ers ons
ig ible
Ġwill ows
Ġtr ains
Ġ_ ________
Ġbl ushing
Ġbo g
Ġpr icked
ĠIn n
ĠCh ang
Ġcr ashing
ĠShe ep
Ġres ided
Ġac hed
ĠUn fortunately
ĠAl ways
Ġinc or
Ġvis age
ĠSp iller
Ġexpl oring
Ġhon esty
ush a
ald ing
Ġfine ly
Ġdest it
ĠAp ache
ĠBl ock
ĠĠĠĠĠĠĠĠĠĠĠĠĠĠĠĠĠĠĠĠĠĠĠĠĠĠĠĠĠĠĠĠ ĠĠĠĠ
Ġeight eenth
Ġdisp ersed
Ġ14 8
Ġdry ed
aced on
ĠPl ains
ĠLI FE
str icken
Ġstro ked
urs ed
Ġtow ering
Ġble ak
US H
Ġblind ed
ĠNOT ES
ĠĠĠĠĠĠĠĠĠĠĠĠĠĠĠĠĠĠĠĠĠĠĠĠĠĠĠĠĠĠĠĠĠĠĠĠĠĠĠĠ ĠĠĠ
Ġearnest ness
Ġpet ty
Ġcart s
Ġpil grim
Ġprompt ed
ĠEv ans
Ġpuzz le
Ġess ay
ĠPers ians
Ġbund les
Ġwax ed
ĠBuffal o
ĠPri or
Ġshepher ds
Ġtrump ets
Ġperple xed
Ġremo val
Ġcommence ment
ĠFA IR
ĠLiber ty
Ġsubse quent
Ġglist ening
Ġexting u
ĠWeather staff
ĠGEOR GE
. ),
F UL
h ard
m ot
o ise
v able
z a
Ġt ed
Ġm i
Ġp end
Ġhe aling
ĠT od
ir k
Ġst ony
ĠB or
ĠB ry
ĠB ors
ĠB ene
ĠP in
Ġr ides
ĠW AT
ĠF ast
ul ously
ĠL abor
ĠR i
ĠR og
art y
Ġint ensity
Ġpro ves
Ġper ception
Ġsl ing
ĠU P
oss y
Ġlast ing
ph abet
li k
Ġrun ners
Ġstart s
Ġvis ions
Ġprop hes
Ġ10 2
Ġsubject ed
Ġpeace fully
Ġaccount ed
ĠĠĠĠĠĠĠĠĠĠĠĠĠĠĠĠĠĠĠĠĠĠĠĠĠĠĠĠĠĠĠĠ ĠĠĠĠĠĠĠ
Ġdisp osal
Ġunc overed
Ġsnow y
ĠEx per
ĠCr atch
Ġprev ail
Ġsucceed ing
ett les
Ġclean ing
Ġbid s
Ġdim in
Ġsympath ies
Ġfashion ed
Ġpa using
ĠSqu are
ĠMon k
Ġhonest ly
Ġmyster ies
Ġbew are
ĠSher man
Ġdisg usted
Ġult imate
Ġproduct s
ĠGib son
Ġfasc inating
Ġanaly sis
unci ation
Ġsulph ur
Ġgrotes que
ĠLET TER
' !
S ince
U C
_ !"
u pt
y the
er ry
Ġb itten
Ġc rop
Ġm ak
ic it
Ġwith stand
ke ep
ĠP ine
ĠP ainted
Ġr acing
ĠF anny
ĠD ag
est ine
Ġsp ied
ĠO UT
ack ing
Ġgr abbed
Ġstr aining
Ġpo pped
amp ier
ĠCh ou
Ġhapp iest
Ġhands om
,' "
Ġbre ed
Ġmin eral
Ġmin iature
Ġdirect ing
Ġins olent
Ġsuff rage
ex cept
Ġconst r
ĠWill ard
Ġpain ter
Ġ10 3
Ġ10 8
Ġhunt s
ĠLe ge
Ġjour neying
Ġvict ories
Ġcharacter istics
Ġobl ong
Ġrecogn ise
Ġtrust y
Ġgro ves
ĠFar nie
ĠMin or
fle et
Ġmeas uring
Ġbutter fly
Ġdece ased
Ġbree ches
Ġben ches
ĠPat rol
ĠAc ross
ĠSH E
mist ry
ĠLo ch
Ġpolit eness
ĠRay mond
Ġdemonstr ation
whe el
ĠFreder ick
Ġscru b
ĠFa ith
ĠBeth le
Ġsubstant ial
Ġirresist ible
ĠVor ongil
ĠRavens croft
M en
g ments
m are
n us
Ġb uns
Ġh amp
Ġh uddled
Ġc ask
Ġto ilet
Ġp ett
Ġl ink
Ġl uminous
Ġg ems
ĠT affy
ac iously
Ġst ations
ĠH utch
Ġsh ines
Ġv ind
Ġch ums
Ġsp elling
itt ens
Ġag gress
ĠJ ill
Ġtr u
Ġbl amed
Ġri ve
ĠY ears
ble m
Ġsc affold
ĠCh annel
ott e
Ġem in
Ġdisc ern
ES US
Ġmet allic
Ġpar ch
Ġsle igh
Ġsub mitted
Ġes pecial
ret ien
Ġhum ans
Ġinv iting
Ġbar ley
Ġ19 9
Ġ15 9
co ats
Ġsuccess or
Ġ13 5
Ġimag inary
Ġcat ches
zz ly
Ġshut ters
Ġund o
Ġaffect ions
ĠNOT E
ĠXX II
ĠBab e
Ġbuffal ow
ĠDem ocrats
Ġener g
Ġvig our
ĠLong legs
IM E
Ġyield ing
Ġendeav our
Ġobst ruct
Ġprim ary
Ġiv y
Ġwrest ling
Ġarchit ecture
Ġuneas ily
ĠDau phin
ĠBethle hem
c ond
n ish
o iled
p oss
u ate
Ġa h
Ġa ching
Ġh ogs
Ġd iving
an se
ĠT i
ve ying
ir ls
her ry
ĠH amp
ĠC ard
ĠC yrus
Ġmy ths
ĠR aven
Ġsp it
ber y
ate ful
os ph
ĠJ AMES
Ġtr uce
Ġbr an
Ġun sc
Ġover joyed
ĠK yr
Ġsw ine
Ġcr ude
Ġind eb
Ġwr ung
Ġlet s
Ġem ence
Ġord ained
Ġsk irts
ĠSh op
az en
Ġred ish
IN S
Ġchar ter
ec d
Ġmid shipmen
Ġins cription
Ġinf lection
Ġfellow ship
Ġhon oured
ime by
Ġpossess ing
Ġfort ified
Ġexc av
Ġbear ings
Ġ11 1
Ġlab ours
Ġdisapp oint
OO SE
Ġweak er
ĠWar ner
Ġdevelop ing
Ġthro ats
ĠBar low
Ġ185 6
Ġwed ded
Ġplant ation
Ġthrust ing
Ġbal anced
Ġbutter flies
Ġexhib ition
Ġrobber y
Gr and
Ġslee ves
Ġdesir ous
Ġoverwhel med
ĠLes bia
Ġpige on
ĠFlag gan
Ġenchant ment
ĠILL USTR
H ello
M ore
S ure
c use
h aw
l ah
m ine
n un
in ers
in ty
Ġo min
Ġh ilt
Ġto ad
Ġl oses
le ments
ic ide
ĠT ail
ĠS ons
Ġst ile
Ġsa ge
ĠP itt
ĠP OL
Ġr he
th ink
us cript
ĠL og
ĠL uck
Ġch asing
Ġcon ject
Ġal ms
ĠE xt
el ier
Ġgr ab
cc as
ĠK arn
Ġsw ollen
Ġcr utch
orm ons
Ġear l
Ġgl ances
ĠV ER
Ġcar r
ph y
att en
ĠEng ine
Ġmon uments
Ġcol oss
Ġgener osity
Ġho ard
ĠRe ub
Ġ10 4
emark s
Ġbound ing
Ġassoci ations
Ġele vation
ask a
Ġcost umes
Ġpat ent
Ġ13 2
AS TER
Ġharm on
Ġmad ame
Ġutter ance
sc ope
olog ist
Ġ22 9
Ġhy ster
Ġaut o
ĠAgain st
ĠSim ilar
ĠSand y
Ġpier cing
Ġast ron
Ġnin th
ĠHend erson
ĠSav iour
Ġsurvey ed
Ġinher ited
Ġcourte ously
Ġaffl icted
ĠDep artment
Ġexclus ively
ĠSold ier
Ġincap able
Ġwate red
Ġindeb ted
F riend
G l
d aughter
e an
t old
Ġf ainted
ing ale
Ġp ies
Ġg room
ot am
Ġre li
ĠS ou
ĠS ant
Ġst ab
Ġan ecd
ch amber
Ġsa fer
ĠM oh
Ġsh abby
Ġr aced
ĠW ain
ect or
ĠF ate
ĠL is
Ġv ale
Ġcon verse
ĠE ger
Ġman ual
um mer
ag ut
Ġgo sp
ĠJ ennie
ĠJ ESUS
Ġtr agic
ass an
ure ing
other ing
Ġdown wards
ĠK ill
Ġwhere of
Ġsc enery
Ġcr ouching
Ġwr oth
Ġcar le
Ġlo an
Ġser pents
ix on
ĠInd ust
Ġact or
Ġkind led
Ġbro oks
Ġdisc retion
Ġste alth
ĠJohn nie
oot s
Ġdraw bridge
Ġwatch ful
Ġfr ay
Ġsold ered
Ġph ant
Ġmis chie
Ġbir ch
Ġ15 5
ĠLe aving
Ġdet ain
Ġ14 6
Ġtor to
Ġlif et
ĠBar on
Ġrepeated ly
ĠWeb ster
Ġpin n
Ġpeculiar ly
Ch ild
ĠLok eth
ĠDog gie
ĠMoon fleet
ĠStan ning
Ġelement ary
Ġmant el
Ġembarr ass
Ġcircl ing
Ġnig ger
ĠPs amm
ĠEduc ation
ĠMuss al
idel ity
ĠVesp asian
Maj or
ĠPert ell
Ġmonoton ous
ĠKarn ak
ĠEger ton
E h
L ee
c ount
p aper
v o
Ġw iping
Ġh ove
Ġh ier
Ġh ooks
Ġf um
Ġd ific
id dle
Ġe jac
Ġas cent
ur rent
Ġan am
ĠM aking
ĠB urd
ĠC u
ĠC ord
ĠC ond
ĠP ow
ĠP ear
Ġr ouse
ĠW az
ĠF en
ĠD all
ĠR ather
ĠR ikki
op ular
Ġsp indle
ĠO VER
Ġgr uff
Ġcl enched
Ġtw ig
Ġdis l
ud ing
oth ric
iz zy
Ġgl owed
og ues
Ġreg iment
ĠPr uss
Ġcontin ual
Ġart istic
Ġfact ories
arm ing
Ġforward s
Ġobser ver
ĠCol our
Ġ12 4
ĠLe othric
Ġrespect ively
Ġgrand child
Ġexam inations
Ġ| |
Ġphys i
Ġtro pical
che st
Ġtrail ing
ĠRep resent
ĠTur ks
Ġattend ant
Ġgen ial
Ġarg ue
ĠBes ide
Ġovert aken
obe i
Ġplung ing
Ġsumm ary
mist ak
Ġobed ient
ĠVen us
Ġprophe ts
ĠSur vey
Ġpatriot ism
Ġfrown ing
ĠVi enna
ĠUt ah
Ġcontrovers y
ĠGasc oyne
ĠThro gs
Ġburd ens
Ġprelim inary
Ġgosp el
? _
f ields
l ore
Ġ ..."
Ġt ense
Ġo mitted
Ġb ait
Ġf erv
Ġd y
an el
ut y
Ġbe thought
ĠI g
ĠT est
et ic
ĠS ure
Ġst alk
Ġnot icing
ĠH undred
ĠM S
ĠM orning
ĠM iao
Ġsh oved
ĠB U
ĠB attle
ĠC ase
ĠP le
ĠP ier
ĠP apa
ĠP ubl
ĠW es
Ġme nded
ĠG os
ĠG ates
Ġsu p
ĠF ew
ĠL or
ĠL one
ĠD ES
em aker
ant ime
Ġv ase
Ġch aff
un ner
Ġpl aint
Ġpro verb
Ġcl atter
Ġbo oth
ĠY orks
ĠSt ock
ĠIn side
Ġcr it
oss om
hes is
Ġstre wn
Ġdisc ourse
Ġche wed
Ġpar a
ĠBe gin
Ġperson ality
Ġdraw ers
Ġdro oping
RO S
Ġjoy s
Ġ11 8
Ġstates man
ĠPl ay
Ġinqu iring
Ġsuper stit
Ġdescrib es
Ġnoble man
Ġprivate ers
Ġcontro ls
Ġsusp ense
Ġcrown s
ĠGo ing
ĠAny how
Ġfold ing
ĠSaw horse
Ġspark led
Ġreflect ions
Ġflood s
Ġelder ly
Ġ# #
Ġjun ction
Ġpattern s
Ġhom age
Ġfaire r
Ġforb ear
Ġshove l
Ġcircl ed
ĠMarsh all
Ġrefres hed
Ġtechn ical
Ġrog ue
ĠShad ow
ĠFarr agut
Ġbegg ars
ĠMoz art
Ġtrif ling
C LE
c ir
c ord
d og
l ul
p age
y et
Ġa qu
er ting
Ġf iction
it ious
Ġd ated
Ġp yramids
Ġbe ats
ĠT ale
st ood
al ted
Ġst ables
ur able
her d
ĠB AT
Ġr ung
ĠG y
ĠG oli
ĠD AV
Ġv ot
Ġch ast
Ġch attering
ĠR ICH
Ġsp ies
Ġout come
Ġno b
os o
el opes
Ġar bitr
Ġun lo
Ġoff end
Ġoff ensive
Ġhand ling
Ġsc ull
air n
ĠCh obei
Ġcr abs
Ġdr ama
Ġret iring
Ġres igned
Ġnight mare
ph r
row th
ĠAr ctic
li hood
Ġmo ons
Ġsub mission
Ġinc ome
Ġshow ers
ub by
Ġconf ronted
Ġschool master
af nir
Ġfur s
Ġfact or
ize h
oor oo
Ġbur g
Ġloc ate
Ġtable t
ĠDr aw
Ġaff irm
Ġkill s
ĠST E
Ġ11 3
Ġsugg ests
ĠWhere ver
Ġmission ary
ĠBlack burn
Ġid ols
Ġmut ton
Ġfart hest
ĠGreen land
Ġpig lets
Ġbuffal oes
MIT H
Ġspl ashed
Ġgrad uated
Ġrelations hip
Ġgrie vous
ĠAR ROW
Ġbord ered
Ġven om
Ġobst inate
phe us
Ġmast s
ĠBel oved
ĠRO B
Ġlust y
Ġcush ions
Ġsincere ly
Ġtun ic
Ġclust ers
ĠAlb any
Ġholl er
ĠDak ota
Ġorph an
ĠSalar iki
Ġtires ome
ĠAlexand ria
Ġparl our
Ġdestit ute
ĠYorks hire
Ġsuperstit ious
C or
P E
U p
b ec
e h
k t
t ikki
Ġthe ft
Ġo gre
Ġb oss
Ġb aking
Ġf ins
Ġf altered
Ġd ing
ar ooroo
id ences
ĠH ound
ĠH ouston
ĠH assan
ĠM OR
ĠM AG
ĠC ause
ĠP LA
ĠW ass
ĠG es
Ġdo se
ĠE ld
Ġpl a
ort on
Ġcan opy
Ġun mistak
ĠK ur
ĠK uan
ĠSt op
ĠSt orm
ĠIn ches
ĠShe ll
Ġcar p
Ġcar riages
Ġlo ads
ĠAs i
ĠAr ound
Ġsupp orts
Ġfew er
Ġmoment ary
Ġmo ccas
Ġround s
Ġed ged
ĠIs ab
ann els
ĠCl im
ĠSome how
Ġill ustrious
Ġfre qu
ĠBl ind
Ġ12 1
Ġproceed s
mon t
Ġstraight ened
roy d
Ġgrand son
rect ed
Ġcoast s
Ġallow ance
Ġinvent ions
Ġrub bish
irst y
ĠĠĠĠĠĠĠĠĠĠĠĠĠĠĠĠĠĠĠĠĠĠĠĠĠĠĠĠĠĠĠĠĠĠĠĠĠĠĠĠ Ġ
Ġident ified
Ġfift eenth
Ġdeck s
Ġconclud e
Ġinterrupt ion
Ġsuspic ions
Ġscrew ed
Ġess ent
Ġregret ted
Ġmanufact uring
Ġappreci ated
Ġgallop ing
Ġcorrid ors
Ġinvestig ate
Ġmu zzle
Ġunre ason
Ġelo quent
Ġprejud ice
Ġconfer red
EC LECTIC
ĠAdvent ures
Ġsep ulch
Ġgh astly
Ġencir cl
ĠLiver pool
Ġadjo ining
Ġ## #
E ls
G old
S it
W est
b ushes
p ose
u en
Ġthe ories
Ġw ield
is en
ar ia
Ġth undered
Ġp ens
Ġp ulse
Ġin aug
ĠT asso
Ġre ed
Ġre ct
Ġat ter
ĠB and
ĠB us
ĠB asil
ĠC AN
il iar
." [
ĠD ampier
ol an
Ġab iding
Ġtr immed
Ġar c
od ed
Ġbl ushed
Ġfl annel
Ġshould st
Ġsc are
Ġgl ob
oy d
ĠAt li
li er
Ġhelp ful
ĠAl ger
Ġsub ter
Ġsn ows
ĠBe van
Ġdep ression
Ġinter vention
Ġdou bly
Ġbes ought
be ing
Ġsy ll
Ġph ase
Ġconc rete
Ġplan ets
Ġ11 4
TH IRD
Ġburn s
Ġdelight s
Ġstates men
Ġdemand ing
Ġfix ing
Ġgar b
Ġhabit ation
ari us
ĠSu per
ĠDem on
Ġafford s
Ġadventure rs
Ġencour aging
On ce
Ġenv ious
Wh ile
Ġobst acle
Ġrude ly
Ġcru ise
ĠSE C
Ġextrem ities
ĠCross ed
Ġpear l
Ġfatig ued
Ġrestr ained
Ġrecon c
ĠPur itans
Ġnavig ation
ĠSat an
Ġexert ion
Ġmusk et
Ġlam bs
Ġforb ade
ĠSid i
Ġdiplom atic
ĠBree zes
ĠMeth od
Ġsanct uary
Ġpoo rer
Ġcaterpill ars
Ġmathemat ics
istur bed
ĠMusk rat
Ġlifet ime
6 9
C C
E s
O B
S w
T oo
c f
g oy
g overn
j ab
t ake
w ich
Ġt angle
Ġt inker
er ving
Ġm im
Ġd ip
as a
Ġn a
Ġy ew
st ream
Ġst amm
Ġnot ions
ĠM acedon
ĠP ict
ĠG R
Ġall ey
Ġsu ms
ĠD iff
Ġex asper
Ġun ob
ip es
ang an
Ġpe a
act ions
ĠCh as
ĠCh retien
ĠV ice
Ġexp ansion
Ġimp osing
Ġcons olation
Ġstre amed
Ġvo lley
Ġmon ks
AN G
AT ED
Ġins ert
Ġcent ers
Ġbar ber
uff y
ĠNot withstanding
Ġdet ailed
Ġval or
Ġwhis pers
Ġevil s
ĠZ ar
ĠAm az
Ġmusic ians
Ġund one
Ġhost ility
ĠMe antime
Ġtrail men
Ġhen s
Ġdistur bing
Ġmort ar
Ġtriumph antly
Ġphil anthrop
Ġscream s
Ġimmense ly
ĠPat rick
Ġhistor ian
ĠBrother s
Ġdisappear ing
Ġchallen ged
Ġexplore rs
Ġtick ets
Ġgover ness
Ġsniff ed
Ġprett iest
Ġbapt ized
Ġoverl ooked
Ġbann ers
Ġflu id
Ġnu isance
Ġassail ants
Ġbould ers
Ġtus ks
ĠNeg ro
Ġchem ical
Ġdia lect
ĠHutch inson
ĠKyr al
6 7
A bout
H ey
N onsense
T w
g own
h an
h oe
m us
u ations
nd ish
Ġm amm
st ained
ro lled
Ġwe ed
ĠA venant
ri lled
Ġsh iny
ĠB road
Ġse w
ĠC edar
ĠP oly
ĠW a
Ġup side
," --
ĠF afnir
us a
ĠD est
ĠR ID
ol ine
ĠJ osh
Ġj elly
Ġqu er
ĠTh ames
Ġbl ithe
ild ed
ang ar
Ġstr ay
Ġpre f
Ġsc outs
ĠV ers
ĠAs sem
omet imes
cess ion
Ġred dish
Ġblack s
Ġsn apping
Ġdep ressed
af at
Ġexpl oration
Ġins ulted
Ġsqu aw
Ġsol ve
Ġ11 9
Ġrespect ful
Ġ13 8
father s
ĠSl av
ĠEvery one
ĠQu akers
Ġweak ened
ĠEn ide
ĠSet i
ĠMer lin
St and
Ġsevent eenth
Ġfarm house
Ġprint s
ĠEv idently
uls ive
Ġconstit uted
Ġaltern ative
ĠRou ge
ĠScar cely
ĠLu cien
ĠKh il
ĠHu ang
ĠJul iet
ĠArab s
Ġdomin ions
Ġtransp orted
Ġscold ing
ĠLang ley
Ġingen uity
ĠPE TER
Ġdisob ey
Ġhaz el
Ġdur st
ĠDer by
ĠMak arooroo
Ġappe als
Ġtram pled
Ġathlet ic
Pres ident
ĠSup reme
Cap tain
Eng lish
ĠVil mor
Ġinsign ific
Ġ_________ _
B ring
e nder
t les
t ailed
Ġw ailed
Ġs ine
Ġf ount
Ġm ister
Ġp ore
Ġl ore
Ġl ick
Ġg ul
ic an
Ġre cl
al om
Ġst aid
Ġsh ady
Ġse wed
ĠF ern
Ġman uscript
Ġkn it
ĠJ un
ĠJ ob
Ġj et
Ġbr ink
Ġri vals
ĠK ind
Ġpe w
Ġad apt
ord e
ĠSt ay
Ġsl it
Ġsw an
ĠV ivian
Ġwa res
Ġopen ings
ird ath
Ġconf ided
ĠBe ard
Ġho ckey
AN CE
ĠCon se
Ġleave l
Ġfast ening
ĠNew s
Ġlist s
ĠLord s
Ġtop ic
Ġtri g
AP P
Ġcamp s
ĠAp aches
Ġdoubt fully
Ġmist s
Ġ19 3
Ġ19 5
Ġforg iveness
ĠCar rington
Ġ20 1
ĠAm mon
ĠNe b
Ġund isturbed
ĠGl en
Ġscr ut
ĠSpe ak
ĠPal estine
do ors
Ġmel ody
Ġcool ness
Ġpin ned
ĠMon roe
Ġunl ocked
Ġcraft s
ĠOther wise
Ġep och
Ġsne ak
Ġpier ce
ĠVer ity
itz er
Ġcultiv ate
Ġboot y
Ġboast ed
bu ilding
Ġautom atic
Ġphotograph s
ĠBess ie
Ġgasp ing
Ġconcentr ated
Ġdyn amo
Ġresent ment
Ġgalley s
ĠWel sh
Ġcircul ation
Ġflatt ened
Ġlil ies
Ġguarant ee
oeb uck
ĠBark er
Ġwolver ines
Ġadequ ate
Ġnob ility
ĠKhil afat
ĠVilmor in
" )
M ad
S omething
l ston
m orning
v ard
Ġa ug
Ġs cept
Ġs ieve
Ġc hess
Ġl atch
ĠT roy
Ġy arn
et he
ri ety
ur ion
ĠThe ban
Ġsa h
Ġsh ifting
ĠC ain
ĠC op
ĠW ald
ĠW ait
Ġde ft
Ġup l
us ions
ĠL ane
ĠD iam
Ġv ases
Ġch rist
ĠR an
ĠR ug
Ġfe eds
Ġsp ool
Ġex alted
un ters
Ġpro g
Ġqu ad
aw led
ip al
Ġcomp romise
Ġhead ache
Ġter med
Ġatt ributed
ĠJo ab
Ġcountry side
Ġread s
ĠSh ow
az ines
Ġass ign
Ġlaw ful
ĠAn cient
ĠIs d
Ġmer man
Ġmer its
Ġpower less
ĠCl uny
ots uke
Ġproper ties
Ġjo kes
Ġprot r
for ward
Ġsuccess ive
Ġgrass es
ĠIN T
Ġhot ly
Ġfly er
Ġband age
Ġ13 3
ĠRE V
ĠWhere upon
Ġmass acre
ĠHen kel
Ġentr usted
Ġinflu ences
Ġterm inal
ĠXX III
Ġcho pped
ĠSu ke
Ġii i
Ġfem in
Ġcelebr ate
Ġtele gram
ball s
Ġflee ce
Ġcultiv ation
ĠLau ghing
Ġcoward ly
Ġhaunt s
Ġindul ged
ĠCave ndish
Ġenthusi ast
Ġsom bre
Ġuneas iness
Ġexplo its
bour ne
Ġsurge on
UB L
Ġbeck oned
Ġpic nic
Ġamend ment
Ġcarc ass
Ġbail iff
ĠTik tok
Ġalleg iance
Ġmischie vous
; '
C u
D a
R es
R emarks
T ime
c ake
Ġh ull
Ġf idelity
it ching
on ial
Ġp ag
Ġp atting
ic ia
im port
se en
ay a
ri ans
Ġst ren
Ġan alog
ĠB ath
ĠB ooks
ĠB irds
Ġr asp
ĠF OUR
ĠL arge
ĠD wellers
Ġv oted
ĠR ud
Ġsp ices
ive rer
Ġpl edged
Ġbr ant
Ġbr aid
Ġun ity
ĠSt art
ĠSt ru
Ġsm itten
Ġdes criptions
Ġcomm od
Ġcons pir
ĠWe althy
Ġte ams
ug u
Ġmo aned
Ġpar ap
Ġass ailed
Ġchar ging
ĠBe ach
Ġdro ll
Ġinf ants
Ġcoll ision
ĠRe f
Ġtop ics
Ġwin ked
Ġmist y
Ġ17 5
Ġgovern ments
Ġcompl aints
Ġ11 5
Ġarr ayed
Ġ14 2
Ġdesp ise
Ġvict or
Ġpit iful
erc hen
ĠApon igaw
Ġswift ness
hel sea
Ġ185 0
Ġmir acles
Ġexcell ence
Ġsmooth ly
Ġmort als
ĠMen lik
ĠChild e
Ġsacrif iced
Ġlog ical
Ġgrat ified
Ġconstit ute
Wh ite
Ġris ks
ĠSE A
Ġfanc ies
ĠKar l
tw enty
Ġencl osure
mark s
Ġdepos it
Ġdoc uments
ĠLod ge
Ġflav or
Ġdeser ts
Ġawaken ing
Ġlav a
Ġbenevol ence
Ġsmoot hed
Ġindef inite
ĠDew ey
ĠRoc he
ĠMoo re
Ġdunge on
Ġparch ment
ĠJosh ua
ĠAponigaw ani
E l
F olk
V II
d i
f air
f orts
l ies
w right
Ġt ens
Ġw er
Ġw aken
er an
is ive
Ġc ust
Ġm ales
or ial
ar act
Ġp ike
Ġp owd
ot ic
Ġe ll
ac ock
ĠS au
ri val
ĠThe r
ch al
Ġsa us
ĠM d
ĠP amp
ĠW or
Ġor acle
th ird
Ġex it
ĠE AR
ĠN av
ĠJ il
Ġbr utes
Ġqu ivered
av our
Ġdis ast
Ġpr one
ild a
ĠY an
Ġpe ck
Ġwhere abouts
ci bly
Ġsl ate
Ġpre fects
Ġsc atter
Ġsent ry
ĠBr az
Ġdisc ribed
az a
Ġel astic
oot y
Ġrequ is
ĠHow ard
Ġart ists
Ġfoot prints
Ġinv aded
Ġsuff ice
Ġca ress
Ġtreat ing
Ġ19 6
ĠLe a
Ġthir teenth
Ġ16 5
Ġbow ls
ract ion
ĠEd itor
Ġ20 3
gan a
ĠCr aw
Ġcurrent s
ĠFred a
ĠDE ATH
Ġimpl ored
pro of
Ġsne ered
VER Y
ĠArab ia
Ġmechan ism
ĠCons ider
ĠCoun c
Ġtwink le
Ġtreas ury
ĠHind u
Ġfest iv
Ġeconom y
ĠMcG inty
Ġsignific ant
ĠMess rs
Ġhaz ard
Ġju ice
Say ang
Ġverd ict
Ġdecend ed
Ġbehav iour
ĠCOMP ANY
Ġbaff led
Ġdeturm ined
Ġdisd ain
ĠCec il
Ġrhe um
Ġstamm ered
B LE
C IS
H ad
b able
d ler
g ence
k as
s aw
w ac
he ast
it ably
Ġm all
ar as
Ġp ac
Ġin eff
Ġl emon
Ġg urg
ĠT imes
ĠA RE
ur ous
ĠH ap
ĠC hen
ĠC rew
il ated
ĠW ise
ĠW orm
Ġor ator
Ġall iance
ĠF isher
ĠD ion
est own
ab uro
ĠR ee
Ġcon ver
Ġsp ont
Ġout fit
ĠN aturally
Ġno ve
ĠJ ournal
ine as
Ġbl ocked
Ġoff spring
ĠK oku
ĠK otsuke
ĠSt eep
cl othes
act ic
Ġlo aves
uck s
ĠInd ex
ĠSh ab
Ġste eds
Ġpar cels
Ġred eem
Ġbeaut ies
ĠPr ice
ĠAfter wards
Ġbad ger
Ġclear ness
Ġspir ited
ric ate
Ġequ ival
Ġdifferent ly
Ġcross es
ĠIndian a
ĠGer mans
Ġap ology
ĠDav ie
Ġcapt ivity
aul ted
Ġant elope
Ġ22 7
ĠMin istry
Ġsplend or
Ġ185 4
Ġproof s
Ġmat ron
ĠTw ice
Ġflood ed
Ġheed ed
ĠHol royd
ĠSch u
Ġfrag rance
Ġdir k
Ġflour ished
ĠApp le
Ġimprove ments
Ġrestr aint
Ġscram ble
Ġscold ed
Ġloyal ty
Ġintr ud
Ġprecaut ions
Ġaccur ately
ĠBRO WN
Ġcig ar
Ġengr aved
ĠSwed en
ĠBol te
Ġbesee ch
Ġcrumb s
Ġsimult aneously
Ġtelesc ope
ĠGrad ually
Ġfilen ame
ĠShop ton
, --"
B IT
C ar
H ear
H urrah
I Z
a ik
g led
s en
s ac
Ġb a
Ġb acon
is a
Ġd iet
Ġd uke
Ġp ines
Ġp iety
Ġp sal
as se
Ġl air
Ġg ull
Ġg ilded
Ġbe aming
ĠT art
ĠT ib
ĠT yr
ly ph
ĠS yr
Ġfor cing
ĠA ff
Ġst ung
ĠP sy
Ġr ails
ĠG ay
ĠG izeh
ĠD ig
ĠD oll
ant ically
Ġch illy
Ġsp urs
Ġal ight
Ġal phabet
Ġthere upon
ĠAnd res
Ġcl ick
Ġcl uster
Ġun pre
are well
Ġdis in
Ġri pping
ĠK end
hat an
Ġpo inter
ci us
amp s
Ġsm ite
Ġsl ugg
ren cy
Ġke el
Ġgl or
Ġcount s
let ons
Ġche ery
Ġfour teenth
Ġass ented
Ġpresent ing
Ġpublic ly
Ġarri ves
Ġbar ked
Ġforward ed
ĠDo ct
Ġplan ks
UT H
Ġobject ions
Ġest ates
Ġyell s
Ġdisapp ro
Ġ14 5
Ġjud ging
Ġstop s
Ġ25 9
rog en
-------- ----
ĠXX IV
Ġcourage ous
Ġperce iving
Ġpig let
Ġpack et
Ġavo iding
ĠSec ure
Ġgloom ily
Ġexcited ly
Ġvirt uous
Ġdi agr
Ġretreat ing
Ġstiff ly
Ġrust ic
agg ering
Ġsne e
Ġded icated
Ġhed ges
Ġprospect s
Ġintense ly
Ġconquer or
ĠFe ather
ĠDark ness
Ġtap est
ĠHind us
Ġconvention al
Ġimprison ment
Re ally
Ġlur king
Ġaer op
Ġexhaust ion
Ġvary ing
ĠAlg iers
ĠMord red
ĠPun jab
Ġeyel ids
ĠStu art
Ġvass als
ĠAbs alom
Ġmoder ately
ĠJam estown
ĠRog ers
ĠPsamm ead
Els ie
, _
L ife
U EL
c reat
l ittle
m akers
r ad
r um
t te
Ġt alks
Ġa rived
Ġb ount
Ġb arge
Ġd anc
Ġp ry
Ġp el
Ġp oult
Ġwas ting
ĠS pl
Ġas pir
Ġsa ith
ĠB oom
ĠC over
ĠW oe
Ġme llow
Ġsu bl
ul ent
ĠL ibr
ĠD aw
ant in
out ing
ie ll
Ġsp acious
iv able
ĠJ iu
au v
Ġbr am
Ġus age
av ings
Ġco cked
Ġpr udence
Ġfl ashes
Ġhand ing
Ġhand ic
Ġstr aps
Ġper ils
Ġsw ans
ĠShe pher
Ġgl ittered
Ġgl ossy
Ġatt orney
Ġnight ingale
Ġwar mer
Ġexp elled
Ġpres ervation
Ġsupp lement
Ġdiff ers
ĠTo om
Ġmo aning
Ġrel inqu
Ġass es
Ġlay ers
ub ber
Ġho pping
Ġcur ly
Ġoffic ially
Th ough
Ġbad ge
ĠFr az
Ġbar ons
ĠCom mer
Ġbur ying
Ġsign als
Ġfr amed
Ġvill agers
Ġph osph
Ġlength s
Ġexc ite
IC AL
Ġfee bly
Ġ11 2
Ġmain land
Ġrul ing
ĠQue ens
Ġdeal ings
Ġshad ed
Ġlot us
Ġ23 0
Ġmor sel
fl ower
Ġpack age
Ġpin ch
Ġshame ful
ĠMon stru
Ġdespair ing
ĠCarol ine
ĠBal oo
ĠSar g
Ġinval id
Ġrein force
Ġrender ing
Ġuncertain ty
ĠDec atur
Ġplum age
ĠMist ah
ĠMir iam
Ġviz ier
Ġol ive
Ġsquir rels
Ġdischar ges
Ġanci ents
Ġenerg ies
kt omi
ĠMonstru wac
G u
N one
f if
h op
k ah
m ies
p ipe
t ops
t inent
y emon
Ġw ins
Ġh an
Ġd ough
Ġd uel
Ġd izzy
ar ian
ic ent
ĠT rent
Ġ" ...
ĠS hen
Ġst akes
oo ps
ĠH aven
ĠH omer
ĠM ice
ĠP addy
Ġr uth
Ġk ist
ĠG oll
Ġsu nd
qu ite
ĠL X
Ġch oking
Ġout break
ĠE lish
ĠN ancy
ĠN antes
ell ers
Ġar isen
Ġwork er
Ġcl ans
Ġtw ins
Ġbl ush
Ġfl ank
ink ling
Ġsl ower
Ġcr isp
Ġcomm end
Ġsec ession
ĠAt hel
Ġact ors
Ġsk et
ĠSh o
Ġrun away
Ġsle ek
Ġ5 00
Ġneed les
Ġreg ain
Ġstand ards
eng u
oc ation
ann in
br other
Ġins uff
Th ink
ĠTr ick
Ġvol s
Ġfre ight
Ġthick ets
Ġ12 5
sp read
ĠSw itzer
Ġmark ing
Ġmark ets
Ġspr inkled
Ġ13 1
Ġve ter
OT T
Ġguard ians
Ġoccup ations
ĠAg nes
che l
Ġevent ually
Ġvast ly
Ġgar ret
Ġoper ator
Ġwed ge
ĠMaj nun
Ġbill ows
ĠGu ard
ĠSim ple
Ġcler ks
Ġaltern ately
ĠSen ator
Ġscorn fully
Ġbrid ges
Ġpant ry
Ġshrie ks
Ġped est
Ġsex es
Ġinfinite ly
ĠTob acco
Ġmiser ably
ĠBuddh ist
Ġbisc uits
Ġdeleg ates
Ġminst rel
Ġecst asy
Ġcontempor ary
ĠVig ilance
Ġpett ico
Ġtorto ise
ĠPsy che
6 6
A IR
b ine
c um
d ri
g all
m itting
s pe
y on
y le
Ġs ow
Ġs ill
Ġb ale
on ing
Ġd ipping
ll an
Ġl b
ĠI w
st ill
Ġfor cibly
Ġst ew
am ore
ĠH ooty
ĠM ere
ĠM EN
ĠM irdath
Ġsh uff
ĠC ed
ĠW OM
ĠW OOD
ĠG ri
Ġshe ath
ĠL ay
ĠD arius
ĠR est
Ġsp at
Ġal oof
ĠE LECT
Ġab ated
ig ers
iv ka
Ġtr app
Ġj og
ci ences
Ġsm elt
Ġsc attering
Ġcomp ound
Ġfound er
Ġem bers
the ir
Ġrec itation
ĠSh osh
az ar
Ġpar ched
rap s
Ġ= ----
ĠPr inc
Ġmid day
Ġesc orted
Ġreal ised
Ġill um
Ġpartic les
Ġfle x
Ġblood shed
Ġ17 1
Ġmod els
Ġimport ed
Ġsorrow fully
Ġprotect or
Ġ22 6
ĠBlack y
Ġid leness
Ġstout ly
Ġmotion ed
Ġtight ened
Ġimpress ive
Ġunf air
ĠBo ar
Ġforeign ers
zan ne
Ġproject ed
ĠJud y
Ġghost ly
Ġrad iance
Ġpan el
ĠArab ian
Ġpist ols
Ġdeliber ate
Ex actly
Ġkid n
ĠMand an
ĠPur itan
Un cle
ĠWAS H
ĠRhod e
cup ine
ĠHunt ing
ste in
ĠGoose y
Ġrevel ation
ĠRoy lston
Ġexcurs ion
Ġmosqu ito
Ġprostr ate
Ġenvelop ed
Ġchival ry
ĠEleph ant
UCT ION
Rem ember
Ġambass ador
ĠRul er
ĠFAIR Y
ĠHamp shire
ĠJiu yemon
. *
: ]
c ity
p ared
p leton
r ines
u i
z ona
Ġt ested
in burgh
Ġw ary
er oy
er xes
Ġh ugged
Ġf ade
Ġf able
Ġc ement
Ġm ates
Ġd ub
Ġn ook
ot o
et ing
ir y
ri v
ce ived
Ġsa uce
ĠH i
ĠH it
ĠM und
Ġsh un
Ġsh irts
ĠC OUN
ĠP aw
Ġall uded
ĠF ir
ul um
ust y
ĠL isten
ap olis
Ġch ained
ĠR oebuck
Ġout door
ag us
Ġj ur
Ġj oust
Ġcl over
Ġcl ash
Ġpe gs
Ġcr ane
ĠV OL
less ness
Ġstre ak
Ġord ering
Ġmo an
Ġmo le
AR E
IN K
Ġchar iots
Ġconf idently
vers ion
Ġwall ed
Ġperson age
AT ES
Ġcur ling
Ġpol ar
Ġhon ours
Ġtri pped
gl asses
Ġ12 2
ĠChrist opher
Ġele venth
Ġgrass ho
ĠĠĠĠĠĠĠĠĠĠĠĠĠĠĠĠĠĠĠĠĠĠĠĠĠĠĠĠĠĠĠĠ ĠĠĠĠĠĠĠĠĠĠĠĠĠĠĠĠĠĠ
Ġexpress ive
ĠEd inburgh
ĠEm il
ĠWell eran
Ġve h
Ġinfl ict
ĠAg atha
Ġ22 3
Ġprincess es
ĠCo al
OW N
Ġwear ily
Ġpot ent
Ġmarry ing
Ġhollow s
ĠEX AMP
Al abama
ĠIng olf
Ġrum bling
Ġsubs ided
Ġcorrespond ent
Ġhelpless ly
Ġfrag ment
Ġsuperior ity
ĠHaw aik
la us
Ġannoy ance
ĠLaw rence
Ġrecon st
ĠDen mark
Ġattent ive
Ġpersec ution
Ġbluff s
Ġtra its
Ġuncommon ly
Ġsquee zed
Ġoverth row
Ġthrob bing
Ġphenomen on
Ġinherit ance
Ġelev ated
ĠGam ala
Ġtiss ue
Ġomin ous
ĠPow hatan
ĠElish a
M Y
c ade
f ree
i ography
m ometer
u pp
Ġt ipped
Ġa isle
Ġw ither
Ġb out
ed uc
Ġg win
id ian
ĠT org
Ġre ly
Ġre ver
ur ated
Ġha uber
ĠM ol
ĠM arm
ĠB orne
ĠP end
ĠP AGE
il ant
ĠW ife
ĠG RYF
ĠF othering
ĠL AST
Ġch op
Ġch asm
ĠR ES
Ġfe athered
ol ve
Ġsp acer
Ġex ile
Ġab b
Ġab hor
ĠN athan
un ity
Ġle aps
Ġj umps
Ġro oster
Ġar ouse
aw ares
ĠK urt
Ġwhere on
Ġsm ash
ĠCh amber
anc roft
Ġunt ouched
Ġrep ast
Ġexp anse
Ġte aches
att oo
Ġdoor step
Ġdisc on
Ġlove liness
Ġrel ish
Ġdirect or
Ġpoor ly
ash ore
Ġdef iant
Ġmis d
Ġ15 2
arent ly
Ġleg it
Ġ16 4
Ġdisp ose
RI GHT
Ġglass y
ĠSl im
Ġmiss iles
yn x
str ong
Ġmad ly
Ġacqu ies
Ġoblig ation
Ġphr ases
Ġ24 7
ĠBE AR
Ġcivil ised
add les
ĠMad ison
Ġsin ister
ĠDes ert
ĠDes cribe
ĠOut side
Ġaffection ately
Ġfalse hood
Ġsmell s
off ice
Ġendeav or
Ġendeav ored
Ġoath s
Ġvac ation
bur st
Ġtwink led
Ġpuff ing
Ġterr ors
Ġclam bered
ĠAE ge
Ġleis urely
ĠPeters burg
Ġreckon ing
Ġentreat ed
pie ces
Ġachieve ment
ĠRhod es
ĠAD VENT
Ġexclus ive
Ġestim ated
Ġassert ion
atisf ied
Ġclasp ing
Ġhing es
dess a
Ġseaw eed
Ġadvers ary
ĠMentor ian
ĠCoo per
ĠRames es
Ġrehe ars
ĠRepresent atives
ĠAsi atic
angar oo
ĠAssem bly
ĠFothering ay
7 8
A ye
H elp
O ut
c orn
c omp
l ain
o ors
p ret
w orm
Ġt ren
in ster
Ġw an
Ġw agg
Ġh ose
ou ble
it age
on er
ad vant
ic he
id ery
ĠS uther
Ġnot hin
ĠH annah
ĠM ap
ĠM ax
ĠB acon
Ġr anges
th ly
ĠG arrison
ĠG inger
ĠF E
ĠL iter
ĠL iving
ĠR ace
art hen
ĠN ell
ide on
Ġday time
Ġen acted
Ġnow ise
Ġfl ound
ĠK ot
ĠY ea
Ġstr ide
Ġsm ot
Ġpre cept
ath y
Ġcomp artment
ĠU gly
Ġcr uc
Ġbeg u
Ġcar n
Ġyoung sters
Ġimp udent
Ġord eal
ĠBr immer
ah a
ĠSh oe
Ġconf eder
Ġdel ir
IT ION
Ġfell ed
Ġbed side
Ġdri ves
ĠSome body
Ġcur l
Ġhur ts
ĠCom ing
ĠCom yn
Ġvar ieties
IL Y
Ġwin ters
ĠBl ood
Ġmot ions
ok otan
ĠLe ave
Ġaccept ance
Ġdet ached
inc ing
Ġval ise
Ġ16 1
Ġyell ing
Ġemploy er
ĠFl ash
ĠAm elia
Ġmil it
Ġrid ges
Ġ22 8
ECT ION
Ġ23 1
Ġ26 6
Ġshoot s
St ay
Ġ185 9
Ġdelic ately
Ġfashion able
Ġhes itating
Ġfal con
ĠWH ITE
Ġsigh ing
Ġdece it
quet te
Ġfil thy
Ġillustr ate
Ġscrap ed
Ġcompar ative
Ġnurs es
ĠJul i
Ġshrie king
Ġadmin istered
Ġsche mes
Ġconsult ing
Ġdisappear ance
Ġsingular ly
Ġbewild er
mans hip
Ġspur red
Ġclut ching
post s
ĠRam esses
Ġweigh ing
Ġnegot iation
Ġpenn ies
Ġsimpl est
wr iting
Ġwick ets
ĠFrey a
Ġscal p
Ġrecru its
ĠFollow ing
ĠRebe cca
Ġantagon ist
ĠWinc helsea
ĠFOOT NOTES
Ġdisast rous
ĠTorg ul
b orough
c our
r r
r us
Ġt ipt
he res
Ġw aded
re p
at hing
Ġp he
Ġg um
Ġg ilt
ow a
st alk
ir i
Ġhis sed
Ġst umbling
ĠB as
ĠB elle
ĠB uny
ĠB ancroft
ĠC ool
ĠC reeks
ĠP ack
ĠP ale
ĠG ro
ĠG ideon
Ġdo le
Ġv iv
Ġch ant
ĠR en
Ġman ned
ĠN auv
ĠO gre
Ġpl umes
Ġar ising
Ġbr aces
Ġcan on
Ġgr ub
Ġbl under
aw ny
Ġsl ipper
Ġdes iring
Ġret r
Ġres ident
Ġend urance
Ġcons erv
ĠAr my
Ġhard ship
Ġsk irm
ĠSh ir
ĠSh ip
Ġwood ed
ĠAl okotan
Ġeff iciency
Ġgre ase
Ġmaster y
Ġexpl oded
oe uf
Ġins ane
Ġpay s
Ġcor pses
Ġdef ined
ĠRed head
ĠBl ake
Ġ15 1
inc erity
Ġeag les
ĠWell s
Ġbox ing
Ġcoun sell
ĠPe gana
Ġresol utions
Ġ23 6
rid ges
Ġblind ly
ĠMer ch
Ġcivil isation
Ġreve rent
Ġmel od
Ġthunder ing
Ġgrad ual
Ġexec utive
Ġinstinct ively
Ġobst in
Ġobst acles
Ġdiss olved
ĠMor i
Ġhandkerchief s
Will iam
ĠGar goy
Ġloving ly
Ġremind s
Ġange red
ĠAthen e
Ġrevolution ary
ĠSav annah
Ġtorment ed
ĠKn owing
Ġrhy me
Ġaffl iction
Ġembarr assed
lyn n
Ġfors ake
ĠRey nal
Ġdart ing
Ġpump kin
Ġsauc y
Ġcomprehe nd
Ġfath oms
Ġnoiseless ly
Ġungr ateful
ĠRh ine
Ġliz ard
Ġcongreg ation
Ġpamp h
Ġgwin eter
ĠSuther land
ĠNauv oo
" ?
7 0
9 0
; .
I OUS
L ike
R un
W H
b ation
b ud
b ush
h ound
r ough
w re
in it
ou cester
at ism
Ġm ature
on i
Ġd arts
ar is
om bs
le mag
ow l
ow ulf
ĠT ete
gh a
ay ette
Ġre wards
al u
ir a
ĠA PP
Ġha b
ĠM ans
ĠM ach
ĠW on
Ġor n
ĠG av
Ġde re
ge ir
ĠL ost
ĠD R
Ġch oc
ood le
ĠHe aring
os uke
ĠJ enny
Ġro amed
Ġli bert
ish ops
Ġun ique
ĠY EAR
Ġpre ference
Ġdist rust
orm on
ĠShe re
ĠSo g
Ġfri gate
Ġlo b
Ġimp ass
Ġhome ly
ĠAr tic
Ġrest oration
Ġmorn in
Ġred dened
ĠAl abama
Ġsub ord
Ġfore f
Ġfore fathers
Ġreg ained
day s
Ġblack ened
app ily
ĠPr int
ĠSp ace
ĠSp itz
Ġexpl ains
ĠDe v
Ġcoll apsed
Ġwild est
** *
Ġdest ruct
ĠSe aton
Ġloc ation
ek ing
Ġsol ved
Ġplan ters
Ġpull ey
ĠLe inster
Ġap es
Ġgrand eur
ĠChar lemag
Ġhist ories
Ġ14 3
Ġmad man
Ġpun ch
Ġpen it
ett es
Ġ23 2
ĠMe g
ĠMe le
Ġfond ly
ĠComm ander
Ġobey ing
Ġdwell ers
Ġspl ashing
Ġattend ance
Ġmurm uring
iction ary
ĠSil as
Ġcraft y
ĠDou bt
Ġsen seless
ĠWind s
Ġrefer ring
Ġsport ing
ĠPan ama
Ġexhib it
Ġcondem n
Ġunlike ly
Ġpred omin
ĠNa omi
asm uch
Ġindul ge
Ġtempor arily
ĠSpart an
Ġsadd les
Ġpige ons
ĠBree ze
Ġgau ge
ĠDist rict
Ġasse nded
ĠMahomed ans
enz ie
ĠOrd way
Ġdares ay
Sl avery
ĠJen ks
Ġsoci eties
Ġheark en
Ġpersever ance
Ġextingu ished
Ġfount ains
ĠToom ai
ĠCed ric
ĠCharlemag ne
' ,"
' ?"
) =,
M on
M any
T ales
b red
g ot
g old
h orn
j t
k now
t ight
z aburo
Ġ <
Ġ uten
Ġt attered
Ġw int
Ġo z
at en
Ġm atched
Ġm useum
Ġm ummy
Ġd angling
Ġd ureing
Ġp ork
Ġp aced
ad ian
Ġbe ad
ot ch
ent er
ĠS ul
ri o
Ġha voc
ĠH umpt
ĠM u
ĠB ern
Ġse ashore
ĠP rom
Ġher itage
." --
ĠG rove
Ġsu icide
ĠF alls
ĠD AY
Ġint egr
Ġgr ains
Ġaf resh
are ine
ven ile
Ġpr arie
Ġthr alls
ach ar
Ġapp are
Ġapp alling
ĠIn spect
ĠU l
Ġdist orted
Ġmake ing
Ġind oors
Ġey ed
Ġwr ap
Ġcar ving
Ġres ource
Ġcons cient
Ġple ading
ĠBr itt
Ġgu iding
Ġrel ent
Ġreg ulations
IN T
Ġgre ens
ift een
ĠIs lam
Ġhum p
Ġhum orous
Ġdec ree
Ġins urrection
OU LD
ĠRe al
Ġthick est
Ġknight ly
Ġ17 2
Ġdam ned
Ġpract ices
Ġball ance
Ġjourney s
._ ]
Ġrain y
ugg age
ĠOr pheus
Ġnarrow ly
rill ac
Ġcott ages
Ġcab bage
Ġ21 4
Ġ22 4
Ġfirm ness
ĠCo pper
rop he
Ġdism ount
ĠMag azine
Ġfer ry
Ġhandsome ly
Ġgen ie
Ġgrace fully
Ġhal ves
Ġdesper ation
Ġdi jo
Ch rist
ĠKay dessa
Ġreflect ing
ĠChap elier
Ġtempt ing
Ġmagnific ence
Ġcrim inals
ĠAbr am
Ġmap le
Ġprair ies
ĠLight foot
Ġjun iors
Ġinspect or
Ġclam or
ĠAE sir
Ġportra its
Ġsubstit uted
riend ly
ĠOri gin
ĠGen zaburo
ĠFer gus
ĠCarl os
Ġbrack fast
yg en
Ġmeek ly
Ġinterpret ation
Ġstimul us
Ġnewcom er
Ġfren zy
ĠMot or
ĠHamm ond
ĠKam i
ĠBene ath
count ry
Ġejac ulated
ĠIsab ella
ĠRug by
Ġbewilder ment
ĠBuny ip
ĠGav rillac
8 5
R ed
R IS
_ :
c ross
f s
o il
s il
t at
w it
w ide
Ġt int
Ġt ension
Ġw age
Ġh ates
Ġh overing
or ie
or ters
as g
Ġl uggage
Ġy awning
ĠS K
ĠS OME
ur ai
Ġis olated
ĠH ost
ĠM ais
ĠM organ
ĠW ag
ĠW ire
ĠW itch
Ġso d
th ieves
ul ses
Ġthem e
Ġv irgin
ie g
ĠR u
Ġgo ble
Ġun ce
Ġen ables
Ġdis advant
Ġthan king
ĠK ane
ĠY alding
Ġstr agg
Ġsl ips
ĠCh il
ĠCh air
oy o
Ġtake ing
ĠAs aki
ign ant
ru ce
Ġple a
Ġgu ise
Ġwa ver
Ġsub ur
Ġel m
Ġsure ty
Ġbus hy
ĠAn ge
oot ing
Ġran ch
ĠGr ass
ĠDe xter
Ġinf ern
Ġinform s
AL S
Ġmed dle
Ġjoy ously
Ġ15 4
Ġdet est
Ġball ad
ĠChar l
Ġ20 4
Ġjud icious
ĠFrench man
Ġspo ils
Ġnarrow ed
Ġtrust ing
ril o
sc ar
LA CK
Ġaffect ing
Ġ24 6
Ġemb ark
Ġoper ated
Ġflight s
ĠConf u
ĠHigh ness
ĠSig geir
Ġmaj estic
Ġamb ush
Ġbatt ing
Ġmock ery
Ġphot o
Ġconcern s
Ġharsh ly
Ġmanif ested
Ġhom est
ĠBow ie
Ġwander ings
Ġmoist ure
ĠUN CLE
Ġpatriot ic
Ġtransport ation
Ġwhirl wind
iy an
ĠSte ward
jac ent
Ġtack le
ĠAmen hotep
Ġdiscom fort
Ġincess ant
Ġscound rel
ĠClats ops
ĠSie gbert
Ġbele ive
Ġwal nut
ĠAqu areine
ĠNest or
ĠCratch it
ĠMori arty
H AM
L OW
O pen
_ ?"
h og
h urst
r in
s burg
Ġt ests
Ġt ending
he nt
Ġa kin
Ġa lder
Ġh itting
Ġf res
Ġc able
Ġm ounds
Ġp aved
Ġn ib
ĠT ak
Ġy awned
st ock
Ġre ven
ac ies
ĠS a
ĠS att
ĠS ah
ĠS ONG
Ġst ocks
am or
Ġan ne
ĠM org
ĠC art
ĠP ork
ĠW IL
ĠG illing
Ġall y
Ġall igator
Ġde ity
Ġde xter
pp et
ĠF arm
ĠF RO
ul ed
ĠL ONG
Ġch oke
Ġmy ri
ĠR io
Ġab omin
Ġtim bers
od a
Ġqu itted
Ġco iled
Ġam iss
per ial
ĠCh in
Ġcr ave
Ġhead quarters
Ġjust ify
Ġcar ing
og lyph
pe cker
Ġsur ch
Ġref inement
ĠOn es
Ġrel ates
Ġext inct
Ġconf ounded
Ġgener ously
AN N
ĠSome what
Ġdraw ings
Ġmag azines
.-- "
Ġtri vial
Ġfr antically
ĠLe ft
Ġtruth s
ĠEm ma
ĠLet ters
Ġvict uals
Ġphys ically
vere nd
Ġspeech less
Ġ23 5
atur ity
Ġ26 7
Ġblind ing
Ġer upt
Ġcustom ers
Ġloss es
Ġrout ine
ĠDem ocratic
ĠSil ent
maid s
Ġpil ots
OSE PH
ĠAR T
ĠGold burg
Ġscrap s
ĠGar rett
Ġmast ered
Ġchuck le
umin um
Ġmu y
Ġquarre lling
ĠStra its
ĠSic ilian
ĠRey nold
ĠNorse men
ĠMack enzie
ĠZe us
Ġtravers ed
Ġindisp ens
ĠThousand s
Ġunsuccess ful
ĠSorce rer
Ġted ious
Ġembarrass ment
Ġdific uel
iell yn
ĠWASH INGTON
ĠShir ley
C O
D av
F lynn
M ade
S am
V III
c ock
d is
f inn
m ons
p read
r ange
Ġt resp
he y
Ġw il
Ġs ot
Ġs ash
re al
er als
Ġh ub
on iyan
or ier
Ġd an
Ġth ud
Ġp ounding
Ġp onies
Ġg iddy
ut ton
Ġbe amed
ĠT ri
Ġe th
ith ing
ĠS ne
ir led
ur ge
oo ses
ĠH ath
ĠH AS
Ġsh ar
ĠP ad
ĠP ain
ĠW R
ĠW is
Ġall ows
Ġde pl
ess ed
and al
ĠL IST
ĠD uv
ĠD ixon
ant o
un cle
ag ara
Ġgr ape
Ġgr udge
Ġco g
Ġfl inging
ĠK hat
Ġad jacent
per ation
Ġcr ater
Ġimp ulses
ph ins
the w
Ġref uses
Ġhel ps
ĠUn ktomi
ced e
Ġsk ipping
ĠSh og
Ġdisc iple
sh all
Ġche mistry
Ġcap e
ib o
Ġsn atch
Ġconf inement
Ġdeath s
ĠDe k
eth oven
ger ald
Ġswe eter
ĠFr anks
Ġbar on
Ġvol t
ĠCol or
Ġ12 3
Ġcommon place
Ġplan es
Ġbuild s
Ġ15 3
ĠEl f
Ġdisp utes
RI D
Ġincre ases
ĠZ eal
jo ined
Ġpath way
Ġweek ly
ript ion
Ġtow el
Ġble ed
Ġadvent urous
Ġ21 7
Ġprotect ive
Ġsepar ately
Ġcompanions hip
Ġerr ands
ĠSchool s
Ġfill s
Ġflo ors
do ing
yl a
Ġinstruct or
ĠJac into
ĠWorld s
Ġtom ah
Ġaccident ally
ĠIND IAN
ĠMass a
Ġshr ink
Ġswall ows
Ġbelief s
Ġcher ries
Ġflour ishing
ĠNottingham shire
Ġdoct rines
Ġhopeless ly
Ġbon ny
Par liamentary
Ġimmort ality
Ġreluct ant
Ġhelm ets
ĠOb ser
asil issa
ĠFitz gerald
Ġti ene
Ġperplex ity
Ġsentin els
Ġdol phins
ĠEmer ald
Ġdisobed ience
Cor respondence
Ġfemin ine
import ant
Ġstren uous
ĠBorne o
Ġlibert ies
E X
a ic
a ith
b ra
d ead
k ens
m ash
p y
p atch
r ag
Ġw ides
Ġo t
Ġo ct
Ġo iled
nd ers
Ġh inted
Ġh ooked
it ime
Ġm ute
as an
Ġg aping
ĠT ort
ĠT iber
st ring
im o
ro it
ro be
Ġha gg
ĠM s
Ġr app
ĠW EST
Ġso aked
th or
th irds
ĠG org
ĠF lying
ĠD u
Ġout burst
ĠO k
ĠO pp
ag ogue
hed ral
Ġbr oth
Ġqu ote
av o
pl ain
Ġun well
Ġbl ur
Ġdown cast
ĠK laus
iz ations
ĠV arious
ĠV asilissa
land ers
Ġright ful
Ġside ways
Ġrec ited
Ġbro oding
ĠOF F
Ġneed less
Ġass umes
ĠBe owulf
Ġdep ot
Ġwall et
ĠCl ass
arch y
ĠSe as
Ġprot ests
ĠMy th
ara j
Ġaff ir
ĠPer ogue
Ġ19 8
Ġfright fully
ams ie
Ġdiv iding
ogn i
Ġoppos ing
Ġmill s
ĠJes se
Ġmagn ets
Ġgro ans
Ġgro aning
Ġcand lest
Ġcomb inations
ĠComm ons
Ġpot ato
ĠRuth ven
Ġdelic acy
Ġuns us
isc oe
leg rap
Ġassem bl
ĠLouis a
ĠDel orier
Wh atever
ĠKat ie
Ġamuse ments
ĠTre m
ĠEs q
Ġterrit ories
ĠAT T
Ġnarr ated
Ġinfant ry
ĠLight ning
Ġswear ing
Ġlux urious
Tr ans
Ġsho emaker
Ġthrong ed
Ġstamp s
Ġselfish ness
ripp a
Ġank les
ĠKab oniyan
ĠWat ers
ĠPH IL
Ġsurf aces
ĠLess er
ĠTao ist
Ġlaz ily
Ġmoccas ins
ĠCrew e
Ġnove ls
ĠMund son
ĠEXAMP LES
ĠMais ie
C all
C ES
D own
J A
M eth
U MP
W on
f ey
g ings
h unting
n amed
p ine
s ay
w alk
y u
Ġ ................................
Ġs i
Ġs ample
Ġf ie
Ġf encing
Ġc in
Ġm ish
Ġm aturity
on o
Ġl ard
Ġl ashing
Ġg in
ut ted
et ed
ro spect
ĠS cience
ĠS MITH
Ġas yl
am ents
ur day
ĠM end
ĠB UR
ĠB aker
ĠB attery
ĠB LACK
Ġr ates
ĠF urn
ĠF annin
nt y
ĠL amp
Ġch annels
Ġab re
Ġab ashed
ĠN es
ĠN ab
ĠN eed
un less
Ġno bly
ĠHe ar
ĠHe art
itt ance
Ġkn itting
Ġpro sp
Ġro am
Ġinto x
av an
pl aces
Ġun pr
Ġen forced
Ġbl ouse
Ġbo om
Ġfl ocked
Ġwhere with
ĠSt ick
Ġsm elled
Ġsl aught
Ġpre g
Ġsc ope
Ġhead axe
Ġcont ing
Ġcont racted
ĠV inc
ĠAs k
Ġexp anded
unt il
ĠBr un
Ġdiff ered
Ġbus ied
Ġext ension
Ġhorse man
ĠGr an
Ġdec oration
RE T
Ġmed al
Ġstay s
ĠMar ie
ĠSe b
Ġbuild ers
Ġprof itable
Ġval our
ĠĠĠĠĠĠĠĠĠĠĠĠĠĠĠĠĠĠĠĠĠĠĠĠĠĠĠĠĠĠĠĠ ĠĠĠĠĠĠĠĠĠĠĠĠĠĠĠĠĠ
Ġsharp ened
Ġhero ism
Ġcat ast
ament e
ĠCr own
ĠEvery where
ĠHar per
Ġauthor ized
with out
Ġindic ation
Ġ23 7
Ġ23 9
hold ing
ĠGl ennie
Ġhappen ings
ĠSpe ech
Ġsin ner
Ġappre he
Ġhal ting
Ġtub es
ĠWood s
Ġrust le
ĠSum ner
Ġsne er
Ġglim pses
ĠHaw kins
Ġmanufact ures
Ġfever ish
Ġcas ual
Ġsym pt
Ġtour nament
ĠHard ly
Ġsadd led
Ġpersist ent
ĠStra ight
Ġmou st
Ġbuzz ing
Ġexult ation
ĠHum an
Ġemphat ically
Ġadvoc ate
Ġrefres hing
Ġprem ature
ĠTow ards
ĠMoor ish
Ġflick ering
Ġlag oon
fell ows
Ġsubter ranean
ĠBraz il
Ġdestruct ive
ĠSatt urday
M ost
V ES
_ !
_ ).
g irl
n in
t ically
Ġo int
Ġo mn
Ġb ung
Ġh overed
Ġc os
Ġm oth
Ġm otto
Ġd aint
Ġg em
ĠI on
ĠS ad
ill ery
Ġat ro
Ġse iz
ĠC R
ĠG ulf
ĠG owan
ĠL os
ĠD oor
Ġv ag
Ġch art
ĠR AB
ĠN umber
iv ated
ĠJ OSEPH
Ġtr ough
au ded
Ġar ches
Ġcan n
Ġgr azing
Ġaf ore
Ġun he
Ġun int
Ġover came
Ġdis abled
Ġpr ickly
Ġri gging
ick er
ĠK wan
Ġpre fect
Ġsc ree
Ġgl ories
Ġind isc
Ġboy ish
Ġimp udence
Ġbu oy
not iced
Ġte ase
Ġsomet ime
att o
Ġsat chel
Ġsk ip
ra ult
ĠBe ethoven
Ġinter cept
Ġplac id
Ġev olution
pr it
Ġcur t
Ġfight er
Ġreal ise
uff ed
Ġappro ving
Ġreason ably
Ġdef ending
Ġdef ensive
Ġdev ouring
Ġassoci ate
sp oken
Ġcompl iments
Ġpat hetic
Ġ16 3
Ġdog ged
ĠMan or
Ġspo ons
Ġsens ory
Ġsuper fl
Ġsuc ked
Ġ21 0
Ġfeast s
Ġ26 0
Ġ26 5
Ġloose ly
roo ks
Ġcho ir
Ġ185 5
stit ute
Ġiss uing
Ġsteam boat
ĠFin n
Did n
Ġleaf ed
ĠAh med
Ġendeav ouring
An other
Ġtroubles om
Ġbetr othed
Ġconsist ent
Ġhosp itable
Ġchuck ling
Ġpron ounce
Ġhaw ks
Ġanti quity
Ġinterf ered
Ġkneel ed
ĠCent er
Ġgest ures
Ġlantern s
Ġmerc ury
Ġtort ured
ĠLang a
Ġsober ly
hin oc
ĠED WARD
Ġtact ics
Ġsquee ze
Ġabolition ists
ĠGRA ND
ĠBrad shaw
ĠFel ix
Ġbot hered
Ġsecre ted
Ġtut or
ĠCrom well
ĠVols ung
Ġsquat ted
ĠMang ab
Ġstealth ily
ĠClim ene
ĠMonstruwac an
ĠAthel st
ĠKot ick
ĠInspect or
J uan
M us
U G
b est
c as
g ive
h ide
l ove
v ision
Ġt igers
nd e
it iz
Ġm att
Ġm ason
as eless
om me
ĠT RE
Ġe arthen
ĠS ep
ĠA ble
oo led
ch us
ch ala
ke eping
ĠH od
ĠH ogni
ĠB og
ĠP aper
Ġr ally
ĠW en
Ġso da
." _
ich i
and re
ard y
ĠF all
ĠL ate
ĠL AND
ĠR anger
ĠR ugged
Ġal beit
ĠE SC
ĠN y
ĠN on
ĠN os
ĠN aught
ĠO p
Ġle v
Ġcom forts
ig ence
Ġtr ails
Ġgr aciously
Ġcl ap
ear ch
Ġun awares
Ġbl aster
aw a
ĠK ey
ang as
Ġstr at
Ġper v
Ġfo oth
bl ood
Ġdist aste
Ġacc use
Ġind ist
Ġlo omed
Ġcount ies
ru b
ru it
the e
ĠBr ing
ale igh
ib ald
Ġsub mar
Ġfore told
Ġmount s
ĠAn sw
up iter
Ġship wre
Ġadv ances
Ġrequ iring
Ġeas iest
Ġquick ened
Ġinv ested
Ġinform ing
ĠTr ave
Ġtri ps
Ġsqu ares
Ġcommand ers
Ġpost ure
Ġdef y
Ġdef ied
de f
Ġstra its
Ġcre ed
Ġtruth ful
Ġlearn s
Ġcapt ors
Ġvolunte ered
ĠAm id
Ġresult ing
ĠWho ever
Ġstro ll
Ġtro dden
ĠQu ar
ĠAg rippa
Ġ23 4
Ġ24 5
Ġcand y
ĠMc N
ĠVan ir
ĠSpe ed
Ġoper ate
Ġpack s
Ġsteam ship
Ġmel ting
ĠFort une
min ster
Ġdamsel s
Ġacquaint ances
Ġnurs ed
ĠNight s
ĠBel ow
Ġspell s
ĠAbb ot
elf th
ĠPR INC
Ġsports man
Ġantic ip
Ġconstitution al
Ġtimid ly
Ġnic er
Ġdisple asure
Ġbub bling
Ġling ering
su pp
Ġmagistr ates
Ġrefr ained
Ġmou jik
Ġtorrent s
ĠFO X
Ġdrown ing
Ġrighteous ness
Ġprogram me
Ġrefresh ment
Ġrevers ed
Ġrend ers
ĠFil ip
ĠGis chala
Ġassass in
ĠHot el
ĠNorm an
Ġpion eers
ĠRichards on
ĠBrah man
ĠDef oe
occ up
Ġvolcan o
Ġinterm ixed
Ġsuperint end
ĠFast en
ĠROB IN
Ġtrig ger
Ġparap et
Ġequival ent
sac rif
ĠSarg ol
Ġlegit imate
ĠCharl otte
ĠMorg iana
ĠDek lay
ĠRAB BIT
ĠRugged o
A UT
b ones
c anic
d n
d am
e ach
j er
s nake
z o
Ġa right
Ġa iding
Ġs own
Ġh ive
ar ly
Ġth rees
Ġp iv
Ġl umps
Ġhe al
Ġbe arer
id ad
im an
Ġwh ims
Ġre cept
et le
al ion
ĠS ayen
Ġst er
Ġst owed
Ġst alked
ill on
ĠM ann
ĠM ARK
ĠM iellyn
ĠB ore
ĠB alf
ĠB anks
ĠB apt
ĠC ad
red e
Ġk etch
ĠG L
ĠG ael
ĠL oy
ĠD ance
ĠD isc
em p
em eter
Ġch atter
ĠR ennes
itt in
Ġcom est
ig nty
Ġwork man
av a
end ous
Ġfl apping
Ġstr ung
Ġstr ides
Ġsay est
Ġsl ice
per t
ĠCh arming
Ġres ented
ER Y
ens es
Ġimp ost
Ġfar thing
ĠBr ant
Ġhor rified
Ġdisc arded
Ġwood y
Ġmo cked
ins ula
Ġlove liest
Ġcol t
Ġfree ze
Ġfree zing
Ġdep rive
Ġheav ing
Ġserv itude
oe uv
Ġtrans formation
Ġtrans mitted
Ġcal ves
Ġeffect ually
Ġdesp ond
ĠPl um
Ġguard ing
Ġcat aract
Ġdeg ener
Ġbab es
Ġpit ied
Ġoccup ying
ĠPrin ces
Ġ25 2
Ġoblig ations
Ġchap ters
ĠCo le
rop olis
con f
ĠLand s
Ġ29 5
Ġunf inished
ĠLuc as
Ġunh armed
Ġamount ed
Ġpra ises
Ġprec ision
Ġodd ly
Ġfires ide
Ġ189 6
Ġcelebr ation
ĠFranc ois
agg i
Ġperman ently
Ġhistor ic
ĠContin ue
Ġflut ter
Ġcoward ice
Ġemotion al
ĠPass ing
Ġsoot he
Ġjest ing
Ġskull s
ĠRO BERT
ĠPR ES
ĠVen ice
ĠHand el
ĠSpart a
Ġballoon ist
Ġmemor able
ĠSor iki
Ġdazz led
ĠConst antin
ĠCru ach
Ġirrit ated
Ġbisc uit
ĠChamp ions
Ġincess antly
Ġemerald s
Ġapprent ices
Ġcert ific
ĠOcc asion
ĠTan ner
agin an
ĠPhot ograph
Ġsuperst ition
Com o
Ġexagger ated
ĠFam ily
ĠVine gar
Ġillumin ated
ĠProtest ant
Ġunmistak able
Ġwides pread
ĠConstantin ople
A UL
C ent
D at
F ive
L ast
W elcome
c ore
i ol
r own
u ent
v ale
y d
Ġt aunt
Ġa us
Ġw rench
Ġo ats
re hens
Ġh i
ou bled
ou ches
is ans
Ġin human
id en
ĠT rip
Ġy el
ac o
al is
ĠS LA
ĠS IGN
ĠA v
oo h
Ġsa lly
ĠH ither
ĠH UN
ĠB RA
ĠB agger
Ġse per
if ice
Ġall ied
Ġne gl
ĠL ag
ĠL ib
Ġv a
ĠR as
op olis
Ġcon form
ist ance
Ġout s
ĠO pen
ĠJ r
Ġtr udged
Ġgr umbling
Ġun it
ud y
aw ed
Ġri v
Ġhand les
ĠK osh
Ġfo cus
uch ad
Ġwat chers
Ġsc aled
igh orn
Ġend owed
Ġcop e
Ġexp and
ĠBr iscoe
sh a
Ġrel atively
ĠSp rings
Ġserv ile
Ġdec ked
Ġcur ses
Ġlive lihood
gr av
Ġbegin nings
Ġappro x
Ġadm on
Ġfr ames
Ġreason ed
Ġleng then
Ġdev out
Ġconc il
Ġ19 1
Ġval ve
Ġdeterm ining
Ġ14 1
Ġregard less
zz ar
Ġsand als
Ġprevent ing
ĠWhere fore
Ġcab ins
Ġcow ards
Ġ21 8
Ġow es
Ġconvers ing
ĠMag net
Ġiss ues
Ġmir ac
Ġpill ows
ĠTe legraph
Ġsin ned
Ġpin ched
Ġsplendid ly
Ġchest s
Ġsolemn ity
Ġ32 5
clam ations
Ġapply ing
Ġphilosop hers
plic able
Ġmechan ics
Ġenl arge
Ġabol ished
Ġsovereign s
ĠAng lo
Ġpadd les
Ġbarbar ians
ĠSin f
ĠAust ria
Ġinward ly
whe ther
Ġdiscour age
Ġmusk ets
Ġpersec uted
Ġcob bler
Ġfors aken
Ġkins men
Ġdilig ent
Ġdilig ently
ĠDet ails
ĠClay ton
ĠSem inary
Ġphenomen a
Ġcounc ils
Ġshrub bery
Ġrept iles
Ġstrang est
Ġagric ulture
Ġadoles cence
Ġcoy otes
ĠEnc amped
ĠAlt ogether
Ġpropriet or
Ġcomplet ion
Ġmerchand ise
ĠLanc aster
Ġmicro scope
Ġmulti pl
Ġchis el
govern ment
ĠIw aginan
Ġindispens able
ĠBagger t
F l
L ondon
M AS
T R
W ug
e on
e cess
g ay
k h
m ers
p al
s ince
s ils
y in
Ġt attoo
Ġs ane
Ġo pt
Ġh ues
Ġc ort
en ial
on to
or ry
le esh
id y
ĠT ol
ĠT so
Ġit ems
ĠS ister
ĠA ir
ĠA ber
Ġst ark
ĠM ult
Ġsh rive
Ġse q
ĠG ot
qu el
ĠL ora
Ġfe ats
ist oric
Ġal co
Ġout sk
ĠN ut
ĠO UR
ind y
ind eer
own ers
Ġpl undered
ack er
ort ion
Ġqu ot
Ġun noticed
Ġover p
Ġfl ap
Ġfl ute
ink les
bl ers
ĠCh ok
Ġmight ily
Ġgl en
Ġres orted
Ġform ula
Ġte legrap
Ġrec ourse
sh ould
Ġpar adise
Ġsun be
Ġgold smith
IT T
Ġdep ending
Ġair s
Ġreal izing
Ġill usion
AL E
IL E
Ġsqu aws
Ġcold er
Ġbright est
Ġbright ened
Ġexc used
Ġbound less
umb rilo
ĠLe andre
cul es
Ġgrand ma
Ġ20 6
ĠAnt elope
Ġsick ly
Ġfro lic
Ġtall ow
Ġann ih
Ġalt itude
che ster
Ġimm inent
ĠBen fey
icks burg
Ġmurd erous
Ġrub ies
ĠSu zanne
ĠSk y
ĠSer geant
do zen
Ġpoet ic
ĠGu leesh
Ġban ana
ĠComp are
Ġcotton wood
Ġgreet ings
Ġproject s
ĠMus quet
igr ants
Ġhistor ians
Ġlux uri
Ġpred ecess
mist ress
Ġscram bling
Ġembro idery
Ġvoc al
Ġlam ented
osqu in
Ġclaw ed
Ġcul min
Ġexplo it
Ġbenevol ent
Ġdiscom f
Ġhyp ocr
Ġtil ted
Ġconclus ions
Ġpite ous
Ġhier oglyph
Ġinsignific ant
ĠNeb uchad
ĠSchu bert
ĠFlash man
ĠGargoy les
ĠSog oro
ĠBritt any
Ġasyl um
ĠChok ichi
6 5
B Y
B es
B oeuf
E TH
H i
P or
W ere
a ire
b ols
g on
h im
i kin
j un
s ided
s ummer
he ls
Ġw akened
Ġh ints
Ġf ives
Ġf ags
it ou
Ġp its
Ġp ears
ĠT ro
ĠT ab
Ġwas p
Ġst al
Ġst alks
Ġst aggering
am iliar
Ġsa ves
ĠH enny
ĠM ull
ĠM age
ĠM AT
ĠB EL
ĠC and
ĠC el
ĠC ertain
ĠC OP
ĠP om
ĠP ond
ĠP orts
ĠP arr
Ġr ites
ĠW OND
ore sc
ĠG or
ĠL l
ĠL ad
ĠD iana
ab ul
ĠR ule
Ġex ce
ĠE LI
ĠN ations
Ġint act
Ġpl ow
Ġtr apped
Ġpro ving
Ġpro ced
Ġro ost
Ġar ises
od s
Ġqu ail
Ġcl utch
ish ness
Ġen m
Ġen ame
Ġbl inking
ĠY in
Ġunder brush
Ġsc abb
Ġrem nant
Ġcr acks
Ġacc ursed
Ġlast ly
anc hed
Ġcount en
Ġwater ing
Ġpres cribed
alf rey
EN ER
Ġgu inea
az kas
Ġche at
ib ule
Ġsn are
ĠBe hold
Ġinter medi
ĠPr inted
Ġdeep ened
ĠGr im
ĠGr ound
ĠCl ift
Ġins ulated
Ġgrow ling
ric ane
Ġtri angle
Ġtri angular
Ġfr action
Ġgreen ish
Ġexcept ions
Ġbound aries
ĠPer rault
arent s
Ġdecl ares
Ġsuccess es
ĠSw even
uel a
Ġ16 2
Ġdeal er
ĠEx cell
Ġsick ening
io let
Ġtrust s
Ġspace port
Ġhang ings
ĠDick ens
Ġconce aling
Ġconduct ing
Ġ21 5
Ġ21 6
Ġsystem atic
Ġ22 0
Ġ24 0
Ġgro ove
OL N
Ġmor als
Ġmor ality
Ġvan qu
Ġconqu ering
Ġrevol ving
Ġadmir ably
Ġcord ially
Ġuniform s
Ġfoolish ness
ĠRem ove
Ġshr oud
Ġgrat ify
Ġabund antly
umber land
Ġ189 0
oos k
Ġestablish ing
Ġmock ersons
Ġmild ly
ĠHam pton
ĠLE G
bu ilt
aur us
Ġcareless ness
Ġbarbar ous
Ġbi bl
fo il
Ġvibr ation
Ġbellow ing
Ġprovin cial
Ġsnar led
quest ion
INC OLN
Ġresign ation
Ġsarc oph
Ġfib ers
Ġadvis able
ĠLur gha
Ġincons ist
Ġtransmit ter
Ġinsens ible
ĠPLA Y
ĠAmaz on
ĠApple by
ĠLibr ary
Ġprosp ered
ĠESC AP
ĠBalf our
ĠSweven ham
A I
C Y
G lad
I CT
J AFL
N obody
V ING
W ord
d ers
h tt
n ished
p ound
t reat
z ek
Ġs incerity
Ġo aken
Ġb ou
at z
Ġm ur
Ġm ush
Ġp ard
Ġp alfrey
an ked
ic er
id ated
se ts
Ġre venue
Ġas cribed
ur as
ce ler
oo red
Ġis le
ĠM os
ĠB our
ĠC hing
ĠP UBL
th orn
ĠG oth
ich ael
ge ar
-- ?"
ĠL um
out ed
ist ing
Ġsp okes
ĠE ye
Ġle e
Ġkn otted
Ġcom ic
Ġwill ed
Ġag g
Ġag on
ĠJ upiter
Ġj ig
ell s
Ġro oted
Ġcl umps
pl us
Ġdis ord
Ġam ber
ud dle
Ġfl attered
Ġfo aming
Ġhow ls
bl eness
ĠCh inn
Ġbel ts
ĠV ale
Ġent angled
og any
ott est
uck les
Ġem blem
Ġsur ly
ross ed
den ing
Ġpu rif
Ġwhite w
Ġsun s
IT CH
ĠIs les
AN E
Ġdec isive
Ġreal ization
Ġappro aches
RO D
Ġfield ing
SE L
Ġmod esty
sp ir
Ġcove ted
aff in
ĠEx p
Ġorigin ated
ik ky
che i
Ġsorrow ing
Ġden ial
Ġimposs ibility
Ġsystem s
Ġ23 3
Ġ24 4
Ġtrail ed
der burn
ĠTe acher
ĠTe gum
ĠEr in
Ġrail ing
ĠLong fellow
ĠWH ICH
Ġappeal ing
Ġaunt ie
Ġ189 8
Ġcrack ing
Ġdepend ence
bon o
ĠSpani ard
Ġmyst ic
Ġnarr atives
Ġcru iser
ĠEst her
Ġscorn ful
ĠSy stem
Ġrom ances
Ġunivers ity
Ġsovere ignty
Ġdise ases
Ġtap ering
Ex cuse
Ġinterp osed
ĠHE AD
Ġinex plicable
ĠSign s
Ġmyth ology
Ġwithdraw al
ĠSat isf
Ġstamp ing
Ġvest ibule
Ġbub ble
Ġju venile
Ġornament al
Ġdiplom acy
ĠEight eenth
ĠCir cle
Ġbrace lets
Ġripp ling
Ġclust ered
ĠLar amie
ĠClare nce
Ġsauc er
Ġarist ocratic
Ġaccum ulated
ĠGIRL S
Ġcac ique
Ph il
ĠDAV ID
ĠConse quently
ĠDiam ond
ĠBoom er
iche ver
Ġuten sils
Ġintegr ity
Ġabre ast
Ġseiz ure
Ġoutsk irts
7 5
I nt
N ER
b us
g om
g ang
h ounds
i ques
m iss
n ets
s in
Ġa y
Ġw oes
Ġw renched
Ġs acked
Ġf angs
Ġm aze
ar ity
Ġth rilled
Ġp yg
as i
as er
Ġbe in
id as
ĠT am
Ġe aves
st ar
Ġwh arf
Ġan ointed
ĠM unch
ĠB ud
ĠB IRD
ĠP t
ĠW M
Ġher b
Ġk il
ĠF IRE
ĠL am
ĠL ocks
ĠL INCOLN
ĠR aleigh
ast el
op a
Ġsp ine
Ġcom ical
Ġpl ug
Ġpl astic
Ġro cked
Ġbr ushes
ĠTh irty
ĠK us
Ġlong itud
Ġsl ab
Ġsl apped
Ġrem ed
iz ar
Ġgl iding
Ġind ex
Ġob t
Ġres erv
ool s
Ġwater y
Ġinst all
Ġprov oked
Ġmoment arily
sh ore
Ġsil ks
Ġsil enced
Ġext racted
Ġpri zed
ĠCl iff
Ġpret ext
Ġvol canic
Ġequ als
ĠX erxes
ĠWill ow
ĠMar ley
Ġassoci ates
Ġ19 13
Ġce aseless
Ġbow els
Ġrap ture
Ġdisp atch
Ġfun nel
ĠDav y
bo ards
Ġgall eries
Ġprevent s
ĠHar vard
che on
ĠBlack beard
elt a
Ġthank fulness
Ġhy d
Ġdism ayed
Ġcloud ed
Ġoper a
ĠSer jt
ĠSund ays
Ġfer ocity
Ġplant ations
Ġpopular ity
Ġsavage ly
Ġmult ip
Ġmult itudes
Ġpuzz ling
Ġbatter ing
eel ing
Ġswamp s
Ġ184 6
Ġox ygen
cr ates
Ġfanc iful
Ġworry ing
ĠWed derburn
Ġadmin ister
Ġfrost y
ĠBer lin
ii i
Ġlegisl ation
Ġ177 6
Ġbloom ing
Ġcyl inders
ĠFer din
ĠJess ie
Ġpeop led
Ġprejud ices
Ġscow led
Ġponder ing
Ġponder ous
Ġbehav ior
Ġsecre cy
ĠVic ar
ĠMARY LAND
ĠPRE F
Ġaccus ation
Ġcripp led
Ġforfe it
Ġteen y
ĠCarth age
bod ied
Ġlabore rs
Ġastr ay
Ġmantel piece
Ġforef inger
ĠDoubt less
ĠGilling ham
thor pe
ĠAble tt
ĠTegum ai
gom ery
6 1
6 8
G entle
M ormons
S ix
b earing
c aster
f ires
l ife
p ass
p ox
r and
r ising
t urned
u zz
v ices
w ent
Ġt reading
Ġa ye
Ġo st
Ġb ast
Ġb ony
ou ng
or age
Ġd ale
Ġp ope
Ġl ank
Ġn iggers
Ġg ifted
ot ent
ĠT IME
ĠT aggi
Ġre eled
Ġit em
ĠS M
ĠS oul
Ġwe aken
Ġha res
ĠH ur
ĠH ark
ĠH ouses
ĠH IGH
ĠM ight
ĠM un
ĠB ul
ĠC AMP
ĠP hys
ĠW IND
ĠW ERE
th ah
ĠG land
ĠG iu
ĠF i
ĠF at
ul ace
Ġdo e
ĠL OST
ĠD ept
ĠD elta
ap ata
Ġch illed
Ġch agr
ĠR ig
Ġsp ar
ĠE ither
Ġab used
ĠJ ude
Ġtr otting
Ġj agged
Ġtw ine
ud ging
Ġoff ense
Ġsl anting
ĠSo cial
Ġwr ithing
Ġcont ag
Ġob el
ĠV ir
ĠYou th
Ġunt ied
Ġrep ented
Ġfar ming
Ġfull est
Ġmar ine
Ġrel ics
Ġsub t
Ġprom oted
Ġhum bug
uc ing
Ġinf irm
be fore
gr ay
Ġra is
ĠMy ths
Ġ17 3
Ġ19 14
Ġest e
Ġdam n
ĠST AR
Ġdream y
Ġball ot
Ġfig ured
ĠCar ry
ĠCar go
Ġ20 2
Ġ20 8
ĠLet ter
Ġhun ch
Ġservice able
ĠAN N
Ġstro lling
ĠQu en
Ġassist ing
Ġmurd erers
Ġbold ness
Ġ24 3
Ġcircum ference
Ġ26 8
Ġsal oon
Ġdim inished
Ġbare foot
Ġpure st
Ġvoy agers
ĠSept r
ĠGo at
Ġax le
Ġ200 3
ĠComp lete
ĠDid n
ĠAny way
Ġune qual
Ġframe work
Ġbenef its
Ġenv ied
Ġimper tinent
Ġstup idity
Ġinstinct ive
Ġshock ing
Ġmanufact ured
ĠApp arently
ĠKir k
ĠBu ild
Ġnurs ing
Ġdisgr aced
Ġvel ve
OP LE
Ġsentiment al
Ġtrait ors
Ġroast ing
ĠMem ory
ĠSpring field
Ġmemor ial
Le ave
ĠMa erchen
Ġvio lets
Ġreprodu ced
Ġdod ged
Ġsubse quently
ĠAssy ria
ĠGis bourne
ĠDwarf s
ĠAnim als
Ġlect ures
ĠWheel er
ĠAby dos
Ġphant om
ĠTest ament
ĠCraw ford
ĠRee ce
ĠSyr ac
Ġaerop lane
ĠADVENT URES
Ġsmot hered
Ġinfern al
Ġoint ment
M ust
P S
R ep
S outhern
a ise
b ee
f aces
g il
h ara
m id
m ile
r ated
he ll
he ment
Ġa z
Ġa ward
in ates
Ġb oo
Ġh ickory
ou mer
at aka
Ġc emeter
Ġm amsie
on ce
Ġto kens
ar ine
es pecially
Ġl bs
Ġhe ating
Ġn ull
Ġg our
ic ians
ic kered
id ious
ĠT reat
ĠT eb
Ġre ap
Ġre ject
et un
ĠThe ss
Ġha llow
Ġha bia
ĠC re
ĠC ob
ĠW ins
ĠW AL
ĠW ilt
Ġso les
ĠG as
ĠG rie
Ġdo ves
out hed
Ġch ronic
ol ks
Ġare na
Ġout let
Ġab dom
ĠN az
Ġint ricate
ak u
ĠJ ot
Ġus ur
av ia
Ġaf oot
Ġun cles
Ġ' _
aw mash
ĠK ala
ĠK angaroo
bl ossom
ew are
so le
ĠCh ab
ĠCh ambers
und ance
Ġdr ained
ĠV e
ĠV o
Ġret al
man n
ult ural
uck oo
cept ible
Ġsent ries
ĠJo etun
ĠBr ave
Ġsk ipped
sh ad
Ġwa its
Ġmin istry
Ġdep icted
ĠCl ia
Ġins criptions
Ġpol ish
Ġswe eps
Ġmem br
Ġprop os
gg a
Ġ17 4
ask et
Ġbow led
Ġve in
Ġspeed ing
Ġlower ing
Ġ25 1
Ġ25 3
Ġconv incing
Ġcomb ine
ĠBar b
Ġ28 6
Ġimpro per
Ġimpro ving
Ġcloth s
Ġuns peak
gu ing
Ġpet als
ocr at
ĠComp an
Ġalarm ing
ĠPaul ine
Be fore
Ġsuspect ing
Ġbew itched
Ġamb ig
Ġrev ive
Ġmast aba
ĠJon ah
Ġtyr ann
Ġunivers ally
Ġadjust ing
Ġtid y
ĠMont gomery
Ġtunn els
ĠAnn apolis
Ġdu plic
ĠPoss ibly
Ġsupre m
ĠPE OPLE
Ġinev itably
Le gs
Ġspecul ation
Ġdoub ting
Ġbrace let
ĠReg is
Ġramp arts
Ġcad ets
Ġhymn s
Ġtram pling
agu ar
oug astel
Ġattach ment
ĠPlatt ner
Ġesp ied
Ġcompens ation
ĠCAP TAIN
ĠFRAN K
jour n
esop otam
ĠInf ant
ĠAMERIC AN
Ġunreason able
Ġappare l
Ġcatast rophe
Ġsympt oms
ĠAthelst ane
ĠKosh chei
ĠTso ay
ĠQuen rede
ĠTeb bs
ĠJoetun heim
= ),
B O
B rer
G S
H en
O TH
T M
W AY
g am
g rowth
n oth
o it
s ong
w ord
z ens
Ġt ides
Ġw ade
Ġw aged
nd a
is man
or ical
Ġp acing
as ent
Ġin ac
Ġl iv
Ġn im
im ming
Ġu mp
ro pe
ĠS afe
ĠS anza
Ġfor ked
ĠA CC
ri x
Ġhis s
Ġst rew
Ġst oop
Ġst umps
Ġst abbed
Ġha zy
ĠH orses
ĠM umps
ĠB ast
ĠB ears
ĠB umble
ĠC osquin
ĠP ASS
ĠG ene
qu iet
ĠL aca
ĠR other
Ġal mond
Ġex erted
Ġex cluded
Ġab bot
Ġcom in
Ġgo b
ig ation
od anan
Ġli ed
Ġcl ang
Ġcl amber
ud o
ount able
ĠK yla
Ġim b
Ġpo ised
Ġsc andal
ĠU S
Ġcr ank
Ġeven ly
ĠTH ERE
ĠSo crates
Ġdon ned
und y
Ġlo ading
Ġexp ose
og i
ock et
Ġord inarily
Ġrec reation
Ġplay ground
Ġass umption
Ġmin im
Ġquick ness
Ġins pire
Ġpret ence
uff s
Ġaccess ion
Ġdem ocratic
Ġjo ins
Ġloc om
ĠAp ost
Ġscar f
Ġlab ou
Ġhus k
Ġball ads
Ġwrong ed
ĠPl ougastel
we alth
Ġhat ched
ĠAm b
Ġbroad cast
Ġpen insula
ĠRobert a
Ġindic ates
Ġund es
Ġhost ess
Ġstret ches
hip s
Ġterm inated
Ġty pical
ĠComm and
ĠJer usha
ĠSer pent
Ġsin ners
ĠTer rible
Ġbend s
Ġstock ing
Ġsigh s
Ġleaf y
ĠTw elfth
Ġcrack ling
ĠDou ble
ĠHel p
Ġteaching s
Ġflour ish
Ġfain ter
Ġlan es
AK ES
ĠContin ental
ĠPri vate
Ġadjust ment
Ġpenetr ating
Qu ick
Ġratt les
Ġvine gar
Ġsym bols
Ġstair way
Ġlegisl atures
Ġobsc urity
Ġprofound ly
ĠMAN A
Ġwhit eness
ĠPhilipp e
Ġpursu its
Ġridic ule
ĠMet a
Ġcontempl ation
Ġsnar l
Ġcongrat ulate
Ġestim ation
ĠCru z
Ġsurm ounted
Ġarist ocracy
ĠKa odanan
ĠTow ard
Ġrept ile
ĠHebrew s
Ġcontrad ict
Ġhumil iation
ĠClats op
Ġunfold ed
Ġgeomet rical
ĠMerc ury
Pol ivka
Ġemin ence
ĠPruss ia
Ġpoult ry
ĠMangab oos
abul ary
ĠJot apata
6 4
D is
O ver
k und
s ighted
v ised
Ġt ang
Ġw i
Ġw o
Ġs inks
er ie
Ġb ureau
Ġf oss
Ġc au
on ograph
ar ag
ar ah
Ġp icks
es crib
Ġl ug
ot he
ot us
ĠT EM
Ġe cl
Ġwh iz
ith s
ĠS O
ill as
ĠH ook
ĠH IM
ĠH AND
ĠM oney
ĠM ormon
ĠM esopotam
Ġse est
ĠC e
ĠP he
ĠP ike
ĠW re
ĠW ELL
est ab
ie re
ĠR hy
ol t
ĠE thel
ĠN el
ĠO t
ind eed
Ġcom ments
el and
Ġcan als
Ġun self
Ġbl uish
ud es
Ġpart ition
Ġad rift
ue an
ach o
ĠIn s
Ġcomp oser
ĠThen ce
ail i
Ġbet ook
Ġgl ued
und ers
anc a
Ġlo om
og a
Ġimp en
Ġac ademy
ĠWe asel
Ġsupp ress
Ġ4 00
Ġdoor ways
Ġdisc er
Ġdark est
Ġsn out
Ġsn orted
Ġcut ter
Ġmer cil
Ġins ure
Ġcor ps
Th us
ĠRe ally
Ġconst ell
Ġvol untary
ĠSm oked
Ġfort ifications
Ġcamp ing
Ġprodu ctions
Ġ19 00
ices ter
ĠIN TER
Ġhot ter
Ġdream t
ien ces
Ġav ailed
Ġve hement
Ġbelong ings
ik h
ĠHar vey
Ġprev ailing
Ġalt ars
ID E
Ġ24 1
Ġcolor ing
Ġsal ary
rodu ction
Ġty p
ĠComm odore
Ġhabit ual
Ġ27 4
Ġ27 6
Ġ28 0
Ġfac ulty
fl akes
Ġsaf est
Ġunf riendly
ae us
Ġexceed ed
sl aught
Ġconstit utes
An sw
born e
Ġtend encies
Ġ***** **
anz ayemon
Ġtyr ants
Ġped agog
Ġblast ed
ĠNEW S
Ġconfident ial
Ġnovel ty
Ġvivid ly
Ġdur ation
ĠId una
Every thing
Ġbann ock
Ġaccommod ate
Ġprem ises
ĠCommission er
Ġrend ez
ĠHung ry
Mar ry
Ġflog ging
ĠTop ics
ĠHob art
Ġscound rels
ĠFeder als
ĠCHRIST MAS
YM N
ĠPtole my
ĠFaith ful
Ġessent ially
Ġencircl ed
ĠStru ck
ĠHap ley
Ġdiagr am
ĠWOM AN
ĠArtic les
ĠWag ner
Ġfie nds
Ġsuperfl uous
Ġindist inct
ĠGael ic
ĠLoy ce
Ġenm ity
Ġsuprem acy
Ġmercil ess
' )
; [
B E
B el
E v
F ear
F ire
H on
S te
c art
d led
f ro
g ates
g oes
k u
l ia
w itted
z on
Ġ 00
Ġt art
Ġs am
Ġh ust
ou x
is o
Ġc res
Ġc ack
Ġc yn
Ġm akers
ar io
ll e
Ġp ang
as en
Ġhe mp
Ġbe re
Ġbe eds
ĠT ogether
ĠT ABLE
al us
ĠS eed
Ġfor ged
Ġst umble
ct ure
ill ity
Ġat om
ĠB uch
ĠB oul
Ġse l
ĠP oc
ĠW ent
Ġde ze
ĠF AR
ol id
Ġout right
Ġout set
ĠE u
Ġab ound
ĠN et
ĠN AT
ĠO aks
Ġgo eth
Ġpl ast
Ġpl ums
Ġthere from
ĠJ ump
ĠJ eph
ck l
ear y
pl ings
Ġun man
ip el
Ġfo emen
ĠIn ch
bl ock
Ġsc ented
Ġcr um
oss ible
Ġrep orter
Ġimp ending
Ġimp lements
ning ton
Ġinst alled
unt o
ĠBr ide
Ġpar ishes
Ġwa ft
ĠGod dess
Ġair y
ĠCl othes
Ġcur sing
Ġcoll apse
be arer
Ġwild s
ĠTr uth
Ġra pped
Ġten ants
gl ers
Ġir ons
Ġmus lin
Ġagree ably
ĠNorth west
Ġfront iers
ĠPer c
ĠCan adian
Ġlaugh s
ĠPres ent
isf ord
Ġclass ic
Ġrain ing
Ġgun powder
Ġ20 7
Ġjud gments
Ġwid ened
ĠZ ion
Ġbroad er
Ġcover t
Ġstro king
ĠQu ickly
Ġ30 3
Ġconv ict
Ġtur bul
Ġprivate ering
ĠWhite foot
ĠGl oucester
Ġgar lands
Ġunf amiliar
ĠGu ild
Ġaccompl ishment
ĠEX ER
Ġlock ing
enny son
Ġfoolish ly
ĠSus ie
Ġgay ly
Ġstiff ened
ĠFort y
Ġbul w
Ġrum or
Ġrum ours
Ġ184 8
IF T
Ġward robe
Ġantic ipation
Ġpadd led
Ġowners hip
Ġsculpt ure
Ġachieve ments
ĠAB OUT
ĠHay dn
Ġreass ured
ĠTrans criber
ĠKnow ledge
ongh y
Ġscow ling
Ġoverfl owing
Ġoverth rown
Ġbould er
Ġcolle agues
Ġgnaw ed
Ġbrist ling
Ġpest ilence
ĠOlymp us
anche ster
ĠThanks giving
Ġoverh anging
Ġdiscl osed
Ġcontribut ion
Ġwist fully
Ġextrav ag
Ġsubsist ence
Ġment ally
Ġvex ation
Ġnymph s
Ġoun ce
Ġsall ied
IEL D
Ġoverse er
Ġsplin ters
Ġcoloss al
Gold en
Ġpowd ered
Ġtapest ry
ĠCommer ce
ĠELECT RIC
Ġtren ches
Ġwaver ing
urge on
Ġhagg ard
hinoc eros
Ġsubmar ine
ĠOccasion ally
Bes ides
ĠSyrac use
6 3
B S
F ROM
H ar
L a
M amma
P o
] --
d est
d irs
s d
y ards
Ġ ig
Ġt ugged
Ġs ession
Ġb achel
Ġh og
at ra
Ġf i
Ġf iss
it oes
Ġc i
Ġto ils
or ot
ing ham
Ġp as
Ġp ater
es cend
as ures
le m
ĠT ory
ĠT aft
st an
Ġon slaught
al ways
Ġfor ge
Ġwe ave
ri um
Ġst unt
Ġha g
ĠH oo
ĠM i
Ġsh immer
Ġse et
Ġse ating
ĠC rooked
ĠP urch
." --_
Ġk er
ĠG a
Ġde rected
ich in
ul ator
ĠL af
ĠL umbrilo
ĠL aili
ĠD EL
ant y
Ġch att
Ġch ooses
ast ies
op les
Ġcon es
Ġal uminum
ĠE tt
Ġab ilities
ĠN ero
ĠO tt
um bed
Ġcom bed
Ġgo est
ig rant
Ġtr ink
Ġover s
ĠK idd
Ġstr ains
Ġmay est
Ġway side
Ġpo ked
Ġsw armed
Ġcr ags
Ġgl ide
Ġind ec
Ġind uction
Ġlast s
Ġimp ly
Ġbu gs
Ġnear ing
sw orth
the m
Ġgu ile
Ġhard ness
ey er
Ġpers piration
Ġhelp ers
ual ity
Ġsub j
Ġmon aster
Ġfour score
Ġbus hels
Ġsn ail
Ġlau nd
Ġho e
ĠQ UE
ĠArch ibald
Ġart illery
Ġfoot man
RE W
Ġmed itation
Ġquiet ness
Ġut ility
me al
Ġ19 4
ĠLe icester
err im
Ġclass ical
ĠFl ora
ĠGe o
ĠPe oples
Ġutter most
Ġ30 4
Ġweak ly
Ġsucceed s
Ġla unch
ĠJe an
Ġid ly
Ġstout est
Ġhy dro
Ġkey hole
ĠJan et
Ġ185 3
Ġinhabit ant
Ġgod mother
Ġhollow ed
Ġmistress es
Ġgas oline
Ġcool ing
Ġreb uke
Ġrout es
Ġprogress ive
Ġcit adel
ĠSpir its
ĠIm perial
lock y
Ġstup endous
ĠBro ck
four th
Ġcunning ly
Ġbuck led
ĠCor inth
Ġqual ified
Ġrav ens
Ġrav ines
Ġtal isman
Ġjob s
Ġcorrupt ion
Ġexception al
ĠDog s
sing ton
Ġlap se
Ġoutl ined
Ġmoss y
Ġsoot hed
UM B
ĠStand ish
Some body
Ġobsc ured
cut ter
Ġburgl ars
Ġentreat ies
ov able
ĠSuff ic
Ġpeb ble
ĠAld ers
Ġnegot iations
Ġsimpl er
Ġglist ened
Ġgriev ances
Ġaven ged
Ġbun ches
ĠLeg isl
Ġscor ched
ĠStud y
Ġinterven ing
Ġdrows y
Ġapost les
ĠTal bot
Ġirr itation
Ġoy ster
Ġfern s
Ġarrog ant
Ġhered itary
ĠLor imer
Ġupl ifted
ĠINT ROD
Ġspont aneous
ĠSwitzer land
Ġabb ey
ĠTort oise
ĠNes bit
Ġmoust ache
Ġmultipl ied
ĠBoomer ang
Ġpyg mies
ĠGland ier
Ġrendez vous
ĠPerc ival
7 4
9 8
F our
G e
S end
S peak
T ry
T hy
W he
_ ?
a vers
o oth
r ants
t iny
u ps
re f
er ated
Ġh oop
Ġd awning
ar thy
Ġth res
es chal
Ġin laid
Ġl athe
Ġl inger
Ġn oumer
ĠI owa
ĠT RI
ĠT UR
Ġon ions
Ġwh ining
Ġre un
ĠS itting
ĠS eper
ĠS IX
ĠS ugar
Ġan te
Ġnot ch
ill ust
ĠH ILL
ĠM it
ĠM ove
ĠB ats
ĠC annon
if ter
ĠW and
ĠG ip
ĠF ug
ĠL A
ĠL ist
ĠL ans
ol ition
Ġman oeuv
Ġkn oll
ĠJ ungle
Ġus hered
pl ate
Ġco ating
Ġover much
ment ed
ather ine
ĠK i
Ġstr ayed
ĠSt ars
ĠSt oe
Ġpo ly
per ors
ĠCh ance
aid ia
Ġyear ly
Ġatt ired
Ġnight ly
Ġrep airs
og ical
ĠWh ig
Ġgu itar
let t
ah n
ĠSh ains
Ġdisc ons
Ġdisc rim
Ġnat ures
Ġche ated
Ġpar allels
Ġprom ote
Ġhum ility
ĠHow e
Ġlead en
Ġmean est
AT S
Ġcoll ars
ser ved
ser vant
Ġtrad ed
itting ton
Ġdev ise
Ġsol ar
ĠCan al
Ġlaugh ingly
inc inn
dd ing
ĠCar ib
Ġcapt uring
Ġbreath s
Ġbreath lessly
Ġrecogn izing
Ġexpect s
Ġfresh ness
Ġresol utely
Ġacqu is
ming ton
Ġ30 7
Ġimm igrants
ĠBE AUT
Ġ26 4
Ġvent uring
Ġconse cr
Ġmut ter
Ġ28 7
Ġcalm ness
Ġemb ank
Ġ29 0
Ġinj uries
Ġskill ful
ĠLa o
Ġfleet ing
Ġleather n
ĠClark s
Ġ190 2
Ġjack al
ĠBet ty
ĠContin ent
Ġdiscont ent
Ġannoy ing
ĠHead piece
GL ISH
ĠREM ARK
ĠPed agog
IF F
Ġawkward ly
Ġinit i
Ġadopt ion
Ġsnar ling
ĠPop ular
ĠSac noth
ĠRebe kah
Ġger m
ĠEthiop ian
ĠAngel a
ĠSAM UEL
ĠRow land
ĠChes sington
Ġenlight ened
Ġprophes ied
ĠMussal mans
ĠSEC OND
Ġreconc iled
ĠYan kee
Ġmall et
ĠDion ys
ĠLiter ature
ĠShog un
Ġaffir med
ĠHither to
ĠKus hat
ĠNaz areth
Ġinac cess
Ġimpen etr
ĠStoe ckl
incinn ati
! !
_ ),
b ub
c ure
d all
h oun
j e
p oor
s ur
z t
in isc
Ġo aks
Ġf rying
Ġm use
Ġto ll
Ġd ow
Ġd um
as u
as is
Ġwas tes
ĠA LI
ĠThe e
Ġnot able
ke la
ĠM t
Ġsh ares
Ġsh ipping
ĠB urr
ĠB rooks
ĠP u
ĠP y
Ġr ations
ĠW AY
Ġso ared
Ġor al
th ood
ĠG AR
ĠF eeling
qu in
ĠD at
ĠD ream
Ġout cry
Ġno bler
um ann
Ġkn ocks
Ġcom o
Ġag ency
Ġli eth
Ġqu id
Ġun ions
Ġun fast
Ġover he
Ġover look
ud a
Ġri pped
Ġfl ickered
ĠK el
ĠK oosk
Ġpe g
Ġstr and
Ġ2 000
Ġpre st
Ġsc uff
Ġgl ove
Ġind escrib
Ġcar line
Ġ18 1
Ġcons umm
Ġref ers
Ġrec ital
Ġcle ans
ĠSh ar
Ġred e
Ġsub sc
ĠPr ickly
Ġdri vers
Ġhur ricane
ĠTr ail
ĠTr aders
Ġprop riety
Ġtop most
Ġfr iction
Ġdef in
Ġbuild ed
Ġ19 12
Ġcompl ac
Ġcompl aining
ĠST RE
ĠIN TO
TH ERS
ENT Y
Ġwhis ky
Ġjud icial
Ġfro ze
Ġdepart ing
Ġpop ulace
Ġcoast ing
Ġ24 8
Ġmor bid
Ġet i
Ġemb od
Ġdar lin
Ġpack ages
ae a
Ġsteam ing
Ġinstruct ive
ĠHigh am
Ġrout ed
Ġunl aw
Ġincl ine
Ġdw ind
Ġaccident al
Ġgrat ifying
Ġsmell ing
ĠEle ven
Ġimper ative
Ġscient ists
Ġep it
Ġcollect ions
isp iece
Ġtext ure
Ġawa its
Ġscrap ing
Ġinvol ve
Ġbath s
ĠSE VEN
Ġfain ting
Ġming le
low e
Ġjun cture
Ġecho ing
ĠCow ardly
Ġast ounded
ĠFire fly
Ġdisgrace ful
Ġlust ily
Ġtick led
Ġpadd ed
ĠLab an
Ġnic he
Ġreluct ance
Ġorch ards
ĠRead er
ĠRead ing
Ġsniff ing
Ġrepent ance
ĠHast ings
ĠEN G
Ġsly ly
Ġprett ier
Ġswarm ing
ĠRic aras
Ġgal van
Pe ople
ĠBless ed
ĠDin ah
ĠVictor ia
ĠLav inia
ĠCock y
Ġsubd ue
Es sex
Ġquer ied
ĠFern ando
Ġrheum atism
ĠKend ricks
Ġsubl ime
Ġphosph oresc
Ġhauber k
Ġconscient ious
Ġvolt age
ĠWOND ER
Ġscabb ard
ĠFerdin and
Ġnoumer ous
C ual
C urrent
F r
F ront
G Y
I ER
O ff
P ages
S c
S orry
T ING
W ater
b ott
d one
g ins
h r
h s
l ocks
l antic
m ast
u ces
Ġt ier
Ġt ends
it ous
is ers
is che
en hurst
Ġto iled
Ġd ot
Ġp ell
as ingly
Ġl oung
ic orn
ĠT iny
se em
al most
ro cks
ĠS le
ĠS ore
ĠS phin
ĠA F
Ġst ap
Ġnot ing
ĠH ull
Ġsh aved
ĠB ach
ĠB ody
ĠB anzayemon
ĠC ey
ĠC oom
ĠC incinnati
Ġr az
Ġr ational
Ġr uffled
Ġme nding
Ġk en
ĠG on
ĠG ames
ĠL aid
ĠD ucky
art a
Ġout cast
ĠE MP
ĠN ice
ĠN ix
ĠN ONS
ĠN orton
ig ent
Ġpr anks
Ġfl are
Ġfl apped
Ġpe acock
Ġstr angled
ĠSt amp
ĠSt eel
Ġpo ll
Ġcr ick
Ġgl o
Ġwr apping
Ġcont end
ne xt
Ġspe cks
Ġcomm ended
ĠWh om
ĠInd s
Ġrest aur
Ġrec omp
Ġsk iff
Ġche wing
Ġwa iter
Ġrel ied
Ġreg ulation
IN ES
ĠAn a
ĠAn ko
Ġvis ibly
ĠPh ar
Ġhum ane
Ġbed ding
Ġmid way
Ġfur ry
Ġhast ening
Ġlow ly
Ġpost erity
gg ar
Ġcre aking
Ġcre vice
Ġaccept able
Ġfav oured
Ġband ages
Ġ20 9
Ġunc outh
Ġviol ation
Ġappl auded
Ġcomfort ing
ĠSam urai
Ġoccup ies
Ġsuper b
Ġsuper f
Ġwand erer
IV ES
olog ists
Ġ21 2
Ġ24 9
Ġrub y
-------- ---
Ġ26 2
Ġconvers ed
agon al
Ġgar land
Ġhy pot
ĠMer cy
Ġ27 7
Ġ28 8
Ġsimilar ly
Ġsquare ly
Ġsuggest ing
ĠMon ster
Ġvig ilance
reg or
ĠStr anger
As k
ĠEv arin
Ġpubl ish
Ġcommunic ations
ĠFri gga
Ġbay on
Ġtele ph
Ġtin foil
ĠCab ot
Ġforbid ding
Ġtremend ously
Ġinquir ingly
Ġenterpr ises
Ġcavern s
ĠCreat or
ĠLE AR
Ġlas hes
Ġfet ters
ĠCarm ichael
ĠMat thew
Ġmiser ies
ĠMarj orie
Ġsparrow s
Ġmodest ly
ĠAch illes
Ġsque ak
Ġgriev ously
ĠBri ar
Ġcaterpill ar
Ġscamp ered
Ġtranqu il
Ġnewcom ers
ĠQuest ions
Ġsentin el
Ġwrigg led
Ġcac iques
ĠLan ark
Ġexclaim ing
bi ades
keep ers
Ġconstr ained
Ġbran ching
unner y
ĠSau nders
Ġreinforce ments
ĠMele agant
ĠLl oyd
ĠPREF ACE
ĠJude a
Ġabdom en
ipel ago
ĠLaf ayette
ĠShains a
ĠNONS ENSE
' ),
7 2
9 2
C o
F ar
I mp
b d
b acks
g al
g ill
i ancy
k iri
l og
n ear
o qu
r ish
s n
s uckle
Ġt iles
Ġt ints
Ġb ide
Ġb imeby
Ġf ue
Ġf ences
Ġc um
Ġc av
Ġd ucked
Ġp ussy
an ity
Ġin ability
Ġl ac
Ġl uc
Ġl acks
Ġl ids
ic ian
ic als
et a
ac ular
al on
ro ke
ro ps
ĠS NOW
am my
ch ange
ĠH ig
ĠH OME
ĠH TM
ĠH YMN
ĠM US
ĠM ORE
ĠB rig
ĠB order
ĠB iddle
Ġse izes
ĠC as
ĠC OR
ĠC ustom
ĠP S
ĠP ont
ĠG U
ĠF ian
ĠF AM
Ġdo ze
ust ible
ĠL al
ĠL oud
ĠD ID
est ion
ist le
Ġsp ike
Ġman gled
ĠO gle
ĠHe ath
ag ging
Ġwill s
ort ment
Ġqu ill
Ġqu ench
Ġtime ly
Ġen um
Ġen sl
Ġover grown
aw ig
Ġfl akes
Ġfl attering
ĠK oyo
ĠSt at
Ġmen acing
Ġsl ammed
Ġsc ars
Ġsc off
Ġsc utt
Ġear ning
Ġgl ac
Ġhere abouts
ne e
Ġatt ribut
ĠTHE Y
ĠTHE IR
Ġelect ions
Ġcomm itting
Ġcomm otion
Ġser mons
Ġfull er
Ġever more
Ġmorn ings
Ġgu ineas
Ġfire wood
Ġbus hel
ub e
oe h
Ġcur rency
Ġinv in
OU GH
Ġsuff oc
Ġcond escend
Ġbar riers
Ġbur rows
Ġprop ellers
Ġlad ders
Ġsum pt
Ġloc ality
Ġph ases
Ġdev ast
Ġwin ner
Ġconsider ations
de ep
Ġsit uations
ĠIN F
ĠSw iss
Ġarr ound
ĠAb undance
Ġcharacter ized
Ġtrem ulous
ĠNe ut
ĠNe br
Ġgrave yard
ĠRE WARD
Ġsouth west
Ġ30 1
Ġpop ulous
Ġhar med
Ġdefect s
ĠSmall er
Ġ25 4
Ġ25 5
Ġ25 6
Ġfurn ishing
Ġfurn ishes
Ġbold er
Ġorgan ised
Ġtur mo
Ġpress es
Ġ26 9
sm elling
Ġblind s
ĠBar n
Ġ27 2
ĠBab bul
Ġdwell s
ĠTe a
Ġswim mer
ĠGu inea
maid en
Ġworst ed
dr awn
Ġaim ing
ĠWood ward
Ġshr unk
Ġgrat ification
Ġune ven
Ġpassion ately
Ġbree zes
ĠSU B
Ġsen eschal
ĠSch umann
Ġmarve ls
Ġ187 0
Ġcong enial
ĠLau rie
Ġdiscont ented
ĠIvan a
Ġcub s
Ġprow ling
Ġcompet ent
ĠBald win
ĠPhilipp ine
Ġmul atto
Ġlangu id
ĠAst ron
Ġharness ed
ĠFif ty
Sm all
ĠHs ien
Ġwholes ale
ĠPel op
Ġreass uring
ĠPo et
Ġbob bing
Ġreprodu ce
Ġsmith y
Ġdod ge
Ġware house
Bl ack
ĠCheif s
Ġsurp assed
Ġagric ultural
ĠFeder ation
ĠArk ansas
Ġphilosoph ical
ĠSall ie
Ġconject ure
ĠIndust rial
Ġglob es
Ġscrut iny
Ġrequis ite
Ġintrud er
Ġdanc ers
asg ow
ĠPork y
ĠMcN eal
Ġoverp owered
htt ps
Gentle men
ĠAlders hot
ĠCoom bes
ĠHTM L
ĠFian na
ĠOgle thorpe
Ġturmo il
ĠBabbul kund
" ).
9 9
B o
D en
D es
F ATHER
P LE
R uss
b oth
b ishop
c ery
d ust
e lect
f act
h istoric
i ago
l ist
n ants
u pe
Ġs angu
er d
Ġb als
Ġb anged
ou ghed
Ġf f
Ġf ished
Ġm os
Ġm ug
Ġm ien
ar an
Ġth umped
Ġhe irs
Ġg ad
ĠI v
ic eless
ve h
Ġthat ched
ĠS ON
ĠS af
ir ation
Ġwe eps
ĠA kela
Ġst orage
am at
ch ance
ĠH EL
ĠH ilda
ĠH aidia
ĠM ech
ĠM ASTER
Ġsh ark
Ġsh uffled
Ġse vered
ĠC atch
ĠC ael
ĠP all
Ġr and
Ġk aze
Ġk ittens
ĠF ly
ĠF OL
ul es
ĠL oc
ĠD ol
ĠD aim
ĠD aughter
Ġch au
ĠR iley
ĠR OOSE
ist ol
Ġsp ruce
ĠE M
ĠE LE
ĠO berg
um ably
Ġle opard
Ġkn uckles
Ġpl od
Ġcan yon
Ġcl os
Ġun sh
ĠBut t
Ġbl asp
!" --
Ġdown s
ip her
Ġstr ate
ord ing
Ġfo c
Ġsc ript
Ġcomp ulsion
Ġevery day
ness es
ere m
Ġcont riv
ĠV ar
ĠV iew
anc al
Ġwar p
ens er
og riff
Ġcons umption
ĠWh ittington
Ġmar itime
Ġstre aks
Ġsur plus
EN G
ah ont
ĠSh i
Ġname less
Ġel im
Ġplay mates
Ġlaw less
Ġbre eding
ra pped
Ġdep uty
Ġmer men
ec ai
Ġcor on
ĠFr isk
Ġspir al
use ly
Ġstud ded
Ġjo vial
ĠMar ion
ĠMar quet
Ġbuild er
Ġtreat ies
ĠQue bec
ĠEm ancipation
ĠAnt elopes
Ġexpect ations
Ġpun ishing
Ġguess ing
Ġinqu is
ĠBrown ing
Ġindic ations
Ġmention ing
Ġden ounced
Ġ25 7
Ġ24 2
lo ving
Ġ27 3
St ill
Ġ29 2
isc ons
Ġtest ing
ĠMich igan
Ġhal ter
Ġarch way
Ġwret ches
Ġpersu asion
ĠSn ooks
Ġmyster iously
ĠWil mington
Ġdiss ent
Ġinvol untarily
Ġrepro of
ĠRevolution ary
ĠPri est
ĠPharaoh s
Ġboast ing
Ġmonarch s
Ar t
Ġdeliber ation
Ġsan ction
Ġ188 9
ĠSub ject
ĠSign y
Ġsem blance
Ġeleg ance
ĠHold ing
Ġbub bles
Ġtun es
ĠRel ig
Ġbrood ed
Ġrepublic an
Ġconj unction
Ġrack et
ĠKa a
ĠBa iley
VEL T
Ġconsol ed
Ġsuck ing
ĠRain bow
Ġcha os
Ġloath some
ĠPhill ips
Ġcomprehens ion
Ġmonop oly
Ġextrav agant
ĠLou ise
ĠDonald son
Ġpolitic ians
ĠAud rey
ĠMohammed an
Ġvind ict
ĠLuck ily
Ġveter an
ĠRas alu
Ġstal wart
Ġcounten ances
Ġpropos als
ĠEXER CIS
errim ac
Ġrand om
ĠROOSE VELT
ĠOberg atz
ahont as
5 00
J ames
R o
c ub
d an
m atic
n als
p ear
r usted
Ġt ant
Ġt apping
Ġw inking
Ġb ri
Ġb ombs
ed a
Ġc aw
Ġm aker
Ġm igr
Ġm umbled
Ġl ining
ĠI sh
ic ir
Ġu ce
ro b
ĠS ell
ĠS OU
ĠA wig
ri ends
am os
ĠThe m
Ġnot ches
ill ors
ĠH APP
ĠM anchester
ĠB ah
ĠG ather
ĠG ang
Ġde ars
ess ation
Ġdo s
Ġdo in
ĠL inda
em pl
Ġch ry
Ġch ip
Ġch af
ĠR ams
ist an
art ments
ĠE T
ĠE cho
Ġman aging
ĠN ao
ĠN onsense
ĠN olan
Ġle ak
ig ated
ig ne
ort e
Ġbr azen
Ġover coat
Ġ' '
Ġam mon
Ġfl atter
Ġfl itting
ĠK al
Ġthr ush
Ġknow ed
ĠSt irling
Ġway f
bl in
Ġunder go
Ġcomp ose
air d
Ġwell s
Ġgl itter
Ġlook in
The ir
Ġ18 30
ens ively
Ġnear by
Ġpres idency
Ġmar ries
Ġsupp orters
Ġsur veying
Ġsk ir
Ġmet e
Ġste als
Ġste althy
Ġcap it
Ġass uming
Ġfire works
Ġsun ken
IT ED
ĠSp r
ĠSp oke
AN IC
Ġfear lessly
Ġdec ayed
ĠCon vention
Ġcur ate
Ġswe ets
Ġpleas anter
ĠNew castle
ĠCom es
ĠTr ader
Ġspeak ers
Ġconst ru
Ġbit es
Ġlim ped
Ġsqu ires
Ġcommand ment
ern acle
Ġca ressed
Ġconc ub
Ġ19 2
Ġce asing
aj a
Ġbattle ments
Ġap iece
Ġsky light
Ġspr awling
ien ced
Ġspread s
Ġgun w
ĠGre ene
Ġunc anny
Ġve iled
Ġcat hedral
Ġobl ique
Ġaftern oons
Ġ30 5
IV ER
Ġhorn ed
ĠGl asgow
Ġrejo in
Ġ28 4
Ġign ored
ĠAG AIN
Ġtest ified
Ġunw elcome
Ġunl ock
ĠMaid en
Ġclever ly
Ġrum our
Ġess ence
ĠSch le
Ġcounsel s
Ġing rat
Ġinstit uted
ĠSy kes
Ġunb el
ĠSar ac
ĠDirect ly
ĠVill ages
Ġlux uries
ĠWy vern
Ġcontempt uously
Ġrival ry
Ġdetach ment
urr ay
ĠAbb ott
Ġchimney s
quar ter
ĠElectric ity
ĠPhilist ine
Ġinit ial
press ible
ĠDuck s
Ġhob bled
Ġrepair ing
Ġconj ure
ĠPret end
Ġsullen ly
ĠPray er
Ġpall id
Ġbunk er
dro ps
ĠSW IFT
ĠMahomed an
ĠMord ecai
ĠCler val
Ġwreath s
Ġinconven ience
ĠNine veh
obo am
Ġexter ior
Ġmah ogany
ĠLis zt
Ġanam al
ĠGoli ath
ĠMOR AL
Ġveh icle
Ġmilit ia
Ġtipt oe
Ġsarcoph agus
Ġimpenetr able
Ġinvin cible
iscons in
5 1
8 8
? )
A CT
B rit
E m
E conom
I ED
M EN
S USH
Y OOD
c all
d rive
e ked
f illed
h air
h igh
k ings
n oon
o z
u ence
w omen
he rence
Ġa per
Ġo men
nd on
at ical
at ics
Ġf ading
Ġf umes
Ġc asing
en o
Ġin ters
Ġl icking
Ġhe ave
le aves
ut tering
ĠI da
ic ism
ve x
Ġwas her
im ited
se nd
Ġon wards
Ġwh ipping
Ġwh ichever
ĠS Y
ĠS is
ĠS if
ĠA k
ri est
Ġst itch
Ġnot ified
Ġnot orious
ĠH itt
ĠM ain
ĠM me
ĠM amma
ĠB od
ĠB unk
ĠC i
ĠC ITY
ĠP ull
ĠP AT
ĠW ully
ĠG ent
ĠG ame
us band
ĠL ing
ĠL ap
ĠD od
Ġv aulted
ab aster
ĠR H
ĠR ide
ĠE nt
ĠE ys
ĠE ternity
ĠN ord
ĠN OW
ry m
os ite
ak in
Ġwork manship
Ġun heard
Ġbl ed
ĠPro gress
Ġco con
aw i
ng th
Ġfl attery
ove re
Ġstr iding
ble ms
Ġsm iting
Ġrem ot
Ġrem inisc
Ġrem nants
Ġpass ive
Ġdes ks
Ġthought less
ĠV iolet
Ġrep ress
Ġexp ort
Ġworks hop
Ġform ally
Ġsupp osition
ĠBr am
ah im
Ġrun ing
ps y
ib al
Ġreg ister
ier on
fe rences
ĠPr ime
Ġev idences
br ahim
Ġsleep er
Ġinf am
Ġprop ag
ĠRe ason
Ġadm itting
Ġfr aud
Ġtrans ition
ney s
Ġdef icient
Ġsold er
te ch
me aning
Ġmod es
ĠSw araj
Ġeng aging
Ġ20 5
Ġdesp ot
ha us
Ġspo ilt
ĠHar lowe
Ġclaim ant
Ġpit iless
Ġoccup ant
Ġstorm ed
ĠHen ri
Ġble nded
Ġthin ly
Ġ22 1
Ġ25 8
amb a
ĠFather s
ĠCo ff
Ġstore house
Ġthreat ens
ĠSet ting
com b
Ġfruit less
Ġ27 5
Ġreve aling
Ġimpro bable
Ġ29 6
Ġcalcul ations
Ġexped ient
Ġgod father
ĠRuss ians
Ġ200 5
ĠTerr itory
reg n
she ll
Ġlog ic
Ġthread ed
ĠCal houn
Ġbul ky
Ġstraw berries
Ġwitch craft
Ġbrush wood
ĠWolf gang
ĠDun ster
ĠWal ters
Ġ184 5
ĠWhe at
ĠMill ions
Ġblast s
OD ORE
Ġthumb s
Ar thur
ĠCent ury
Ġancest or
Ġcas ually
ĠChat illon
Ġappet ites
ĠGib bons
ĠSin bad
Ġwhit ish
ĠED UC
Ġcombat ants
Ġdeaf ening
ĠMarg ery
ĠEN GLISH
ĠSte am
ĠBeck ford
ĠLar ry
ubl in
ĠChop in
Ġdeser ving
Ġpul pit
Ġadult s
ĠYue an
stru ck
Ġflick er
ĠVic eroy
Ġexcurs ions
Ġapprent ice
Ġtranqu illity
grand father
ĠWonder ful
ĠScript ure
Ġoun ces
Ġrue fully
ĠGOLD EN
ĠLege nds
ĠTail piece
Ġreli able
ĠSant iago
creat ures
ĠShepher ds
dri ver
Ġshuff ling
Ġabomin able
Dav id
ĠSeb ast
sacrif ice
rehens ible
Hen ry
Ġump ire
ĠGene va
ichin elle
Ġeti quette
ĠPhar ise
oeh ler
ĠEXERCIS ES
ĠNao ise
SUSH AI
7 1
A ren
C at
D onde
G overn
K IN
M onsieur
N ET
U nder
U FF
W E
b asket
c or
f ied
g irls
h unter
m al
m ake
m ination
o ving
r t
v ia
{ ~
~ }
Ä į
Ġ ic
he b
Ġa u
Ġa rom
Ġb our
Ġb oud
Ġh art
Ġh ack
Ġh atter
it ative
Ġm it
or ations
Ġd ots
Ġd renched
Ġp ent
Ġp agan
Ġhe wn
Ġn orm
Ġn oose
ic ations
ĠT all
ĠT IT
Ġe ther
Ġe ased
im on
se ek
et ween
ac r
ĠS ew
ĠS inging
Ġst agger
am pton
ĠH AD
ĠH ands
Ġsh ap
ĠP uss
Ġr af
Ġr ugs
Ġr oug
ĠG in
ĠG ab
Ġall otted
Ġde ception
ich o
ĠF u
Ġdo zens
em ar
Ġv ise
Ġpl atter
ĠJ appy
ĠJ AC
Ġro ckey
Ġar guing
Ġgr ants
Ġqu ills
Ġaf ield
ĠTh ought
Ġbo oming
Ġdis em
Ġstr ands
Ġpart ake
Ġfo kes
ci o
ci biades
Ġcomp osure
Ġsw arthy
Ġacc ents
Ġcont ribute
ĠV icksburg
Ġend uring
ĠWhen ce
Ġcomm em
man i
ĠWh igs
ĠAr c
vent ure
ĠSh oes
Ġdisc ord
Ġmo ors
Ġpar ley
Ġred oubled
ĠAl cibiades
Ġfore going
Ġreg ulate
Ġsn ub
Ġsn oring
Ġconf ine
Ġconf isc
app iness
ax y
ĠPr act
Ġev olved
ec um
Ġfur t
Ġfur row
Ġtrou bling
Ġvar ies
Ġvar nish
ĠHer cules
Ġtri fles
Ġlim ping
ĠSe al
Ġeye ing
Ġclot he
Ġpeace able
ĠLe opard
Ġpurpose ly
Ġeng rossed
Ġdisapp ears
Ġfright ening
Ġfun n
Ġspring time
Ġdesp atches
light s
Pro bably
Ġtro phy
ours es
Ġhost ilities
Ġ22 5
US S
ĠAS S
Ġfruit ful
Ġfaint est
Ġfac il
Ġdwell ed
Ġregular ity
Ġsuggest ive
ĠHigh land
gel ow
Ġaccompan iment
Ġuseful ness
Ġwound ing
Ġprepar atory
Ġclever ness
ĠConfeder ation
ĠWil kes
oos ke
Ġobst ruction
Ġanch ors
enc roft
ĠHor rocks
ĠPol ichinelle
Ġphot ograp
ĠInt erest
ĠBel g
ĠKnight s
ĠLau don
ĠHead master
Ġrecoll ected
ĠPass ed
Ġacknowled gment
ĠXXV I
Ġnic est
Ġperpet ually
Ġvoc abulary
Ġpolic ies
Ġunjust ly
Ġmart ial
ĠPost ing
Ġvibr ations
ĠHs i
Ġsom ber
Ġcontempl ated
Ġfring ed
Ġturkey s
ĠPen nington
Ġbats man
ĠChamp ion
cons cious
Ġthigh s
Ġflog ged
ĠMod ern
Ġstrang eness
Ġlun atic
ĠEthiop ia
Ġxx x
ĠDiv ine
ĠHug hes
Ġcomprehens ive
ĠGener ally
Ġnomin ated
Ġstif led
serv ants
ĠWAT ER
ĠDall isa
Ġvot ers
Ġpref ers
Ġenthusiast ically
ĠCounc illor
Ġslugg ish
Ġinsuff icient
ĠMere vale
ĠNell ie
Ġdole ful
Ġdisadvant age
ĠSah ib
ĠColor ado
Ġcos m
Ġmason ry
ĠPRINC ESS
ĠFilip ino
ĠBapt ist
Cent urion
TR ADE
ĠMesopotam ia
ĠNel son
ĠPoc ahontas
ĠPurch ase
H ail
H umph
I ANT
M er
M uch
R et
S ometimes
W IN
l ass
n ois
n umbered
p ointed
s an
w er
w orthy
y o
Ġthe reat
Ġw ren
re en
Ġb ass
Ġb ishops
Ġf us
Ġf agg
Ġm ong
Ġd ice
Ġp ose
Ġl oth
Ġhe ath
ut o
ut able
ĠI M
ĠT et
ld on
se h
se q
ĠS ind
ĠS LE
ĠA pe
Ġnot ices
ĠM ic
ĠM osc
ĠB ant
ĠB att
ĠC ought
ĠW ake
ĠW isconsin
rom ising
Ġor bit
th an
th irty
ĠG ugu
Ġde als
Ġsu pers
and um
Ġwhe reat
Ġshe dding
ĠF ay
ĠD oc
ĠD OWN
Ġv amp
Ġch attered
ĠR ab
ĠR att
ĠR aut
Ġfe l
Ġal abaster
ĠE qu
ĠE den
Ġman or
ĠN une
ck leton
ell ish
Ġbr aced
Ġqu awmash
Ġcl out
Ġcl ifts
Ġun question
are a
Ġen h
Ġbl est
Ġover looking
Ġam ph
aw ak
Ġhand writing
Ġpart e
Ġmay n
cl iff
Ġpre historic
Ġunder growth
Ġsc rip
ĠU ri
Ġbeg s
orm an
ors ed
ĠTH R
ere tte
ne g
ĠV ane
Ġcar avan
Ġatt itudes
Ġ18 2
ĠYou ths
Ġac adem
ĠWe e
Ġmar ches
ĠFor ce
ĠBr ack
Ġhigh ness
ner able
Ġmon itor
ident ial
oot er
oot ers
Ġvis ual
ĠSp ider
Ġmer idian
ĠCl ifts
br is
br and
Ġsing er
Ġsing ed
Ġins om
ĠDe an
Ġsqu int
Ġpal er
Ġdev oid
Ġexc uses
Ġstra pped
Ġsubject ion
Ġcre et
Ġ19 20
ĠEl se
Ġfav ors
Ġeffect ively
Ġval ues
ĠĠĠĠĠĠĠĠĠĠĠĠĠĠĠĠĠĠĠĠĠĠĠĠĠĠĠĠĠĠĠĠ ĠĠĠĠĠĠĠĠĠĠĠĠĠĠĠĠĠĠĠ
Ġhus ky
Ġgrand pa
yr inth
Ġtor ped
ĠMan ila
Ġav owed
ĠSl oth
Ġcat alog
Ġdepart ments
Ġoccur rences
Ġoccasion ed
Ġgall antly
Ġnarrow s
ĠFig s
ĠPar ry
Ġstar board
Ġtro ll
che ll
Ġmass a
Ġund e
Ġthin ner
Ġ22 2
gar ries
Ġgro ped
Ġtur ret
Ġstir rup
Ġresp ite
ĠCo at
ĠBE C
Ġ27 0
Ġdeli very
Ġmir rors
Ġcalcul ation
Ġaut hent
ĠMed e
ĠSqu ar
Ġsurv iving
Ġmeas les
Ġstuff s
Ġspect re
Ġaud ible
uls ed
Ġ189 3
ete xt
Ġrad iation
Ġz ap
Ġgri zzly
ĠTrot ter
Ġ184 2
Ġqual ifications
sec ond
Ġbrilliant ly
Ġcheerful ness
Ġmood s
ĠElect ro
Ġhammer ing
Ġcorpor ations
Ġenl ist
ĠStan ley
Br other
Ġbedroom s
ĠDISC O
Ġprecip ices
cel ain
Ġrecon no
Ġshy ly
Ġgover ning
Ġunre al
Ġtheat rical
ĠBre ak
ĠAust rian
Ġsof ter
ĠHold er
Ġlimit ations
iw an
Ġard or
Ġbust ling
Ġdiver se
ĠTW ENTY
ĠPil grim
Ġfasc inated
Ġsculpt or
Ġsculpt ured
ĠMong ol
ĠCrus oe
ni Äį
Ġbapt ism
Ġcul prit
Ġleve ls
Ġmonot ony
rup ulous
ĠHipp y
ĠLO VE
Ġgnaw ing
ĠIl oc
ĠIl brahim
Ġcounc illors
Ġhamm ered
ĠCrom pton
ĠStud ies
Ġmosqu itoes
cu ps
interest ed
Ġunacc ustomed
Ġcoinc idence
Ġanecd ote
ĠCase y
Ġconspir acy
fair y
Ġfestiv ities
ĠDoct rine
ĠWinds or
Ġslaught ered
Ġproced ure
Ġvanqu ished
Ġmultip ly
ĠGiu ki
ĠGrie g
Ġunspeak able
Ġci ud
ĠFug itive
ĠALI AS
ĠSphin x
ĠBunk er
ĠSebast ian
Ġraf ters
ĠLaudon niÄį
ĠLaudonniÄį re
5 2
6 2
L IN
M S
O b
P eter
S on
W ELL
b ore
d em
d addles
p us
p udding
r ised
s im
t ie
v ious
Ġ ĉ
Ġw ards
Ġs out
Ġs ales
Ġo m
is ks
Ġp ans
Ġp ained
Ġp ane
Ġin und
Ġin asmuch
Ġn imble
Ġg amb
ut tered
ĠT oy
ĠT ennyson
gh ast
Ġwh ined
Ġre el
al ias
ĠA yr
Ġsa p
ĠH ag
ĠH av
ĠH OOD
ĠM outh
ĠM aur
Ġsh a
ĠB AB
ĠB ingo
ĠC up
if s
Ġso cket
ĠG ul
ĠG riff
and el
Ġup hold
Ġup held
ĠL em
ĠD encroft
Ġch atting
ab and
ĠR AIL
ol o
Ġex alt
ber ty
ĠO le
Ġint rig
itt ings
os se
ak ir
Ġag grav
Ġtr oth
Ġpro ff
Ġj ub
Ġqu i
Ġcl attering
Ġtw itched
Ġun wise
Ġco ated
ild e
Ġfl anks
ĠK NOW
Ġknow eth
Ġper o
ĠSt ore
ĠSt ood
orn a
hen es
Ġpo ker
Ġcome ly
amp son
Ġsm eared
Ġpre val
Ġunder gone
ĠU nd
Ġdist ract
ĠV OY
Ġcar les
Ġwar ily
Ġfollow er
Ġcomm encing
man y
ĠAr rival
[...]
