{"<s>":0,"<pad>":1,"</s>":2,"<unk>":3,"<mask>":4,"!":5,"\"":6,"#":7,"$":8,"%":9,"&":10,"'":11,"(":12,")":13,"*":14,"+":15,",":16,"-":17,".":18,"/":19,"0":20,"1":21,"2":22,"3":23,"4":24,"5":25,"6":26,"7":27,"8":28,"9":29,":":30,";":31,"<":32,"=":33,">":34,"?":35,"@":36,"A":37,"B":38,"C":39,"D":40,"E":41,"F":42,"G":43,"H":44,"I":45,"J":46,"K":47,"L":48,"M":49,"N":50,"O":51,"P":52,"Q":53,"R":54,"S":55,"T":56,"U":57,"V":58,"W":59,"X":60,"Y":61,"Z":62,"[":63,"\\":64,"]":65,"^":66,"_":67,"`":68,"a":69,"b":70,"c":71,"d":72,"e":73,"f":74,"g":75,"h":76,"i":77,"j":78,"k":79,"l":80,"m":81,"n":82,"o":83,"p":84,"q":85,"r":86,"s":87,"t":88,"u":89,"v":90,"w":91,"x":92,"y":93,"z":94,"{":95,"|":96,"}":97,"~":98,"¡":99,"¢":100,"£":101,"¤":102,"¥":103,"¦":104,"§":105,"¨":106,"©":107,"ª":108,"«":109,"¬":110,"®":111,"¯":112,"°":113,"±":114,"²":115,"³":116,"´":117,"µ":118,"¶":119,"·":120,"¸":121,"¹":122,"º":123,"»":124,"¼":125,"½":126,"¾":127,"¿":128,"À":129,"Á":130,"Â":131,"Ã":132,"Ä":133,"Å":134,"Æ":135,"Ç":136,"È":137,"É":138,"Ê":139,"Ë":140,"Ì":141,"Í":142,"Î":143,"Ï":144,"Ð":145,"Ñ":146,"Ò":147,"Ó":148,"Ô":149,"Õ":150,"Ö":151,"×":152,"Ø":153,"Ù":154,"Ú":155,"Û":156,"Ü":157,"Ý":158,"Þ":159,"ß":160,"à":161,"á":162,"â":163,"ã":164,"ä":165,"å":166,"æ":167,"ç":168,"è":169,"é":170,"ê":171,"ë":172,"ì":173,"í":174,"î":175,"ï":176,"ð":177,"ñ":178,"ò":179,"ó":180,"ô":181,"õ":182,"ö":183,"÷":184,"ø":185,"ù":186,"ú":187,"û":188,"ü":189,"ý":190,"þ":191,"ÿ":192,"Ā":193,"ā":194,"Ă":195,"ă":196,"Ą":197,"ą":198,"Ć":199,"ć":200,"Ĉ":201,"ĉ":202,"Ċ":203,"ċ":204,"Č":205,"č":206,"Ď":207,"ď":208,"Đ":209,"đ":210,"Ē":211,"ē":212,"Ĕ":213,"ĕ":214,"Ė":215,"ė":216,"Ę":217,"ę":218,"Ě":219,"ě":220,"Ĝ":221,"ĝ":222,"Ğ":223,"ğ":224,"Ġ":225,"ġ":226,"Ģ":227,"ģ":228,"Ĥ":229,"ĥ":230,"Ħ":231,"ħ":232,"Ĩ":233,"ĩ":234,"Ī":235,"ī":236,"Ĭ":237,"ĭ":238,"Į":239,"į":240,"İ":241,"ı":242,"Ĳ":243,"ĳ":244,"Ĵ":245,"ĵ":246,"Ķ":247,"ķ":248,"ĸ":249,"Ĺ":250,"ĺ":251,"Ļ":252,"ļ":253,"Ľ":254,"ľ":255,"Ŀ":256,"ŀ":257,"Ł":258,"ł":259,"Ń":260,"Ġt":261,"he":262,"čĊ":263,"Ġa":264,"Ġthe":265,"in":266,"Ġw":267,"Ġs":268,"Ġo":269,"re":270,"nd":271,"er":272,"Ġb":273,"Ġh":274,"ou":275,"ed":276,"at":277,"Ġf":278,"ĠĠ":279,"it":280,"is":281,"Ġc":282,"Ġand":283,"Ġm":284,"Ġof":285,"en":286,"on":287,"Ġto":288,"or":289,"ing":290,"Ġd":291,"ar":292,"ll":293,"Ġth":294,"Ġp":295,"es":296,"ĠčĊ":297,"an":298,"as":299,"Ġin":300,"Ġl":301,"Ġhe":302,"Ġn":303,"om":304,"Ġg":305,"le":306,"ad":307,"ut":308,"Ġbe":309,"ĠI":310,"ot":311,"ow":312,"ic":313,"id":314,"ĠT":315,"Ġe":316,"Ġ\"":317,"ĠĠĠĠ":318,"ld":319,"ve":320,"Ġwas":321,"gh":322,"Ġy":323,"st":324,"im":325,"se":326,"ly":327,"Ġon":328,"Ġthat":329,"Ġwh":330,"ent":331,"ion":332,"ay":333,"Ġu":334,"Ġre":335,"et":336,"ac":337,"Ġit":338,"al":339,"ro":340,"ith":341,"ĠS":342,"ir":343,"ver":344,"Ġfor":345,"Ġyou":346,"Ġwe":347,"Ġwith":348,"ĠA":349,"Ġas":350,"ri":351,"Ġhis":352,"Ġst":353,"am":354,"ght":355,"ur":356,"ĠThe":357,"her":358,"ce":359,"oo":360,"Ġha":361,"Ġan":362,"Ġhad":363,"Ġis":364,"ct":365,"Ġnot":366,"ill":367,"Ġat":368,"ain":369,"ter":370,"ch":371,"Ġsa":372,"ke":373,"ĠH":374,"ould":375,"ĠM":376,"Ġsh":377,"ĠB":378,"Ġse":379,"all":380,"ĠC":381,"ĠP":382,"if":383,"il":384,"red":385,"Ġhim":386,"Ġr":387,"ĠW":388,"Ġthey":389,"'s":390,"Ġso":391,"Ġher":392,"rom":393,".\"":394,"Ġme":395,"Ġor":396,"ore":397,"th":398,"ome":399,"Ġk":400,"ĠG":401,"Ġall":402,"Ġde":403,"Ġsu":404,"Ġby":405,"ess":406,"ich":407,"and":408,"pp":409,"ight":410,"Ġthis":411,"ge":412,"--":413,"ation":414,"Ġbut":415,"Ġfrom":416,"Ġwere":417,"Ġsaid":418,"Ġup":419,"ard":420,"Ġhave":421,"Ġne":422,"Ġwhe":423,",\"":424,"Ġwhich":425,"ect":426,"Ġshe":427,"ĠĠĠĠĠĠĠĠ":428,"ĠF":429,"ul":430,"nt":431,"qu":432,"us":433,"ound":434,"Ġwor":435,"Ġthem":436,"Ġdo":437,"ust":438,"ĠL":439,"ĠD":440,"ap":441,"est":442,"ers":443,"em":444,"ant":445,"Ġv":446,"out":447,"Ġch":448,"ie":449,"ab":450,"ame":451,"Ġmy":452,"ong":453,"ĠR":454,"ast":455,"op":456,"Ġfe":457,"Ġcon":458,"Ġone":459,"ol":460,"ood":461,"Ġ1":462,"Ġtheir":463,"Ġwho":464,"Ġare":465,"ist":466,"res":467,"Ġsp":468,"Ġal":469,"Ġex":470,"art":471,"Ġout":472,"ĠE":473,"Ġman":474,"Ġab":475,"ber":476,"ĠN":477,"un":478,"ĠO":479,"very":480,"ind":481,"Ġno":482,"ive":483,"um":484,"our":485,"own":486,"Ġint":487,"Ġle":488,"ĠHe":489,"itt":490,"ous":491,"ate":492,"Ġkn":493,"ry":494,"ag":495,"Ġcom":496,"reat":497,"Ġgo":498,"ked":499,"ĠĠĠ":500,"Ġpl":501,"Ġthere":502,"one":503,"ther":504,"os":505,"ig":506,"ide":507,"ack":508,"ough":509,"Ġwill":510,"ak":511,"Ġag":512,"iv":513,"Ġwould":514,"ĠJ":515,"ace":516,"Ġwhen":517,"ake":518,"Ġtr":519,"Ġany":520,"Ġpro":521,"ck":522,"el":523,"Ġj":524,"ell":525,"sel":526,"ort":527,"hed":528,"ost":529,"au":530,"Ġbeen":531,"'t":532,"ĠAnd":533,"Ġro":534,"Ġar":535,"ep":536,"Ġbr":537,"Ġother":538,"ree":539,"Ġinto":540,"Ġcan":541,"Ġtim":542,"Ġus":543,"Ġgr":544,"Ġwork":545,"od":546,"?\"":547,"Ġcould":548,"Ġli":549,"Ġdid":550,"ose":551,"ittle":552,"Ġif":553,"ook":554,"Ġqu":555,"av":556,"ies":557,"ass":558,"ject":559,"pt":560,"ade":561,"Ġcl":562,"Ġabout":563,"Ġaf":564,"Ġtw":565,"ish":566,"ear":567,"ĠTh":568,"ure":569,"Ġyour":570,"nder":571,"urn":572,"Ġsome":573,"ine":574,"way":575,"ance":576,"Ġlittle":577,"Ġvery":578,"ity":579,"other":580,"pl":581,"ite":582,"ice":583,"ave":584,"Ġ_":585,"Ġmore":586,"Ġun":587,"ered":588,"Ġgreat":589,"Ġtime":590,"ĠIt":591,"Ġday":592,"are":593,"end":594,"ven":595,"ĠBut":596,"Ġen":597,"uten":598,"ought":599,"Ġbl":600,"Ġwhat":601,"!\"":602,"Ġdown":603,"fore":604,"ĠPro":605,"berg":606,"Ġbo":607,"ire":608,"Ġagain":609,"Ġco":610,"Ġover":611,"Ġ'":612,"Ġsee":613,"self":614,"utenberg":615,"Ġdis":616,"Ġpr":617,"Ġam":618,"ud":619,"Ġour":620,"ount":621,"cc":622,"ment":623,"Ġthan":624,"ull":625,"age":626,"aw":627,"Ġoff":628,"Ġcame":629,"Ġri":630,"able":631,"ile":632,"ild":633,"Ġthen":634,"Ġnow":635,"ip":636,"Ġtoo":637,"hing":638,"ng":639,"Ġfl":640,"ick":641,"Ġlike":642,"ĠGutenberg":643,"ff":644,"ather":645,"Ġhand":646,"ink":647,"ĠK":648,"Ġupon":649,"ang":650,"Ġmade":651,"Ġthr":652,"ĠY":653,"ove":654,"ings":655,"Ġpe":656,"Ġknow":657,"Ġstr":658,"ans":659,"ĠProject":660,"Ġafter":661,"Ġpart":662,"Ġad":663,"Ġ(":664,"ark":665,"Ġlong":666,"Ġshould":667,"Ġper":668,"ally":669,"Ġtwo":670,"ward":671,"ue":672,"tain":673,"ble":674,"ary":675,"ord":676,"ach":677,"ated":678,"Ġapp":679,"Ġwent":680,"Ġfo":681,"Ġwhere":682,"Ġbefore":683,"wn":684,"Ġim":685,"uch":686,"Ġ2":687,"Ġhas":688,"ĠĠĠĠĠĠĠĠĠĠĠĠĠĠĠĠ":689,"Ġmay":690,"ĠSt":691,"ved":692,"Ġgood":693,"ress":694,"ence":695,"ft":696,"ĠIn":697,"cl":698,"ied":699,"orn":700,"hat":701,"Ġmust":702,"ions":703,"Ġold":704,"Ġhow":705,"Ġmen":706,"Ġback":707,"hen":708,"Ġway":709,"Ġpo":710,"ci":711,"Ġonly":712,"ried":713,"Ġcome":714,"amp":715,"Ġsay":716,"Ġits":717,"Ġsm":718,"bl":719,"Ġsl":720,"ife":721,"Ġfir":722,"Ġwat":723,"Ġpre":724,"Ġunder":725,"ath":726,"Ġmuch":727,"iss":728,"Ġsc":729,"ew":730,"ful":731,"Ġcomp":732,"ĠU":733,"Ġthrough":734,"Ġbec":735,"Ġsw":736,"per":737,"ĠMr":738,"Ġrem":739,"act":740,"Ġ[":741,"so":742,"ise":743,"ren":744,"ĠThen":745,"llow":746,"ail":747,"air":748,"ty":749,"oth":750,"ĠCh":751,"Ġcr":752,"Ġdist":753,"tm":754,"Ġaway":755,"Ġfirst":756,"Ġsuch":757,"Ġwell":758,"ĠThey":759,"Ġthese":760,"ople":761,"ted":762,"rib":763,"ond":764,"Ġbeg":765,"Ġhead":766,"Ġget":767,"ouse":768,"Ġfound":769,"orm":770,"Ġbet":771,"iz":772,"Ġown":773,"Ġmake":774,"Ġeven":775,"Ġshall":776,"Ġpeople":777,"Ġpass":778,"ĠShe":779,"oss":780,"Ġevery":781,"Ġke":782,"Ġthink":783,"ors":784,"ness":785,"aid":786,"Ġacc":787,"Ġnever":788,"ons":789,"ily":790,"Ġmight":791,"hes":792,"mer":793,"Ġdes":794,"Ġset":795,"Ġcall":796,"Ġear":797,"ĠTH":798,"Ġgl":799,"ory":800,"Ġthought":801,"ious":802,"ĠSo":803,"Ġind":804,"lect":805,"Ġsaw":806,"ms":807,"igh":808,"Ġthose":809,"Ġlook":810,"led":811,"Ġdon":812,"Ġhere":813,"ase":814,"Ġbel":815,"Ġey":816,"ared":817,"ations":818,"Ġmany":819,"ened":820,"ron":821,"Ġyear":822,"Ġjust":823,"Ġchild":824,"Ġlast":825,"Ġfri":826,"Ġ*":827,"ere":828,"Ġwr":829,"Ġcont":830,"old":831,"und":832,"Ġplace":833,"Ġdr":834,"ne":835,"oy":836,"ĠĠĠĠĠĠ":837,"Ġter":838,"ady":839,"ause":840,"Ġob":841,"ĠV":842,"The":843,"Ġret":844,"Ġcar":845,"Ġres":846,"Ġturn":847,"..":848,"Ġhimself":849,"Ġspe":850,"ER":851,"ates":852,"Ġseem":853,"land":854,"Ġatt":855,"ited":856,"Ġwithout":857,"anc":858,"ĠThere":859,"Ġloo":860,"ool":861,"Ġtake":862,"Ġwhile":863,"een":864,"Ġlo":865,"Ġlet":866,"Ġend":867,"Ġnight":868,"Ġright":869,"ĠWhen":870,"Ġent":871,"Ġput":872,"ever":873,"Ġmost":874,"Ġyoung":875,"Ġ3":876,"Ġ18":877,"Ġtook":878,"rew":879,"ĠYou":880,"Ġunt":881,"ds":882,"ĠAs":883,"Ġbeing":884,"Ġop":885,"ves":886,"ĠThis":887,"Ġcop":888,"Ġtell":889,"Ġwar":890,"Ġrep":891,"ian":892,"Ġcount":893,"ving":894,"ign":895,"ition":896,"Ġhouse":897,"Ġwater":898,"arge":899,"omet":900,"ru":901,"ia":902,"int":903,"Ġexp":904,"ens":905,"aught":906,"Ġnew":907,"Ġboy":908,"less":909,"'ll":910,"iff":911,"ĠTHE":912,"og":913,"Ġthree":914,"Ġimp":915,"Ġleft":916,"aking":917,"Ġfollow":918,"Ġfriend":919,"ĠIf":920,"Ġstill":921,"Ġbu":922,"ks":923,"Ġelect":924,"Ġcour":925,"Ġalso":926,"ss":927,"Ġnear":928,"Ġfar":929,"Ġlife":930,"ning":931,"Ġeyes":932,"ock":933,"ribut":934,"xt":935,"atter":936,"Ġgive":937,"ob":938,"Ġcomm":939,"Ġpres":940,"Ġlooked":941,"Ġreturn":942,"Ġac":943,"Ġwant":944,"Ġcons":945,"form":946,"ived":947,"pped":948,"Ġser":949,"les":950,"Ġonce":951,"Ġeach":952,"ph":953,"ls":954,"man":955,"row":956,"Ġworks":957,"Ġasked":958,"ĠWe":959,"Ġform":960,"not":961,"Ġhome":962,"Ġsec":963,"sw":964,"Ġanother":965,"ott":966,"Ġsame":967,"Ġfind":968,"ĠWh":969,"ished":970,"Ġsoon":971,"Ġfull":972,"Ġever":973,"ower":974,"Ġside":975,"ently":976,"Ġwom":977,"ult":978,"ement":979,"Ġheard":980,"ĠAt":981,"Ġlight":982,"ĠAr":983,"Ġfather":984,"Ġte":985,"Ġmar":986,"aster":987,"get":988,"Ġtold":989,"uck":990,"Ġsupp":991,"ched":992,"Ġem":993,"pe":994,"ody":995,"Ġgot":996,"ince":997,"Ġsomet":998,"Ġheart":999,"Ġyears":1000,"ict":1001,"Ġthings":1002,"Ġyet":1003,"Ġagainst":1004,"Ġland":1005,"ense":1006,"right":1007,"Ġstre":1008,"Ġsmall":1009,"Ġcalled":1010,"Ġansw":1011,"Ġface":1012,"Ġinst":1013,"Ġsur":1014,"Ġgir":1015,"Ġgoing":1016,"ung":1017,"cess":1018,"the":1019,"alk":1020,"Ġhapp":1021,"ible":1022,"ross":1023,"den":1024,"cept":1025,"ener":1026,"ix":1027,"vent":1028,"Ġord":1029,"ange":1030,"ĠInd":1031,"Ġthough":1032,"Ġhands":1033,"unt":1034,"Ġref":1035,"Ġwind":1036,"Ġgave":1037,"ars":1038,"ug":1039,"Ġking":1040,"Ġrest":1041,"alf":1042,"Ġhel":1043,"ĠUn":1044,"Ġsent":1045,"Ġcopy":1046,"Ġact":1047,"ither":1048,"ertain":1049,"ustr":1050,"ced":1051,"ĠJo":1052,"ief":1053,"outh":1054,"att":1055,"EN":1056,"ĠFor":1057,"Ġgiv":1058,"thing":1059,"Ġple":1060,"ronic":1061,"Ġmorn":1062,"read":1063,"als":1064,"Ġthou":1065,"aut":1066,"Ġelectronic":1067,"Ġbegan":1068,"Ġriver":1069,"Ġuntil":1070,"ĠBr":1071,"Ġknew":1072,"Ġgu":1073,"Ġhor":1074,"Ġkeep":1075,"Ġrec":1076,"ways":1077,"Ġuse":1078,"Ġbecause":1079,"Ġfew":1080,"Ġ4":1081,"ee":1082,"Ġhard":1083,"Ġkind":1084,"Ġsat":1085,"Ġmorning":1086,"ank":1087,"Ġseen":1088,"Ġthing":1089,"Ġrece":1090,"ired":1091,"Ġdays":1092,"Ġnothing":1093,"Ġsk":1094,"ting":1095,"Ġdoor":1096,"You":1097,"Ġdone":1098,"_,":1099,"Ġdiff":1100,"Ġworld":1101,"li":1102,"lt":1103,"Ġprov":1104,"ĠOn":1105,"most":1106,"Ġmind":1107,"ical":1108,"let":1109,"Ġcountry":1110,"aken":1111,"Ġmother":1112,"eter":1113,"Ġvo":1114,"Ġposs":1115,"Ġchildren":1116,"ey":1117,"ah":1118,"here":1119,"Ġbro":1120,"Ġread":1121,"Ġcle":1122,"Ġpers":1123,"ĠSh":1124,"Ġdisc":1125,"Ġadd":1126,"ĠTo":1127,"ES":1128,"ised":1129,"Ġrun":1130,"ined":1131,"Ġpu":1132,"az":1133,"ows":1134,"Ġhigh":1135,"Ġtre":1136,"Ġlarge":1137,"Ġmet":1138,"Ġwood":1139,"Ġcried":1140,"oment":1141,"ON":1142,"fect":1143,"Ġfeet":1144,"Ġmoment":1145,"ale":1146,"Ġname":1147,"ling":1148,"med":1149,"Ġpur":1150,"Ġseemed":1151,"Ġmo":1152,"ps":1153,"ner":1154,"Ġboth":1155,"Ġamong":1156,"ĠKing":1157,"sh":1158,".'":1159,"Ġ&":1160,"ĠĠĠĠĠ":1161,"ustration":1162,"chool":1163,"Ġste":1164,"illed":1165,"Ġnat":1166,"ĠEng":1167,"Ġalways":1168,"Ġhalf":1169,"ins":1170,"ield":1171,"Ġche":1172,"ged":1173,"Ġbrought":1174,"ains":1175,"Ġwhite":1176,"Ġhelp":1177,"Ġnum":1178,"Ġpar":1179,"ĠTom":1180,"Ġroom":1181,"Ġquite":1182,"ween":1183,"ND":1184,"Ġstood":1185,"Ġround":1186,"Ġwa":1187,"Ill":1188,"Ġrepl":1189,"ual":1190,"rap":1191,"Illustration":1192,"its":1193,"Ġcap":1194,"Ġcare":1195,"Ġagre":1196,",'":1197,"ĠFound":1198,"Ġsil":1199,"It":1200,"Ġturned":1201,"AR":1202,"Ġhold":1203,"ular":1204,"Ġbetter":1205,"Ġenough":1206,"ĠOF":1207,"ĠFoundation":1208,"Ġfeel":1209,"Ġhop":1210,"Ġlove":1211,"selves":1212,"Ġrel":1213,"hy":1214,"ully":1215,"Ġbetween":1216,"Ġred":1217,"Ġnor":1218,"Ġsle":1219,"ib":1220,"ĠAl":1221,"Ġdark":1222,"Ġothers":1223,"Ġsub":1224,"Ġmon":1225,"ces":1226,"Ġes":1227,"Ġel":1228,"Ġopen":1229,"Ġ5":1230,"Ġeff":1231,"Ġdistribut":1232,"irect":1233,"Ġplay":1234,"hn":1235,"Ġcol":1236,"Ġsure":1237,"oke":1238,"Ġneed":1239,"Ġfore":1240,"Ġfree":1241,"ĠHis":1242,"Ġinc":1243,"ĠĠĠĠĠĠĠ":1244,"aps":1245,"ained":1246,"ĠNo":1247,"Ġfour":1248,"Ġreg":1249,"Ġass":1250,"'m":1251,"Ġsomething":1252,"Ġfire":1253,"Ġtoget":1254,"ned":1255,"Ġtogether":1256,"Ġlay":1257,"ĠGod":1258,"ives":1259,"uth":1260,"ating":1261,"Ġbeh":1262,"Ġhour":1263,"Ġcertain":1264,"Ġbest":1265,"ached":1266,"Ġnext":1267,"Ġlaw":1268,"ial":1269,"OR":1270,"Ġtoward":1271,"What":1272,"ters":1273,"Ġcourse":1274,"Ġbus":1275,"Ġed":1276,"ments":1277,"day":1278,"Ġfall":1279,"ĠMiss":1280,"Ġshow":1281,"IN":1282,"Ġwhole":1283,"over":1284,"ident":1285,"ier":1286,"Ġpassed":1287,"ater":1288,"ret":1289,"side":1290,"Ġalmost":1291,"eed":1292,"Ġext":1293,"Ġsun":1294,"ĠJohn":1295,"Ġstand":1296,"oud":1297,"ats":1298,"Ġalong":1299,"Ġterms":1300,"ures":1301,"ub":1302,"Ġ=":1303,"Ġprom":1304,"ants":1305,"Ġused":1306,"Ġbeaut":1307,"ple":1308,"Ġmount":1309,"aim":1310,"Ġblack":1311,"ians":1312,"Ġsn":1313,"Ġwoman":1314,"Ġarm":1315,"Ġfam":1316,"oney":1317,"ird":1318,"iles":1319,"ĠAn":1320,"ased":1321,"ĠNow":1322,"Ġhaving":1323,"up":1324,"osed":1325,"Ġbre":1326,"Ġhear":1327,"fully":1328,"Ġmin":1329,"Ġchar":1330,"Ġtaken":1331,"iter":1332,"ĠWhat":1333,"Ġvoice":1334,"Ġwhom":1335,"ra":1336,"Ġconf":1337,"Ġson":1338,"eng":1339,"pect":1340,"Ġground":1341,"Ġgold":1342,"iness":1343,"ided":1344,"Ġmatter":1345,"Ġschool":1346,"Ġgre":1347,"Ġgener":1348,"Ġocc":1349,"Ġabove":1350,"Ġthee":1351,"00":1352,"Ġdirect":1353,"Ġbrother":1354,"Ġdel":1355,"Ġaw":1356,"ured":1357,"IT":1358,"Ġship":1359,"blic":1360,"app":1361,"Ġgiven":1362,"Ġfell":1363,"Ġpoor":1364,"ift":1365,"ason":1366,"any":1367,"oll":1368,"Ġfelt":1369,"meric":1370,"oot":1371,"ĠBe":1372,"Ġbelie":1373,"Ġdep":1374,"undred":1375,"Ġinter":1376,"Ġstart":1377,"Ġappear":1378,"iet":1379,"Ġlau":1380,"'d":1381,"Ġfin":1382,"iting":1383,"clud":1384,"Ġgone":1385,"du":1386,"ĠNor":1387,"Ġpoint":1388,"Ġvis":1389,"Ġdead":1390,"ax":1391,"ĠIs":1392,"ĠThat":1393,"'ve":1394,"Ġair":1395,"Ġsound":1396,"Ġhundred":1397,"Ġtill":1398,"fe":1399,"ute":1400,"onder":1401,"Ġforth":1402,"ceed":1403,"Ġbig":1404,"Ġcut":1405,"IS":1406,"Ġpresent":1407,"gs":1408,"ĠAmeric":1409,"vers":1410,"Ġdoes":1411,"Ġheav":1412,"Ġplac":1413,"ets":1414,"uring":1415,"Ġanswered":1416,"men":1417,"ides":1418,"Ġwithin":1419,"aves":1420,"Ġhorse":1421,"Ġwife":1422,"ĠPr":1423,"Ġpie":1424,"ately":1425,"akes":1426,"ĠStates":1427,"ĠSp":1428,"Ġless":1429,"Ġgirl":1430,"Ġfair":1431,"Ġaround":1432,"cle":1433,"Oh":1434,"Ġadv":1435,"Ġthemselves":1436,"Ġearth":1437,"Ġsecond":1438,"ages":1439,"ĠAf":1440,"Ġho":1441,"Ġmer":1442,"raph":1443,"Ġpap":1444,"atch":1445,"Ġmoney":1446,"Ġopp":1447,"Ġhowever":1448,"dden":1449,"ison":1450,"Ġpower":1451,"Ġanything":1452,"Ġwords":1453,"af":1454,"ued":1455,"Ġreplied":1456,"Ġword":1457,"Ġrequ":1458,"Ġran":1459,"ĠPh":1460,"Ġsea":1461,"ressed":1462,"ĠAll":1463,"Ġagreement":1464,"Ġev":1465,"ection":1466,"Ġwall":1467,"Ġthy":1468,"Ġdeep":1469,"Ġprin":1470,"Ġtry":1471,"Ġ6":1472,"AN":1473,"ĠQ":1474,"Ġstrong":1475,"Ġcontin":1476,"ission":1477,"Ġclose":1478,"ene":1479,"Ġsudden":1480,"Ġlear":1481,"ĠGr":1482,"anger":1483,"Ġpri":1484,"amed":1485,"Ġhum":1486,"ĠOne":1487,"Ġperson":1488,"Ġbed":1489,"oc":1490,"ts":1491,"iful":1492,"ec":1493,"Ġfear":1494,"ĠArch":1495,"ering":1496,"ĠHow":1497,"Ġcannot":1498,"ken":1499,"Ġrather":1500,"ash":1501,"Ġwish":1502,"Ġserv":1503,"Ġbody":1504,"Book":1505,"Ġmaster":1506,"oun":1507,"ann":1508,"ring":1509,"haps":1510,"ities":1511,"Ġlead":1512,"Ġbehind":1513,"Ġdeath":1514,"Ġbecame":1515,"ane":1516,"org":1517,"ents":1518,"ized":1519,"Ġstory":1520,"Ġdou":1521,"iew":1522,"Ġexpl":1523,"ump":1524,"Ġmean":1525,"ead":1526,"ĠUnited":1527,"Ġheld":1528,"erest":1529,"ĠCl":1530,"II":1531,"ines":1532,"Ġrock":1533,"Ġdec":1534,"Ġsever":1535,"Ġwonder":1536,"Ġeas":1537,"Ġart":1538,"Ġshort":1539,"Ġmid":1540,"Ġdear":1541,"used":1542,"ery":1543,"No":1544,"aughter":1545,"Ġnumber":1546,"ĠCon":1547,"Ġsince":1548,"by":1549,"Ġmeet":1550,"ape":1551,"Ġbring":1552,"ably":1553,"Ġeat":1554,"lish":1555,"Ġtown":1556,"Ġdri":1557,"----":1558,"Ġlooking":1559,"Ġoft":1560,"arch":1561,"Ġreturned":1562,"oe":1563,"Ġindeed":1564,"pr":1565,"Ġtree":1566,"AT":1567,"br":1568,"dle":1569,"Ġquest":1570,"Ġacross":1571,"Well":1572,"Ġcoming":1573,"Ġfur":1574,"Ġpublic":1575,"Ġseveral":1576,"Ġmeans":1577,"Ġfact":1578,"Ġstate":1579,"Ġfoot":1580,"ĠSome":1581,"Ġcur":1582,"Ġcreat":1583,"ĠMrs":1584,"Ġdraw":1585,"of":1586,"eared":1587,"Ġsing":1588,"),":1589,"enty":1590,"Ġhur":1591,"Yes":1592,"Ġinclud":1593,"Ġquick":1594,"Ġleave":1595,"Ġorder":1596,"Ġdro":1597,"Ġins":1598,"'re":1599,"Ġinv":1600,"Ġpay":1601,"Ġsim":1602,"ention":1603,"ĠDe":1604,"uc":1605,"Ġfriends":1606,"Ġunderst":1607,"Ġtimes":1608,"Ġfast":1609,"Ġfight":1610,".,":1611,"aring":1612,"eth":1613,"ider":1614,"Ġinterest":1615,"Ġcent":1616,"We":1617,"RE":1618,"Ġbook":1619,"ĠWith":1620,"Ġtalk":1621,"But":1622,"ying":1623,"vel":1624,"arm":1625,"OU":1626,"ĠSc":1627,"Ġsight":1628,"ger":1629,"Ġcity":1630,"imes":1631,"Ġsleep":1632,"Ġinf":1633,"Ġcoll":1634,"Ġpol":1635,"ton":1636,"Ġ8":1637,"ries":1638,"orrow":1639,"Ġalone":1640,"Ġreceived":1641,"Ġ9":1642,"ones":1643,"Ġsuff":1644,"Ġswe":1645,"Ġbes":1646,"Ġbeautiful":1647,"ĠAfter":1648,"ards":1649,"Ġhope":1650,"Ġreached":1651,"Ġprep":1652,"Ġready":1653,"oes":1654,"ific":1655,"Ġlive":1656,"ction":1657,"Ġarri":1658,"Ġgent":1659,"iled":1660,"Ġoffic":1661,"owed":1662,"Ġremem":1663,"Ġevening":1664,"Ġesc":1665,"be":1666,"Ġfellow":1667,"Ġparty":1668,"Ġkept":1669,"ames":1670,"Ġhill":1671,"Ġmag":1672,"Ġcor":1673,"Th":1674,"ĠeBook":1675,"alked":1676,"Ġthus":1677,".]":1678,"Ġlost":1679,"Ġbad":1680,"iterary":1681,"orts":1682,"Ġask":1683,"ots":1684,"Ġreal":1685,"Ġpleas":1686,"empt":1687,"Ġwon":1688,"ony":1689,"Ġoften":1690,"....":1691,"Ġbelow":1692,"bed":1693,"oon":1694,"Ġpret":1695,"icense":1696,"Ġcond":1697,"Ġwild":1698,"Ġmyself":1699,"ser":1700,"ĠFr":1701,"alt":1702,"ended":1703,"gr":1704,"ĠSir":1705,"Ġbar":1706,"Ġcarry":1707,"Ġtrou":1708,"Ġclear":1709,"ĠNew":1710,"Ġperm":1711,"Ġmiles":1712,"Ġgrow":1713,"son":1714,"claim":1715,"Ġsto":1716,"iding":1717,"Ġparag":1718,"aint":1719,"ize":1720,"aged":1721,"bit":1722,"ĠCap":1723,"Ġparagraph":1724,"Ġtrad":1725,"uff":1726,"Ġspir":1727,"Ġsix":1728,"Ġill":1729,"Ġbelieve":1730,"bt":1731,"Ġsays":1732,"Ġkilled":1733,"Ġknown":1734,"Ġarms":1735,"Ġwhose":1736,"**":1737,"gy":1738,"ĠJack":1739,"Ġgentle":1740,"ED":1741,"ww":1742,"erent":1743,"use":1744,"ream":1745,"ĠĠĠĠĠĠĠĠĠĠĠĠĠĠĠĠĠĠĠĠĠĠĠĠ":1746,"ex":1747,"Ġhon":1748,"And":1749,"Ġlist":1750,"ĠCom":1751,"itted":1752,"ote":1753,"Ġinform":1754,"ready":1755,"oor":1756,"rie":1757,"ĠPeter":1758,"Ġ7":1759,"iving":1760,"Ġvar":1761,"ert":1762,"CT":1763,"Ġhair":1764,"Ġbegin":1765,"body":1766,"ush":1767,"ime":1768,"Ġbur":1769,"ected":1770,"ĠTr":1771,"ĠLiterary":1772,"Ġmem":1773,"Ġglad":1774,"ĠBrit":1775,"ĠArchive":1776,"bert":1777,".--":1778,"Ġtrue":1779,"Ġprop":1780,"Ġ180":1781,"ald":1782,"Ġlad":1783,"ually":1784,"ĠRob":1785,"Ġwatch":1786,"Ġaccess":1787,"ric":1788,"Ġspeak":1789,"ĠRe":1790,"Ġherself":1791,"pper":1792,"Ġcast":1793,"ĠEnglish":1794,"Ġsy":1795,"Ġcir":1796,"Ġfive":1797,"aving":1798,"gin":1799,"Ġide":1800,"Ġsign":1801,"Ġeither":1802,"Ġroad":1803,"ĠHer":1804,"Ġmaking":1805,"fort":1806,"Ġstri":1807,"ĠLord":1808,"Ġconst":1809,"Ġbit":1810,"Ġsum":1811,"Ġtop":1812,"Ġanim":1813,"Ġra":1814,"ho":1815,"tern":1816,"AL":1817,"Ġvol":1818,"Ġwide":1819,"Ġye":1820,"--\"":1821,"Ġlived":1822,"ilt":1823,"Ġproper":1824,"Ġappro":1825,"IL":1826,"Ġhast":1827,"Ġalready":1828,"TER":1829,"Ġequ":1830,"Ġstud":1831,"Ġdem":1832,"Ġfollowed":1833,"note":1834,"Ġtrees":1835,"Ġable":1836,"ĠX":1837,"Ġfine":1838,"Ġcarried":1839,"Ġwhy":1840,"Ġstrange":1841,"Ġdidn":1842,"Ġten":1843,"Ġjo":1844,"Ġcry":1845,"Ġadm":1846,"ances":1847,"RO":1848,"Ġfield":1849,"Ġreally":1850,"orses":1851,"Ġmed":1852,"Ġmouth":1853,"Ġdest":1854,"Ġtri":1855,"Ġfollowing":1856,"Ġfr":1857,"Ġlow":1858,"ility":1859,"arp":1860,"Ġboys":1861,"ĠAd":1862,"Ġcopyright":1863,"ĠCH":1864,"Ġforward":1865,"vern":1866,"Ġlim":1867,"ative":1868,"Ġsqu":1869,"ork":1870,"Ġvill":1871,"bled":1872,"Ġdifferent":1873,"Ġwalk":1874,"Ġelse":1875,"ousand":1876,"AP":1877,"Ġfa":1878,"That":1879,"Ġdonations":1880,"osition":1881,"Ġcold":1882,"Ġdaughter":1883,"gl":1884,"Ġsend":1885,"ĠSm":1886,"bers":1887,"attle":1888,"uri":1889,"Ġcommand":1890,"Ġpost":1891,"Ġpartic":1892,"Ġhorses":1893,"Ġtrans":1894,"iant":1895,"Ġnearly":1896,"Ġstay":1897,"but":1898,"Ġpast":1899,"Ġchief":1900,"Ġbott":1901,"Ġwomen":1902,"ern":1903,"ike":1904,"Ġfle":1905,"ution":1906,"cial":1907,"Ġreason":1908,"ney":1909,"ister":1910,"Ġgreen":1911,"Ġdef":1912,"Ġleast":1913,"ĠWill":1914,"Ġsold":1915,"Ġhung":1916,"ship":1917,"gg":1918,"cy":1919,"Ġblood":1920,"Ġslow":1921,"ude":1922,"te":1923,"Ġtried":1924,"ĠMar":1925,"Ġpal":1926,"itting":1927,"Ġpossess":1928,"Ġled":1929,"He":1930,"Ġview":1931,"ĠSe":1932,"to":1933,"Ġprot":1934,"Ġsir":1935,"Ġobser":1936,"Ġfamily":1937,"Ġgirls":1938,"for":1939,"Ġdistance":1940,"overed":1941,"Ġspoke":1942,"ĠEngland":1943,"Ġearly":1944,"Ġnecess":1945,"rist":1946,"Ġtou":1947,"Ġsword":1948,"Ġthousand":1949,"Ġleng":1950,"Ġfort":1951,"Ġloc":1952,"Ġgrew":1953,"ches":1954,"iam":1955,"my":1956,"Ġph":1957,"urd":1958,"Ġdev":1959,"medi":1960,"Ġappeared":1961,"enn":1962,"Ġunderstand":1963,"Ġbecome":1964,"ING":1965,"Ġmove":1966,"anged":1967,"Ġsuddenly":1968,"Ġstep":1969,"ront":1970,"Ġcamp":1971,"Ġfre":1972,"ek":1973,"Ġprodu":1974,"ising":1975,"Ġlonger":1976,"Ġobtain":1977,"head":1978,"Ġbright":1979,"ĠIndians":1980,"Ġir":1981,"Ġbreak":1982,"SE":1983,"ĠAp":1984,"Ġcase":1985,"Ġsweet":1986,"Ġlength":1987,"Ġwin":1988,"Ġperform":1989,"Ġdoubt":1990,"ĠMy":1991,"Ġexcept":1992,"Ġcross":1993,"ĠRed":1994,"Ġquiet":1995,"inted":1996,"Ġtable":1997,"Ġboat":1998,"ingly":1999,"Ġbusiness":2000,"Ġsurpr":2001,"Ġtem":2002,"Ġpossible":2003,"Ġdanger":2004,"where":2005,"Ġconsider":2006,"Ġmis":2007,"ley":2008,"Ġca":2009,"Ġexc":2010,"une":2011,"Ġlaws":2012,"=,":2013,"de":2014,"Ġpain":2015,"Ġcaught":2016,"Ġsaying":2017,"ĠBl":2018,"LE":2019,"soci":2020,"Ġbir":2021,"ĠBy":2022,"Ġdom":2023,"Ġsit":2024,"uss":2025,").":2026,"Ġperhaps":2027,"ster":2028,"Ġrose":2029,"Ġut":2030,"ĠAND":2031,"itten":2032,"Ġpiece":2033,"Ġeye":2034,"ushed":2035,"Ġconc":2036,"ĠDo":2037,"Ġ10":2038,"ĠRobin":2039,"that":2040,"Ġmist":2041,"Ġtrave":2042,"ored":2043,"Ġmus":2044,"ges":2045,"ĠCol":2046,"Ġhappened":2047,"Ġpurp":2048,"Ġthick":2049,"ĠDr":2050,"Ġstat":2051,"Ġanswer":2052,"aces":2053,"Ġagree":2054,"ĠNorth":2055,"Ġcharge":2056,"Ġknight":2057,"Ġtwenty":2058,"tt":2059,"Ġjoy":2060,"ara":2061,"Ġsol":2062,"Ġaff":2063,"me":2064,"ze":2065,"Ġenem":2066,"itions":2067,"Ġduring":2068,"emark":2069,"Ġ17":2070,"ĠRo":2071,"Ġ12":2072,"Ġfish":2073,"ĠNot":2074,"Ġstone":2075,"Ġwanted":2076,"Ġbound":2077,"ĠChrist":2078,"ories":2079,"Ġparticular":2080,"Ġsoft":2081,"Ġpaid":2082,"Ġcause":2083,"Ġcommon":2084,"arr":2085,"Ġmot":2086,"icked":2087,"IC":2088,"Ġstra":2089,"Ġquestion":2090,"uly":2091,"Ġwalked":2092,"ok":2093,"Ġtherefore":2094,"Ġplan":2095,"If":2096,"what":2097,"owers":2098,"Ġimmedi":2099,"Ġbuild":2100,"Ġtaking":2101,"Ġcorn":2102,"umb":2103,"Ġoutside":2104,"ĠLittle":2105,"Ġtreat":2106,"Ġmod":2107,"Ġang":2108,"Ġsucc":2109,"ient":2110,"Ġassoci":2111,"Ġsubject":2112,"Ġhunt":2113,"Ġproceed":2114,"Ġbear":2115,"Ġtowards":2116,"Ġpaper":2117,"Ġfront":2118,"ĠOld":2119,"UT":2120,"Ġcre":2121,"Ġremain":2122,",--":2123,"Ġlady":2124,"ĠPer":2125,"Ġfood":2126,"though":2127,"Ġobject":2128,"owd":2129,"Ġshout":2130,"airs":2131,"ues":2132,"rent":2133,"Ġlater":2134,"Ġfurther":2135,"aped":2136,"urch":2137,"Ġ19":2138,"Ġopened":2139,"Ġwhether":2140,"Ġ15":2141,"Ġbreat":2142,"ĠLicense":2143,"Ġgovern":2144,"crib":2145,"arent":2146,"Ġcal":2147,"ĠCan":2148,"?'":2149,"ales":2150,"Ġage":2151,"Ġfee":2152,"ears":2153,"Ġlaid":2154,"Ġmanner":2155,"Ġvisit":2156,"co":2157,"Ġcontinued":2158,"ience":2159,"ices":2160,"Ġdiffic":2161,"ĠHere":2162,"Ġsort":2163,"ury":2164,"Ġest":2165,"Ġce":2166,"Ġpull":2167,"Ġitself":2168,"els":2169,"Why":2170,"Ġnone":2171,"ĠOf":2172,"sp":2173,"oose":2174,"omp":2175,"ĠEl":2176,"Ġlaugh":2177,"Ġcove":2178,"ĠAmerican":2179,"uct":2180,"Ġscar":2181,"antly":2182,"Ġimport":2183,"Ġwindow":2184,"ously":2185,"Ġquar":2186,"alth":2187,"Ġclot":2188,"Ġpeace":2189,"ety":2190,"Ġplain":2191,"ĠLe":2192,"ught":2193,"Ġsafe":2194,"Ġperfect":2195,"wards":2196,"Ġforg":2197,"Ġaccept":2198,"ĠBritish":2199,"ĠIndian":2200,"Now":2201,"Ġdet":2202,"AM":2203,"Ġenc":2204,"Ġdoing":2205,"val":2206,"Ġfav":2207,"Ġplaced":2208,"Ġsett":2209,"cul":2210,"Ġver":2211,"Ġsad":2212,"Ġele":2213,"mon":2214,"ipp":2215,"Ġdied":2216,"Ġprof":2217,"lete":2218,"ĠThese":2219,"Ġdecl":2220,"Ġsuccess":2221,"Ġneigh":2222,"raid":2223,"ask":2224,"Ġgard":2225,"Ġleg":2226,"Ġstraight":2227,"Ġjour":2228,"Ġpretty":2229,"Ġdrew":2230,"ths":2231,"Ġhours":2232,"Ġhuman":2233,"Ġthir":2234,"Ġabs":2235,"Ġpray":2236,"rence":2237,"inc":2238,"ĠGreat":2239,"Ġforest":2240,"Ġspirit":2241,"Ġcost":2242,"Ġlord":2243,"ĠPhil":2244,"Ġblue":2245,"ists":2246,"ĠSouth":2247,"Ġdam":2248,"Ġhappy":2249,"Ġvi":2250,"Ġneighb":2251,"owing":2252,"Ġcompl":2253,"anced":2254,"Ġremember":2255,"ghed":2256,"Ġentered":2257,"Ġeffect":2258,"Ġstarted":2259,"ox":2260,"Ġrich":2261,"Ġarrived":2262,"ified":2263,"Ġgrass":2264,"Ġtail":2265,"Ġcomply":2266,"dy":2267,"iver":2268,"Ġletter":2269,"Ġkill":2270,"Ġvillage":2271,"Ġdeter":2272,"ĠPres":2273,"ining":2274,"Ġshore":2275,"ĠST":2276,"ature":2277,"Ġ11":2278,"Ġmine":2279,"olly":2280,"Ġcontain":2281,"Ġsometimes":2282,"utes":2283,"Ġsave":2284,"Foot":2285,"Ġpat":2286,"Ġline":2287,"ĠIN":2288,"Ġheavy":2289,"Ġidea":2290,"ening":2291,"Ġsupport":2292,"Ġafraid":2293,"Ġtrademark":2294,"Ġcovered":2295,"Ġexper":2296,"Ġtrouble":2297,"There":2298,"Footnote":2299,"ont":2300,"Ġstreng":2301,"Ġbene":2302,"Ġbottom":2303,"ĠSw":2304,"Ġpurpose":2305,"Ġpract":2306,"rible":2307,"Ġcompan":2308,"Ġincluding":2309,"lled":2310,"room":2311,"//":2312,"://":2313,"Ġval":2314,"Ġtruth":2315,"Ġeng":2316,"Ġfing":2317,"Ġmain":2318,"uel":2319,"Ġsail":2320,"Ġaccount":2321,"Ġeverything":2322,"inary":2323,"aj":2324,"Ġdeterm":2325,"Ġdie":2326,"Ġcomes":2327,"wh":2328,"isf":2329,"ounded":2330,"TH":2331,"Ġ16":2332,"ĠCHAP":2333,"Ġhot":2334,"Ġdrink":2335,"Ġtax":2336,"Ġlab":2337,"Ġsou":2338,"ĠCHAPTER":2339,"ination":2340,"Ġburn":2341,"Ġlaughed":2342,"Ġquickly":2343,"ium":2344,"bs":2345,"Ġfail":2346,"Ġbey":2347,"Ġpermission":2348,"Ġdream":2349,"roy":2350,"Ġmountains":2351,"Ġpict":2352,"err":2353,"Ġbow":2354,"reek":2355,"ĠĠĠĠĠĠĠĠĠĠĠĠĠĠĠĠĠĠĠĠĠĠĠĠĠĠĠĠĠĠĠĠ":2356,"Ġhus":2357,"Ġhtt":2358,"ION":2359,"kin":2360,"Ġyell":2361,"band":2362,"Ġadded":2363,"Ġbroken":2364,"Ġstopped":2365,"claimed":2366,"iously":2367,"Ġbeyond":2368,"itation":2369,"Ġ-":2370,"Ġassociated":2371,"ging":2372,"Ġlie":2373,"Ġmark":2374,"Ġball":2375,"isted":2376,"How":2377,"athe":2378,"Ġseven":2379,"Ġneck":2380,"play":2381,"aching":2382,"Ġeight":2383,"Ġaccord":2384,"Ġfly":2385,"Ġru":2386,"ĠGer":2387,"Ġbattle":2388,"Ġrap":2389,"Ġarr":2390,"Ġdisp":2391,"Ġdisapp":2392,"Ġisland":2393,"Ġrespect":2394,"ĠEls":2395,"Ġi":2396,"rench":2397,"you":2398,"Ġchance":2399,"resh":2400,"ĠSee":2401,"Ġfig":2402,"ENT":2403,"Ġwit":2404,"Ġwhis":2405,"Ġprovide":2406,"Ġstruck":2407,"Ġprison":2408,"Ġap":2409,"ĠFrom":2410,"ploy":2411,"Ġsky":2412,"Ġdelight":2413,"Ġbeside":2414,"Ġport":2415,"key":2416,"Ġslowly":2417,"well":2418,"dd":2419,"Ġforce":2420,"Ġshown":2421,"Ġclass":2422,"acter":2423,"Ġfright":2424,"Ġmiddle":2425,"Ġband":2426,"Ġbird":2427,"Ġdog":2428,"Ġgrand":2429,"ĠĠĠĠĠĠĠĠĠ":2430,"Ġfeeling":2431,"Ġ186":2432,"Ġspr":2433,"ams":2434,"Ġrul":2435,"Ġ13":2436,"Ġstanding":2437,"yr":2438,"Ġprob":2439,"ĠChar":2440,"lf":2441,"Ġchange":2442,"Ġwritten":2443,"itude":2444,"Ġexpress":2445,"Ġboard":2446,"aff":2447,"Ġjourney":2448,"Ġhist":2449,"ivid":2450,"Ġfilled":2451,"Ġnews":2452,"Ġsharp":2453,"Ġliving":2454,"._":2455,"Ġdisplay":2456,"Ġmere":2457,"rer":2458,"Ġunless":2459,"Ġanx":2460,"ĠElsie":2461,"Ġattempt":2462,"_.":2463,"ĠDan":2464,"alph":2465,"Ġeag":2466,"Ġrefund":2467,"Ġfut":2468,"ees":2469,"ston":2470,"ĠBill":2471,"Ġnatur":2472,"ĠQue":2473,"CH":2474,"ract":2475,"ĠEd":2476,"alley":2477,"oved":2478,"Ġstates":2479,"Ġfun":2480,"Ġthird":2481,"night":2482,"ien":2483,"ashing":2484,"arrow":2485,"Ġemploy":2486,"Ġ***":2487,"Ġhusband":2488,"king":2489,"unte":2490,"Ġworth":2491,"Ġwrong":2492,"ĠRalph":2493,"Ġbeast":2494,"ĠDav":2495,"abbit":2496,"dom":2497,"ped":2498,"ĠCar":2499,"ledge":2500,"RI":2501,"Ġstrength":2502,"Ġlate":2503,"cially":2504,"Ġentire":2505,"ires":2506,"Ġanyone":2507,"asion":2508,"Ġthinking":2509,"Ġclim":2510,"ny":2511,"ume":2512,"Ġ14":2513,"ĠWhile":2514,"cip":2515,"Ġgetting":2516,"Ġrain":2517,"Ġspread":2518,"Ġseems":2519,"Ġtor":2520,"Ġgun":2521,"Ġwarm":2522,"Ġnation":2523,"Ġhall":2524,"ĠEm":2525,"ented":2526,"Ġrunning":2527,"Ġ20":2528,"ĠMan":2529,"Ġescape":2530,"ĠGre":2531,"EM":2532,"hood":2533,"ĠNed":2534,"cious":2535,"Ġjud":2536,"Ġspring":2537,"Ġgeneral":2538,"My":2539,"ĠMary":2540,"!'":2541,"Ġsuppose":2542,"Ġdeal":2543,"Ġought":2544,"Ġnature":2545,"idence":2546,"gypt":2547,"Ġexclaimed":2548,"Ġspec":2549,"ĠWell":2550,"Ġexam":2551,"Ġmoved":2552,"sem":2553,"ouses":2554,"cient":2555,"Ġsatisf":2556,"Ġori":2557,"Ġmountain":2558,"idge":2559,"Ġunc":2560,"Ġsecret":2561,"bo":2562,"Ġder":2563,"ĠEgypt":2564,"Ġborn":2565,"Ġsearch":2566,"ĠAb":2567,"Ġdesp":2568,"Ġneither":2569,"Ġviol":2570,"Ġdemand":2571,"wo":2572,"Ġav":2573,"Ġdry":2574,"Ġve":2575,"Ġeasy":2576,"Ġrapid":2577,"Ġ|":2578,"aced":2579,"ĠThus":2580,"cend":2581,"ĠeBooks":2582,"Ġring":2583,"line":2584,"iers":2585,"Ġnamed":2586,"Ġnecessary":2587,"Ġplaces":2588,"Ġevil":2589,"ĠWhy":2590,"ĠAmerica":2591,"Ġcirc":2592,"Ġfuture":2593,"Ġshowed":2594,"ha":2595,"Ġyes":2596,"Ġpalace":2597,"OT":2598,"Ġminutes":2599,"Ġbeginning":2600,"ĠLet":2601,"AS":2602,"Ġsnow":2603,"Ġdomain":2604,"ugg":2605,"Ġmakes":2606,"Ġmaid":2607,"Ġfloor":2608,"overn":2609,"ĠYOU":2610,"iar":2611,"Ġjump":2612,"Ġrepres":2613,"Ġremained":2614,"ror":2615,"Ġcopies":2616,"ior":2617,"Ġfol":2618,"Ġbelong":2619,"Ġwid":2620,"uthor":2621,"Ġseeing":2622,"Ġdiv":2623,"ope":2624,"Ġmess":2625,"ested":2626,"ogn":2627,"Ġstick":2628,"iance":2629,"ler":2630,"Ġsitting":2631,"Ġscarce":2632,"Ġlearn":2633,"Ġfat":2634,"Ġloud":2635,"ĠAnt":2636,"ĠMay":2637,"ĠEx":2638,"ipped":2639,"Ġposition":2640,"Ġinstead":2641,"Ġpriv":2642,"Ġfaith":2643,"Ġcapt":2644,"Ġdestroy":2645,"ests":2646,"unk":2647,"hod":2648,"Ġdiscovered":2649,"orge":2650,"ĠQueen":2651,"Ġstop":2652,"Ġharm":2653,"acher":2654,"Ġshad":2655,"Ġshot":2656,"Ġorigin":2657,"Ġcompany":2658,"Ġvict":2659,"Ġlearned":2660,"udd":2661,"bling":2662,"Ġbroke":2663,"Ġeasily":2664,"Ġago":2665,"Ġdress":2666,"iced":2667,"Ġcourt":2668,"Ġbox":2669,"Ġbirds":2670,"Ġwise":2671,"Ġincre":2672,"iling":2673,"ĠCaptain":2674,"gutenberg":2675,"like":2676,"Ġreceive":2677,"Ġintell":2678,"eder":2679,"asure":2680,"ĠSection":2681,"ĠPl":2682,"Ġdistributing":2683,"Ġarmy":2684,"Ġgarden":2685,"Ġalthough":2686,"ĠYet":2687,"Ġdirection":2688,"eks":2689,"oured":2690,"ashed":2691,"wise":2692,"ĠFrench":2693,"ĠFl":2694,"Ġbeat":2695,"Ġattention":2696,"Ġregard":2697,"Ġves":2698,"ĠOr":2699,"ept":2700,"Ġdut":2701,"Ġplease":2702,"Ġattack":2703,"Ġrob":2704,"Ġdin":2705,"ĠTO":2706,"Ġremark":2707,"Ġcrowd":2708,"Ġlegs":2709,"ortun":2710,"Ġappl":2711,"Ġcomfort":2712,"Ġsugg":2713,"Ġdread":2714,"acked":2715,"pecially":2716,"Ġunto":2717,"Ġglass":2718,"ĠDon":2719,"Ġsilver":2720,"we":2721,"Ġcuri":2722,"Ġhero":2723,"Ġguard":2724,"ik":2725,"Ġrequire":2726,"father":2727,"Ġlives":2728,"uro":2729,"Ġmeant":2730,"angu":2731,"Ġsick":2732,"ics":2733,"Ġvessel":2734,"rel":2735,"Ġcharacter":2736,"Ġhat":2737,"Ġpurs":2738,"vol":2739,"Ġsor":2740,"Ġbrown":2741,"ma":2742,"ching":2743,"Cl":2744,"Ġimag":2745,"Ġyourself":2746,"Ġvarious":2747,"ĠSl":2748,"Ġcertainly":2749,"Ġcatch":2750,"ĠGe":2751,"Ġgolden":2752,"Ġvolunte":2753,"Ġheads":2754,"ĠOR":2755,"Ġpieces":2756,"Ġfro":2757,"joy":2758,"oman":2759,"ĠZ":2760,"Ġcat":2761,"ament":2762,"ĠGovern":2763,"wood":2764,"Ġspeed":2765,"Ġbell":2766,"Ġmagic":2767,"Ġsister":2768,"aded":2769,"ĠAm":2770,"atever":2771,"AG":2772,"uan":2773,"Ġresult":2774,"Ġhole":2775,"Ġparts":2776,"Ġknowledge":2777,"Ġwalls":2778,"aft":2779,"Ġhig":2780,"Ġgreater":2781,"Ġreach":2782,"Ġspo":2783,"ruct":2784,"Ġobl":2785,"Ġusing":2786,"Ġmiss":2787,"Ġfix":2788,"Ġcaptain":2789,"Ġtall":2790,"Ġwis":2791,"io":2792,"rief":2793,"Ġindivid":2794,"ĠWho":2795,"ically":2796,"ustom":2797,"Ġclothes":2798,"Ġreport":2799,"erv":2800,"Ġmoon":2801,"ĠIsland":2802,"Ġhid":2803,"Ġtrem":2804,"Ġwait":2805,"Ġhun":2806,"Ġlar":2807,"irt":2808,"Ġcoun":2809,"AD":2810,"ech":2811,"ĠOh":2812,"bles":2813,"jo":2814,"Ġappearance":2815,"avery":2816,"under":2817,"Ġbreath":2818,"OO":2819,"Ġwaiting":2820,"uge":2821,"Ġdepart":2822,"Ġgentleman":2823,"Ġaftern":2824,"zz":2825,"Ġleaves":2826,"Ġroy":2827,"Ġbuilt":2828,"Ġcomplete":2829,"Ġwriting":2830,"Ġinformation":2831,"Ġtrying":2832,"Ġenemy":2833,"eneral":2834,"ĠNe":2835,"Ġrecogn":2836,"Ġwoods":2837,"Ġsoul":2838,"Ġoccur":2839,"Ġdrag":2840,"yn":2841,"cket":2842,"come":2843,"ism":2844,"Ġships":2845,"This":2846,"now":2847,"ĠWest":2848,"Ġspot":2849,"anks":2850,"olf":2851,"hys":2852,"ounds":2853,"Ġsomewhat":2854,"Ġterrible":2855,"Ġimmediately":2856,"ĠPe":2857,"aven":2858,"Ġlatter":2859,"Ġmeat":2860,"Ġprincip":2861,"Ġespecially":2862,"Ġsingle":2863,"Ġinside":2864,"Ġoccasion":2865,"ays":2866,"Ġthrew":2867,"ĠSam":2868,"Ġsand":2869,"Ġslight":2870,"Ġsilence":2871,"Ġstudy":2872,"Ġpath":2873,"Ġraised":2874,"gan":2875,"Ġaddition":2876,"Ġbag":2877,"Ġears":2878,"Ġconcer":2879,"ANT":2880,"Ġiron":2881,"ĠDavid":2882,"Ġself":2883,"Ġexact":2884,"Ġstream":2885,"Ġwished":2886,"Ġnote":2887,"arer":2888,"Ġedge":2889,"Ġsong":2890,"rupt":2891,"Ġsides":2892,"Ġbrothers":2893,"usion":2894,"ĠLI":2895,"EL":2896,"Ġexpect":2897,"istribut":2898,"ises":2899,"Ġgall":2900,"Ġnorth":2901,"Ġdistribution":2902,"Ġconn":2903,"Ġafternoon":2904,"Ġowner":2905,"Ġleaving":2906,"Ġgrave":2907,"Ġservice":2908,"ĠMother":2909,"Ġagreed":2910,"Ġcouldn":2911,"Ġnotice":2912,"ator":2913,"Ġshut":2914,"bered":2915,"eal":2916,"str":2917,"Ġfool":2918,"ision":2919,"Ġmad":2920,"Ġweek":2921,"Ġoffice":2922,"Ġann":2923,"Ġbank":2924,"Ġextre":2925,"light":2926,"Ġprevent":2927,"Ġloved":2928,"rif":2929,"Ġbrave":2930,"rect":2931,"Ġfresh":2932,"attered":2933,"Ġlower":2934,"Ġchurch":2935,"Ġutter":2936,"mp":2937,"Ġenter":2938,"Ġgate":2939,"Ġrode":2940,"Ġgame":2941,"Ġmethod":2942,"Ġimportant":2943,"pgl":2944,"Ġhouses":2945,"pglaf":2946,"__":2947,"Ġtears":2948,"Ġfif":2949,"how":2950,"Ġnarrow":2951,"Ġminute":2952,"morrow":2953,"iod":2954,"Ġeffort":2955,"Ġyellow":2956,"ils":2957,"ĠPrince":2958,"Ġdecided":2959,"Ġenjoy":2960,"Ġtrust":2961,"Ġyouth":2962,"Pro":2963,"Ġways":2964,"Then":2965,"ript":2966,"ĠFig":2967,"ĠRoss":2968,"ĠPar":2969,"Ġresol":2970,"inct":2971,"ĠCr":2972,"Ġinfl":2973,"Ġpun":2974,"ĠEvery":2975,"Ġblow":2976,"Ġanimals":2977,"ril":2978,"Ġgoes":2979,"Ġtrain":2980,"ĠDor":2981,"Ġspace":2982,"Ġkiss":2983,"pping":2984,"urope":2985,"ĠRE":2986,"Ġprobably":2987,"They":2988,"Ġbroad":2989,"ĠAN":2990,"Ġopportun":2991,"ĠWhere":2992,"Ġsurely":2993,"eds":2994,"Ġguess":2995,"Ġeager":2996,"Ġmach":2997,"ĠHar":2998,"ĠPRO":2999,"Ġpen":3000,"ĠPresident":3001,"anted":3002,"otten":3003,"velop":3004,"Ġhills":3005,"Ġhang":3006,"ina":3007,"ĠDick":3008,"Do":3009,"ality":3010,"Ġacqu":3011,"ĠGeneral":3012,"Ġmedium":3013,"Ġwinter":3014,"Ġfinished":3015,"Ġpleasure":3016,"apped":3017,"Ġphys":3018,"Ġsize":3019,"sc":3020,"Ġones":3021,"Ġflew":3022,"._,":3023,"In":3024,"ĠWilliam":3025,"rill":3026,"Ġdinner":3027,"Ġcover":3028,"fast":3029,"ĠEurope":3030,"Ġbread":3031,"Ġwouldn":3032,"Ġprev":3033,"athered":3034,"par":3035,"Ġstar":3036,"Ġdeg":3037,"Ġclaim":3038,"Ġhistory":3039,"Ġalt":3040,"Ġangry":3041,"Ġindividual":3042,"Ġstro":3043,".)":3044,"Ġbab":3045,"Ġgiant":3046,"Ġperiod":3047,"Ġmil":3048,"Ġhardly":3049,"Ġcastle":3050,"Ġdifficult":3051,"Ġoppos":3052,"face":3053,"Ġauthor":3054,"Ġtro":3055,"Ġsense":3056,"Ġpit":3057,"riage":3058,"Ġefforts":3059,"Ġoccup":3060,"Ġtwel":3061,"Ġinqu":3062,"oles":3063,"Ġpleased":3064,"Ġsouth":3065,"Ġsens":3066,"Ġformed":3067,"Ġstrugg":3068,"Ġproceeded":3069,"Ġnice":3070,"Ġfreely":3071,"Ġvalley":3072,"Ġusual":3073,"Ġthirty":3074,"don":3075,"Ġpassing":3076,"ming":3077,"ours":3078,"Ġconsiderable":3079,"Ġlot":3080,"Ġsuper":3081,"Ġturning":3082,"Ġgiving":3083,"ĠQu":3084,"with":3085,"Ġdescrib":3086,"Ġprovided":3087,"Ġsorry":3088,"sy":3089,"Ġmarked":3090,"vere":3091,"Ġobserved":3092,"Ġprepared":3093,"Ġforget":3094,"Ġchair":3095,"aul":3096,"Ġflowers":3097,"cher":3098,"Ġant":3099,"ivil":3100,"ĠRobert":3101,"Ġbeneath":3102,"Ġfier":3103,"Ġsuc":3104,"Ġ30":3105,"Ġarrow":3106,"Ġmusic":3107,"Ġwand":3108,"Ġeduc":3109,"Ġchanged":3110,"leep":3111,"Ġrocks":3112,"ĠAg":3113,"LA":3114,"che":3115,"Ġimm":3116,"urs":3117,"Ġrepe":3118,"ĠJose":3119,"Ġassist":3120,"Ġdesire":3121,"Ġslave":3122,"lease":3123,"Ġweak":3124,"Ġmill":3125,"ĠFox":3126,"Ġgaz":3127,"Ġque":3128,"Ġisn":3129,"stem":3130,"Ġconce":3131,"Ġwonderful":3132,"Ġbooks":3133,"ondon":3134,"...":3135,"Ġpresently":3136,"formation":3137,"essor":3138,"ĠBrown":3139,"Ġindic":3140,"Ġanimal":3141,"ĠTheir":3142,"sell":3143,"Ġstorm":3144,"www":3145,"Ġpop":3146,"ively":3147,"Ġnatural":3148,"Ġtow":3149,"IG":3150,"Ġhar":3151,"elled":3152,"Ġmighty":3153,"ille":3154,"Ġopin":3155,"erc":3156,"ails":3157,"Ġfru":3158,"ases":3159,"Ġmass":3160,"oom":3161,"Ġdefect":3162,"Ġlif":3163,"Ġwhatever":3164,"ĠHen":3165,"Ġsurprise":3166,"Ġsummer":3167,"ĠJoseph":3168,"Not":3169,"Ġmention":3170,"Ġordered":3171,"Ġsorrow":3172,"Ġupper":3173,"Ġaccomp":3174,"Ġlips":3175,"Ġden":3176,"Ġund":3177,"Ġlod":3178,"Ġaction":3179,"ĠBrer":3180,"Ġnoise":3181,"erson":3182,"ĠPrin":3183,"hab":3184,"ĠUp":3185,"iment":3186,"Ġconduct":3187,"Ġble":3188,"Ġdetermined":3189,"Ġcott":3190,"Ġknows":3191,"Ġposted":3192,"Ġthin":3193,"outher":3194,"Ġgovernment":3195,"Ġoffered":3196,"Ġpassage":3197,"ĠJim":3198,"Ġafterwards":3199,"Ġ\"'":3200,"Ġadvent":3201,"Ġformer":3202,"oln":3203,"Ġbless":3204,"Ġlying":3205,"ending":3206,"Ġneg":3207,"Ġwatched":3208,"Ġsucceed":3209,"Ġinn":3210,"anguage":3211,"ruction":3212,"Ġdarkness":3213,"Ġshook":3214,"ĠChief":3215,"Ġkeeping":3216,"ĠFOR":3217,"Ġdoll":3218,"Ġcollection":3219,"Ġallowed":3220,"Ġaffect":3221,"Ġvolunteers":3222,"Ġcab":3223,"ĠLondon":3224,"Ġtruly":3225,"Let":3226,"Ġshoulder":3227,"incoln":3228,"Ġhost":3229,"IV":3230,"ĠYork":3231,"ĠSmall":3232,"esh":3233,"na":3234,"kn":3235,"ait":3236,"ĠJes":3237,"ĠUncle":3238,"Ġimposs":3239,"Ġgenerally":3240,"BER":3241,"ops":3242,"ĠBen":3243,"Ġdiscover":3244,"Ġwrote":3245,"Ġgathered":3246,"Come":3247,"ĠWar":3248,"ĠRabbit":3249,"olog":3250,"Ġwrite":3251,"Ġcurrent":3252,"IES":3253,"spect":3254,"Ġstories":3255,"Ġcoast":3256,"Ġwond":3257,"Ġcow":3258,"ctor":3259,"outhern":3260,"Ġmonths":3261,"ĠLincoln":3262,"Ġtalking":3263,"Ġtouch":3264,"Ġstones":3265,"Ġtired":3266,"Ġla":3267,"Ġ21":3268,"Ġsystem":3269,"Ġreading":3270,"Ġdistribute":3271,"Ġpromised":3272,"IR":3273,"Ġproperty":3274,"ĠMany":3275,"ĠRich":3276,"Ġstret":3277,"Ġpicture":3278,"Ġfallen":3279,"ĠGrand":3280,"Ġburst":3281,"Ġaid":3282,"Ġthoughts":3283,"ĠPolly":3284,"Ġsilent":3285,"Ġexpected":3286,"ĠMike":3287,"Ġice":3288,"Ġsurface":3289,"Ġprotect":3290,"==":3291,"Ġrid":3292,"aws":3293,"Ġdeclared":3294,"Ġlines":3295,"iety":3296,"CE":3297,"ett":3298,"Ġ22":3299,"Ġparent":3300,"Ġ25":3301,"Ġfurn":3302,"Ġmission":3303,"acy":3304,"Ġgreatly":3305,"Ġstranger":3306,"nest":3307,"isk":3308,"gar":3309,"Ġsoldiers":3310,"ĠApon":3311,"Ġsons":3312,"Ġhurt":3313,"ĠPrincess":3314,"idered":3315,"Ġoblig":3316,"Ġsac":3317,"ites":3318,"Ġchap":3319,"icks":3320,"iny":3321,"Ġspeech":3322,"Ġfamil":3323,"Ġscarcely":3324,"ID":3325,"Ġ.":3326,"ESS":3327,"hip":3328,"lling":3329,"quently":3330,"ĠRus":3331,"Ġnose":3332,"Ġartic":3333,"ECT":3334,"anch":3335,"Ġallow":3336,"Ġdevelop":3337,"Ġuncle":3338,"mn":3339,"ĠJust":3340,"Ġmurd":3341,"ĠJe":3342,"Ġ23":3343,"Ġphr":3344,"Ġcorner":3345,"erence":3346,"Ġrace":3347,"Ġbold":3348,"Ġsmile":3349,"Project":3350,"Ġinvent":3351,"illa":3352,"pered":3353,"thur":3354,"Ġfirm":3355,"Ġfeast":3356,"Ġpointed":3357,"Ġhide":3358,"ouis":3359,"ĠFrance":3360,"Ġ24":3361,"Ġbeauty":3362,"Ġpleasant":3363,"Ġrise":3364,"ĠBob":3365,"Ġtwelve":3366,"Ġinstant":3367,"Don":3368,"Ġweap":3369,"Ġsteps":3370,"Ġorgan":3371,"omes":3372,"ewis":3373,"Ġshouted":3374,"Ġstreet":3375,"atic":3376,"atur":3377,"ague":3378,"Ġcreature":3379,"Ġsimple":3380,"Ġpulled":3381,"bing":3382,"anny":3383,"Ġdropped":3384,"Ġskin":3385,"Ġclean":3386,"Ġimpossible":3387,"ples":3388,"ĠTHIS":3389,"Ġmagn":3390,"eness":3391,"Ġtale":3392,"Ġtone":3393,"ĠTwo":3394,"Ġconv":3395,"Ġcontact":3396,"Ġclosed":3397,"Ġslaves":3398,"zen":3399,"Ġthro":3400,"Ġwest":3401,"inks":3402,"rest":3403,"ĠSide":3404,"ĠJuan":3405,"Ġroof":3406,"Ġgrou":3407,"cript":3408,"Ġsav":3409,"Ġentirely":3410,"amb":3411,"Ġluck":3412,"icy":3413,"ital":3414,"urg":3415,"Ġrub":3416,"ias":3417,"Ġsepar":3418,"Ġdrawn":3419,"Ġfit":3420,"ades":3421,"Ġnoble":3422,"Ġqueen":3423,"Ġfigure":3424,"Ġevent":3425,"Ġduty":3426,"itable":3427,"Ġgro":3428,"Ġrough":3429,"Ġquoth":3430,"Ġ50":3431,"ding":3432,"Ġtur":3433,"Ġstir":3434,"ational":3435,"ĠProf":3436,"ITY":3437,"aled":3438,"Ġfolk":3439,"ĠGeorge":3440,"ĠFather":3441,"Ġ1805":3442,"inet":3443,"Ġplayed":3444,"Ġprincess":3445,"awn":3446,"Ġswift":3447,"Ġpress":3448,"Ġwarri":3449,"Ġsuffic":3450,"Ġfreed":3451,"Ġcand":3452,"........":3453,"ĠArthur":3454,"Ġcarefully":3455,"Ġbitter":3456,"eb":3457,"Ġbod":3458,"Ġprocess":3459,"ancy":3460,"Ġentr":3461,"Ġfingers":3462,"ilar":3463,"Ġcup":3464,"Ġalive":3465,"Ġhttps":3466,"house":3467,"Ġcoat":3468,"onsie":3469,"Ġrepresent":3470,"Ġfifty":3471,"Ġ--":3472,"ĠMe":3473,"go":3474,"Ġ(_":3475,"Ġcook":3476,"Ġseek":3477,"Ġcheck":3478,"Ġdeer":3479,"Ġprince":3480,"Ġfavor":3481,"Ġtrib":3482,"Ġhath":3483,"Ġpapa":3484,"Ġresp":3485,"ĠCo":3486,"Ġgods":3487,"ĠWAR":3488,"Ġcolor":3489,"mber":3490,"ĠMc":3491,"Ġtea":3492,"Ġmerry":3493,"ads":3494,"Ġstore":3495,"Ġopinion":3496,"ĠJesus":3497,"ĠHouse":3498,"Ġremoved":3499,"Ġwaited":3500,"Ġofficial":3501,"Ġcircum":3502,"Ġnon":3503,"Ġanxious":3504,"',":3505,"rog":3506,"Ġpromise":3507,"Ġheaven":3508,"Ġreply":3509,"rid":3510,"work":3511,"amber":3512,"ument":3513,"lly":3514,"Ġmater":3515,"OL":3516,"lo":3517,"Ġdistributed":3518,"Ġwasn":3519,"ĠBE":3520,"Ġphrase":3521,"ply":3522,"ĠRussell":3523,"12":3524,"lin":3525,"Ġdat":3526,"Ġasleep":3527,"ĠBlack":3528,"Ġda":3529,"Ġpale":3530,"ĠFar":3531,"Ġcaused":3532,"Ġtakes":3533,"exic":3534,"Who":3535,"Ġmarried":3536,"Ġempt":3537,"Ġur":3538,"Ġteacher":3539,"Ġaddress":3540,"OW":3541,"Ġdirectly":3542,"Ġinflu":3543,"Ġtong":3544,"enth":3545,"Ġterm":3546,"Ġprivate":3547,"set":3548,"Ġwire":3549,"ashington":3550,"Ġinhab":3551,"Ġshoulders":3552,"Ġeld":3553,"eping":3554,"ĠAlice":3555,"ĠCont":3556,"Ġdressed":3557,"Ġwear":3558,"irst":3559,"ĠMin":3560,"Ġgreatest":3561,"ĠKath":3562,"Ġyards":3563,"Ġgrown":3564,"Ġproud":3565,"Ġholding":3566,"ĠMexic":3567,"ify":3568,"ĠEven":3569,"Ġtast":3570,"leen":3571,"Ġsurr":3572,"Ġrelig":3573,"Ġfinally":3574,"--------":3575,"riff":3576,"Ġ26":3577,"rs":3578,"Ġspent":3579,"Ġsal":3580,"Ġjoined":3581,"Ġvain":3582,"elt":3583,"Ġpocket":3584,"ĠGovernment":3585,"Ġow":3586,"Ġlean":3587,"Ġcomb":3588,"Ġcheer":3589,"000":3590,"sm":3591,"Ġfeather":3592,"Ġoffer":3593,"hold":3594,"ability":3595,"aved":3596,"ĠWhite":3597,"Ġcou":3598,"Ġinformed":3599,"uation":3600,"Ġthreat":3601,"ĠWashington":3602,"Ġseat":3603,"ancing":3604,"oses":3605,"ends":3606,"Ġbuilding":3607,"Ġlikely":3608,"ointed":3609,"Ġhorn":3610,"Ġtrade":3611,"Ġloose":3612,"Ġbelieved":3613,"que":3614,"asp":3615,"isters":3616,"Ġvast":3617,"ciety":3618,"Ġsite":3619,"Ġpersons":3620,"Ġlocated":3621,"Ġappears":3622,"cil":3623,"Ġaston":3624,"erve":3625,"Ġservants":3626,"Ġbull":3627,"arked":3628,"rodu":3629,"ĠKathleen":3630,"Ġmile":3631,"ether":3632,"Ġspite":3633,"Ġfrightened":3634,"Ġopportunity":3635,"Ġid":3636,"Ġnames":3637,"ham":3638,"Ġmor":3639,"Ġtrail":3640,"Ġperfectly":3641,"US":3642,"van":3643,"Ġwings":3644,"Ġbreakfast":3645,"Good":3646,"Ġwel":3647,"Ġremembered":3648,"Ġsurprised":3649,"Clark":3650,"Ġhonour":3651,"Ġpossession":3652,"aked":3653,"Ġgrowing":3654,"Ġapart":3655,"Ġfond":3656,"Ġrequired":3657,"Ġworse":3658,"Ġhen":3659,"Ġproviding":3660,"Ġexactly":3661,"tered":3662,"Ġty":3663,"kes":3664,"Ġcontro":3665,"Ġshoot":3666,"Ġopening":3667,"ĠComm":3668,"Ġbid":3669,"Ġroyal":3670,"Ġlabor":3671,"ĠOnce":3672,"oint":3673,"ĠSpan":3674,"ĠProfessor":3675,"Ġdim":3676,"Ġseized":3677,"otion":3678,"rose":3679,"Ġstout":3680,"Ġblind":3681,"Ġworked":3682,"Ġfled":3683,"18":3684,"itive":3685,"Ġconvers":3686,"ĠEn":3687,"itical":3688,"ixt":3689,"ĠGl":3690,"agon":3691,"Ġestab":3692,"AB":3693,"Ġthank":3694,"othy":3695,"ĠSet":3696,"Ġpriest":3697,"ĠSever":3698,"ishment":3699,"ĠColumb":3700,"She":3701,"Ġsole":3702,"isions":3703,"Ġcruel":3704,"ibly":3705,"Ah":3706,"Ġfought":3707,"ĠNOT":3708,"Ġgar":3709,"ĠĠĠĠĠĠĠĠĠĠĠĠĠĠĠĠĠĠĠĠĠĠĠĠĠĠĠĠĠĠĠĠĠĠĠĠĠĠĠĠ":3710,"Ġexplan":3711,"rop":3712,"amped":3713,"JECT":3714,"fer":3715,"erous":3716,"Ġscr":3717,"Ġdistant":3718,"chief":3719,"Ġrequirements":3720,"der":3721,"Ġbuff":3722,"Ġwalking":3723,"Ġrule":3724,"oted":3725,"Ġexist":3726,"Ġlooks":3727,"ĠMount":3728,"osing":3729,"Ġheight":3730,"Ġride":3731,"Ġspeaking":3732,"UR":3733,"Ġet":3734,"Ġaccepted":3735,"ĠHood":3736,"ĠJer":3737,"Ġbuy":3738,"Ġcarrying":3739,"known":3740,"BERG":3741,"Ġhuge":3742,"Ġsecure":3743,"Ġhunting":3744,"So":3745,"ulty":3746,"Ġmeeting":3747,"ILL":3748,"com":3749,"rict":3750,"Ġpresence":3751,"ashion":3752,"just":3753,"etch":3754,"lex":3755,"ĠCount":3756,"Ġlake":3757,"cell":3758,"Ġfaces":3759,"Ġmerch":3760,"ipe":3761,"Ġtender":3762,"Ġholder":3763,"Ġofficers":3764,"Ġmerely":3765,"UTEN":3766,"Ġhigher":3767,"Ġwatching":3768,"Ġstatus":3769,"Ġcompanions":3770,"Ġbare":3771,"ĠSeveral":3772,"All":3773,"Where":3774,"Ġlarger":3775,"OM":3776,"Ġhy":3777,"Ġflesh":3778,"Ġknowing":3779,"Ġwaters":3780,"Ġfighting":3781,"Ġerr":3782,"Ġate":3783,"Ġshape":3784,"Ġcomput":3785,"ĠGUTEN":3786,"Ġactive":3787,"Ġbreast":3788,"Ġparticularly":3789,"Ġlaughing":3790,"ĠGUTENBERG":3791,"Ġancient":3792,"Ġdisplaying":3793,"ĠHenry":3794,"terday":3795,"Ġvent":3796,"ĠXX":3797,"Ġexpression":3798,"con":3799,"ois":3800,"UL":3801,"Ġer":3802,"Ġconsidered":3803,"Ġtouched":3804,"oyal":3805,"roo":3806,"ĠSchool":3807,"Ġmemory":3808,"RANT":3809,"Ġquestions":3810,"Ġrushed":3811,"ĠEast":3812,"Ġteeth":3813,"ocks":3814,"Ġopposite":3815,"uit":3816,"ĠAS":3817,"Ġtelling":3818,"Ġcourage":3819,"Ġcondition":3820,"Ġshare":3821,"Ġfees":3822,"Ġcentury":3823,"Ġconcerning":3824,"ATION":3825,"Is":3826,"Ġtemple":3827,"15":3828,"Ġhealth":3829,"Ġobliged":3830,"ember":3831,"Ġconse":3832,"ĠJames":3833,"Ġmatters":3834,"Ġfruit":3835,"Ġbent":3836,"Ġeditions":3837,"Ġmotion":3838,"Ġwhispered":3839,"ĠPROJECT":3840,"Ġvers":3841,"lend":3842,"Ġsymp":3843,"por":3844,"ublic":3845,"asing":3846,"ushing":3847,"Ġhappen":3848,"Ġourselves":3849,"Ġparents":3850,"ĠANY":3851,"Ġlanguage":3852,"Ġdisclaim":3853,"ocked":3854,"Ġtight":3855,"Ġfill":3856,"Ġhabit":3857,"ĠBar":3858,"Ġscene":3859,"Ġordinary":3860,"Ġcopying":3861,"Ġgather":3862,"Ġfierce":3863,"hest":3864,"Ġwore":3865,"Ġpot":3866,"ĠMer":3867,"Ġletters":3868,"Ġapplic":3869,"Ġident":3870,"Ġwet":3871,"Ġrejo":3872,"acement":3873,"Ġsmo":3874,"Ġlisten":3875,"Ġcompliance":3876,"Ġmut":3877,"Ġforced":3878,"Ġdism":3879,"Ġnative":3880,"Ġ27":3881,"Ġdrawing":3882,"Ġfreedom":3883,"Ġsusp":3884,"Ġknife":3885,"Ġforty":3886,"ables":3887,"ĠHowever":3888,"ĠRep":3889,"Ġcrew":3890,"Ġflat":3891,"clock":3892,"ĠTrav":3893,"Ġshadow":3894,"gress":3895,"ivers":3896,"Ġweeks":3897,"ĠWin":3898,"Ġ28":3899,"Ġrecord":3900,"ses":3901,"Ġfart":3902,"Ġcustom":3903,"Ġdust":3904,"ĠJuly":3905,"Ġthrown":3906,"Ġorders":3907,"Ġproduced":3908,"ĠWARRANT":3909,"ishing":3910,"ĠThom":3911,"ĠCreek":3912,"Ġaccom":3913,"Ġmarry":3914,"Ġmachine":3915,"Ġrules":3916,"ĠSuch":3917,"Ġweather":3918,"ari":3919,"Ġpick":3920,"ĠIts":3921,"ground":3922,"Ġfaint":3923,"Ġash":3924,"Ġnumbers":3925,"Ġcalm":3926,"wen":3927,"Ġsplend":3928,"Ġperce":3929,"Ġsmiled":3930,"ĠVan":3931,"Ġhungry":3932,"Ġquarter":3933,"ĠGreen":3934,"ai":3935,"Ġweight":3936,"ĠInformation":3937,"anches":3938,"Ġservant":3939,"urm":3940,"pre":3941,"ĠSomet":3942,"Ġflo":3943,"16":3944,"ification":3945,"Ġfixed":3946,"ĠDorothy":3947,"ĠCome":3948,"Ġvan":3949,"ĠRiver":3950,"Ġnine":3951,"Ġproved":3952,"Ġsupposed":3953,"Ġenemies":3954,"Ġcircumst":3955,"Ġliber":3956,"ĠCapt":3957,"Ġquietly":3958,"Ġahead":3959,"Ġsimply":3960,"Ġobey":3961,"Ġonline":3962,"ĠVol":3963,"action":3964,"Ġjoin":3965,"Ġkey":3966,"Ġnatives":3967,"Ġinteresting":3968,"Ġfields":3969,"Ġformat":3970,"Ġpage":3971,"Ġworking":3972,"Ġkingdom":3973,"Ġtaught":3974,"Ġplaying":3975,"Ġmatch":3976,"ĠSmith":3977,"Ġcho":3978,"ĠRuth":3979,"Ġfalling":3980,":--":3981,"Ġhearts":3982,"Ġmoving":3983,"Ġcivil":3984,"Ġsimilar":3985,"Ġarose":3986,"Ġpig":3987,"peror":3988,"Ġprepare":3989,"Ġearnest":3990,"Ġsought":3991,"ĠBab":3992,"ĠJan":3993,"Ġhonor":3994,"Ġrepeated":3995,"pet":3996,"Ġpair":3997,"Ġnoticed":3998,"Ġextreme":3999,"Ġdare":4000,"Ġescaped":4001,"Ġ1806":4002,"Ġyesterday":4003,"Ġentrance":4004,"Ġcommun":4005,"Ġwicked":4006,"Ġcave":4007,"Ġemb":4008,"Ġdriven":4009,"ners":4010,"Ġlands":4011,"Ġcontr":4012,"Ġfac":4013,"IST":4014,"unch":4015,"Ġspecial":4016,"Ġequip":4017,"St":4018,"Ġhurried":4019,"ĠSu":4020,"Ġadvant":4021,"Ġunderstood":4022,"Ġforgotten":4023,"Ġphysical":4024,"Ġsaved":4025,"Ġrising":4026,"tering":4027,"ĠLand":4028,"Ġlovely":4029,"Ġdifficulty":4030,"Ġexperience":4031,"Ġloss":4032,"orough":4033,"ada":4034,"uts":4035,"ĠMag":4036,"Ġren":4037,"Ġrefused":4038,"Ġspoken":4039,"Ġdwell":4040,"Ġmonth":4041,"Ġextra":4042,"ĠBefore":4043,"Ġbodies":4044,"Ġclearly":4045,"Ġknees":4046,"ĠJune":4047,"Ġprincipal":4048,"Ġcrown":4049,"Ġdescend":4050,"RA":4051,"iently":4052,"thern":4053,"Ġsprang":4054,"ĠCON":4055,"Ġthroughout":4056,"ency":4057,"Ġburied":4058,"look":4059,"Ġpure":4060,"hel":4061,"Ġlistened":4062,"Ġempty":4063,"Ġinches":4064,"Ġhurry":4065,"ĠGrandfather":4066,"ĠTit":4067,"ĠShann":4068,"Ġleading":4069,"Ġincluded":4070,"Ġhttp":4071,"Ġbuffal":4072,"Ġdiam":4073,"ĠLy":4074,"ĠAug":4075,"Ġgroup":4076,"Ġconqu":4077,"Ġfinger":4078,"tle":4079,"add":4080,"ĠEar":4081,"Ġcenter":4082,"more":4083,"Ġwine":4084,"Ġreve":4085,"Ġbranches":4086,"Ġcloud":4087,"Ġimmediate":4088,"Ġexplanation":4089,"fle":4090,"Ġdeli":4091,"Ġcompanion":4092,"Ġ185":4093,"Ġsentence":4094,"Ġbushes":4095,"ĠSpe":4096,"Ġbore":4097,"icket":4098,"Ġmembers":4099,"Ġdate":4100,"Ġwealth":4101,"ĠMaster":4102,"ford":4103,"Ġdar":4104,"Ġgift":4105,"ĠUnder":4106,"Ġends":4107,"Ġbesides":4108,"orse":4109,"stit":4110,"ĠOur":4111,"orld":4112,"Ġliked":4113,"ael":4114,"Ġiss":4115,"Ġvoy":4116,"Ġremarked":4117,"Ġoper":4118,"Ġsquare":4119,"Ġadditional":4120,"Ġimpro":4121,"Ġforms":4122,"Ġbark":4123,"uous":4124,"ĠSk":4125,"Ġcloth":4126,"lected":4127,"ipt":4128,"Ġsettle":4129,"Ġcurious":4130,"Ġaside":4131,"Ġintended":4132,"Ġdescribed":4133,"gard":4134,"mit":4135,"itary":4136,"Ġsevent":4137,"ĠFair":4138,"Ġexerc":4139,"fl":4140,"Ġwounded":4141,"ĠTar":4142,"Ġweb":4143,"Ġspirits":4144,"Ġtongue":4145,"bre":4146,"Ġlose":4147,"ogether":4148,"Ġcolon":4149,"Ġwed":4150,"Ġbade":4151,"Ġdelic":4152,"Ġhit":4153,"Ġfarther":4154,"Ġdogs":4155,"Ġchoose":4156,"Ġdoesn":4157,"was":4158,"Ġpicked":4159,"ĠSer":4160,"Ġsaf":4161,"ĠThor":4162,"Ġslept":4163,"appy":4164,"ĠChristian":4165,"Ġequipment":4166,"Ġcred":4167,"Ġheat":4168,"Here":4169,"oh":4170,"ĠPal":4171,"Ġequal":4172,"Ġengaged":4173,"Ġimpress":4174,"Ġthrow":4175,"Ġsmoke":4176,"_)":4177,"Ġ$":4178,"illy":4179,"Ġusually":4180,"Ġmonkey":4181,"Ġofficer":4182,"idently":4183,"Ġstars":4184,"antic":4185,"Ġ29":4186,"Ġmetal":4187,"Ġeast":4188,"ĠSund":4189,"Ġputting":4190,"MIT":4191,"osp":4192,"Ġfinding":4193,"Ġpossessed":4194,"Ġmotor":4195,"Ġdreadful":4196,"nes":4197,"igg":4198,"Ġexplained":4199,"Ġgray":4200,"ĠIndia":4201,"pes":4202,"Ġfer":4203,"Ġrevol":4204,"Ġmir":4205,"Ġinj":4206,"ĠLady":4207,"Ġscattered":4208,"Ġgives":4209,"ĠDown":4210,"rael":4211,"Ġdrive":4212,"atched":4213,"Ġpill":4214,"ayed":4215,"ĠSun":4216,"Ġii":4217,"Ġlifted":4218,"ingu":4219,"ĠCong":4220,"Ġneeded":4221,"ĠPeterkin":4222,"Ġintellect":4223,"Ġhidden":4224,"Ġbaby":4225,"Ġplant":4226,"Ġuns":4227,"Ġchamber":4228,"ields":4229,"Ġanywhere":4230,"ĠSouthern":4231,"cience":4232,"Ġdrove":4233,"Ġaccording":4234,"Ġsake":4235,"Ġpurch":4236,"Ġcalcul":4237,"Ġfavour":4238,"Ġsettled":4239,"Ġhunters":4240,"bid":4241,"cean":4242,"elle":4243,"Ġdesired":4244,"Ġnest":4245,"Ġflight":4246,"Ġhearing":4247,"erted":4248,"riet":4249,"epend":4250,"ĠStill":4251,"Ġexcell":4252,"rences":4253,"ailed":4254,"ĠĠĠĠĠĠĠĠĠĠĠ":4255,"Ġhandsome":4256,"Ġoriginal":4257,"Ġpack":4258,"Ġexped":4259,"board":4260,"Ġtalked":4261,"ĠMaj":4262,"umed":4263,"angers":4264,"Ġtravel":4265,"gu":4266,"Ġfift":4267,"arily":4268,"Ġspl":4269,"isc":4270,"Ġkindly":4271,"do":4272,"ences":4273,"Ġinhabit":4274,"amm":4275,"Ġnearer":4276,"Ġ**":4277,"Ġpor":4278,"Ġplenty":4279,"ĠState":4280,"ĠTe":4281,"alled":4282,"Ġsympath":4283,"ĠMad":4284,"Ġgod":4285,"Ġtreated":4286,"Ġaut":4287,"Ġunf":4288,"ole":4289,"ĠWeb":4290,"ĠOnly":4291,"Ġfamous":4292,"ae":4293,"Ġbase":4294,"ouds":4295,"ĠTur":4296,"Ġswim":4297,"Ġsmooth":4298,"ĠSept":4299,"Ġnumerous":4300,"Ġhollow":4301,"cription":4302,"ĠConf":4303,"Ġetc":4304,"Ġ?":4305,"Ġsteam":4306,"Ġbusy":4307,"Ġprinted":4308,"Ġpermitted":4309,"ĠPhilip":4310,"Ġjumped":4311,"Ġwilling":4312,"Ġstreets":4313,"Ġcreatures":4314,"ĠElk":4315,"Ġdefe":4316,"Ġserve":4317,"Ġwaves":4318,"Ġfashion":4319,"Ġknights":4320,"Ġintellig":4321,"Ġinfluence":4322,"yl":4323,"Ġign":4324,"road":4325,"ĠAG":4326,"ĠSoon":4327,"Ġmistress":4328,"ĠGerman":4329,"Ġrapidly":4330,"mas":4331,"Ġpet":4332,"ĠCity":4333,"Ġavo":4334,"bly":4335,"Ġhaven":4336,"umph":4337,"Ġneighbor":4338,"Ġsheep":4339,"Ġregular":4340,"ĠAgain":4341,"olute":4342,"Ġfox":4343,"Ġfully":4344,"Ġcreated":4345,"rit":4346,"ĠGo":4347,"Ġtwice":4348,"ample":4349,"Ġcrying":4350,"Ġsolic":4351,"esty":4352,"Ġinstruct":4353,"ĠIsrael":4354,"ĠApril":4355,"Ġfailed":4356,"irgin":4357,"Ġrag":4358,"Ġgrey":4359,"Ġladies":4360,"ĠAugust":4361,"rey":4362,"Ġapproach":4363,"Ġax":4364,"Ġbill":4365,"Ġgrief":4366,"uted":4367,"Ġleap":4368,"Ġterror":4369,"ART":4370,"Ġdisappeared":4371,"ĠSara":4372,"ĠFred":4373,"ĠPerhaps":4374,"Ġsuggest":4375,"cked":4376,"ĠMed":4377,"Ġdistur":4378,"ral":4379,"Ġhes":4380,"Ġmel":4381,"Ġextent":4382,"chen":4383,"host":4384,"Ġgas":4385,"Ġfarm":4386,"ĠCongress":4387,"Ġtum":4388,"vey":4389,"ĠĠĠĠĠĠĠĠĠĠĠĠĠĠ":4390,"Ġcareful":4391,"Ġobtained":4392,"Ġapparent":4393,"III":4394,"Ġcool":4395,"Ġdue":4396,"leg":4397,"ĠRuss":4398,"Ġresist":4399,"mund":4400,"Ġresem":4401,"Ġquant":4402,"Ġpoet":4403,"Ġdesign":4404,"Ġattend":4405,"Ġpa":4406,"Ġassem":4407,"ĠSheriff":4408,"Ġrequest":4409,"Ġtest":4410,"Ġstepped":4411,"Ġshel":4412,"aker":4413,"Ġtales":4414,"ĠYes":4415,"Ġwooden":4416,"Ġhelped":4417,"ederal":4418,"Ġtied":4419,"ĠGu":4420,"Ġeverybody":4421,"Ġperforming":4422,"ye":4423,"Ġreb":4424,"Ġplate":4425,"Ġattract":4426,"Ġthunder":4427,"ips":4428,"Ġwindows":4429,"ocr":4430,"hib":4431,"Ġsin":4432,"Ġpowerful":4433,"ounced":4434,"ĠThose":4435,"Ġlone":4436,"Ġ200":4437,"Ġwitness":4438,"oly":4439,"Ġserious":4440,"ĠTer":4441,"ĠCamp":4442,"ĠJew":4443,"Ġmaiden":4444,"stand":4445,"ĠOct":4446,"Ġproble":4447,"izard":4448,"41":4449,"Ġflying":4450,"Ġaccompl":4451,"ĠLewis":4452,"ĠJac":4453,"Ġfal":4454,"ĠHigh":4455,"Ġsupper":4456,"Ġprovisions":4457,"ĠScot":4458,"ĠSunday":4459,"To":4460,"Ġmurm":4461,"Ġpin":4462,"Ġlevel":4463,"while":4464,"yer":4465,"atives":4466,"aries":4467,"Ġmeal":4468,"eless":4469,"Ġfeathers":4470,"Ġbend":4471,"Ġwhenever":4472,"Ġceased":4473,"Ġbeasts":4474,"REE":4475,"ĠAdams":4476,"ĠLuc":4477,"ĠEX":4478,"Ġcircle":4479,"Ġsucceeded":4480,"ĠBo":4481,"Ġfriendly":4482,"ville":4483,"Ġslain":4484,"aly":4485,"Ġgen":4486,"ĠThree":4487,"Ġforeign":4488,"Ġfault":4489,"Ġnaught":4490,"ĠSim":4491,"Ġleader":4492,"erable":4493,"Ġthorough":4494,"ĠSig":4495,"gel":4496,"arted":4497,"ĠMissou":4498,"Ġdangerous":4499,"Ġconversation":4500,"asc":4501,"ĠEr":4502,"Ġfellows":4503,"Ġfortune":4504,"Ġfrequently":4505,"Ġvessels":4506,"Ġwolf":4507,"Ġshoes":4508,"enger":4509,"Ġ1804":4510,"Ġsafety":4511,"Ġrope":4512,"Ġbask":4513,"see":4514,"Ġmeasure":4515,"arest":4516,"erer":4517,"Ġlanded":4518,"Ġcous":4519,"Ġanger":4520,"Ġflag":4521,"Ġfate":4522,"Ġpoints":4523,"Ġassistance":4524,"Ġcalling":4525,"Ġsooner":4526,"Ġcreating":4527,"Ġmessage":4528,"itch":4529,"Ġhither":4530,"Ġreward":4531,"Ġrout":4532,"umn":4533,"Ġfalls":4534,"smith":4535,"Ġfile":4536,"estern":4537,"Ġresolved":4538,"ker":4539,"Ġmentioned":4540,"UN":4541,"Ġtask":4542,"ĠGood":4543,"acks":4544,"Ġrolled":4545,"Ġadvanced":4546,"Ġmidst":4547,"Ġdrop":4548,"Ġadmir":4549,"culiar":4550,"Ġmovement":4551,"Ġban":4552,"ĠNature":4553,"orted":4554,"Ġmeaning":4555,"ĠBritain":4556,"10":4557,"ĠChurch":4558,"view":4559,"Ġpp":4560,"uses":4561,"Ġreported":4562,"ĠMel":4563,"ĠDam":4564,"resp":4565,"OS":4566,"Ġshame":4567,"Ġdoors":4568,"ĠOz":4569,"Ġexplain":4570,"Ġfastened":4571,"Ġstruggle":4572,"master":4573,"oned":4574,"Ġfeelings":4575,"Ġadvice":4576,"Ġsituation":4577,"Ġmort":4578,"ĠSqu":4579,"Ġgrad":4580,"Ġprevious":4581,"Ġseated":4582,"Ġyours":4583,"Ġpeculiar":4584,"Ġhoped":4585,"rant":4586,"Ġcommanded":4587,"Ġcliff":4588,"OOK":4589,"armed":4590,"Ġgle":4591,"ĠII":4592,"Ġsuit":4593,"cing":4594,"ama":4595,"ĠJimmy":4596,"Ġdollars":4597,"Ġconstant":4598,"Ġlicense":4599,"Ġsailed":4600,"ograph":4601,"Ġserved":4602,"Ġtemper":4603,"Ġpowers":4604,"Ġthrust":4605,"ander":4606,"Ġdemanded":4607,"Ġwelcome":4608,"ET":4609,"Ġsang":4610,"ading":4611,"Ġafterward":4612,"Ġattached":4613,"Ġsurv":4614,"Ġshining":4615,"ius":4616,"Ġlinks":4617,"ĠMon":4618,"Ġexec":4619,"Ġkeen":4620,"Ġcrossed":4621,"Ġverry":4622,"ĠSec":4623,"Ġstation":4624,"Ġintrodu":4625,"Ġunh":4626,"Ġamaz":4627,"Ġelectric":4628,"Ġstrike":4629,"Ġsuggested":4630,"Ġsplendid":4631,"Go":4632,"ials":4633,"mes":4634,"Ġdance":4635,"ĠMarch":4636,"ĠRom":4637,"Ġunw":4638,"Ġcord":4639,"inging":4640,"ĠJane":4641,"Ġbride":4642,"Ġsuffer":4643,"Ġtent":4644,"Ġamid":4645,"Ġadvantage":4646,"ona":4647,"ĠNever":4648,"ĠThough":4649,"Ġamount":4650,"Ġconfir":4651,"ĠRichard":4652,"Ġclouds":4653,"Ġdiscuss":4654,"Ġaccompan":4655,"Ġstern":4656,"ization":4657,"Ġchest":4658,"CII":4659,"ĠDAM":4660,"inite":4661,"itement":4662,"Ġwhist":4663,"ĠDem":4664,"Ġdefective":4665,"Ġfamiliar":4666,"Ġcell":4667,"mother":4668,"ĠDes":4669,"Ġpra":4670,"Ġincident":4671,"Ġpaying":4672,"ivered":4673,"Ġearli":4674,"Ġcountries":4675,"ĠLIMIT":4676,"Ġapplicable":4677,".=":4678,"erences":4679,"Ġarg":4680,"Ġboats":4681,"Ġolder":4682,"Ġpresented":4683,"Al":4684,"Ġmud":4685,"Ġnav":4686,"Ġshop":4687,"Ġarmed":4688,"Ġguide":4689,"Ġburning":4690,"Ġaltogether":4691,"anic":4692,"ĠChe":4693,"ental":4694,"Ġproof":4695,"Ġprec":4696,"Ġgloom":4697,"Ġcolour":4698,"Ġpity":4699,"ĠMen":4700,"ILITY":4701,"iform":4702,"ems":4703,"Ġplains":4704,"Ġappre":4705,"Ġparagraphs":4706,"Ġbirth":4707,"Ġabsolute":4708,"Ġderiv":4709,"Ġunl":4710,"Ġskill":4711,"Ġstatement":4712,"ĠChristmas":4713,"ĠLIMITED":4714,"When":4715,"ĠGree":4716,"Ġnobody":4717,"Ġprogress":4718,"Ġlimitation":4719,"ĠArchie":4720,"lot":4721,"adel":4722,"unn":4723,"Ġgrace":4724,"Ġslay":4725,"Ġsounds":4726,"Ġfifteen":4727,"Ġroots":4728,"Ġbrain":4729,"Ġincl":4730,"Ġrage":4731,"Ġvalue":4732,"Ġdespair":4733,"_[":4734,"Ġdw":4735,"ĠHall":4736,"ĠDE":4737,"ĠVirgin":4738,"Ġstead":4739,"Ġlesson":4740,"ĠSea":4741,"ĠDAMAG":4742,"ĠWorld":4743,"iction":4744,"engers":4745,"Ġsisters":4746,"Ġbones":4747,"ĠGwen":4748,"istr":4749,"ĠOut":4750,"fortun":4751,"Ġsufficient":4752,"Ġbrief":4753,"Ġcities":4754,"ĠFirst":4755,"Ġblank":4756,"ĠJackson":4757,"Ġblew":4758,"onsieur":4759,"ĠTerr":4760,"Ġunknown":4761,"Ġcircumstances":4762,"Ġfeed":4763,"Ġbegun":4764,"Ġwants":4765,"Ġinstantly":4766,"aver":4767,"ĠMich":4768,"Ġblock":4769,";--":4770,"hand":4771,"erved":4772,"Ġsinging":4773,"Ġsending":4774,"Ġclimbed":4775,"Ġexcellent":4776,"ode":4777,"hens":4778,"Ġreplacement":4779,"Ġpayments":4780,"Ġexcitement":4781,"ege":4782,"vation":4783,"osen":4784,"Ġeducation":4785,"net":4786,"Ġeating":4787,"Ġweary":4788,"Ġnodd":4789,"Ġener":4790,"Ġdonate":4791,"Ġmilk":4792,"Ġcaut":4793,"Ġlies":4794,"Ġcontent":4795,"Ġuseful":4796,"Ġproduce":4797,"Ġarrows":4798,"opy":4799,"Ġcomplying":4800,"Ġcredit":4801,"ĠCat":4802,"Ġrate":4803,"Ġleaped":4804,"soever":4805,"22":4806,"Ġsevere":4807,"ĠCle":4808,"Ġwheel":4809,"using":4810,"Ġvig":4811,"Ġentity":4812,"Ġredistribut":4813,"ĠMid":4814,"Ġindust":4815,"Ġwound":4816,"Ġshell":4817,"Ġfeared":4818,"Ġgenerations":4819,"Ġclosely":4820,"Ġforgot":4821,"Ġbased":4822,"Ġcit":4823,"Ġnations":4824,"ĠSand":4825,"Ġmead":4826,"Ġuser":4827,"clusion":4828,"Ġprecious":4829,"Ġpromin":4830,"Ġhal":4831,"ĠSwift":4832,"Ġarrange":4833,"HT":4834,"ĠEach":4835,"ĠComp":4836,"13":4837,"Ġtom":4838,"Ġreaching":4839,"Ġmaterial":4840,"ĠASCII":4841,"Ġdeck":4842,"Ġdozen":4843,"Ġbegged":4844,"ĠAbout":4845,"Ġarticles":4846,"Ġderivative":4847,"Ġgain":4848,"Ġrail":4849,"Ġconsequ":4850,"fall":4851,"ĠYour":4852,"Ġapproached":4853,"ĠCharles":4854,"mond":4855,"ĠDid":4856,"ĠChild":4857,"ĠMore":4858,"Ġprove":4859,"Ġdesper":4860,"reg":4861,"Ġmeas":4862,"Ġmarriage":4863,"Ġvisited":4864,"Ġhonest":4865,"Ġintellectual":4866,"vah":4867,"reamed":4868,"Ġstock":4869,"ĠColl":4870,"Ġsociety":4871,"usted":4872,"ĠLa":4873,"ĠAny":4874,"Ġsatisfied":4875,"eenth":4876,"Ġprepar":4877,"ĠLyons":4878,"tr":4879,"Ġpopular":4880,"Ġstretched":4881,"itchen":4882,"Ġinstr":4883,"hovah":4884,"Ġodd":4885,"ĠNE":4886,"Ġgrate":4887,"Ġvictory":4888,"CK":4889,"ggs":4890,"Ġlack":4891,"Ġremaining":4892,"Ġtower":4893,"Ġtreasure":4894,"Ġrelations":4895,"Ġsour":4896,"orious":4897,"Ġconcept":4898,"place":4899,"Ġsoftly":4900,"Ġbought":4901,"ĠLong":4902,"ĠAndre":4903,"Ġaccident":4904,"Ġcolored":4905,"iest":4906,"Ġcommer":4907,"Ġwarriors":4908,"Ġtaste":4909,"ĠMissouri":4910,"IM":4911,"Ġpushed":4912,"ĠHaving":4913,"Ġlimited":4914,"Ġwondered":4915,"Ġdig":4916,"ĠBear":4917,"Ġclo":4918,"Ġdistinct":4919,"ĠHerbert":4920,"Ġlamp":4921,"ĠSil":4922,"Ġseason":4923,"Ġotherwise":4924,"Ġcotton":4925,"ĠWH":4926,"Ġjustice":4927,"Ġafford":4928,"Ġpictures":4929,"Ġflower":4930,"Ġexpens":4931,"Ġvoices":4932,"ayen":4933,"Ġdeem":4934,"Are":4935,"ule":4936,"Ġbranch":4937,"Ġstayed":4938,"het":4939,"Ġpine":4940,"aches":4941,"Ġuniform":4942,"Ġlock":4943,"Ġyounger":4944,"Ġholy":4945,"Ġtub":4946,"Ġpipe":4947,"acle":4948,"izing":4949,"Ġresc":4950,"Ġadvance":4951,"Ġjudge":4952,"ulf":4953,"ols":4954,"Ġunable":4955,"uf":4956,"oming":4957,"anging":4958,"Ġtriumph":4959,"Ġgently":4960,"ession":4961,"ĠSeward":4962,"Ġthroat":4963,"ĠThomas":4964,"Ġholes":4965,"ĠRoyal":4966,"theless":4967,"Ġhappiness":4968,"Ġarrival":4969,"Ġcart":4970,"Ġspear":4971,"enny":4972,"Ġneighbour":4973,"Ġincreased":4974,"ishop":4975,"Ġburned":4976,"Ġworthy":4977,"Ġcompletely":4978,"addy":4979,"Ġslipped":4980,"Ġhundreds":4981,"Ġmaintain":4982,"Ġremarkable":4983,"Ġqueer":4984,"Ġcro":4985,"Ġstared":4986,"ĠBes":4987,"Ġchosen":4988,"ĠJoe":4989,"Ġevidence":4990,"ĠRomans":4991,"Ġpressed":4992,"ĠSaid":4993,"ĠRoman":4994,"Ġexample":4995,".=--":4996,"alks":4997,"Ġfleet":4998,"looking":4999,"ĠDane":5000,"Ġvoyage":5001,"Ġended":5002,"Ġfold":5003,";\"":5004,"maid":5005,"Ġnet":5006,"Ġworst":5007,"Ġ90":5008,"ĠIND":5009,"Ġretain":5010,"Ġpapers":5011,"Ġsell":5012,"ĠCour":5013,"ĠFin":5014,"Ġevidently":5015,"Ġlegal":5016,"Ġregarded":5017,"Ġkissed":5018,"tter":5019,"omen":5020,"Ġgained":5021,"ainted":5022,"she":5023,"Ġpil":5024,"vert":5025,"ĠStr":5026,"Ġexcited":5027,"ĠJehovah":5028,"Of":5029,"itated":5030,"ids":5031,"Ġeaten":5032,"Ġadventure":5033,"Ġsolemn":5034,"Look":5035,"Ġbas":5036,"Ġportion":5037,"Ġguns":5038,"rooge":5039,"ky":5040,"tree":5041,"ĠHad":5042,"Ġavail":5043,"Ġinhabitants":5044,"Ġconclud":5045,"Ġsuffered":5046,"Ġcorrect":5047,"Ġfoolish":5048,"five":5049,"ober":5050,"Ġvirt":5051,"cles":5052,"Ġmounted":5053,"Ġ\"_":5054,"Ġstuff":5055,"Ġdoctor":5056,"ĠDamon":5057,"bits":5058,"Ġfired":5059,"Ġcapital":5060,"zan":5061,"rees":5062,"ulation":5063,"Ġundert":5064,"ERS":5065,"nds":5066,"Ġdull":5067,"Ġbringing":5068,"Ġmaj":5069,"Ġbearing":5070,"ĠMaid":5071,"Ġsmiling":5072,"ĠScrooge":5073,"Ġtreatment":5074,"Ġlodge":5075,"ACH":5076,"ĠRem":5077,"istered":5078,"ittee":5079,"Ġbridge":5080,"ibility":5081,"dr":5082,"Ġrow":5083,"ighed":5084,"uary":5085,"ĠWas":5086,"Ġkitchen":5087,"Ġneeds":5088,"no":5089,"asant":5090,"Ġstaff":5091,"aming":5092,"ĠLake":5093,"Ġsupply":5094,"Ġcontrol":5095,"which":5096,"Ġsacrif":5097,"adelph":5098,"Ġcere":5099,"oting":5100,"Ġclever":5101,"ĠOctober":5102,"overy":5103,"Ġanybody":5104,"udden":5105,"Ġgreet":5106,"Ġperformed":5107,"IRE":5108,"Ġtoday":5109,"Ġlest":5110,"stairs":5111,"iece":5112,"Ġfairy":5113,"Ġain":5114,"Ġaim":5115,"Ġexch":5116,"Ġexceed":5117,"uments":5118,"Ġpride":5119,"Ġflung":5120,"Ġimpl":5121,"Ġindepend":5122,"Ġoccurred":5123,"adelphia":5124,"Ġdi":5125,"ĠMake":5126,"Ġtimber":5127,"Ġremains":5128,"Ġere":5129,"ĠWood":5130,"Ġupward":5131,"ĠDuring":5132,"ĠAfric":5133,"Ġconnected":5134,"ĠMass":5135,"ĠWizard":5136,"Ġalarm":5137,"Ġscore":5138,"nam":5139,"Ġbrass":5140,"Ġmember":5141,"law":5142,"Ġpup":5143,"ĠAponib":5144,"Ġtar":5145,"Ġmam":5146,"ĠTell":5147,"Ġsuppl":5148,"Ġactually":5149,"Ġdirected":5150,"Ġaloud":5151,"Ġarch":5152,"Ġdistingu":5153,"Ġinterrupt":5154,"Ġprisoner":5155,"Ġaccompanied":5156,"Ġlin":5157,"Ġliberty":5158,"ao":5159,"Ġocean":5160,"ĠHon":5161,"ĠRose":5162,"Ġretreat":5163,"Ġshowing":5164,"ĠSus":5165,"ĠAunt":5166,"Ġcraft":5167,"Ġinterested":5168,"Ġshr":5169,"Ġlog":5170,"Ġaffection":5171,"IVE":5172,"OSE":5173,"Ġhate":5174,"As":5175,"pire":5176,"Ġaware":5177,"Ġfairly":5178,"cribe":5179,"For":5180,"teen":5181,"Ġcult":5182,"ĠMost":5183,"Ġworn":5184,"seless":5185,"Ġfalse":5186,"respond":5187,"Ġbal":5188,"olin":5189,"unning":5190,"Ġtrick":5191,"ares":5192,"anges":5193,"ĠGrace":5194,"rier":5195,"Ġminds":5196,"ternal":5197,"Ġfortun":5198,"Pl":5199,"ĠMo":5200,"Ġgrat":5201,"Ġprint":5202,"Ġslavery":5203,"AV":5204,"iring":5205,"ĠPort":5206,"ĠPaul":5207,"Ġwarning":5208,"ĠSeptember":5209,"Did":5210,"].":5211,"Ġsigh":5212,"oop":5213,"osity":5214,"otting":5215,"Ġpolicy":5216,"Ġimportance":5217,"Ġdelighted":5218,"Ġfaithful":5219,"Ġlaughter":5220,"Ġgrie":5221,"Ġsore":5222,"Ġbutter":5223,"ĠReddy":5224,"Ġfancy":5225,"Ġshaft":5226,"Ġrare":5227,"Ġspect":5228,"Ġfollows":5229,"Ġmarch":5230,"Ġdouble":5231,"Ġhanging":5232,"Ġentertain":5233,"Ġleaders":5234,"Ġspecies":5235,"ĠSometimes":5236,"ially":5237,"uced":5238,"sey":5239,"Ġriding":5240,"port":5241,"Ġthine":5242,"ĠSaw":5243,"Ġabund":5244,"umber":5245,"ancelot":5246,"Ġswept":5247,"Ġglance":5248,"Ġkindness":5249,"eav":5250,"ĠIII":5251,"Ġstage":5252,"Ġthrone":5253,"Ġsigns":5254,"ĠPhiladelphia":5255,"time":5256,"oston":5257,"Ġkinds":5258,"ORY":5259,"Ġfederal":5260,"velt":5261,"Ġdece":5262,"ĠĠĠĠĠĠĠĠĠĠĠĠĠĠĠĠĠĠĠ":5263,"Ġconscious":5264,"Ġsoldier":5265,"isher":5266,"Ġdestroyed":5267,"aling":5268,"owned":5269,"Ġteach":5270,"Ġdivided":5271,"Ġsurrounded":5272,"cent":5273,"ige":5274,"iation":5275,"ndered":5276,"Ġpounds":5277,"Ġgay":5278,"ĠVirginia":5279,"ĠMichael":5280,"Ġease":5281,"Ġcard":5282,"Ġcases":5283,"Ġlights":5284,"utch":5285,"ĠGreek":5286,"ĠDay":5287,"Ġblaz":5288,"Ġ32":5289,"Ġspark":5290,"Ġsmaller":5291,"ishes":5292,"Ġdared":5293,"there":5294,"Ġpractice":5295,"Ġprisoners":5296,"Ġdaily":5297,"Ġcarriage":5298,"Ġproblem":5299,"Ġyield":5300,"Ġignor":5301,"Ġmanaged":5302,"Ġune":5303,"14":5304,"Ġhadn":5305,"ĠHart":5306,"Ġleaf":5307,"Ġjew":5308,"apping":5309,"Ġcompelled":5310,"Ġmercy":5311,"Ġframe":5312,"Ġsafely":5313,"Ġbenef":5314,"Ġexpedition":5315,"ais":5316,"Ġprice":5317,"Ġencour":5318,"Ġevents":5319,"Ġmat":5320,"Ġthread":5321,"Ġshalt":5322,"Ġrabbit":5323,"ĠFore":5324,"quet":5325,"inking":5326,"ĠFrank":5327,"oosevelt":5328,"atory":5329,"they":5330,"Ġhorror":5331,"Ġcontaining":5332,"ĠConfeder":5333,"ĠLucy":5334,"Ġthoroughly":5335,"Be":5336,"gly":5337,"Ġsuspect":5338,"Ġrelief":5339,"Ġfigures":5340,"Ġfil":5341,"ĠBoston":5342,"ĠCy":5343,"Ġsmell":5344,"Ġasking":5345,"uce":5346,"Ġemer":5347,"ĠCal":5348,"ieve":5349,"Ġproject":5350,"END":5351,"Ġtear":5352,"ĠNO":5353,"ĠSpir":5354,"Ġgentlemen":5355,"Ġwisdom":5356,"Ġtroops":5357,"Ġshelter":5358,"nut":5359,"Ġaud":5360,"Ġbanks":5361,"ĠLancelot":5362,"Ġparties":5363,"Ġpossibly":5364,"Ġpersonal":5365,"pent":5366,"ĠOther":5367,"ributed":5368,"Ġdifference":5369,"Ġprompt":5370,"Ġeleven":5371,"Ġpos":5372,"Ġpages":5373,"Ġlessons":5374,"Ġsolid":5375,"arf":5376,"Ġstiff":5377,"ĠRoosevelt":5378,"Ġcler":5379,"Ġdesert":5380,"Ġfourth":5381,"ĠEmperor":5382,"Ġexistence":5383,"Ġcitiz":5384,"Ġwret":5385,"enced":5386,"ĠNove":5387,"ĠHeaven":5388,"oused":5389,"Ġsuspic":5390,"uz":5391,"Ġwhir":5392,"Ġdrank":5393,"ĠParis":5394,"uke":5395,"Ġtiny":5396,"Ġdawn":5397,"Ġexpressed":5398,"Ġsteel":5399,"Ġawful":5400,"Ġclimb":5401,"Ġmerchant":5402,"ĠBart":5403,"clam":5404,"ĠCanada":5405,"Ġaccordance":5406,"ĠEdmund":5407,"Ġlonely":5408,"Ġ...":5409,"Ġbol":5410,"Ġfem":5411,"Ġoccupied":5412,"gest":5413,"Ġwilt":5414,"ĠUse":5415,"Ġsubst":5416,"Ch":5417,"ĠEv":5418,"Ġpersu":5419,"Ġvariety":5420,"On":5421,"Ġreck":5422,"Ġseas":5423,"astic":5424,"Ġimpat":5425,"Ġdegree":5426,"Ġsavage":5427,"ĠTravis":5428,"19":5429,"Ġber":5430,"ĠSn":5431,"ciples":5432,"Ġenth":5433,"Ġweapons":5434,"Ġeggs":5435,"ka":5436,"ĠAR":5437,"Ġleather":5438,"Ġthousands":5439,"ef":5440,"lished":5441,"ĠHill":5442,"otted":5443,"iday":5444,"ĠTw":5445,"ĠLouis":5446,"Ġhunter":5447,"ĠAnother":5448,"Ġaffairs":5449,"Ġnodded":5450,"Ġwhatsoever":5451,"ĠKay":5452,"Ġappeal":5453,"Ġreflect":5454,"Ġ45":5455,"Ġpubl":5456,"Ġobjects":5457,"Ġversion":5458,"ĠIng":5459,"sect":5460,"Ġlibr":5461,"ĠThou":5462,"Ġtells":5463,"Ġassured":5464,"Ġtowns":5465,"Ġsch":5466,"Ġmix":5467,"ĠEle":5468,"Ġcease":5469,"opyright":5470,"met":5471,"sl":5472,"Ġmodern":5473,"Ġauthority":5474,"Ġcouple":5475,"enance":5476,"ĠAlex":5477,"uls":5478,"Ġobtaining":5479,"Ġinquired":5480,"bow":5481,"ims":5482,"Ġcoff":5483,"Ġrifle":5484,"Ġcommitted":5485,"alem":5486,"Ġmarket":5487,"Ġhighest":5488,"Ġexpenses":5489,"Ġtit":5490,"ĠSudden":5491,"Ġhandle":5492,"ĠChap":5493,"Ġcarpet":5494,"aham":5495,"Ġdelay":5496,"Ġsounded":5497,"Ġcabin":5498,"hea":5499,"ĠLike":5500,"asty":5501,"Ġstring":5502,"Ġremove":5503,"Ġschools":5504,"Ġnaturally":5505,"nal":5506,"off":5507,"Ġmult":5508,"Ġdign":5509,"Ġjolly":5510,"ault":5511,"ĠDel":5512,"Ġgoods":5513,"Ġdeeply":5514,"Ġmethods":5515,"ĠAh":5516,"Ġprefer":5517,"Ġcontinue":5518,"Ġgranted":5519,"Ġcraw":5520,"Ġendeav":5521,"Ġconfess":5522,"ĠIm":5523,"Ġshone":5524,"Ġworship":5525,"apers":5526,"Ġamongst":5527,"upon":5528,"Ġeagerly":5529,"kins":5530,"illing":5531,"Ġbecomes":5532,"Ġwishes":5533,"Ġnigh":5534,"ĠSax":5535,"Ġmanage":5536,"Ġreceipt":5537,"Ġpainted":5538,"Ġmistake":5539,"Ġcrept":5540,"Ġcommunic":5541,"Ġpoured":5542,"Ġarranged":5543,"Louis":5544,"Ġadop":5545,"Ġbelt":5546,"atures":5547,"Ġgates":5548,"cho":5549,"ĠDal":5550,"apan":5551,"Ġmyster":5552,"arsh":5553,"Ġaffair":5554,"Ġmour":5555,"ĠIr":5556,"olk":5557,"ĠJud":5558,"Ġattitude":5559,"Ġseries":5560,"Ġfires":5561,"Ġpassion":5562,"Ġadmitted":5563,"Ġmoral":5564,"17":5565,"Ġduck":5566,"Ġerect":5567,"ĠLook":5568,"ĠIndeed":5569,"Ġactiv":5570,"Ġconfidence":5571,"Ġwhisper":5572,"ea":5573,"Ġlion":5574,"Ġ60":5575,"Ġfacts":5576,"Ġcousin":5577,"ĠNovember":5578,"Your":5579,"Ġrese":5580,"ĠFri":5581,"ums":5582,"Ġuntill":5583,"igned":5584,"Ġpuzz":5585,"Ġdefend":5586,"Ġphil":5587,"Ġinnoc":5588,"Ġweapon":5589,"olinayen":5590,"ĠSuddenly":5591,"Ġcanoe":5592,"ĠInst":5593,"Ġpolitical":5594,"ĠColumbus":5595,"aks":5596,"Ġenv":5597,"Ġbord":5598,"Ġcries":5599,"Ġswall":5600,"Ġruns":5601,"ĠBobb":5602,"ĠSpanish":5603,"By":5604,"Ġhiding":5605,"Ġwaste":5606,"ITH":5607,"Ġbatter":5608,"orous":5609,"ĠTHAT":5610,"Ġconstit":5611,"Ġemployed":5612,"====":5613,"Wh":5614,"Ġaunt":5615,"ĠTex":5616,"Ġequally":5617,"ĠGerald":5618,"Ġdying":5619,"Ġkings":5620,"quent":5621,"Ġraise":5622,"Nay":5623,"uated":5624,"Ġhind":5625,"Ġinch":5626,"ĠMark":5627,"Ġappointed":5628,"Ġinstance":5629,"Ġsatisfaction":5630,"ĠExcept":5631,"Ġenthus":5632,"IB":5633,"Ġthanks":5634,"Ġbasket":5635,"uable":5636,"uries":5637,"Ġfug":5638,"Ġghost":5639,"acc":5640,"ĠAre":5641,"ĠFort":5642,"ensive":5643,"Ġfarmer":5644,"Ġdrift":5645,"Ġsleeping":5646,"ĠXV":5647,"Ġbelonged":5648,"Very":5649,"Ġshows":5650,"Ġaltern":5651,"Ġroll":5652,"Ġscrew":5653,"Ġrights":5654,"ipping":5655,"Ġris":5656,"Ġsilk":5657,"Ġwing":5658,"Ġbul":5659,"Ġcoo":5660,"Ġshield":5661,"Ġrum":5662,"ival":5663,"Ġflood":5664,"Ġhastily":5665,"gment":5666,"istic":5667,"inding":5668,"Ġ189":5669,"Ġnerv":5670,"Ġtraining":5671,"aturday":5672,"ĠBesides":5673,"Ġbat":5674,"ĠTem":5675,"iments":5676,"Ġspare":5677,"Ġindign":5678,"astern":5679,"then":5680,"Ġascend":5681,"Ġreferences":5682,"Ġsteep":5683,"Ġbehold":5684,"ĠEdward":5685,"An":5686,"foot":5687,"Ġsorts":5688,"Ġlighted":5689,"Ġtroubles":5690,"Ġtrial":5691,"Ġengine":5692,"Ġwww":5693,"Ġcrack":5694,"Ġsubjects":5695,"Ġsympathy":5696,"ete":5697,"urely":5698,"Ġmarched":5699,"ĠBuck":5700,"Ġextraord":5701,"Ġboots":5702,"lets":5703,"Ġcheeks":5704,"Ġstands":5705,"Ġhaste":5706,"yram":5707,"Ġimagine":5708,"held":5709,"Ġbree":5710,"ĠFeb":5711,"Ġspake":5712,"umes":5713,"Ġcomfortable":5714,"Ġsoil":5715,"Ġmoments":5716,"ĠWILL":5717,"ĠThr":5718,"Ġglory":5719,"lessly":5720,"Ġaccompany":5721,"Ġbew":5722,"ĠPsmith":5723,"Ġflame":5724,"ENSE":5725,"THER":5726,"Ġben":5727,"Ġrush":5728,"Ġgrim":5729,"Ġproport":5730,"Per":5731,"lers":5732,"ĠMab":5733,"Ġdeb":5734,"Ġgets":5735,"force":5736,"Ġcosts":5737,"lock":5738,"Ġplans":5739,"Ġsubs":5740,"Ġlibrary":5741,"ĠHave":5742,"Ġbreaking":5743,"ĠAponibolinayen":5744,"Ġsank":5745,"orth":5746,"Ġyard":5747,"imate":5748,"ooks":5749,"Ġforehead":5750,"ULL":5751,"long":5752,"Ġscream":5753,"Ġcrime":5754,"Ġrestrict":5755,"Ġbadly":5756,"Ġpaused":5757,"can":5758,"rily":5759,"ĠPlease":5760,"Ġarrest":5761,"ĠDeer":5762,"Ġislands":5763,"Ġreligious":5764,"Ġapparently":5765,"Ġnotes":5766,"ĠRou":5767,"aunt":5768,"eps":5769,"Ġimper":5770,"ĠNext":5771,"ĠSpirit":5772,"Ġtoss":5773,"Ġlit":5774,"omed":5775,"lebr":5776,"Ġcomr":5777,"Ġovert":5778,"Ġsetting":5779,"azy":5780,"Ġrooms":5781,"LI":5782,"din":5783,"nie":5784,"Ġwol":5785,"Ġcopied":5786,"aughters":5787,"ĠDece":5788,"ris":5789,"rels":5790,"ators":5791,"stone":5792,"Ġrisk":5793,"oser":5794,"Ġestablished":5795,"eel":5796,"pse":5797,"Ġwash":5798,"Ġven":5799,"Ġeverywhere":5800,"Ġbelief":5801,"Ġdamages":5802,"Ġtribe":5803,"ĠTarzan":5804,"min":5805,"Ġpoison":5806,"Ġregistered":5807,"alties":5808,"Ġswiftly":5809,"arse":5810,"Ġreceiving":5811,"Ġmonster":5812,"ux":5813,"Ġfitted":5814,"ĠEB":5815,"Ġblows":5816,"Ġrust":5817,"Ġrice":5818,"ROM":5819,"ustomed":5820,"Ġresearch":5821,"RY":5822,"ST":5823,"born":5824,"Ġfiles":5825,"Ġstairs":5826,"ĠDou":5827,"pless":5828,"Ġreturning":5829,"Ġdreams":5830,"Ġbrill":5831,"ĠWil":5832,"ĠSpain":5833,"after":5834,"Ġbottle":5835,"Ġelder":5836,"Ġexha":5837,"Ġwhence":5838,"Ġowns":5839,"Ġlistening":5840,"Ġnational":5841,"Ġrespons":5842,"reet":5843,"Ġsty":5844,"Ġknocked":5845,"Ġsomewhere":5846,"Ġperceived":5847,"Ġfetch":5848,"Ġheed":5849,"Ġstuck":5850,"apes":5851,"Ġexempt":5852,"Ġhopes":5853,"Ġoil":5854,"ĠSaturday":5855,"Ġric":5856,"ĠRome":5857,"Ġhanded":5858,"ecause":5859,"ĠINC":5860,"20":5861,"Ġscient":5862,"itol":5863,"ldom":5864,"Ġrad":5865,"Ġdey":5866,"Ġhighly":5867,"oos":5868,"uster":5869,"Ġunus":5870,"Ġstraw":5871,"ints":5872,"ributions":5873,"Ġwitch":5874,"Ġstup":5875,"Ġapply":5876,"Ġimmense":5877,"Ġforever":5878,"ĠScar":5879,"ĠHonor":5880,"ĠDecember":5881,"Ġliter":5882,"Ġge":5883,"Ġugly":5884,"ĠBro":5885,"Ġknock":5886,"Ġteam":5887,"ology":5888,"Ġexercise":5889,"Ġshed":5890,"ĠDanny":5891,"ĠKat":5892,"Ġswung":5893,"insmore":5894,"Ġsolicit":5895,"oms":5896,"ĠBRE":5897,"ĠLok":5898,"Ġbrush":5899,"Ġcanoes":5900,"Ġinstinct":5901,"RIB":5902,"ĠSum":5903,"ushes":5904,"Ġgrin":5905,"Ġexperien":5906,"urse":5907,"Ġattacked":5908,"Ġnights":5909,"Ġawake":5910,"Ġcelebr":5911,"Ġtorn":5912,"ulous":5913,"Ġabide":5914,"ĠON":5915,"Ġamuse":5916,"ungle":5917,"Ġdepend":5918,"ĠJanuary":5919,"acious":5920,"ĠDinsmore":5921,"ico":5922,"aints":5923,"ĠWolf":5924,"Ġdiscovery":5925,"Ġbuffalo":5926,"inal":5927,"ĠSal":5928,"ĠMus":5929,"ulated":5930,"ĠRoad":5931,"owder":5932,"Ġgovernor":5933,"EMENT":5934,"fund":5935,"Ġoh":5936,"Ġfare":5937,"oring":5938,"Ġseeking":5939,"Ġreports":5940,"Ġsnake":5941,"Ġawoke":5942,"ĠDanes":5943,"Ġrecognized":5944,"De":5945,"dated":5946,"Ġz":5947,"Ġdaughters":5948,"ĠMonsieur":5949,"Ġrange":5950,"Ġknee":5951,"Ġclub":5952,"Ġemployees":5953,"Sh":5954,"liament":5955,"ĠAmong":5956,"Ġess":5957,"Ġhol":5958,"ĠPG":5959,"ĠWigg":5960,"Ġenorm":5961,"Ġinvited":5962,"30":5963,"Ġtempt":5964,"Ġham":5965,"Ġdeeds":5966,"aper":5967,"Ġlikewise":5968,"Ġcomposed":5969,"Ġobst":5970,"Ġcorrespond":5971,"Ġincreasing":5972,"Ġavoid":5973,"field":5974,"ĠEnd":5975,"Ġens":5976,"ĠWhich":5977,"ippi":5978,"clamation":5979,"Ġinsect":5980,"aine":5981,"ago":5982,"Ġdeparted":5983,"Ġgri":5984,"ĠSU":5985,"ĠMac":5986,"ĠWOR":5987,"Ġspend":5988,"Ġcountenance":5989,"Ġregret":5990,"ĠFranc":5991,"ĠNothing":5992,"Ġwidest":5993,"kerchief":5994,"acing":5995,"rig":5996,"ĠBishop":5997,"this":5998,"Ġouter":5999,"elling":6000,"Ġprim":6001,"Ġprize":6002,"Ġsummon":6003,"Ġapproaching":6004,"ĠJacob":6005,"ĠWiggily":6006,"oul":6007,"Ġcopper":6008,"Ġextraordinary":6009,"Ġrestrictions":6010,"ĠEBOOK":6011,"eration":6012,"Ġbay":6013,"Ġsees":6014,"Ġreadable":6015,"Ġlearning":6016,"Ġgazed":6017,"IRECT":6018,"80":6019,"ĠAnthea":6020,"Ġslightly":6021,"Ġmilitary":6022,"Ġmagnific":6023,"Ġurged":6024,"rietary":6025,"rous":6026,"Ġsalt":6027,"ĠIll":6028,"agg":6029,"Ġstrict":6030,"Ġtele":6031,"Ġprayer":6032,"Ġep":6033,"ĠSnow":6034,"Ġperman":6035,"Ġbetr":6036,"Ġpriests":6037,"Ġvaluable":6038,"ĠWinona":6039,"Ġvanished":6040,"pher":6041,"Ġdancing":6042,"Ġwept":6043,"ĠFrog":6044,"Ġunfortun":6045,"Ġwaist":6046,"Ġsuffering":6047,"Ġcomputer":6048,"Ġrank":6049,"ograp":6050,"Ġdamage":6051,"!--":6052,"ĠNan":6053,"Ġtroubled":6054,"iants":6055,"ĠMead":6056,"osop":6057,"Ġpartly":6058,"Ġsuccessful":6059,"Ġdamsel":6060,"Ġspecified":6061,"Ġbeaten":6062,"bes":6063,"tha":6064,"Ġliability":6065,"Ġcrim":6066,"Ġcollect":6067,"Ġpractically":6068,"Ġtype":6069,"Ġsen":6070,"ĠWind":6071,"anta":6072,"Ġroar":6073,"Ġrested":6074,"Ġtransl":6075,"ĠPresently":6076,"ĠCommittee":6077,"gre":6078,"pro":6079,"ĠSince":6080,"ĠWITH":6081,"ĠFour":6082,"Ġtrack":6083,"Ġdiss":6084,"issippi":6085,"AY":6086,"ĠStone":6087,"Ġsteady":6088,"Ġtrip":6089,"urious":6090,"Ġeleph":6091,"IGHT":6092,"Ġhence":6093,"Ġchoice":6094,"].\"":6095,"bar":6096,"ĠDun":6097,"Ġsomehow":6098,"Ġcricket":6099,"inced":6100,"Ġhabits":6101,"ĠFULL":6102,"ĠDIST":6103,"Ġwholly":6104,"venge":6105,"Ġexpense":6106,"See":6107,"Ġsne":6108,"Ġpool":6109,"Ġneat":6110,"ĠLu":6111,"Ġconcluded":6112,"ball":6113,"who":6114,"Ġhomes":6115,"ĠPut":6116,"ĠWal":6117,"Ġconstantly":6118,"Ġreligion":6119,"Ġdeliver":6120,"kind":6121,"ĠHol":6122,"Ġshaking":6123,"Ġpromoting":6124,"ĠDAMAGES":6125,"ufact":6126,"ado":6127,"ĠMor":6128,"ĠBoy":6129,"ĠGold":6130,"Ġelectronically":6131,"Ġwave":6132,"ĠTre":6133,"ĠHim":6134,"ĠMR":6135,"iel":6136,"Ġformats":6137,"Ġfinal":6138,"Ġcutting":6139,"Ġprotection":6140,"Ġtrembling":6141,"Can":6142,"ĠSch":6143,"olen":6144,"Ġthinks":6145,"ĠTrot":6146,"Ġideas":6147,"Ġastonished":6148,"Have":6149,"isp":6150,"ese":6151,"ĠĠĠĠĠĠĠĠĠĠ":6152,"Ġdistress":6153,"Ġhelpless":6154,"Ġfrag":6155,"Ġlieu":6156,"ĠTake":6157,"ARD":6158,"Ġprominently":6159,"era":6160,"Ġmental":6161,"ĠSher":6162,"Ġpros":6163,"Ġsomebody":6164,"RIBUT":6165,"Ġanch":6166,"Ġshade":6167,"Ġplat":6168,"----\"":6169,"Ġrepresented":6170,"Ġcottage":6171,"itolau":6172,"Ġape":6173,"Ġsez":6174,"ĠLIC":6175,"ĠDaddy":6176,"ĠEs":6177,"Ġsecured":6178,"Ġhorrible":6179,"Ġsignal":6180,"Ġharb":6181,"ĠWARRANTY":6182,"ĠWARRANTIES":6183,"iot":6184,"Ġtend":6185,"Ġpier":6186,"onel":6187,"Ġtext":6188,"ĠMississippi":6189,"ĠEliz":6190,"Ġsaddle":6191,"ĠDonations":6192,"Ġinventor":6193,"Ġhoney":6194,"itor":6195,"Ġbush":6196,"Ġmasters":6197,"ĠBlue":6198,"Ġtribes":6199,"ĠVanilla":6200,"ĠLICENSE":6201,"Never":6202,"ala":6203,"apt":6204,"umps":6205,"Ġcrow":6206,"ĠNorthern":6207,"Ġillustr":6208,"Ġdevil":6209,"Ġmarks":6210,"Ġutterly":6211,"ĠMean":6212,"Ġuseless":6213,"ĠBoth":6214,"Ġsocial":6215,"ounding":6216,"Ġamb":6217,"Ġswamp":6218,"ORE":6219,"Ġ80":6220,"ĠTerms":6221,"Ġearlier":6222,"ĠDISTRIBUT":6223,".[":6224,"four":6225,"eper":6226,"Ġrefer":6227,"ĠUnion":6228,"Ġ*****":6229,"Ġviolence":6230,"Ġroyalties":6231,"ĠAponitolau":6232,"Ġabsolutely":6233,"ĠPers":6234,"Ġdelivered":6235,"Ġconstruct":6236,"Ġdiamond":6237,"ĠMabel":6238,"Ġtin":6239,"Ġseldom":6240,"Ġconven":6241,"Ġspin":6242,"Ġdisch":6243,"Ġ184":6244,"Ġlocations":6245,"Ġconcerned":6246,"ĠLIAB":6247,"ĠRoyalty":6248,"ĠBREACH":6249,"bon":6250,"pected":6251,"ĠDoctor":6252,"Ġfirmly":6253,"Ġcunning":6254,"sters":6255,"acles":6256,"ĠWall":6257,"Ġnoon":6258,"ĠHel":6259,"Ġflash":6260,"Ġslip":6261,"Ġemail":6262,"da":6263,"ĠBru":6264,"ruary":6265,"Ġrelated":6266,"Ġdisplayed":6267,"____":6268,"Ġnegro":6269,"Ġcomputers":6270,"Ġdisclaimer":6271,"Ġshake":6272,"ĠTommy":6273,"Ġfunny":6274,"Ġviolent":6275,"Ġcaptured":6276,"ĠDowning":6277,"bol":6278,"ĠAcc":6279,"Ġproc":6280,"ĠSpani":6281,"ĠAGREE":6282,"ucky":6283,"Ġawa":6284,"Ġduties":6285,"Ġenergy":6286,"Ġcloak":6287,"Ġdish":6288,"ĠSol":6289,"Ġtrap":6290,"Ġcock":6291,"ĠAshe":6292,"Ġswords":6293,"ĠRedistribut":6294,"Ġadventures":6295,"Ġgradually":6296,"Plain":6297,"ĠFebruary":6298,"Ġdanced":6299,"Ġshock":6300,"ĠPant":6301,"Ġintent":6302,"Ġintention":6303,"igr":6304,"venue":6305,"Ġaccustomed":6306,"\"--":6307,"Ġterrit":6308,"vention":6309,"Ġrealized":6310,"Ġreasonable":6311,"Ġconnection":6312,"Ġcher":6313,"Ġcake":6314,"ĠAbr":6315,"Ġmyst":6316,"Ġpolice":6317,"arrison":6318,"Ġplainly":6319,"LD":6320,"bted":6321,"Ġdashed":6322,"usalem":6323,"Ġalter":6324,"Ġglanced":6325,"Ġwrit":6326,"Ġteaching":6327,"Ġpatter":6328,"Ġbeard":6329,"ĠSaul":6330,"ĠPenn":6331,"Ġdeed":6332,"quis":6333,"Ġabroad":6334,"Ġyoungest":6335,"Ġcouncil":6336,"ĠMagic":6337,"standing":6338,"Ġox":6339,"Ġfed":6340,"ouring":6341,"Ġpole":6342,"Ġadmit":6343,"Ġsuperior":6344,"burg":6345,"Ġsport":6346,"Ġlege":6347,"Ġscrap":6348,"Ġdesperate":6349,"IBILITY":6350,"IND":6351,"mir":6352,"Ġmap":6353,"Ġshared":6354,"ands":6355,"Ġcomple":6356,"text":6357,"Ġimagination":6358,"ĠEuropean":6359,"fly":6360,"etr":6361,"Ġfeatures":6362,"Ġcompar":6363,"Ġglim":6364,"Ġconsist":6365,"Ġdirections":6366,"inese":6367,"Ġmedic":6368,"ĠSTART":6369,"Ġdragon":6370,"Ġimpression":6371,"ĠCyril":6372,"Ġdir":6373,"Ġgames":6374,"Ġrev":6375,"Ġjar":6376,"Ġbuck":6377,"Ġ40":6378,"Ġcollected":6379,"Ġresults":6380,"Ġnearest":6381,"Ġchase":6382,"ĠRock":6383,"Ġjungle":6384,"Ġrivers":6385,"Ġhoriz":6386,"Ġcontrary":6387,"Ġmurmured":6388,"ĠMeanwhile":6389,"87":6390,"Ġwre":6391,"rec":6392,"Ġhated":6393,"ĠServ":6394,"Ġflour":6395,"Ġpursued":6396,"ĠJerusalem":6397,"ĠTerran":6398,"ĠCourt":6399,"ĠCor":6400,"Ġhunger":6401,"Ġclasses":6402,"Ġderived":6403,"Ġquantity":6404,"ĠAlexander":6405,"Ġenormous":6406,"May":6407,"hearted":6408,"ĠBurg":6409,"ardon":6410,"Ġqual":6411,"Ġclock":6412,"Ġpreserve":6413,"Ġpolite":6414,"Ġcandle":6415,"sed":6416,"Ġwalks":6417,"Ġded":6418,"Ġlift":6419,"ĠFROM":6420,"umbled":6421,"Ġcheek":6422,"Ġdestruction":6423,"Ġlocked":6424,"Ġdevelopment":6425,"Cont":6426,"Ġnaked":6427,"ĠGaw":6428,"obe":6429,"ĠDeath":6430,"Ġsticks":6431,"Ġcuriosity":6432,"hot":6433,"pir":6434,"Ġinner":6435,"ĠCab":6436,"Ġrav":6437,"Ġfollowers":6438,"Ġwondering":6439,"Ġproposed":6440,"Ġnecessity":6441,"Ġabsence":6442,"ĠScotland":6443,"Ġphilosop":6444,"non":6445,"Ġcattle":6446,"Ġthither":6447,"utions":6448,"sec":6449,"Ġshru":6450,"Ġaband":6451,"Ġplung":6452,"lands":6453,"Ġembr":6454,"Ġgrowth":6455,"Ġsixty":6456,"Ġuttered":6457,"Ġwedding":6458,"Ġdried":6459,"ĠHaw":6460,"ĠBO":6461,"Ġprovision":6462,"Ġ1862":6463,"Ġjudgment":6464,"Ġorganized":6465,"oiselle":6466,"Ġconsequence":6467,"Ġtot":6468,"Ġpointing":6469,"ĠBilly":6470,"Ġuncom":6471,"llen":6472,"Ġmanufact":6473,"Ġgrows":6474,"Ġapple":6475,"Ġbecoming":6476,"Ġsurre":6477,"Ġaddressed":6478,"Ġshadows":6479,"Ġpunishment":6480,"ĠAT":6481,"Ġplants":6482,"Ġhandkerchief":6483,"ĠToad":6484,"Ġdragged":6485,"Ġseparate":6486,"ĠMajesty":6487,"ded":6488,"even":6489,"Ġbatt":6490,"aping":6491,"ĠNear":6492,"Ġvolume":6493,"Ġannounced":6494,"Ġblessed":6495,"Ġsighed":6496,"erness":6497,"asy":6498,"ĠApp":6499,"rial":6500,"ĠChinese":6501,"Ġ1861":6502,"ĠIslands":6503,"Ġenjoyed":6504,"Ġfamilies":6505,"Ġdarling":6506,"Ġinstrument":6507,"'.":6508,"lor":6509,"Ġsixt":6510,"Ġnoted":6511,"ĠPan":6512,"emoiselle":6513,"iger":6514,"ĠKir":6515,"Ġconsent":6516,"Ġinterpre":6517,"Ġpurchased":6518,"Ġbrilliant":6519,"Ġack":6520,"Ġturns":6521,"Ġguests":6522,"Ġrecovered":6523,"Ġcontained":6524,"Ġ501":6525,"enc":6526,"amin":6527,"ĠCame":6528,"ellow":6529,"Ġfriendship":6530,"Ġdemon":6531,"Ġmiserable":6532,"Ġcrowded":6533,"ĠPeople":6534,"Ġextremely":6535,"Ġwashed":6536,"ĠCast":6537,"ĠCorn":6538,"ores":6539,"Ġunex":6540,"ĠEgyptian":6541,"ĠJews":6542,")(":6543,"ev":6544,"oen":6545,"omm":6546,"ĠAli":6547,"ĠHor":6548,"Ġarise":6549,"Ġexamined":6550,"Ġsacred":6551,"Ġashamed":6552,"Ġnarr":6553,"Ġ33":6554,"Ġprofit":6555,"ĠGovernor":6556,"Ġestablish":6557,"Ġcommercial":6558,"MP":6559,"back":6560,"itic":6561,"icing":6562,"Ġrear":6563,"Ġrude":6564,"ĠWhe":6565,"ailing":6566,"Ġowned":6567,"ĠClark":6568,"ĠCarol":6569,"Ġpursuit":6570,"Ġacknow":6571,"Will":6572,"Ġtal":6573,"Ġtide":6574,"ĠBY":6575,"ĠGar":6576,"Ġroot":6577,"ĠInter":6578,"Ġloving":6579,"ARK":6580,"Ġnervous":6581,"Ġbowed":6582,"Ġcreek":6583,"Ġforbid":6584,"ĠPat":6585,"Ġretired":6586,"Ġthirst":6587,"ĠREAD":6588,"ben":6589,"bell":6590,"rat":6591,"uing":6592,"Ġhay":6593,"inger":6594,"asons":6595,"Ġhed":6596,"Ġnurse":6597,"ĠCould":6598,"Ġdescription":6599,"Ġwarrant":6600,"Ġmissed":6601,"Ġwarrior":6602,"Ġscience":6603,"ĠSalt":6604,"ĠAc":6605,"ĠĠĠĠĠĠĠĠĠĠĠĠĠĠĠĠĠĠ":6606,"Ġdevoted":6607,"Ġarticle":6608,"Ġassembled":6609,"phe":6610,"Ġpause":6611,"icted":6612,"ĠPol":6613,"Ġevident":6614,"Ġdelicate":6615,"ĠTemple":6616,"Ġwake":6617,"Ġbund":6618,"anz":6619,"Ġbeheld":6620,"idity":6621,"Ġmanners":6622,"Ġstrangers":6623,"Ġdepends":6624,"Ġheavily":6625,"Ġanxiety":6626,"Ġcalculated":6627,"ĠAfrica":6628,"Ġoak":6629,"orter":6630,"Ġbeach":6631,"ĠĠĠĠĠĠĠĠĠĠĠĠĠĠĠĠĠ":6632,"Ġremind":6633,"ĠYoung":6634,"Ġhousehold":6635,"Ġdriving":6636,"Ġinfant":6637,"Ġcounsel":6638,"Ġstyle":6639,"Ġhosp":6640,"ĠDave":6641,"estic":6642,"Ġprospect":6643,"Ġcru":6644,"Ġcentre":6645,"Ġmast":6646,"Ġstated":6647,"ĠMoses":6648,"Ġchain":6649,"ĠVer":6650,"EST":6651,".'\"":6652,"ICE":6653,"chers":6654,"inn":6655,"Ġstolen":6656,"Ġ59":6657,"Ġsunsh":6658,"Ġstriking":6659,"Ġproperly":6660,"Ġveget":6661,"Perhaps":6662,"Ġwuz":6663,"Ġhut":6664,"ĠWoman":6665,"Ġchose":6666,"ĠNap":6667,"Ġmaybe":6668,"Ġinvol":6669,"Thank":6670,"Ġdetermine":6671,"Ġhistor":6672,"Ġconvinced":6673,"Ġunhappy":6674,"arn":6675,"Ġforces":6676,"Ġperil":6677,"Ġneighbors":6678,"Ġpractical":6679,"Ġventure":6680,"gain":6681,"Ġsilly":6682,"Ġsheet":6683,"Ġpassengers":6684,"Ġinterests":6685,"ĠAntony":6686,"WN":6687,"ĠSent":6688,"Ġangel":6689,"Ġrang":6690,"ager":6691,"Ġterrif":6692,"Ġcounty":6693,"Ġmarve":6694,"Ġfishing":6695,"Ġtremend":6696,"ĠUpon":6697,"Ġtube":6698,"ĠSH":6699,"ĠSen":6700,"ĠEst":6701,"Ġcloser":6702,"ĠKh":6703,"Ġglorious":6704,"Ġreturns":6705,"Ġconfusion":6706,"Ġairship":6707,"ĠFarmer":6708,"Ġpublished":6709,"mar":6710,"ĠTherefore":6711,"ĠHarry":6712,"Ġgathering":6713,"Ġappreci":6714,"Ġing":6715,"Ġthrowing":6716,"Ġwinds":6717,"Ġimprove":6718,"Ġrescue":6719,"Ġinterrupted":6720,"yramid":6721,"col":6722,"Ġbath":6723,"Ġpace":6724,"ĠMouse":6725,"ĠDar":6726,"utenant":6727,"iah":6728,"Ġwax":6729,"Ġfootst":6730,"Ġobserve":6731,"Ġfolks":6732,"Ġacquaint":6733,"Ġcomment":6734,"Ġprair":6735,"ĠShort":6736,"Ġarray":6737,"Ġleaned":6738,"ĠSigurd":6739,"ĠBobbie":6740,"'-":6741,"57":6742,"ĠProdu":6743,"Ġscorn":6744,"................":6745,"stitution":6746,"Ġaccomplished":6747,"Ġcitizens":6748,"ĠIrish":6749,"will":6750,"Ġtrace":6751,"onday":6752,"Ġpresents":6753,"Ġutmost":6754,"Ġquarrel":6755,"aned":6756,"asped":6757,"ache":6758,"ria":6759,"ĠRail":6760,"Ġfears":6761,"Ġgrasp":6762,"ĠPhoen":6763,"Ġcapture":6764,"Ġcheerful":6765,"ĠCONT":6766,"ĠLoki":6767,"cause":6768,"Ġmock":6769,"ĠPage":6770,"Ġsob":6771,"outs":6772,"Ġindicate":6773,"Ġresistance":6774,"One":6775,"Take":6776,"acity":6777,"ĠSE":6778,"Ġplates":6779,"osh":6780,"Ġdisk":6781,"Ġmysterious":6782,"arms":6783,"ĠTR":6784,"Ġrat":6785,"ulating":6786,"Ġfever":6787,"uns":6788,"Ġlightly":6789,"Ġhastened":6790,"Ġ190":6791,"ĠThrough":6792,"rived":6793,"ilty":6794,"ĠWater":6795,"ulted":6796,"arts":6797,"Ġthence":6798,"Ġ187":6799,"Ġpermanent":6800,"Ġstaring":6801,"ĠHans":6802,"ĠBert":6803,"ĠLh":6804,"ĠDrew":6805,"Ġagent":6806,"Ġgrain":6807,"Ġstrongly":6808,"ani":6809,"Ġbrid":6810,"Ġexcuse":6811,"Ġattempted":6812,"Ġseparated":6813,"Ġavailable":6814,"11":6815,"UD":6816,"Ġweeping":6817,"ections":6818,"Ġrepro":6819,"Ġinstit":6820,"Ġcapable":6821,"Ġarmour":6822,"Ġinsisted":6823,"Ġapplied":6824,"Ġdeparture":6825,"ĠCountry":6826,"ĠMonday":6827,"Ġlightning":6828,"Ġmidnight":6829,"Ġwolves":6830,"two":6831,"Ġfain":6832,"ĠSy":6833,"ctions":6834,"Ġpasses":6835,"Ġguest":6836,"ĠRussian":6837,"urate":6838,"ĠBu":6839,"Ġpurple":6840,"Ġcurtain":6841,"ĠMexican":6842,"ronsie":6843,"itz":6844,"Ġdoth":6845,"Ġnurs":6846,"irrel":6847,"emon":6848,"Ġwrath":6849,"ĠAsia":6850,"OOD":6851,"Ġastonishment":6852,"Ġpant":6853,"Ġpaint":6854,"Ġheels":6855,"ĠBuff":6856,"Ġimage":6857,"ception":6858,"leton":6859,"Ġlimbs":6860,"Ġflee":6861,"Ġlargest":6862,"ealous":6863,"Ġinquir":6864,"Ġproportion":6865,"Ġsunshine":6866,"Ġpir":6867,"Ġliqu":6868,"Ġblade":6869,"ĠStreet":6870,"Ġextended":6871,"Ġod":6872,"ĠMason":6873,"ĠJon":6874,"Ġwrapped":6875,"Ġregion":6876,"Ġgrounds":6877,"ĠCanoes":6878,"Ġgallop":6879,"Ġsteadily":6880,"Ġwestern":6881,"Ġintense":6882,"reading":6883,"Ġcolors":6884,"Ġstronger":6885,"Ġphot":6886,"Ġsacrifice":6887,"Ġcultiv":6888,"cr":6889,"chan":6890,"icken":6891,"phone":6892,"Ġrefuse":6893,"Ġhorrid":6894,"Ġfinish":6895,"Ġvisible":6896,"ĠMartha":6897,"Ġclothing":6898,"Ġmamma":6899,"Ġmixed":6900,"ĠProduced":6901,"cast":6902,"Ġtyr":6903,"ĠTown":6904,"Ġegg":6905,"ula":6906,"ĠNat":6907,"Ġdetails":6908,"ĠSpaniards":6909,"AND":6910,"ki":6911,"Ġ#":6912,"Ġx":6913,"itate":6914,"ĠLight":6915,"Ġ36":6916,"Ġ183":6917,"ĠAlan":6918,"Ġinterview":6919,"Ġfearful":6920,"Ġstole":6921,"Ġmovements":6922,"volution":6923,"ĠChapter":6924,"TLE":6925,"edy":6926,"Ġlan":6927,"lee":6928,"ĠCur":6929,"Ġrom":6930,"Ġcompass":6931,"ĠSheen":6932,"Ġcolony":6933,"Ġwandered":6934,"ĠRepublic":6935,"Ġinclined":6936,"Ġtitle":6937,"Ġinnocent":6938,"wing":6939,"utation":6940,"chin":6941,"ĠHu":6942,"angle":6943,"Ġsmart":6944,"Ġcenturies":6945,"Ġquarters":6946,"Clock":6947,"Ġmurder":6948,"Ġhalted":6949,"97":6950,"Ġaver":6951,"ĠBig":6952,"thren":6953,"Ġupright":6954,"Ġalike":6955,"ĠJO":6956,"Ġunb":6957,"ĠAlthough":6958,"Ġ64":6959,"ĠMountains":6960,"Mr":6961,"Ġmood":6962,"enes":6963,"Ġbears":6964,"ĠBal":6965,"ĠFion":6966,"ĠLat":6967,"Ġexhib":6968,"ĠElect":6969,"Ġ35":6970,"Ġconditions":6971,"Ġgaze":6972,"Ġmagnet":6973,"Right":6974,"reland":6975,"agger":6976,"Ġrobe":6977,"Ġcritical":6978,"ĠGray":6979,"Ġgrandfather":6980,"Ġthreatened":6981,"ĠColumbia":6982,"Ġintelligent":6983,"ys":6984,"ĠSar":6985,"ĠMill":6986,"ĠNight":6987,"itty":6988,"Ġoffers":6989,"Ġflames":6990,"Ġinvest":6991,"Ġcong":6992,"ĠIV":6993,"ĠIreland":6994,"oof":6995,"abled":6996,"aval":6997,"Ġreadily":6998,"ĠJohnny":6999,"Ġstirred":7000,"Ġrenew":7001,"Ġconfirmed":7002,"mony":7003,"Ġfaster":7004,"iture":7005,"Ġtrunk":7006,"ĠStep":7007,"ĠPhronsie":7008,"Ġwilderness":7009,"ĠSlavery":7010,"ĠSamuel":7011,"VER":7012,"iber":7013,"la":7014,"hered":7015,"Ġbars":7016,"istory":7017,"Ġexamination":7018,"Ġmessenger":7019,"Ġsongs":7020,"25":7021,"VEN":7022,"Ġconclusion":7023,"Ġjack":7024,"Ġconfl":7025,"annel":7026,"Ġprayers":7027,"Ġharmless":7028,"Ġpitch":7029,"Ġdeemed":7030,"QU":7031,"oration":7032,"Ġbeating":7033,"otes":7034,"ayley":7035,"Ġselect":7036,"Ġchuck":7037,"Ġpreced":7038,"Ġlanding":7039,"Ġguilty":7040,"Ġedition":7041,"Ġvision":7042,"Ġmeadow":7043,"Ġmajor":7044,"Ġfemale":7045,"ĠBuffal":7046,"Ġtore":7047,"Ġpan":7048,"ĠHome":7049,"Ġvic":7050,"Ġvague":7051,"Ġrolling":7052,"Ġclay":7053,"Ġdownward":7054,"Ġswear":7055,"Thou":7056,"ynasty":7057,"Ġsufficiently":7058,"AK":7059,"Ġfanc":7060,"Ġworry":7061,"Ġjealous":7062,"Ġ(\"":7063,"Ġattended":7064,"Ġincomp":7065,"Ġburnt":7066,"ĠPepper":7067,"Ġtomb":7068,"Ġhammer":7069,"erves":7070,"ĠInt":7071,"Ġjob":7072,"Ġrocky":7073,"Ġshouting":7074,"Ġdrinking":7075,"ĠEarth":7076,"Ġwretched":7077,"ppose":7078,"OUND":7079,"Ġgladly":7080,"Ġissue":7081,"Contributed":7082,"ĠLhari":7083,"ĠoClock":7084,"Ġpink":7085,"ĠWed":7086,"ourse":7087,"Ġsomeone":7088,"ountain":7089,"ĠSimon":7090,"Ġceremony":7091,"Ġdistinguished":7092,"ĠForest":7093,"PT":7094,"ban":7095,"Ġming":7096,"omin":7097,"ĠBet":7098,"ĠJul":7099,"Ġacts":7100,"ĠShall":7101,"Ġbuildings":7102,"Ġcreation":7103,"Ġeagle":7104,"Ġowed":7105,"Ġwives":7106,"Ġmild":7107,"ĠBel":7108,"ĠArab":7109,"ugged":7110,"Ġneighbourhood":7111,"eep":7112,"ĠHOW":7113,"ĠDirect":7114,"ENCE":7115,"Ġstartled":7116,"ĠContin":7117,"Lewis":7118,"Ġtones":7119,"acco":7120,"ĠPart":7121,"odore":7122,"Ġprey":7123,"Ġunusual":7124,"ĠFionn":7125,"ĠSix":7126,"Ġshrie":7127,"Ġwrought":7128,"Ġrecover":7129,"Ġnorthern":7130,"Ġbrethren":7131,"Ġstarting":7132,"Ġencamped":7133,"ointment":7134,"Ġcolonies":7135,"ĠPortug":7136,"Ġdignity":7137,"PH":7138,"Ġborrow":7139,"Ġgoose":7140,"utive":7141,"ĠFo":7142,"Ġages":7143,"Ġjer":7144,"Ġovercome":7145,"Ġflow":7146,"ĠĠĠĠĠĠĠĠĠĠĠĠĠĠĠĠĠĠĠĠ":7147,"Ġlover":7148,"Ġneedle":7149,"Ġheroes":7150,"ĠDrewyer":7151,"],":7152,"ĠNotting":7153,"Ġplague":7154,"ĠKnight":7155,"ĠIsa":7156,"Ġunderstanding":7157,"Ġmistaken":7158,"Ġhorns":7159,"Ġpraise":7160,"Ġplatform":7161,"low":7162,"Ġped":7163,"Ġclaws":7164,"Ġinval":7165,"Ġkilling":7166,"----------------":7167,"Ġdiameter":7168,"Ġmagnificent":7169,"ĠVill":7170,"Ġloaded":7171,"oking":7172,"yard":7173,"ĠHam":7174,"olic":7175,"Ġshouldn":7176,"Ġshortly":7177,"Ġincrease":7178,"Ġwandering":7179,"ĠBenj":7180,"ĠNottingham":7181,"Ġcared":7182,"Ġchin":7183,"Ġexcess":7184,"Ġjun":7185,"strous":7186,"Ġsource":7187,"Tell":7188,"ĠLau":7189,"Ġbrow":7190,"ĠAmericans":7191,"ounce":7192,"Ġdecision":7193,"ucked":7194,"Ġbands":7195,"edge":7196,"Ġwithdr":7197,"Ġcalls":7198,"Ġloft":7199,"Ġfury":7200,"Ġtaxes":7201,"ELL":7202,"Ġcompleted":7203,"Ġtomorrow":7204,"Ġseed":7205,"ensed":7206,"Ġdiscont":7207,"ĠPhara":7208,"Ġviews":7209,"Ġpattern":7210,"TON":7211,"Ġoath":7212,"Ġcu":7213,"asper":7214,"ĠIS":7215,"ĠHIS":7216,"ĠPet":7217,"Ġclad":7218,"Ġflut":7219,"Ġrestored":7220,"Ġcorrupt":7221,"Ġinstructions":7222,"ĠOzma":7223,"liness":7224,"Ġrod":7225,"Ġdesk":7226,"Ġskins":7227,"Ġcondem":7228,"Ġexception":7229,"ĠGreg":7230,"Ġdefeated":7231,"Ġdisturbed":7232,"Ġintroduced":7233,"Ġwaved":7234,"Ġfame":7235,"ana":7236,"ĠCayley":7237,"Ġcorrid":7238,"ĠFrancis":7239,"ĠService":7240,"At":7241,"vals":7242,"atus":7243,"ĠBible":7244,"Ġkick":7245,"ieved":7246,"Ġdrowned":7247,"Ġruin":7248,"Ġexamine":7249,"Ġannoy":7250,"Ġsavages":7251,"Ġtypes":7252,"Ġdescended":7253,"ĠMademoiselle":7254,"ĠBruce":7255,"Ġbos":7256,"Ġbeings":7257,"ĠRevolution":7258,"Ġextrem":7259,"Ġopportunities":7260,"ĠChildren":7261,"ĠAbraham":7262,"Ġbite":7263,"Ġecho":7264,"ĠLife":7265,"ĠDIS":7266,"osal":7267,"Ġours":7268,"Ġbeloved":7269,"ension":7270,"Ġseconds":7271,"ĠWithout":7272,"Ġvillages":7273,"ĠRoulet":7274,"Dear":7275,"win":7276,"Ġdug":7277,"ilities":7278,"ĠFull":7279,"ĠDog":7280,"ĠEND":7281,"Ġcoal":7282,"Ġpron":7283,"Ġinvis":7284,"Ġaudience":7285,"sing":7286,"ĠAccord":7287,"Yea":7288,"tts":7289,"Ġattain":7290,"abille":7291,"Ġpond":7292,"Ġfinds":7293,"Ġraft":7294,"Ġdefinite":7295,"Ġacquainted":7296,"ĠPanther":7297,"Ġheap":7298,"alog":7299,"Ġboot":7300,"achuse":7301,"Ġcharges":7302,"Ġnecessarily":7303,"Ġcovering":7304,"ĠGreeks":7305,"achusetts":7306,"eem":7307,"isl":7308,"anor":7309,"ĠIvan":7310,"ĠCa":7311,"Ġdoct":7312,"Ġthereof":7313,"Ġblame":7314,"Ġdrunk":7315,"bye":7316,"Ġsumm":7317,"Ġproduction":7318,"Ġdeveloped":7319,"Ġstupid":7320,"RESS":7321,"Ġpist":7322,"Ġreasons":7323,"ĠPri":7324,"ieves":7325,"Ġconvey":7326,"oger":7327,"Ġinspect":7328,"Ġcorpor":7329,"Ġeffects":7330,"Ġborne":7331,"Ġaxe":7332,"Ġschol":7333,"ĠPharaoh":7334,"Ġpile":7335,"Ġpowder":7336,"Ġlap":7337,"ĠWould":7338,"Ġability":7339,"ĠJell":7340,"Ġblast":7341,"angerson":7342,"Ġstored":7343,"Ġadmin":7344,"Ġdoubtless":7345,"Ġprayed":7346,"Ġreign":7347,"operation":7348,"ĠOdin":7349,"ĠJones":7350,"Ġswam":7351,"Ġmonstrous":7352,"Ġmischief":7353,"Ġexchange":7354,"Ġbenefit":7355,"ĠKaty":7356,"ĠRouletabille":7357,"omb":7358,"verse":7359,"Ġobv":7360,"Ġload":7361,"Ġnewsp":7362,"Ġsteal":7363,"Ġcolumn":7364,"Ġappearing":7365,"Ġdelightful":7366,"boat":7367,"Ġenterpr":7368,"Ġmurderer":7369,"Ġeldest":7370,"Ġinfect":7371,"Ġchamp":7372,"Ġ38":7373,"Ġbarn":7374,"Ġrubbed":7375,"Ġintelligence":7376,"AVE":7377,"ĠInstead":7378,"ography":7379,"Ġtoes":7380,"Ġpardon":7381,"Ġboast":7382,"Ġhoping":7383,"Ġfinan":7384,"ATH":7385,"Ġstudied":7386,"ĠAdd":7387,"Ġrobes":7388,"Ġconceal":7389,"Ġfurnished":7390,"conom":7391,"ĠMassachusetts":7392,"Ġpuzzled":7393,"Ġtoler":7394,"lla":7395,"Ġfork":7396,"aining":7397,"Ġchanges":7398,"ĠStangerson":7399,"Ġguards":7400,"Ġsnapped":7401,"Ġbigger":7402,"Ġcoward":7403,"die":7404,"when":7405,"Ġbeads":7406,"Ġwearing":7407,"Ġhaw":7408,"Ġaccordingly":7409,"Ġterritory":7410,"rical":7411,"Ġfulf":7412,"ĠMil":7413,"Ġbond":7414,"clus":7415,"Ġchiefly":7416,"Ġviewed":7417,"Ġruler":7418,"Ġmillion":7419,"Ġadmiration":7420,"ĠMelville":7421,"Ġ----":7422,"Ġbone":7423,"Ġdaz":7424,"ĠBook":7425,"Ġherd":7426,"Ġexists":7427,"Ġtwisted":7428,"ĠKen":7429,"Ġsche":7430,"Ġstroke":7431,"Ġgazing":7432,"keeper":7433,"ĠCam":7434,"ĠOver":7435,"plic":7436,"Ġgoodness":7437,"Ġeveryone":7438,"Ġforming":7439,"Ġpalm":7440,"ĠParliament":7441,"Ġanti":7442,"ĠUnderground":7443,"cest":7444,"Ġsack":7445,"Ġfiew":7446,"Ġmouse":7447,"Ġlos":7448,"ĠPoor":7449,"Ġflies":7450,"Ġ31":7451,"Ġimpr":7452,"atively":7453,"Ġloudly":7454,"Ġfrost":7455,"Ġprinciple":7456,"ĠFinally":7457,"Ġsway":7458,"ĠMart":7459,"ĠCow":7460,"ulse":7461,"inder":7462,"ckets":7463,"Ġdistrict":7464,"Ġmisery":7465,"Ġgifts":7466,"Ġunexpected":7467,"23":7468,"Ind":7469,"run":7470,"vir":7471,"Ġpush":7472,"ĠCivil":7473,"ĠĠĠĠĠĠĠĠĠĠĠĠ":7474,"Ġdisgr":7475,"Ġwherever":7476,"inson":7477,"Ġinterior":7478,"Ġobeyed":7479,"Ġvirtue":7480,"Que":7481,"lest":7482,"abor":7483,"akened":7484,"Ġunivers":7485,"Ġdeserted":7486,"Ġwriter":7487,"Ġdomin":7488,"Ġsadly":7489,"Ġprivile":7490,"ĠTitanic":7491,"gage":7492,"Ġ:":7493,"Ġast":7494,"Ġma":7495,"asions":7496,"Ġsection":7497,"allel":7498,"Ġoutl":7499,"berry":7500,"osc":7501,"Ġdoorway":7502,"axim":7503,"Ġdeeper":7504,"ĠScott":7505,"ĠFriday":7506,"Ġearnestly":7507,"ĠSit":7508,"ĠBudd":7509,"ilst":7510,"Ġcannon":7511,"oding":7512,"Ġrefuge":7513,"Ġidle":7514,"Ġconflict":7515,"piece":7516,"aning":7517,"Ġlux":7518,"ĠAL":7519,"urt":7520,"ĠCross":7521,"Ġvac":7522,"ĠSociety":7523,"Ġroads":7524,"Ġdisappointed":7525,"Ġfloating":7526,"Ġprosper":7527,"ĠKirby":7528,"Ġshepher":7529,"ĠHead":7530,"Ġtrump":7531,"Ġflashed":7532,"Ġemotion":7533,"Ġsupported":7534,"Ġengage":7535,"Ġturtle":7536,"ĠIngred":7537,"Ġenthusias":7538,"Ġrushing":7539,"Ġchim":7540,"angled":7541,"ĠAtl":7542,"Ġresting":7543,"Ġbrook":7544,"Ġmonarch":7545,"nedy":7546,"Ġservices":7547,"Ġarrive":7548,"Ġprofession":7549,"Ġgallery":7550,"Ġdifficulties":7551,"ĠMexico":7552,"Ġseventy":7553,"miral":7554,"ouch":7555,"Ġyonder":7556,"Ġrendered":7557,"orting":7558,"Ġench":7559,"Ġacted":7560,"ertainly":7561,"Ġinterf":7562,"bridge":7563,"ĠFairy":7564,"Ġsubstance":7565,"Ġexhausted":7566,"40":7567,"GL":7568,"Ġvel":7569,"Ġmal":7570,"Ġwhip":7571,"ĠBay":7572,"ĠCro":7573,"iano":7574,"Ġhopeless":7575,"Ġhumble":7576,"Ġstopping":7577,"arrin":7578,"Ġcounter":7579,"Ġrecognition":7580,"Ġpupils":7581,"ĠIsaac":7582,"zes":7583,"Ġlately":7584,"ĠTime":7585,"ĠMoon":7586,"Ġ100":7587,"Ġwarned":7588,"Ġimposed":7589,"ĠUnless":7590,"Ġslender":7591,"Ġrobber":7592,"ĠDougl":7593,"OP":7594,"west":7595,"Ġthief":7596,"Ġlat":7597,"ĠBha":7598,"Ġchall":7599,"Ġcoach":7600,"Ġbeggar":7601,"fects":7602,"Ġbowl":7603,"Ġprairie":7604,"Ġenthusiasm":7605,"!)":7606,"boy":7607,"zed":7608,"Ġcows":7609,"Ġmob":7610,"Ġpad":7611,"ĠPac":7612,"Ġsovere":7613,"Ġaren":7614,"Ġspell":7615,"fulness":7616,"attering":7617,"Ġdecide":7618,"pri":7619,"hem":7620,"Ġaspect":7621,"ĠMah":7622,"ĠBUT":7623,"Ġmechan":7624,"umpt":7625,"Ġbegins":7626,"ĠBrother":7627,"Ġrecoll":7628,"Ġlaying":7629,"Ġcharm":7630,"Ġlads":7631,"Ġpurposes":7632,"Ġwidow":7633,"Ġeducational":7634,"ATIONS":7635,"Ġissued":7636,"ora":7637,"ĠRaf":7638,"Ġmarble":7639,"Ġburden":7640,"ALL":7641,"Ġfailure":7642,"Ġuncons":7643,"Ġteachers":7644,"ĠTravilla":7645,"HN":7646,"ĠPublic":7647,"Ġunlike":7648,"Ġexposed":7649,"Ġfavorite":7650,"Ġmuttered":7651,"ĠDesp":7652,"ĠFranklin":7653,"Ġmedicine":7654,"ĠPhoenix":7655,"OD":7656,"bur":7657,"Ġpred":7658,"ĠBer":7659,"ĠPass":7660,"ifully":7661,"umper":7662,"Ġdisgu":7663,"Ġconsult":7664,"Ġdamaged":7665,"Ġpatience":7666,"Ġsharply":7667,"Ġmissing":7668,"vania":7669,"Just":7670,"eg":7671,"Ġpear":7672,"ĠHo":7673,"Ġseam":7674,"Ġdost":7675,"aging":7676,"Ġdisag":7677,"Ġinstruction":7678,"Ġrecall":7679,"eyed":7680,"ibr":7681,"Ġedges":7682,"Ġgardens":7683,"Ġbelonging":7684,"Ġunfortunate":7685,"Ġtie":7686,"ero":7687,"amo":7688,"ĠBuster":7689,"Ġkneel":7690,"ĠChina":7691,"ĠVery":7692,"Ġsentiment":7693,"ĠAlso":7694,"ĠConn":7695,"Ġcauses":7696,"Ġeighteen":7697,"Ġerrors":7698,"oleon":7699,"Ġdefeat":7700,"Ġhesitated":7701,"Ġadopted":7702,"Ġplunged":7703,"Ġtremendous":7704,"bury":7705,"mist":7706,"nded":7707,"eral":7708,"ĠSanta":7709,"ĠMine":7710,"olate":7711,"ression":7712,"Ġfounded":7713,"Ġcleared":7714,"ĠKennedy":7715,"Ġdreamed":7716,"Ġthorn":7717,"Ġange":7718,"illings":7719,"ĠFields":7720,"ĠLaw":7721,"ryn":7722,"Ġscreamed":7723,"Ġsketch":7724,"Ġpatient":7725,"Ġanxiously":7726,"Ġdressing":7727,"Ġsettlement":7728,"Ġdwarf":7729,"Ġcomrades":7730,"Ġacquaintance":7731,"hum":7732,"Ġbough":7733,"llis":7734,"ĠCons":7735,"ĠGive":7736,"Ġprohib":7737,"Ġdefence":7738,"Ġactivity":7739,"Ġfence":7740,"Ġrein":7741,"Ġasc":7742,"Ġhaunt":7743,"ĠWy":7744,"ĠGir":7745,"ĠREM":7746,"Ġspears":7747,"ĠEver":7748,"umin":7749,"Ġheartily":7750,"Ġrelatives":7751,"Ġstrip":7752,"Ġsouls":7753,"Ġbreeze":7754,"\",":7755,"Ġrender":7756,"ĠDarrin":7757,"ĠEBook":7758,"ipation":7759,"Ġprinciples":7760,"Ġvictim":7761,"syl":7762,"Ġbitterly":7763,"Ġconquer":7764,"ĠCarolina":7765,"itter":7766,"Ġdus":7767,"Ġthumb":7768,"Ġalarmed":7769,"Ġwillow":7770,"Ġunion":7771,"Ġbloss":7772,"Ġadjust":7773,"ĠStar":7774,"Ġ37":7775,"Ġreader":7776,"Ġfourteen":7777,"Ġcryst":7778,"Ġcommander":7779,"Ġmystery":7780,"Tr":7781,"book":7782,"uish":7783,"vald":7784,"Ġfow":7785,"Ġfisher":7786,"Ġlic":7787,"Ġninet":7788,"ĠTree":7789,"Ġyo":7790,"ĠCut":7791,"ĠWry":7792,"Ġinclude":7793,"Ġladder":7794,"Ġexperiment":7795,"Ġfatig":7796,"Ġtrembled":7797,"Ġbaggage":7798,"Ġinvisible":7799,"Because":7800,"Ġcy":7801,"Ġgross":7802,"ĠCoun":7803,"ques":7804,"ĠLo":7805,"akers":7806,"Ġflock":7807,"Ġloves":7808,"Ġactual":7809,"Ġreplace":7810,"Ġsunset":7811,"Ġcontinually":7812,"Ġconcealed":7813,"Ġgarments":7814,"Ġsurvive":7815,"IE":7816,"rd":7817,"Ġashes":7818,"ooped":7819,"Ġabrupt":7820,"ĠOwn":7821,"igs":7822,"Ġenl":7823,"Ġbug":7824,"Ġvoid":7825,"ĠDragon":7826,"Ġforests":7827,"Ġpenetr":7828,"Ġindicated":7829,"Ġshooting":7830,"Ar":7831,"tic":7832,"ĠDutch":7833,"ĠShould":7834,"ĠBeaut":7835,"ference":7836,"Ġbeds":7837,"Ġconcern":7838,"Ġdisappear":7839,"withstanding":7840,"Ġleaning":7841,"Ġdwelling":7842,"Ġdeliber":7843,"ĠNapoleon":7844,"Ġach":7845,"ĠSan":7846,"rive":7847,"ĠCape":7848,"ĠJapan":7849,"Ġtwink":7850,"Ġminister":7851,"Ġheavens":7852,"Ġadvised":7853,"ĠAdmiral":7854,"Ġobserv":7855,"Ġhunted":7856,"ĠEXP":7857,"Ġstatements":7858,"Ġmeasures":7859,"Ġgratitude":7860,"sylvania":7861,"Qu":7862,"yes":7863,"Ġtools":7864,"Ġdaylight":7865,"formed":7866,"ĠSharp":7867,"NDER":7868,"Ġcavern":7869,"ĠDaniel":7870,"ĠEli":7871,"cipl":7872,"onsense":7873,"Ġtreacher":7874,"Ġbargain":7875,"Ġdisposition":7876,"Ġboldly":7877,"Ġamazement":7878,"LES":7879,"Sir":7880,"itives":7881,"Ġdaring":7882,"ĠFe":7883,"ĠStan":7884,"Ġentering":7885,"ĠBecause":7886,"Ġcollege":7887,"zevir":7888,"Ġclaimed":7889,"Ġpressure":7890,"Ġowing":7891,"Br":7892,"GE":7893,"Ġbon":7894,"Ġharsh":7895,"Ġappar":7896,"ribly":7897,"neath":7898,"itional":7899,"Ġbedroom":7900,"Ġlocal":7901,"headed":7902,"Ġdisturb":7903,"Ġpreparations":7904,"Ġtid":7905,"Ġtables":7906,"Ġmaxim":7907,"ĠCath":7908,"ags":7909,"Ġcontest":7910,"iana":7911,"Ġpurse":7912,"Ġsingular":7913,"Ġtravell":7914,"Ġsailors":7915,"Ġperceive":7916,"Ġpilot":7917,"ĠSusy":7918,"Ġsixteen":7919,"ĠBhaer":7920,"mo":7921,"Ġtheory":7922,"aration":7923,"ĠCook":7924,"ĠDark":7925,"Ġplanted":7926,"Ġdise":7927,"iped":7928,"Ġrestr":7929,"Ġcharged":7930,"Ġdisposed":7931,"Ġspecim":7932,"Ġsenses":7933,"Ġblessing":7934,"door":7935,"ĠĠĠĠĠĠĠĠĠĠĠĠĠ":7936,"opes":7937,"Ġalien":7938,"Ġbrand":7939,"Ġpuff":7940,"Ġsilently":7941,"ĠElzevir":7942,"Ġaccepting":7943,"ĠCollege":7944,"Ġliterature":7945,"Ġfinancial":7946,"Ġsouthern":7947,"Ġfund":7948,"itud":7949,"ĠAuthor":7950,"ĠHoly":7951,"ĠCent":7952,"Ġgrant":7953,"Ġdisg":7954,"Ġpeep":7955,"Ġcontem":7956,"Ġreference":7957,"ĠMaria":7958,"Ġpulling":7959,"Ġelement":7960,"ĠBaba":7961,"ĠPalmer":7962,"Ġmortal":7963,"Ġsummoned":7964,"Ġbosom":7965,"50":7966,"fig":7967,"Ġshoe":7968,"ifies":7969,"Ġmanif":7970,"Ġtrait":7971,"Ġindiff":7972,"Ġcontempt":7973,"Ġresumed":7974,"racted":7975,"Ġspecific":7976,"Ġoccasionally":7977,"ĠGreece":7978,"Ġindependence":7979,"ĠJOHN":7980,"Ġinvestig":7981,"Ġske":7982,"Ġmoss":7983,"Ġstable":7984,"ĠBull":7985,"Ġratt":7986,"Ġrival":7987,"Ġscenes":7988,"ĠGods":7989,"ĠAnna":7990,"onym":7991,"Ġraising":7992,"Ġfrequent":7993,"Ġhitherto":7994,"Ġexecution":7995,"Ġexceedingly":7996,"ĠDouglas":7997,"fles":7998,"Ġiv":7999,"Ġapt":8000,"Ġwounds":8001,"Ġmale":8002,"ential":8003,"ĠPed":8004,"abb":8005,"Ġabode":8006,"odes":8007,"Ġholds":8008,"ĠNoah":8009,"Ġconfined":8010,"Ġawfully":8011,"Ġsolution":8012,"Ġtap":8013,"Ġcub":8014,"Ġsoot":8015,"ĠLove":8016,"Ġunse":8017,"Ġunited":8018,"Ġslew":8019,"coat":8020,"Ġfifth":8021,"Ġchapter":8022,"ĠNEW":8023,"ĠNearly":8024,"\";":8025,"IX":8026,"kyn":8027,"Ġtops":8028,"ĠSame":8029,"ĠCreat":8030,"ĠCopyright":8031,"ĠDistribut":8032,"Ġfoe":8033,"Ġmodified":8034,"Ġconfirm":8035,"Ġwhistle":8036,"Ġscientific":8037,"Ġtelephone":8038,"ii":8039,"some":8040,"ĠTed":8041,"ĠTurn":8042,"ilation":8043,"Ġupstairs":8044,"Ġ34":8045,"Ġemperor":8046,"ĠCloud":8047,"Ġdrops":8048,"Ġcollar":8049,"white":8050,"ĠEgyptians":8051,"Ġrespond":8052,"nesday":8053,"Ġneighborhood":8054,"Ġsuspicion":8055,"Ġcure":8056,"Ġancest":8057,"Ġseize":8058,"ĠRip":8059,"Ġlend":8060,"Ġprow":8061,"Ġobed":8062,"ĠValley":8063,"Ġranks":8064,"Ġsyn":8065,"Ġgrandmother":8066,"Ġspeedily":8067,"Ġmoonlight":8068,"ĠRichmond":8069,",-":8070,"Ġgest":8071,"Ġrevenge":8072,"ĠPre":8073,"ĠPapers":8074,"ĠProof":8075,"Ġnevertheless":8076,"Ġcommission":8077,"Ġcommenced":8078,"ĠJoel":8079,"Ġpolit":8080,"Ġforgive":8081,"Ġruled":8082,"ĠMexicans":8083,"Give":8084,"UM":8085,"bal":8086,"new":8087,"vest":8088,"aying":8089,"Ġum":8090,"ĠMont":8091,"Ġrays":8092,"ĠShore":8093,"Ġpretended":8094,"Ġobservation":8095,"ĠSTORY":8096,"ĠSecret":8097,"ĠPennsylvania":8098,");":8099,"26":8100,"Ġtob":8101,"ĠLE":8102,"ĠChuck":8103,"Ġrelation":8104,"Ġdeadly":8105,"Ġelsewhere":8106,"Ġremarks":8107,"Ġdwelt":8108,"Ġsupplied":8109,"Ex":8110,"IAL":8111,"hile":8112,"Ġsear":8113,"Ġnobles":8114,"Ġtricks":8115,"ĠStand":8116,"Ġbetel":8117,"Ġoccasions":8118,"ĠĠĠĠĠĠĠĠĠĠĠĠĠĠĠĠĠĠĠĠĠĠĠĠĠ":8119,"Ġdetach":8120,"Ġsailor":8121,"Ġprobable":8122,"Ġindicating":8123,"Ġignorant":8124,"Ġexperienced":8125,"Ġlantern":8126,"29":8127,"NESS":8128,"Ġfaced":8129,"Ġpudd":8130,"icated":8131,"ĠPAR":8132,"Ġbutton":8133,"Ġnephe":8134,"ecture":8135,"ĠLIT":8136,"ĠNa":8137,"rying":8138,"Ġthanked":8139,"ĠIntern":8140,"ĠUr":8141,"Ġdrum":8142,"Ġincludes":8143,"Ġabsent":8144,"Ġsails":8145,"Ġidentify":8146,"ĠWORK":8147,"Ġnephew":8148,"ouched":8149,"Ġnin":8150,"Ġsho":8151,"Ġneut":8152,"agues":8153,"Ġcompared":8154,"ĠUNDER":8155,"Ġreduced":8156,"Ġpatri":8157,"Ġviolently":8158,"Ġconducted":8159,"Ġaddresses":8160,"Ġgrateful":8161,"Ġcelebrated":8162,"ĠDISC":8163,"RAP":8164,"zy":8165,"Ġbows":8166,"omach":8167,"Ġbeet":8168,"ĠGiant":8169,"Ġunple":8170,"Ġrib":8171,"Ġindirect":8172,"Ġrecomm":8173,"Ġwishing":8174,"ĠAdair":8175,"Ġtouching":8176,"Ġdirty":8177,"ĠWednesday":8178,"ĠGregory":8179,"AIN":8180,"Some":8181,"Ġdangers":8182,"Ġselected":8183,"Ġjest":8184,"ĠAnne":8185,"ILD":8186,"ĠColonel":8187,"Ġplanet":8188,"Ġballs":8189,"Ġpreparation":8190,"ĠEleanor":8191,"Ġtunn":8192,"Ġlas":8193,"ĠForm":8194,"Ġintend":8195,"Ġwhereas":8196,"Ġbackward":8197,"Ġtreas":8198,"Ġtransp":8199,"Ġpainful":8200,"Ġprofits":8201,"Ġopposit":8202,"Ġbench":8203,"ĠDistributed":8204,"Ġfet":8205,"Ġgang":8206,"three":8207,"Ġapples":8208,"athan":8209,"Ġfathers":8210,"hole":8211,"Ġguessed":8212,"Ġpopulation":8213,"ettle":8214,"Ġgratefully":8215,"Ġfugitives":8216,"tis":8217,"vor":8218,"vet":8219,"Ġrises":8220,"Ġtrained":8221,"Ġcounted":8222,"raft":8223,"Ġbidding":8224,"Ġfootsteps":8225,"ĠBenjamin":8226,"cer":8227,"Ġsan":8228,"ĠSaint":8229,"Ġornam":8230,"Ġsugar":8231,"ighty":8232,"ĠProv":8233,"ISH":8234,"Ġsailing":8235,"Ġpunish":8236,"IDENT":8237,"Ġabundance":8238,"ĠWrykyn":8239,",[":8240,"IF":8241,"Ġhired":8242,"ica":8243,"Ġvine":8244,"ĠHend":8245,"asses":8246,"Ġpockets":8247,"Ġexpend":8248,"ogue":8249,"Ġtraveling":8250,"ĠColin":8251,"Ġventured":8252,"ĠDalgard":8253,"Ġinsects":8254,"Ġsurrender":8255,"dig":8256,"Ġwrest":8257,"Ġlazy":8258,"ighted":8259,"Ġconvert":8260,"Ġskull":8261,"Ġsunk":8262,"iki":8263,"Ġashore":8264,"Ġacknowled":8265,"SON":8266,"six":8267,"Ġft":8268,"Ġtho":8269,"Ġgoat":8270,"Ġblowing":8271,"ĠBeing":8272,"ĠSomething":8273,"ĠWallace":8274,"ĠVillage":8275,"27":8276,"asm":8277,"--'":8278,"ĠFenn":8279,"Ġglow":8280,"Ġlasted":8281,"ĠVI":8282,"rows":8283,"ĠJeff":8284,"Ġmaterials":8285,"Ġsuggestion":8286,"Ġalteration":8287,"burn":8288,"iable":8289,"mouth":8290,"Ġcas":8291,"rol":8292,"Ġsex":8293,"ĠLie":8294,"Ġroast":8295,"Ġrobbers":8296,"Ġquantities":8297,"onymous":8298,"God":8299,"bu":8300,"nament":8301,"Ġwoke":8302,"Ġdil":8303,"anag":8304,"ĠTales":8305,"ĠHind":8306,"Ġram":8307,"Ġsust":8308,"Ġchill":8309,"Ġcompressed":8310,"Ġchildhood":8311,"Ġkeeps":8312,"anna":8313,"Ġprotest":8314,"IONS":8315,"Ġslightest":8316,"ĠThorvald":8317,"Ġargument":8318,"Ġcaution":8319,"Ġjewels":8320,"Ġsuspected":8321,"Ġchallen":8322,"made":8323,"Ġdamp":8324,"Ġhare":8325,"ĠHappy":8326,"ĠBalt":8327,"ĠWestern":8328,"ĠDom":8329,"Ġ188":8330,"Ġwarn":8331,"obody":8332,"Ġimplied":8333,"Ġbundle":8334,"gt":8335,"pin":8336,"Ġseats":8337,"ĠFire":8338,"Ġawhile":8339,"Ġsym":8340,"Ġcrossing":8341,"addin":8342,"Ġsezee":8343,"28":8344,"ique":8345,"Ġgorge":8346,"Ġstair":8347,"ĠMER":8348,"Ġbutt":8349,"Ġvir":8350,"Ġtramp":8351,"Ġthrong":8352,"Ġprecip":8353,"Ġscent":8354,"Ġcareer":8355,"Ġdepths":8356,"Ġreality":8357,"Ġlinked":8358,"his":8359,"xed":8360,"inate":8361,"Ġfurious":8362,"Ġstomach":8363,"Ġsharing":8364,"Ġkin":8365,"Ġupset":8366,"ĠĠĠĠĠĠĠĠĠĠĠĠĠĠĠ":8367,"Ġchairs":8368,"Ġnois":8369,"Ġslope":8370,"Ġindul":8371,"Ġmerc":8372,"ursday":8373,"Ġrepresentations":8374,"Ġlegend":8375,"Ġthrill":8376,"urance":8377,"ilight":8378,"Ġdebt":8379,"geance":8380,"ĠOTHER":8381,"Ġreputation":8382,"Ġconscience":8383,"Ġrealize":8384,"Ġtempor":8385,"Ġdetail":8386,"Ġprevented":8387,"Ġphysic":8388,"Ġwondrous":8389,"Ġaught":8390,"adem":8391,"ĠTAL":8392,"Ġshirt":8393,"Ġwheels":8394,"Ġsmote":8395,"Ġcorners":8396,"Ġpurchase":8397,"Ġgasped":8398,"ĠPalmerston":8399,"?--":8400,"iders":8401,"ĠDate":8402,"abeth":8403,"Ġropes":8404,"bler":8405,"ĠAladdin":8406,"Ġconsideration":8407,"Ġbottoms":8408,"Ġcaptive":8409,"ĠTeam":8410,"Ġinterpreted":8411,"=:":8412,"mosp":8413,"inent":8414,"orus":8415,"urr":8416,"ĠMem":8417,"Ġshrill":8418,"ĠCarm":8419,"ulate":8420,"ĠErec":8421,"ĠOtter":8422,"ĠAnn":8423,"Ġdecor":8424,"uesday":8425,"atural":8426,"Ġindustry":8427,"Ġelephant":8428,"Ġdisagree":8429,"Ġfest":8430,"Ġbeaver":8431,"Ġstag":8432,"ĠRO":8433,"Ġconvention":8434,"cks":8435,"ĠItaly":8436,"udge":8437,"ĠJohnson":8438,"Ġabsurd":8439,"Ġfurniture":8440,"Ġautumn":8441,"Ġmajority":8442,"Ġmingled":8443,"24":8444,"Ġnails":8445,"ĠTuesday":8446,"ĠHAVE":8447,"osure":8448,"ĠThursday":8449,"Ġ39":8450,"utely":8451,"Ġpoles":8452,"ĠAbb":8453,"ĠLITTLE":8454,"arged":8455,"ĠHume":8456,"ĠLamb":8457,"Ġterr":8458,"Ġserpent":8459,"Ġtreaty":8460,"Ġsettlers":8461,"ĠEmpire":8462,"Ġdescribe":8463,"Ġtobacco":8464,"EY":8465,"pers":8466,"Ġtour":8467,"icient":8468,"idering":8469,"alian":8470,"cel":8471,"Ġchains":8472,"Ġbacks":8473,"Ġadditions":8474,"raising":8475,"Ġpreparing":8476,"Ġvisitors":8477,"Ġbells":8478,"Ġprocession":8479,"OSS":8480,"ĠLatin":8481,"RAPH":8482,"Pr":8483,"does":8484,"Ġnuts":8485,"Ġgn":8486,"ĠKar":8487,"Ġacting":8488,"Ġprovince":8489,"Ġcorpse":8490,"ĠCanoe":8491,"Ġtort":8492,"Ġcatching":8493,"ĠREP":8494,"Ġdegrees":8495,"Ġstores":8496,"Ġpoetry":8497,"Ġbewild":8498,"ĠSherwood":8499,"Ġmaximum":8500,",=":8501,"tw":8502,"uction":8503,"Ġward":8504,"Ġatmosp":8505,"ĠHistory":8506,"ĠDey":8507,"ĠOff":8508,"Ġclam":8509,"Ġyourselves":8510,"Ġencl":8511,"Ġcarved":8512,"Ġseriously":8513,"Ġanswers":8514,"Ġrecon":8515,"Ġparallel":8516,"Ġpeaceful":8517,"Ġlegisl":8518,"Ġhatred":8519,"Ġmagician":8520,"Ġfiercely":8521,"Ġalternate":8522,"UND":8523,"had":8524,"ĠIce":8525,"Ġwhilst":8526,"Ġrele":8527,"Ġjoke":8528,"Ġgenerous":8529,"Ġinsult":8530,"Ġtraveled":8531,"Ġwidth":8532,"udder":8533,"Ġsplit":8534,"Ġmultitude":8535,"ĠInternational":8536,"oard":8537,"Ġtip":8538,"ĠIMP":8539,"ĠSP":8540,"Ġants":8541,"ĠCass":8542,"Ġroses":8543,"Ġoffering":8544,"Ġconsented":8545,"Ġexplore":8546,"ĠMaryland":8547,"Ġautom":8548,"ĠScotch":8549,"Ġconstructed":8550,"Ġhedge":8551,"\"),":8552,"IA":8553,"aur":8554,"imore":8555,"ifted":8556,"Ġkid":8557,"ĠDear":8558,"Ġbrings":8559,"Ġcoil":8560,"Ġswing":8561,"Ġglobe":8562,"Ġcontents":8563,"Ġlandl":8564,"Ġagreeable":8565,"ĠZeb":8566,"Ġscram":8567,"ĠCompany":8568,"Ġanchor":8569,"Gr":8570,"inity":8571,"ĠIR":8572,"assed":8573,"Ġparted":8574,"order":8575,"Ġprinces":8576,"Ġshores":8577,"Ġuncertain":8578,"Ġgallant":8579,"ĠMinchin":8580,"ĠNevertheless":8581,"Ġbattery":8582,"Ġqualities":8583,"Ġchimney":8584,"oves":8585,"ĠMal":8586,"ĠLion":8587,"Ġvote":8588,"ĠOWN":8589,"ĠAthen":8590,"Ġinterp":8591,"ĠĠĠĠĠĠĠĠĠĠĠĠĠĠĠĠĠĠĠĠĠĠĠĠĠĠ":8592,"Ġboxes":8593,"Ġfacility":8594,"Ġnaughty":8595,"ĠRemus":8596,"ĠSaxons":8597,"Ġvengeance":8598,"ĠPacific":8599,"Ġwires":8600,"ittering":8601,"Ġeconom":8602,"ĠGal":8603,"ĠDec":8604,"elf":8605,"Ġenabled":8606,"Ġunderneath":8607,"izes":8608,"Ġhappens":8609,"Ġpromotion":8610,"Ġfinest":8611,"Ġbreathing":8612,"Ġtightly":8613,"ĠMajor":8614,"Ġnetwork":8615,"Ġbalance":8616,"ĠHolmes":8617,"ĠTrevor":8618,"Ġincomplete":8619,"mark":8620,"acters":8621,"eman":8622,"Ġfog":8623,"Ġobsc":8624,"hyllis":8625,"Ġslee":8626,"Ġangrily":8627,"Ġgloomy":8628,"Ġfortunate":8629,"Ġdisgrace":8630,"rane":8631,"uv":8632,"Ġwig":8633,"Ġoars":8634,"Ġnut":8635,"ĠTenn":8636,"Ġweep":8637,"ooked":8638,"Ġridge":8639,"unge":8640,"ĠAndy":8641,"Ġcontributions":8642,"ĠOnline":8643,"ĠMission":8644,"Ġeasier":8645,"Ġlabour":8646,"Ġrevolution":8647,"Ġinjured":8648,"Ġswimming":8649,"Ġdistinctly":8650,"ĠWilson":8651,"only":8652,"Ġpains":8653,"Ġult":8654,"ĠAct":8655,"alls":8656,"ĠLanguage":8657,"Ġdiscipl":8658,"Ġrig":8659,"Ġpermit":8660,"Ġperformances":8661,"Ġderive":8662,"Ġberries":8663,"Ġtossed":8664,"IP":8665,"LY":8666,"With":8667,"zip":8668,"ĠLast":8669,"oping":8670,"Ġabol":8671,"Ġdownlo":8672,"ĠAsgard":8673,"Ġaccessible":8674,"Ġstudent":8675,"Ġestate":8676,"THING":8677,"Ġperiodic":8678,"Ġfruits":8679,"Ġchecks":8680,"Ġscratch":8681,"Ġfolded":8682,"ĠBOY":8683,"ĠDespite":8684,"ĠProofreading":8685,"Ġindirectly":8686,"Hara":8687,"full":8688,"Ġcam":8689,"Ġcats":8690,"Ġtoil":8691,"ĠPR":8692,"ĠPhyllis":8693,"ĠKent":8694,"Ġcomplex":8695,"Ġmarvel":8696,"Ġcharitable":8697,"Ġdepth":8698,"Ġfrank":8699,"Ġprofound":8700,"Ġvolunteer":8701,"ĠMiddle":8702,"Ġarrangement":8703,"ĠCastle":8704,"Ġimprison":8705,"Ġsovereign":8706,"!_":8707,"inue":8708,"Ġwoe":8709,"Ġbefall":8710,"ette":8711,"Ġkitten":8712,"quar":8713,"Ġclung":8714,"Ġgoodly":8715,"ruly":8716,"ribute":8717,"ĠWhit":8718,"Ġ177":8719,"34":8720,"gent":8721,"inations":8722,"ĠCave":8723,"ĠNile":8724,"Ġtherein":8725,"Ġlonging":8726,"Ġpreserved":8727,"Ġfeels":8728,"Ġcharacters":8729,"Ġoppon":8730,"Ġangle":8731,"Ġmeantime":8732,"Ġdata":8733,"Ġcalmly":8734,"Ġcalculate":8735,"Ġattracted":8736,"Ġhorizon":8737,"ĠJefferson":8738,".;--":8739,"box":8740,"cut":8741,"ih":8742,"vil":8743,"Ġdu":8744,"Ġgig":8745,"Ġyer":8746,"ros":8747,"ĠHard":8748,"Ġboards":8749,"Ġcareless":8750,"Ġmillions":8751,"Ġgenius":8752,"Ġmaintaining":8753,"FORE":8754,"horse":8755,"Ġfert":8756,"Ġcage":8757,"Ġwhither":8758,"irts":8759,"ĠChat":8760,"ĠWild":8761,"ĠDen":8762,"abs":8763,"Ġbrisk":8764,"Ġquality":8765,"resses":8766,"Ġendure":8767,"Ġstraightway":8768,"Ġlucky":8769,"ĠSpecial":8770,"ocracy":8771,"Ġdiscussion":8772,"ĠConfederate":8773,"Ġfarewell":8774,"Ġcorporation":8775,"Fig":8776,"aign":8777,"Ġbits":8778,"ito":8779,"Ġmule":8780,"Ġga":8781,"ĠTheodore":8782,"Ġagony":8783,"Ġaroused":8784,"Ġbloom":8785,"Ġoverw":8786,"Ġcrash":8787,"Ġdesir":8788,"Ġconsists":8789,"Ġrestore":8790,"Ġawakened":8791,"Ġcentral":8792,"Ġencamp":8793,"Ġ1863":8794,"ĠCharacter":8795,"Ġsuitable":8796,"Ġroared":8797,"Ġbrick":8798,"ĠVen":8799,"Ġscarlet":8800,"Ġaltar":8801,"Ġdismiss":8802,"Ġenterprise":8803,"ASE":8804,"kward":8805,"Ġonward":8806,"Ġwithal":8807,"ural":8808,"ĠCott":8809,"ilion":8810,"aph":8811,"Ġoutward":8812,"Ġripe":8813,"Ġscale":8814,"Ġhappily":8815,"Ġgeneration":8816,"Ġdomestic":8817,"Ġfatal":8818,"Ġcorridor":8819,"Ġwaving":8820,"Ġrelease":8821,"roft":8822,"ĠSav":8823,"ĠDON":8824,"Ġtwilight":8825,"Ġconsisted":8826,"Ġemp":8827,"Ġincred":8828,"Ġassure":8829,"ĠCompl":8830,"Ġimagined":8831,"Ġtowers":8832,"Ġcandid":8833,"UST":8834,"legraph":8835,"Ġconsciousness":8836,"Ġpromptly":8837,"ĠElizabeth":8838,"ĠAtlantic":8839,"gbert":8840,"prop":8841,"zing":8842,"Ġhound":8843,"Ġlust":8844,"ĠIF":8845,"irm":8846,"irds":8847,"ĠACT":8848,"ĠMand":8849,"Ġhers":8850,"Ġanyhow":8851,"ĠĠĠĠĠĠĠĠĠĠĠĠĠĠĠĠĠĠĠĠĠĠĠĠĠĠĠĠ":8852,"Ġlegally":8853,"Ġtorment":8854,"Ġmasses":8855,"Ġfacing":8856,"Ġconvenient":8857,"iu":8858,"rage":8859,"Ġwashing":8860,"ĠSub":8861,"iron":8862,"ĠMAN":8863,"Ġseeds":8864,"ĠCoy":8865,"ĠFre":8866,"Ġstreams":8867,"Ġlargely":8868,"Ġdepos":8869,"Ġplacing":8870,"Ġprophet":8871,"Ġlords":8872,"Ġsearching":8873,"Ġmerchants":8874,"Ġconquered":8875,"eous":8876,"pen":8877,"Ġtents":8878,"Ġsink":8879,"itory":8880,"Ġmant":8881,"omon":8882,"imm":8883,"Ġrings":8884,"actory":8885,"Ġhelping":8886,"Ġcharming":8887,"Ġrequested":8888,"Ġlowered":8889,"Ġpreviously":8890,"donate":8891,"ological":8892,"Ġhideous":8893,"Ġamidst":8894,"Ġlofty":8895,"Ġlots":8896,"Ġlunch":8897,"Ġgit":8898,"ifying":8899,"ĠLard":8900,"ĠRIGHT":8901,"umbling":8902,"aga":8903,"Ġstruct":8904,"Ġscold":8905,"Ġreflected":8906,"Ġpossibility":8907,"aze":8908,"Ġawkward":8909,"Ġcontains":8910,"Ġruins":8911,"Ġcuriously":8912,"Ġfurnish":8913,"ĠBEFORE":8914,"Ġcivilization":8915,"break":8916,"Ġgreeted":8917,"ĠSummer":8918,"Tis":8919,"Ġink":8920,"acon":8921,"ĠLang":8922,"Ġchanging":8923,"Ġwillingly":8924,"Ġappet":8925,"ĠUSE":8926,"Ġglowing":8927,"pson":8928,"Ġfasten":8929,"Ġinfinite":8930,"fortune":8931,"Ġviewing":8932,"ĠMoreover":8933,"Ġpersuaded":8934,"Ġwool":8935,"ingle":8936,"Ġhell":8937,"ĠHE":8938,"ĠDry":8939,"Ġpeasant":8940,"ĠStri":8941,"Ġsunlight":8942,"Ġproduct":8943,"Ġmodification":8944,"ĠExec":8945,"ĠDickon":8946,"RACT":8947,"Ġindependent":8948,"ĠElectric":8949,"Ġunpleasant":8950,"faced":8951,"Ġfoul":8952,"Ġbeak":8953,"Ġindians":8954,"ARY":8955,"ixture":8956,"URP":8957,"ĠRepl":8958,"Please":8959,"mitted":8960,"Ġwagon":8961,"Ġinex":8962,"ĠSign":8963,"ĠCOM":8964,"Ġmyth":8965,"Ġexisted":8966,"inds":8967,"Ġtraces":8968,"Ġdisaster":8969,"Ġlonged":8970,"ĠStard":8971,"ĠConstitution":8972,"ĠPhilist":8973,"Ġcircuit":8974,"Ġroyalty":8975,"Ġtumbled":8976,"Ġcliffs":8977,"Ġaverage":8978,"Ne":8979,"mans":8980,"lying":8981,"ĠAE":8982,"ĠHand":8983,"Ġshine":8984,"ĠFOUND":8985,"iege":8986,"ĠRay":8987,"ickly":8988,"ĠKanag":8989,"Ġconfident":8990,"Ġinfring":8991,"Ġstatue":8992,"Ġdivine":8993,"ĠJerry":8994,"fundraising":8995,"Ġwithdraw":8996,"ĠBaltimore":8997,"Ġatmosphere":8998,"mail":8999,"nuts":9000,"ua":9001,"Ġmice":9002,"arie":9003,"ĠSaints":9004,"Ġleis":9005,"Ġgran":9006,"Ġcontented":9007,"Ġ179":9008,"Ġbelongs":9009,"Ġpunished":9010,"ĠREF":9011,"Ġstruggled":9012,"ĠMountain":9013,"Ġseverely":9014,"Ġcondemned":9015,"Ġprohibition":9016,"Ġascertain":9017,"IAM":9018,"tell":9019,"ato":9020,"Ġliterary":9021,"Ġnail":9022,"Ġbef":9023,"ĠTill":9024,"ĠPark":9025,"Ġexclusion":9026,"Ġnovel":9027,"udent":9028,"ĠKIND":9029,"ĠĠĠĠĠĠĠĠĠĠĠĠĠĠĠĠĠĠĠĠĠĠĠ":9030,"Ġslumber":9031,"ĠSpart":9032,"ĠGranny":9033,"Ġdetect":9034,"Ġragged":9035,"slavery":9036,"Ġbattles":9037,"ĠCoyote":9038,"Re":9039,"car":9040,"ridge":9041,"Ġinacc":9042,"Ġgy":9043,"ĠPur":9044,"ĠPUN":9045,"emn":9046,"Ġspared":9047,"Ġcompet":9048,"Ġfoundation":9049,"shire":9050,"Ġarmies":9051,"Ġopposition":9052,"Ġinfer":9053,"Ġmuscles":9054,"Ġerrand":9055,"ĠSergt":9056,"Ġ2001":9057,"Ġreferred":9058,"Ġdeduct":9059,"ĠPeters":9060,"ĠEXPRESS":9061,"UAL":9062,"pence":9063,"Ġpenny":9064,"lder":9065,"verty":9066,"ĠWere":9067,"tho":9068,"Ġworsh":9069,"apa":9070,"Ġfolly":9071,"ĠStark":9072,"Ġrestless":9073,"ĠAlbert":9074,"Ġlively":9075,"Ġjoint":9076,"Ġelements":9077,"THE":9078,"Ġclimbing":9079,"Ġaffected":9080,"CEPT":9081,"Ġnavig":9082,"Ġswallowed":9083,"Ġconfirmation":9084,"mat":9085,"rea":9086,"erate":9087,"Ġmas":9088,"ĠHy":9089,"ĠBell":9090,"Ġspur":9091,"ĠEVEN":9092,"Ġgodd":9093,"ĠAndrew":9094,"avy":9095,"Ġtwist":9096,"plom":9097,"ĠĠĠĠĠĠĠĠĠĠĠĠĠĠĠĠĠĠĠĠĠĠ":9098,"solete":9099,"gram":9100,"Ġtemples":9101,"Ġbreathe":9102,"Ġencoun":9103,"ĠSTRI":9104,"etta":9105,"Ġabandoned":9106,"Ġangels":9107,"Ġapparatus":9108,"Ġsearched":9109,"LUD":9110,"Ġhom":9111,"Ġcakes":9112,"ĠMat":9113,"ĠBald":9114,"Ġsem":9115,"Ġmankind":9116,"ĠKitty":9117,"Ġpoverty":9118,"Ġobsolete":9119,"ĠĠĠĠĠĠĠĠĠĠĠĠĠĠĠĠĠĠĠĠĠĠĠĠĠĠĠ":9120,"Ġprofess":9121,"ĠMcG":9122,"Ġhyper":9123,"Ġmirror":9124,"ĠSecond":9125,"Ġamusement":9126,"ĠDarz":9127,"ĠExecutive":9128,"imony":9129,"Ġvivid":9130,"Ġquiver":9131,"ĠKn":9132,"Ġperf":9133,"ĠStory":9134,"phas":9135,"letter":9136,"Ġregions":9137,"Ġdearly":9138,"Ġproprietary":9139,"Ġsigned":9140,"Ġsquad":9141,"Ġguarded":9142,"Ġfrozen":9143,"Ġrecognize":9144,"ĠRussia":9145,"Ġpupil":9146,"ĠTRAD":9147,"Ġgoddess":9148,"Get":9149,"ĠSat":9150,"Ġhaul":9151,"ĠPOSS":9152,"ĠGib":9153,"Ġdew":9154,"Ġexert":9155,"Ġknelt":9156,"Ġsets":9157,"Ġrecent":9158,"Ġextensive":9159,"ĠSpring":9160,"Ġprotected":9161,"Ġ1500":9162,"Ġdetermination":9163,"Ġexamining":9164,"Ġsickness":9165,"Ġwelcom":9166,"ĠSquirrel":9167,"ĠDemi":9168,"fish":9169,"Ġmate":9170,"Ġdining":9171,"Ġlosing":9172,"--_":9173,"ĠDIRECT":9174,"Ġlikes":9175,"Ġhearty":9176,"Ġharder":9177,"Ġcolours":9178,"Ġassumed":9179,"Ġburgl":9180,"Ġpursue":9181,"Ġrenamed":9182,"ĠFreddie":9183,"Ġincidents":9184,"Ġcommunication":9185,"Ġcooked":9186,"Ġscheme":9187,"37":9188,"Un":9189,"];":9190,"_;":9191,"pres":9192,"Ġtick":9193,"Ġale":9194,"inery":9195,"Ġharp":9196,"ata":9197,"ĠPyramid":9198,"Ġsports":9199,"Ġdishes":9200,"Ġentit":9201,"Ġwinding":9202,"Ġstandard":9203,"ĠCommon":9204,"Ġmouths":9205,"Ġdisappointment":9206,"Ġattempts":9207,"ĠPROV":9208,"Ġsensation":9209,"Ġantic":9210,"Ġearliest":9211,"Ġdisagreeable":9212,"Our":9213,"_.\"":9214,"banks":9215,"wed":9216,"Ġdre":9217,"Ġnought":9218,"Ġshy":9219,"Ġgoals":9220,"Ġamused":9221,"Ġ47":9222,"OND":9223,"CHANT":9224,"Ġemployee":9225,"Ġspoil":9226,"Ġstrode":9227,"ĠGermany":9228,"Ġprecise":9229,"Ġpistol":9230,"bel":9231,"Ġmu":9232,"Ġpacked":9233,"ĠSEND":9234,"ills":9235,"Ġshaken":9236,"Ġcritic":9237,"ormal":9238,"ĠTHOSE":9239,"ONG":9240,"Ġabsor":9241,"Ġtrusted":9242,"LAIM":9243,"Ġembro":9244,"Ġcrystal":9245,"why":9246,"eding":9247,"lls":9248,"ĠAng":9249,"ĠPool":9250,"ĠRing":9251,"ĠEastern":9252,"agr":9253,"ullo":9254,"Ġelected":9255,"Ġwont":9256,"Ġ70":9257,"Ġtravelled":9258,"Ġfrightful":9259,"Ġidentification":9260,"ĠVolunte":9261,"trad":9262,"Ġencourage":9263,"Ġconstitution":9264,"Ġphotograph":9265,"Ġwag":9266,"Ġcodes":9267,"Ġpadd":9268,"Ġstamp":9269,"Ġroaring":9270,"Ġswitch":9271,"Ġindemn":9272,"Ġmostly":9273,"ITIVE":9274,"Ġcontinent":9275,"eads":9276,"Ġmemories":9277,"Ġneighbours":9278,"Ġformerly":9279,"Ġrejoiced":9280,"Ġfloated":9281,"Ġextremity":9282,"35":9283,"iou":9284,"ricks":9285,"Ġwits":9286,"oubted":9287,"Ġlament":9288,"Ġeastern":9289,"ĠSon":9290,"hers":9291,"ĠGet":9292,"ando":9293,"Ġhandful":9294,"Ġcompre":9295,"Ġplays":9296,"ĠRevenue":9297,"Ġideal":9298,"Ġmisfortune":9299,"Ġthirteen":9300,"ancholy":9301,"Ġreckon":9302,"ĠDirector":9303,"ĠLieutenant":9304,"From":9305,"IAN":9306,"mod":9307,"Ġton":9308,"orks":9309,"ĠMO":9310,"Ġsober":9311,"elly":9312,"Ġslipp":9313,"ĠClover":9314,"Ġbarbar":9315,"Ġconstruction":9316,"Ġappropri":9317,"Ġfeeble":9318,"Ġrevealed":9319,"Ġmelted":9320,"ĠSilver":9321,"ranean":9322,"Ġfid":9323,"Ġfountain":9324,"Ġstump":9325,"Ġoverhead":9326,"Ġpresident":9327,"Ġcharities":9328,"Ġsignific":9329,"ĠAdel":9330,"Ġcampaign":9331,"Ġquestioned":9332,"Ġcreeping":9333,"Ġresolution":9334,"Ġblankets":9335,"Ġsupplies":9336,"Ġarrested":9337,"ĠSolomon":9338,"ĠBuffalow":9339,"vous":9340,"enforce":9341,"ĠSin":9342,"Ġaged":9343,"oster":9344,"Ġletting":9345,"Ġsurvey":9346,"Ġprophe":9347,"shipman":9348,"Ġdevice":9349,"Ġruined":9350,"RIV":9351,"Ġoperation":9352,"Ġcellar":9353,"ĠOthers":9354,"Only":9355,"Ġsubscribe":9356,"Ġinfringement":9357,"Ġinaccurate":9358,"LUDING":9359,"leness":9360,"Ġinher":9361,"Ġloyal":9362,"ĠTau":9363,"Ġwhit":9364,"Ġshan":9365,"ĠBow":9366,"ĠCall":9367,"ĠGIVE":9368,"ĠDis":9369,"ĠOLD":9370,"ĠJasper":9371,"Ġclut":9372,"Ġflushed":9373,"Ġowners":9374,"Ġentreat":9375,"Ġwars":9376,"Ġregulating":9377,"Ġsixth":9378,"SEQU":9379,"Ġcreep":9380,"Ġconnect":9381,"Ġweakness":9382,"....\"":9383,"Ġelectricity":9384,"Ġcrawled":9385,"ĠINCLUDING":9386,"Ġlicensed":9387,"Ġoverwhel":9388,"hin":9389,"nce":9390,"ĠSur":9391,"Ġdoc":9392,"oph":9393,"Ġconfused":9394,"Ġcrest":9395,"Ġhotel":9396,"Ġballoon":9397,"Ġeighty":9398,"ĠUpdated":9399,"Ġbending":9400,"Ġascended":9401,"ĠINCIDENT":9402,"ĠHelen":9403,"622":9404,"Jo":9405,"NITY":9406,"eight":9407,"ping":9408,"Ġdumb":9409,"Ġpiled":9410,"ĠFIT":9411,"Ġsped":9412,"Ġenable":9413,"ounted":9414,"Ġnowhere":9415,"ĠInternal":9416,"Ġseeming":9417,"Ġlogs":9418,"ĠDefect":9419,"ĠRelease":9420,"uese":9421,"ĠPhilipp":9422,"haired":9423,"Ġwander":9424,"LAC":9425,"ĠXXV":9426,"Ġdisclaimers":9427,"ĠCONSEQU":9428,"Ġmelancholy":9429,"Ġimpatient":9430,"ĠSaxon":9431,"ĠPutnam":9432,"ĠMERCHANT":9433,"His":9434,"uals":9435,"ource":9436,"Ġgover":9437,"Ġblocks":9438,"Ġperple":9439,"Ġdonation":9440,"ĠVII":9441,"Ġconsidering":9442,"Ġanswering":9443,"Ġchiefs":9444,"LECT":9445,"Ġshouts":9446,"Ġesteem":9447,"Ġstrengthen":9448,"IDED":9449,"ĠContact":9450,"Ġapartment":9451,"Ġpillow":9452,"Ġproofread":9453,"Ġcoffee":9454,"LIED":9455,"ĠREMED":9456,"Ġhypertext":9457,"Par":9458,"ba":9459,"ov":9460,"pic":9461,"vas":9462,"Ġsits":9463,"Ġmould":9464,"ĠSeen":9465,"Ġtheirs":9466,"Ġtimid":9467,"Ġunre":9468,"ĠUT":9469,"Ġ49":9470,"Ġstudies":9471,"Ġplanned":9472,"ĠOhio":9473,"Ġexpecting":9474,"Ġrepeat":9475,"ĠTitle":9476,"Ġamazed":9477,"Ġinstruments":9478,"ĠWalter":9479,"Ġshepherd":9480,"ida":9481,"ĠHan":9482,"ĠPLE":9483,"ulpt":9484,"ĠLee":9485,"aba":9486,"ivs":9487,"Ġbrains":9488,"ords":9489,"Ġheaded":9490,"Ġdonors":9491,"inton":9492,"ensions":9493,"Ġrelieved":9494,"Ġtranscribe":9495,"Ġeffective":9496,"Ġstretch":9497,"icycle":9498,"Ġcombined":9499,"regular":9500,"Ġcommerce":9501,"aisy":9502,"Ġcoffin":9503,"Ġmourn":9504,"Ġtunnel":9505,"Ġtiger":9506,"Ġtheat":9507,"Ġstim":9508,"ĠBess":9509,"ĠRover":9510,"ĠEag":9511,"Ġthereby":9512,"Ġmoreover":9513,"ĠYellow":9514,"Ġ($":9515,"Ġrecently":9516,"Ġclearing":9517,"Ġportra":9518,"Ġpursu":9519,"Ġfrog":9520,"rooked":9521,"Ġroute":9522,"ĠINDIRECT":9523,"Ġbolt":9524,"ĠSUCH":9525,"Ġspinning":9526,"Ġinterfere":9527,"ĠUrrea":9528,"ĠVolunteers":9529,"iors":9530,"Ġnotion":9531,"ĠBre":9532,"ĠPURP":9533,"ĠRoger":9534,"Ġintr":9535,"Ġswinging":9536,"Ġmoist":9537,"Ġelbow":9538,"apsed":9539,"OUR":9540,"Ġjumping":9541,"Ġselfish":9542,"OLD":9543,"ĠNOTICE":9544,"Ġmonkeys":9545,"Ġrebell":9546,"ĠMelan":9547,"Ġdisease":9548,"Ġvirus":9549,"gli":9550,"nat":9551,"past":9552,"post":9553,"Ġtu":9554,"Ġfan":9555,"Ġpatch":9556,"ano":9557,"ĠSections":9558,"ĠAust":9559,"ripp":9560,"Ġstare":9561,"Ġsaving":9562,"ĠHas":9563,"ĠPoss":9564,"ĠGRE":9565,"ĠLab":9566,"ĠED":9567,"ĠEIN":9568,"Ġdisciples":9569,"Ġthoughtful":9570,"Ġdram":9571,"Ġwanting":9572,"shaped":9573,"Ġyeomen":9574,"Ġtranscription":9575,"IGENCE":9576,"Ġstirring":9577,"Alas":9578,"Ġblanket":9579,"Ġabundant":9580,"========":9581,"Ġfugitive":9582,"Ġbridle":9583,"ĠPortuguese":9584,"Ġsynonymous":9585,"ĠSTRICT":9586,"Ġindemnify":9587,"62215":9588,"ĠREMEDIES":9589,"nold":9590,"Ġnic":9591,"ĠMess":9592,"ĠBinet":9593,"Ġrhy":9594,"ĠWAS":9595,"Ġsof":9596,"ĠLod":9597,"olation":9598,"Ġcompilation":9599,"Ġempire":9600,"Ġmachinery":9601,"Ġprocessing":9602,"Ġblazing":9603,"Ġignorance":9604,"Ġclerk":9605,"Ġerected":9606,"ĠCONTRACT":9607,"Ġabruptly":9608,"ĠDomain":9609,"Ġentitled":9610,"ĠPROVIDED":9611,"ĠPURPOSE":9612,"21":9613,"txt":9614,"Ġbinary":9615,"Ġcents":9616,"Ġinward":9617,"utt":9618,"ĠHalf":9619,"Ġroused":9620,"Ġsupre":9621,"umble":9622,"Ġboiled":9623,"Ġperpet":9624,"Ġelection":9625,"Ġemphas":9626,"Ġcountrymen":9627,"Ġassault":9628,"ĠRefund":9629,"Ġfaire":9630,"Ġmodel":9631,"Ġpaperwork":9632,"Ġeleg":9633,"ENTIAL":9634,"EMNITY":9635,"Ġmaidens":9636,"Ġoriginator":9637,"Ġgravely":9638,"Ġsensible":9639,"Ġridic":9640,"ĠANYTHING":9641,"Ġredistributing":9642,"ĠNEGL":9643,"ĠINDEMNITY":9644,"Ġresponsible":9645,"Defects":9646,"ĠLIABILITY":9647,"Ġwarranties":9648,"Ġ596":9649,"Ġingen":9650,"Ġrenewed":9651,"Ġdiscontinue":9652,"ĠDISCLAIM":9653,"ĠIMPLIED":9654,"ĠReplacement":9655,"ĠPUNITIVE":9656,"Ġdeductible":9657,"ĠPOSSIBILITY":9658,"ĠINCIDENTAL":9659,"ĠFITNESS":9660,"ĠCONSEQUENTIAL":9661,"ĠNEGLIGENCE":9662,"ĠDISCLAIMER":9663,"away":9664,"Ġthieves":9665,"esc":9666,"ĠAK":9667,"ĠPE":9668,"ĠRaj":9669,"Ġbron":9670,"ĠKad":9671,"Ġcrushed":9672,"Ġearn":9673,"Ġhurled":9674,"ĠĠĠĠĠĠĠĠĠĠĠĠĠĠĠĠĠĠĠĠĠĠĠĠĠĠĠĠĠ":9675,"Ġpencil":9676,"Ġacquired":9677,"Ġimmort":9678,"1887":9679,"Ġcontrast":9680,"Ġensuring":9681,"from":9682,"ĠBag":9683,"Ġrud":9684,"ĠLine":9685,"Ġaboard":9686,"avail":9687,"ĠItalian":9688,"ĠUN":9689,"Ġcourte":9690,"Ġ48":9691,"Ġreluct":9692,"Ġcurse":9693,"Ġmemor":9694,"Ġnewsletter":9695,"Ġdelicious":9696,"Ġsolicitation":9697,"Ġgraceful":9698,"Ġvigor":9699,"Ġrisen":9700,"Ġdemonstr":9701,"ĠStephen":9702,"olicited":9703,"ĠCarmel":9704,"Ġdownloading":9705,"bird":9706,"license":9707,"water":9708,"icago":9709,"verted":9710,"ambers":9711,"ĠHold":9712,"Ġraw":9713,"ĠDaisy":9714,"Ġvest":9715,"Ġcane":9716,"odd":9717,"Ġrifles":9718,"Ġscre":9719,"Ġhelm":9720,"Ġopposed":9721,"Ġ841":9722,"Ġlimit":9723,"ships":9724,"Ġencoding":9725,"AGE":9726,"AGRAPH":9727,"Ġunsolicited":9728,"ĠAdditional":9729,"ĠPARAGRAPH":9730,"Ġpatriot":9731,"6221541":9732,"iw":9733,"Ġmul":9734,"Ġdash":9735,"Ġlangu":9736,"Ġreform":9737,"irs":9738,"Ġstem":9739,"ĠBright":9740,"Ġsul":9741,"Ġupwards":9742,"Ġgrunt":9743,"Ġblown":9744,"Ġdisple":9745,"Ġimages":9746,"Ġfiring":9747,"Ġresidence":9748,"Ġbub":9749,"ĠAlf":9750,"ĠBeat":9751,"Ġadvancing":9752,"Ġsweep":9753,"Ġviolates":9754,"Information":9755,"ĠEXCEPT":9756,"Ġceremon":9757,"ĠREPLAC":9758,"ĠOWNER":9759,"ĠFOUNDATION":9760,"36":9761,"Ay":9762,"ez":9763,"jud":9764,"oft":9765,"whe":9766,"Ġhalt":9767,"Ġmail":9768,"Ġrent":9769,"Ġshrew":9770,"ĠCrow":9771,"ĠRand":9772,"Ġtracks":9773,"Ġexporting":9774,"Ġintervals":9775,"Ġinsist":9776,"Ġcommands":9777,"Ġaffl":9778,"Ġclothed":9779,"Ġhumanity":9780,"ĠGerda":9781,"Ġwestward":9782,"ĠContributions":9783,"Ġcheerfully":9784,"Ġvigorous":9785,"Ġredistribution":9786,"ĠTexas":9787,"ĠWILLIAM":9788,"Ġ809":9789,"Indeed":9790,"Ġvelvet":9791,"itudes":9792,"ĠPLEASE":9793,"AC":9794,"copyright":9795,"Ġinev":9796,"ĠTy":9797,"urity":9798,"Ġnotifies":9799,"Ġsale":9800,"Ġshillings":9801,"Ġrows":9802,"Ġdelet":9803,"Ġattent":9804,"Ġ997":9805,"ĠNewby":9806,"forth":9807,"ĠDrum":9808,"Ġaccounts":9809,"Ġlouder":9810,"ĠNeither":9811,"ĠCraven":9812,"Ġauthorities":9813,"ĠFairbanks":9814,"ĠDAMAGE":9815,"ĠARRIV":9816,"801":9817,"ĠSecretary":9818,"ĠACTUAL":9819,"Ġ84116":9820,"Ha":9821,"bnew":9822,"folk":9823,"natural":9824,"oven":9825,"Ġ0":9826,"Ġfishes":9827,"Ġlur":9828,"Ġgbnew":9829,"ĠTa":9830,"ĠTim":9831,"ĠSor":9832,"Ġstub":9833,"Ġnotwithstanding":9834,"iforn":9835,"Ġoutdated":9836,"ĠNone":9837,"aud":9838,"Ġark":9839,"Ġunenforce":9840,"Ġglittering":9841,"Ġwrist":9842,"ancipation":9843,"ĠWhose":9844,"Ġadding":9845,"Ġsteed":9846,"Ġparr":9847,"Ġsubstit":9848,"Ġchariot":9849,"Ġrequires":9850,"REEMENT":9851,"Ġaccessed":9852,"Ġrespects":9853,"ĠEmail":9854,"EMARK":9855,"LAF":9856,"Ġinvention":9857,"Ġnonprop":9858,"ĠAGREEMENT":9859,"Ġaccomplish":9860,"Ġmurmur":9861,"Ġunlink":9862,"Ġfeeding":9863,"Ġredistribute":9864,"Ġrarely":9865,"Ġpositive":9866,"ĠSnake":9867,"Ġ4557":9868,"ĠPGLAF":9869,"ĠDISTRIBUTOR":9870,"ĠLIABLE":9871,"ĠRedistributing":9872,"ĠRedistribution":9873,"Ġwreck":9874,"Ġinvalidity":9875,"ĠCreating":9876,"ĠIRS":9877,"ĠDONATIONS":9878,"ĠCompliance":9879,"ĠREFUND":9880,"ĠTRADEMARK":9881,"trademark":9882,"ĠREPLACEMENT":9883,"Ġdeletions":9884,"Ġ99712":9885,"Ġgbnewby":9886,"Ġunenforceability":9887,"Ġnonproprietary":9888,"47":9889,"case":9890,"Ġcyl":9891,"Ġpark":9892,"Ġvow":9893,"pled":9894,"Ġcoarse":9895,"Ġdisob":9896,"Ġpoem":9897,"cier":9898,"aida":9899,"Ġimpulse":9900,"rett":9901,"Ġperformance":9902,"ĠPlace":9903,"Ġcombat":9904,"ĠThompson":9905,"Ġinjury":9906,"ocratic":9907,"ĠMartin":9908,"ĠDarzac":9909,"RAN":9910,"Ġreaches":9911,"riend":9912,"ĠBird":9913,"Ġhorsemen":9914,"Ġinvite":9915,"Ġposts":9916,"Ġtailor":9917,"Ġfiery":9918,"Ġcupboard":9919,"Ġseventeen":9920,"Ġborder":9921,"ĠDISTRIBUTE":9922,"ĠCabinet":9923,"Vv":9924,"XX":9925,"Ġhoof":9926,"arc":9927,"Ġling":9928,"omer":9929,"Ġbeer":9930,"Ġbees":9931,"Ġhaz":9932,"ĠBur":9933,"Ġrushes":9934,"ĠOri":9935,"Ġju":9936,"ĠKilled":9937,"Ġaccused":9938,"Ġinduced":9939,"Ġimpressed":9940,"Ġ46":9941,"Ġvoc":9942,"Ġrelative":9943,"Ġlawyer":9944,"uffled":9945,"Ġvaliant":9946,"Ġbinding":9947,"Ġlance":9948,"ĠSER":9949,"ĠBee":9950,"ĠFree":9951,"Ġdidst":9952,"ĠĠĠĠĠĠĠĠĠĠĠĠĠĠĠĠĠĠĠĠĠ":9953,"Ġnewly":9954,"Ġreaders":9955,"Ġproposal":9956,"Ġstrangely":9957,"Ġceiling":9958,"Ġwonders":9959,"ĠTitus":9960,"Ġleaping":9961,"Ġapprehens":9962,"Ġreflection":9963,"Ġpreferred":9964,"39":9965,"hal":9966,"pit":9967,"Ġcaval":9968,"ĠGen":9969,"ĠGhost":9970,"Ġchances":9971,"Ġspots":9972,"Ġremote":9973,"Ġactions":9974,"Ġstrips":9975,"Ġvisitor":9976,"ĠChiefs":9977,"Ġthankful":9978,"Ġcolonists":9979,"ĠStrong":9980,"Ġcrimson":9981,"Ġdiscipline":9982,"cont":9983,"hild":9984,"Ġwot":9985,"Ġpip":9986,"aders":9987,"icate":9988,"icial":9989,"idable":9990,"ĠDynasty":9991,"Ġspider":9992,"Ġjaws":9993,"Ġard":9994,"Ġclosing":9995,"ĠButter":9996,"ickens":9997,"Ġswore":9998,"Ġswell":9999,"Ġdraught":10000,"These":10001,"Ġhelmet":10002,"Ġdiscour":10003,"Ġsummit":10004,"Ġtails":10005,"Nothing":10006,"Ġdeny":10007,"Ġgroups":10008,"Ġpressing":10009,"Ġmammy":10010,"Ġharbour":10011,"Ġglimpse":10012,"Times":10013,"_--":10014,"Ġsinking":10015,"Ġgown":10016,"Ġasks":10017,"Ġshaped":10018,"Ġrats":10019,"about":10020,"aware":10021,"ĠUtter":10022,"ieth":10023,"etsy":10024,"ĠSmiling":10025,"Ġirregular":10026,"Ġmusk":10027,"AST":10028,"sych":10029,"Ġconceived":10030,"Ġlodges":10031,"Ġmotionless":10032,"Ġlandlord":10033,"su":10034,"alia":10035,"ĠSuff":10036,"Ġstove":10037,"Ġkicked":10038,"Ġworm":10039,"Ġvault":10040,"avilion":10041,"Ġpersec":10042,"Ġreplies":10043,"Ġlawn":10044,"Ġthyself":10045,"Ġpolished":10046,"cribed":10047,"Ġbravely":10048,"Ġstruggling":10049,"Ġcooking":10050,"Ġrecords":10051,"Ġprecaut":10052,"Ġcautiously":10053,"Ġunconscious":10054,"oons":10055,"rice":10056,"ĠAst":10057,"rift":10058,"ĠMorse":10059,"ĠCO":10060,"Ġorch":10061,"ĠFer":10062,"olis":10063,"ĠOx":10064,"Ġknot":10065,"Ġbrut":10066,"Ġbonds":10067,"INE":10068,"Ġmermaid":10069,"Ġinvitation":10070,"Ġillustration":10071,"Ġprofessor":10072,"Ġpaths":10073,"Ġdenied":10074,"iversity":10075,"Ġawaited":10076,"Le":10077,"hor":10078,"rine":10079,"Ġze":10080,"ĠSult":10081,"ĠCarp":10082,"ĠCarr":10083,"ĠWr":10084,"thou":10085,"Ġplum":10086,"Ġgrav":10087,"Ġcheap":10088,"Ġbehalf":10089,"ĠNora":10090,"Ġshells":10091,"Ġadministr":10092,"ĠCotton":10093,"UE":10094,"mission":10095,"twas":10096,"Ġtough":10097,"Ġsiege":10098,"Ġbust":10099,"onies":10100,"Ġinit":10101,"Ġeternal":10102,"ĠSurely":10103,"Ġforks":10104,"Ġlip":10105,"Ġsmoking":10106,"blance":10107,"ossie":10108,"Ġmagistr":10109,"Ġtransport":10110,"Ġprotested":10111,"Ġsatisfy":10112,"Ġremarkably":10113,"ĠFreder":10114,"Ġfarmers":10115,"Ġuncomfort":10116,"ĠBeauty":10117,"cies":10118,"tan":10119,"Ġfaded":10120,"Ġdense":10121,"Ġdiver":10122,"Ġpound":10123,"adise":10124,"Ġshower":10125,"ĠPoint":10126,"Ġdeaf":10127,"ĠChicago":10128,"Ġputs":10129,"Ġsuccession":10130,"Ġbags":10131,"ĠSkunk":10132,"Ġpillars":10133,"Ġwhirl":10134,"Ġbulk":10135,"green":10136,"ĠCaes":10137,"ca":10138,"po":10139,"Ġfist":10140,"Ġcush":10141,"Ġlam":10142,"Ġlump":10143,"Ġwheat":10144,"osqu":10145,"ĠJason":10146,"Ġenqu":10147,"Ġstrain":10148,"Ġfoes":10149,"Ġretorted":10150,"Ġleads":10151,"Ġfrown":10152,"ussy":10153,"Ġmurdered":10154,"Ġinvented":10155,"Ġmeadows":10156,"Ġarchit":10157,"Ġgigantic":10158,"Ġfertile":10159,"ACK":10160,"lur":10161,"Ġpushing":10162,"ĠTW":10163,"Ġhail":10164,"ĠPil":10165,"ulc":10166,"ĠLESS":10167,"iveness":10168,"ĠWithin":10169,"ĠDanish":10170,"Ġstrove":10171,"Ġsurrounding":10172,"Ġidol":10173,"Ġdeceived":10174,"Ġyielded":10175,"ĠCaliforn":10176,"Ġmarvell":10177,"Ġboughs":10178,"\".":10179,"44":10180,"Ġfasc":10181,"Ġstooped":10182,"ĠBetsy":10183,"ĠCold":10184,"ĠFive":10185,"ĠJay":10186,"Ġclaw":10187,"Ġsculpt":10188,"Ġretire":10189,"Ġnativs":10190,"Ġhearth":10191,"Ġmeanwhile":10192,"ĠAdam":10193,"Ġdeclare":10194,"Ġwarmth":10195,"Ġmessengers":10196,"Ġlifting":10197,"Ġrejoicing":10198,"ĠMeadows":10199,"Ġreminded":10200,"available":10201,"Say":10202,"nor":10203,"Ġbother":10204,"itating":10205,"ĠME":10206,"Ġchorus":10207,"ĠRight":10208,"isten":10209,"eled":10210,"Ġdownstairs":10211,"Ġboiling":10212,"Ġcoats":10213,"inkled":10214,"Ġparting":10215,"ĠVIII":10216,"Ġelo":10217,"Ġmerrily":10218,"Ġtradition":10219,"Ġadmire":10220,"Ġlimb":10221,"Ġconcent":10222,"ICK":10223,"Ġspiritual":10224,"ĠMeadow":10225,"Ġtotal":10226,"Ibid":10227,"Miss":10228,"zu":10229,"Ġtread":10230,"rious":10231,"ĠMet":10232,"ĠRam":10233,"Ġbreathed":10234,"Ġerror":10235,"Ġneighboring":10236,"Ġclergy":10237,"Ġfancied":10238,"Ġtidings":10239,"ĠPedro":10240,"ĠMERCHANTIBILITY":10241,"ĠLESSON":10242,"bout":10243,"Ġtune":10244,"ashes":10245,"rian":10246,"ĠMa":10247,"ĠMist":10248,"anda":10249,"unks":10250,"ĠOsw":10251,"Ġproclamation":10252,"Ġperish":10253,"Ġpoems":10254,"ĠAlamo":10255,"Ġeditor":10256,"Ġpolic":10257,"Ġjoyous":10258,"Ġcandles":10259,"Ġcommunity":10260,"Ġnavy":10261,"ĠFriar":10262,"Ġindignation":10263,"orthy":10264,"Ġreleased":10265,"Ġstructure":10266,"ĠAlfred":10267,"Ġshrewd":10268,"URE":10269,"eer":10270,"Ġmixture":10271,"ĠTob":10272,"ĠMY":10273,"Ġknives":10274,"Ġgoats":10275,"Ġarchers":10276,"pton":10277,"Ġadorn":10278,"Ġcarries":10279,"ĠAllison":10280,"Ġdecent":10281,"ĠCHILD":10282,"Ġ178":10283,"arers":10284,"Ġcruelty":10285,"Ġarrangements":10286,"Ġscholars":10287,"Ġsquadron":10288,"Ġwelcomed":10289,"seven":10290,"Ġornament":10291,"ĠLars":10292,"Ġintim":10293,"Ġarmor":10294,"ĠMarg":10295,"Ġdespite":10296,"Ġcircular":10297,"Ġharvest":10298,"Ġchapel":10299,"Ġavoided":10300,"Ġbriefly":10301,"Ġgrieved":10302,"Ġencouraged":10303,"Ġpirates":10304,"Su":10305,"did":10306,"gd":10307,"Ġtha":10308,"ĠRat":10309,"ĠNobody":10310,"iges":10311,"Ġunp":10312,"ansas":10313,"Ġhasn":10314,"ĠUrs":10315,"ĠChall":10316,"ungs":10317,"atting":10318,"Ġsprings":10319,"._--":10320,"ĠAnti":10321,"Ġtenderly":10322,"Ġentertained":10323,"ĠARRIVAL":10324,"Af":10325,"VE":10326,"Would":10327,"hire":10328,"iy":10329,"lim":10330,"Ġbi":10331,"Ġpaw":10332,"ĠTin":10333,"ĠRead":10334,"ĠJess":10335,"Ġcris":10336,"Ġbury":10337,"Ġladen":10338,"uriously":10339,"Ġsolitary":10340,"Ġ1864":10341,"Ġspreading":10342,"ĠFlossie":10343,"Ġenjoying":10344,"Ġsurround":10345,"ĠTurkey":10346,"ylon":10347,"Ġmatches":10348,"ĠTexans":10349,"Ġgrip":10350,"ĠHorace":10351,"Ġchallenge":10352,"ĠIceland":10353,"iated":10354,"nding":10355,"Ġdur":10356,"Ġdorm":10357,"aron":10358,"Ġhears":10359,"Ġweigh":10360,"ifull":10361,"Ġorange":10362,"Ġoutline":10363,"Ġflowed":10364,"inker":10365,"Ġoldest":10366,"Ġ55":10367,"Ġsniff":10368,"ĠBeh":10369,"Ġsincere":10370,"Ġstudents":10371,"Ġledge":10372,"Ġtorch":10373,"Ġwisely":10374,"amboo":10375,"ĠĠĠĠĠĠĠĠĠĠĠĠĠĠĠĠĠĠĠĠĠĠĠĠĠĠĠĠĠĠĠĠĠĠĠĠĠĠĠĠĠĠĠĠĠĠ":10376,"Ġdismay":10377,"ĠShannon":10378,"Ġfavourite":10379,"ĠEagle":10380,"38":10381,"aus":10382,"ipper":10383,"tales":10384,"wall":10385,"Ġsins":10386,"oro":10387,"Ġgiants":10388,"stri":10389,"ayan":10390,"throp":10391,"ongs":10392,"Ġabst":10393,"ĠNaida":10394,"Ġjaw":10395,"Ġbrute":10396,"Ġbluff":10397,"Ġassume":10398,"Ġbeautifully":10399,"Ġpretend":10400,"ĠPercy":10401,"Ġclaims":10402,"Ġtroop":10403,"Ġcustoms":10404,"Ġactivities":10405,"Ġdiamonds":10406,"Ġobvious":10407,"Ġdusk":10408,"oubtedly":10409,"cod":10410,"ta":10411,"Ġbrig":10412,"Ġdirt":10413,"esy":10414,"Ġgotten":10415,"immed":10416,"ĠAbe":10417,"Ġrot":10418,"iend":10419,"ĠNag":10420,"Ġanyway":10421,"pling":10422,"Ġrepent":10423,"ĠArt":10424,"Ġcapacity":10425,"Ġdoubted":10426,"Ġdropping":10427,"Ġcommonly":10428,"Ġprincipally":10429,"Ġsorrowful":10430,"ĠCountrey":10431,"ĠXXX":10432,"Ġfilling":10433,"ĠEarl":10434,"ĠOswald":10435,"ĠUrsula":10436,"GHT":10437,"press":10438,"inction":10439,"Ġwiped":10440,"onse":10441,"Ġlions":10442,"ido":10443,"aman":10444,"ĠMong":10445,"Ġtherewith":10446,"Ġpeas":10447,"ISS":10448,"Ġhorseback":10449,"Ġspeaks":10450,"ĠGeorg":10451,"Ġharness":10452,"ĠEarly":10453,"Ġuneasy":10454,"Ġconfessed":10455,"Ġriches":10456,"Ġacknowledged":10457,"ĠLarsan":10458,"crow":10459,"mour":10460,"Ġtun":10461,"Ġhook":10462,"edar":10463,"Ġcream":10464,"Ġlass":10465,"stable":10466,"staff":10467,"ĠHence":10468,"Ġunjust":10469,"Ġscant":10470,"Ġshallow":10471,"...\"":10472,"ERE":10473,"Ġinsp":10474,"OUS":10475,"Ġpossessions":10476,"Ġthicket":10477,"Ġ150":10478,"Ġdivision":10479,"Ġdecidedly":10480,"Ġneglected":10481,"ĠSuppose":10482,"Ġexchanged":10483,"ooping":10484,"Ġjacket":10485,"ĠAccordingly":10486,"pgd":10487,"Ġole":10488,"Ġowe":10489,"leans":10490,"otions":10491,"ĠSkin":10492,"Ġforb":10493,"ĠMow":10494,"ĠDuck":10495,"orning":10496,"Ġdeserve":10497,"Ġspecul":10498,"Ġmoor":10499,"Ġhumor":10500,"Ġdoub":10501,"Ġescaping":10502,"Ġpropose":10503,"Ġsends":10504,"Ġthickly":10505,"Ġremainder":10506,"ENTS":10507,"ĠGlass":10508,"Ġblockade":10509,"ĠWhether":10510,"Ġliquid":10511,"Ġdazz":10512,"Ġobservations":10513,"pgdp":10514,"FF":10515,"Murd":10516,"iens":10517,"Ġmart":10518,"Ġmorrow":10519,"Ġtoken":10520,"anim":10521,"ĠHast":10522,"Ġshiver":10523,"ĠFif":10524,"olas":10525,"unter":10526,"Ġarts":10527,"Ġafar":10528,"ĠStutely":10529,"Ġstrikes":10530,"glass":10531,"Ġconsiderably":10532,"Ġquarre":10533,"Ġrulers":10534,"boats":10535,"Ġveil":10536,"Ġoccupation":10537,"ĠMcK":10538,"ĠErnest":10539,"Ġmanufacture":10540,"Ġhawk":10541,"Ġdisgust":10542,"Ġunseen":10543,"ĠPhilistines":10544,"bug":10545,"bably":10546,"fo":10547,"Ġpavilion":10548,"Ġgarrison":10549,"ĠTen":10550,"Ġreception":10551,"ĠAM":10552,"ĠEN":10553,"ĠNetta":10554,"agers":10555,"Ġtra":10556,"Ġpeop":10557,"Ġperch":10558,"ĠStories":10559,"Ġremo":10560,"erers":10561,"Ġmarsh":10562,"liver":10563,"Ġexplos":10564,"Ġartist":10565,"Ġwildly":10566,"Ġtransfer":10567,"Ġsituated":10568,"Ġmusical":10569,"Ġembarr":10570,"ĠClement":10571,"ĠSultan":10572,"Little":10573,"Sm":10574,"pot":10575,"wind":10576,"Ġbud":10577,"Ġhight":10578,"Ġyoke":10579,"ĠHAR":10580,"ĠPost":10581,"Ġrasc":10582,"Ġwhoever":10583,"Ġspy":10584,"ĠEben":10585,"Ġcoco":10586,"ĠSte":10587,"Ġscru":10588,"Ġpassages":10589,"Ġthoughtfully":10590,"Ġcourts":10591,"thel":10592,"ĠBeck":10593,"Ġmeetings":10594,"grims":10595,"Ġsurprising":10596,"Ġmiser":10597,"Ġsadd":10598,"Ġremembering":10599,"Ġcompanies":10600,"Ġsecretly":10601,"Ġdresses":10602,"Ġgravel":10603,"Ġowl":10604,"ĠMerry":10605,"Ġhurrying":10606,"Ġgleaming":10607,"Ġmeasured":10608,"Ġenthusi":10609,"Ġtrumpet":10610,"Ġancestors":10611,"Or":10612,"Otho":10613,"rise":10614,"Ġbicycle":10615,"entle":10616,"ĠSid":10617,"Ġsung":10618,"Ġvibr":10619,"Ġjars":10620,"Ġrosy":10621,"Ġclapped":10622,"Ġcob":10623,"eches":10624,"Ġofficials":10625,"Ġfuneral":10626,"Ġrobbed":10627,"Ġconviction":10628,"ĠTurk":10629,"Ġbanquet":10630,"Ġlinen":10631,"Ġessential":10632,"Ġpolitics":10633,"EBook":10634,"Mother":10635,"TS":10636,"Ġgasp":10637,"idays":10638,"Ġseal":10639,"Ġherds":10640,"Ġsheer":10641,"ĠDur":10642,"Ġchur":10643,"Ġmaney":10644,"Ġprodig":10645,"Ġjug":10646,"Ġbru":10647,"earing":10648,"Ġacid":10649,"umped":10650,"Ġfootball":10651,"Ġsleepy":10652,"Ġbarrier":10653,"Ġbloody":10654,"ĠMarj":10655,"Ġmotive":10656,"ĠHarriet":10657,"Ġbills":10658,"Ġrailway":10659,"Ġafforded":10660,"ĠPersian":10661,"Ġornaments":10662,"ĠCalifornia":10663,".-":10664,"vant":10665,"Ġpony":10666,"Ġwasted":10667,"ainty":10668,"ĠHs":10669,"ĠCamped":10670,"ĠGorge":10671,"emen":10672,"angs":10673,"Ġterribly":10674,"ĠVi":10675,"Ġhomeward":10676,"Ġinstances":10677,"Ġhappening":10678,"Ġneedn":10679,"Ġadvise":10680,"Ġpleasing":10681,"Ġcomplain":10682,"ĠSeeing":10683,"ĠCarl":10684,"Ġroughly":10685,"Ġcircumstance":10686,"Ġdiplom":10687,"ĠScarlet":10688,"Ġforbidden":10689,"Ġindifferent":10690,"ademy":10691,"Ġinferior":10692,"Ġbronze":10693,"46":10694,"fare":10695,"pie":10696,"sal":10697,"Ġ]":10698,"Ġsom":10699,"Ġbind":10700,"Ġnormal":10701,"Ġbellow":10702,"ĠSay":10703,"Ġshapes":10704,"ĠGud":10705,"Ġhaveing":10706,"ulations":10707,"ĠLes":10708,"Ġalas":10709,"ĠEight":10710,"igaw":10711,"uded":10712,"Ġcracked":10713,"Ġcommence":10714,"Ġreadiness":10715,"Ġchecked":10716,"Ġelabor":10717,"Ġlearnt":10718,"IRD":10719,"ĠIsraelites":10720,"Ġcousins":10721,"Ġappetite":10722,"iour":10723,"uously":10724,"inth":10725,"ington":10726,"ĠId":10727,"gered":10728,"ĠFA":10729,"Ġaloft":10730,"Ġgrasped":10731,"Ġpersist":10732,"Ġmonsters":10733,"Ġartific":10734,"Ġbarrel":10735,"ĠPerse":10736,"ikki":10737,"Ġtasted":10738,"Ġbullet":10739,"ographical":10740,"Ġholiday":10741,"Ġstrictly":10742,"Ġhospit":10743,"Ġinvolved":10744,"Ġmanifest":10745,"Ġuncomfortable":10746,"Ġconcentr":10747,"Ġhounds":10748,"icular":10749,"Ġreather":10750,"Ġkettle":10751,"Ġmans":10752,"ĠOb":10753,"ĠOm":10754,"Ġquoted":10755,"ĠStra":10756,"azine":10757,"Ġ57":10758,"Ġfairies":10759,"Ġdrill":10760,"Ġobjection":10761,"Ġdreaming":10762,"Ġdispatched":10763,"ĠOrleans":10764,"Ġcharacteristic":10765,"Ġwiser":10766,"Ġrecognised":10767,"Ġoccasional":10768,"Ġeducated":10769,"ĠMRS":10770,"ĠGawaine":10771,"Ġdisguise":10772,"Ġresponded":10773,"down":10774,"hap":10775,"iate":10776,"Ġsly":10777,"Ġhanged":10778,"ĠTour":10779,"lyn":10780,"rod":10781,"roll":10782,"ĠPerson":10783,"ĠRad":10784,"ĠRel":10785,"Ġpeb":10786,"ĠVal":10787,"Ġformidable":10788,"olland":10789,"ĠGrant":10790,"Ġprett":10791,"ĠEnglishmen":10792,"Ġstripped":10793,"ROW":10794,"Ġexciting":10795,"Ġstatues":10796,"Ġsatisfactory":10797,"Ġmadness":10798,"Ġmachines":10799,"Ġbasis":10800,"Ġdistinguish":10801,"Ġblaze":10802,"ĠCouncil":10803,"Ġcontempl":10804,"Ġgesture":10805,"aide":10806,"nir":10807,"part":10808,"Ġtact":10809,"heart":10810,"ĠMiles":10811,"ĠBack":10812,"Ġgoal":10813,"aua":10814,"Ġuses":10815,"aret":10816,"cloth":10817,"Ġdesires":10818,"phin":10819,"Ġtelegraph":10820,"ĠUniversity":10821,"Ġmothers":10822,"Ġawe":10823,"Ġhoarse":10824,"Ġtraders":10825,"ĠMarquis":10826,"Ġfaithfully":10827,"Ġseventh":10828,"Ġtestimony":10829,"Ġuncommon":10830,"Ġterrified":10831,"Ġchampion":10832,"Ġachieve":10833,"John":10834,"houses":10835,"kers":10836,"Ġwages":10837,"Ġdict":10838,"Ġreef":10839,"ĠSic":10840,"ĠSey":10841,"Ġfors":10842,"ĠAld":10843,"Ġsturd":10844,"Ġanon":10845,"Ġath":10846,"ĠLinton":10847,"ureka":10848,"Ġflowing":10849,"Ġperished":10850,"cia":10851,"Ġheadmaster":10852,"Ġaccur":10853,"Ġdefense":10854,"Ġrichly":10855,"eese":10856,"Ġorganization":10857,"Ġbuffaloe":10858,"ĠEliza":10859,"Ġcherry":10860,"Ġfatigue":10861,"33":10862,"have":10863,"och":10864,"rality":10865,"Ġtas":10866,"Ġhats":10867,"ĠMuch":10868,"Ġraven":10869,"abbed":10870,"ĠEth":10871,"Ġleagues":10872,"Ġpluck":10873,"ipated":10874,"Ġwherein":10875,"Ġmustn":10876,"ĠVye":10877,"Ġsubmit":10878,"ĠNov":10879,"atson":10880,"Ġpayment":10881,"Ġhasty":10882,"Ġenjoyment":10883,"Ġbabies":10884,"Ġsurviv":10885,"Ġsternly":10886,"Ġuniversal":10887,"human":10888,"_.,":10889,"equ":10890,"Ġhint":10891,"Ġlecture":10892,"Ġnerve":10893,"Ġbee":10894,"ĠHud":10895,"ĠMink":10896,"Ġchannel":10897,"Ġalert":10898,"Ġcanvas":10899,"Ġclasped":10900,"Ġadvert":10901,"Ġmayst":10902,"Ġunderground":10903,"Ġdiffer":10904,"Ġhighway":10905,"Ġextend":10906,"Ġgrowled":10907,"ĠĠĠĠĠĠĠĠĠĠĠĠĠĠĠĠĠĠĠĠĠĠĠĠĠĠĠĠĠĠ":10908,"Ġapproval":10909,"Ġbounds":10910,"Ġproceeding":10911,"ĠCharter":10912,"Ġjudged":10913,"ckett":10914,"ĠDora":10915,"Ġcouch":10916,"Ġlaboratory":10917,"ĠImm":10918,"ĠEstelle":10919,"Ġinquiry":10920,"Ġnewspaper":10921,"ĠChallenger":10922,"TY":10923,"Ġwicket":10924,"Ġdarted":10925,"Ġlame":10926,"Ġbeam":10927,"ĠIX":10928,"icious":10929,"achel":10930,"ĠDer":10931,"ĠRhod":10932,"Ġalway":10933,"ivity":10934,"Ġbrack":10935,"ĠThy":10936,"Ġribs":10937,"Ġrefr":10938,"Ġvio":10939,"ĠCrus":10940,"guard":10941,"Ġrags":10942,"Ġelephants":10943,"Ġtraitor":10944,"loe":10945,"making":10946,"skin":10947,"ucc":10948,"Ġmou":10949,"Ġpour":10950,"Ġyds":10951,"Ġweird":10952,"ĠGard":10953,"ante":10954,"ĠEgbert":10955,"agan":10956,"Ġjail":10957,"Ġstrings":10958,"Ġfoam":10959,"Ġscout":10960,"ometer":10961,"ogs":10962,"ĠRobinson":10963,"ICH":10964,"iency":10965,"Ġemployment":10966,"ĠEverything":10967,"OME":10968,"Ġlamps":10969,"Ġsorely":10970,"Ġprocure":10971,"Ġconsisting":10972,"Ġobedience":10973,"natured":10974,"ĠUtterbol":10975,"ĠSeymour":10976,"uity":10977,"Ġwholes":10978,"ĠAB":10979,"ĠAD":10980,"ĠCL":10981,"Ġsooth":10982,"thy":10983,"Ġchanced":10984,"ĠRun":10985,"agged":10986,"awned":10987,"Ġ41":10988,"Ġtrader":10989,"Ġ75":10990,"Ġstudying":10991,"Ġtravels":10992,"Ġperfection":10993,"Ġspringing":10994,"ĠSlow":10995,"Ġdragging":10996,"ĠSenate":10997,"Ġrebellion":10998,"Ġcrisis":10999,"Az":11000,"EAR":11001,"mag":11002,"Ġtoe":11003,"Ġpouring":11004,"Ġnerves":11005,"ima":11006,"Ġstool":11007,"ĠCir":11008,"ĠPry":11009,"ĠWatson":11010,"Ġdearest":11011,"Ġworried":11012,"ĠRec":11013,"asting":11014,"ĠOliver":11015,"awl":11016,"inkle":11017,"ĠChloe":11018,"Ġbuzz":11019,"Ġillness":11020,"Ġ176":11021,"Ġregarding":11022,"ĠUpm":11023,"Ġoperations":11024,"Ġimproved":11025,"ĠAfrican":11026,"Ġresponsibility":11027,"ĠIllustr":11028,"Ġborrowed":11029,"ĠFoanna":11030,"Ġcycle":11031,"Ġencounter":11032,"PER":11033,"mates":11034,"wixt":11035,"Ġfitting":11036,"Ġtooth":11037,"anas":11038,"Ġnests":11039,"Ġgat":11040,"alay":11041,"irl":11042,"ĠPel":11043,"ĠPope":11044,"ĠRey":11045,"Ġexult":11046,"uma":11047,"Ġbrace":11048,"Ġcoin":11049,"Ġdisorder":11050,"icking":11051,"ĠIndies":11052,"Ġdriver":11053,"Ġdestined":11054,"Ġoriginally":11055,"Ġresponse":11056,"Ġkeys":11057,"Ġexercises":11058,"Ġsteamer":11059,"Ġconsequences":11060,"piration":11061,"Ġnarrative":11062,"ĠKentucky":11063,"ĠMowgli":11064,"LL":11065,"Old":11066,"bia":11067,"course":11068,"gate":11069,"uine":11070,"yg":11071,"aylor":11072,"Ġwee":11073,"Ġank":11074,"ĠCalled":11075,"Ġkins":11076,"ĠFolk":11077,"olved":11078,"Ġsparrow":11079,"una":11080,"Ġproclaimed":11081,"Ġquit":11082,"ĠKor":11083,"Ġcontract":11084,"Ġloos":11085,"Ġsmallest":11086,"Ġprovin":11087,"Ġreplaced":11088,"Ġrelax":11089,"Ġyelled":11090,"Ġringing":11091,"Ġvictims":11092,"ĠEverybody":11093,"Ġadopt":11094,"Ġnegroes":11095,"ĠCrockett":11096,"ĠHendricks":11097,"Ġprecisely":11098,"aired":11099,"bons":11100,"ga":11101,"mill":11102,"ni":11103,"ym":11104,"Ġfring":11105,"ĠSCH":11106,"ĠHum":11107,"Ġshove":11108,"Ġrowed":11109,"Ġslide":11110,"Ġstealing":11111,"Ġmodest":11112,"Ġannounce":11113,"Ġinhabited":11114,"Ġhistorical":11115,"ĠWyatt":11116,"balaua":11117,"ĠUpmeads":11118,"fold":11119,"iac":11120,"Ġdart":11121,"Ġpiano":11122,"ĠTag":11123,"Ġstumbled":11124,"Ġshots":11125,"Ġrained":11126,"ĠDulc":11127,"ĠRak":11128,"Ġaliens":11129,"Ġripp":11130,"Ġcheese":11131,"Ġsunny":11132,"Ġsnar":11133,"Ġfortnight":11134,"Ġtravelling":11135,"Ġverse":11136,"Ġ1860":11137,"Ġopinions":11138,"Ġgrove":11139,"Ġpigs":11140,"Ġnaval":11141,"Ġtreasures":11142,"Ġencampment":11143,"Ġmarvellous":11144,"ĠHudson":11145,"because":11146,"trees":11147,"oubt":11148,"ouche":11149,"iller":11150,"ĠHay":11151,"Ġshields":11152,"Ġallowing":11153,"Ġdoings":11154,"Ġchum":11155,"olent":11156,"Ġsphere":11157,"ĠEureka":11158,"Ġgracious":11159,"Ġboil":11160,"ĠUt":11161,"Ġdescent":11162,"omething":11163,"Ġopenly":11164,"Ġsnatched":11165,"Ġsquee":11166,"teenth":11167,"Ġdevils":11168,"Ġdevotion":11169,"Ġmotives":11170,"ĠSTOR":11171,"Ġoccupy":11172,"Ġinquire":11173,"Ġconsequently":11174,"Ġpicking":11175,"Ġhesitation":11176,"ĠSigmund":11177,"Ġbirthday":11178,"Ġsolemnly":11179,"Ġtendency":11180,"Ġprocured":11181,"ĠJonathan":11182,"Ġgymn":11183,"ĠAdelaide":11184,"Certainly":11185,"zer":11186,"Ġports":11187,"ota":11188,"Ġstake":11189,"ĠBOOK":11190,"ĠPudd":11191,"Ġraces":11192,"ĠRes":11193,"ĠOl":11194,"Ġdesolate":11195,"Ġworlds":11196,"Ġvaried":11197,"Ġtemp":11198,"Ġanguish":11199,"Ġnecks":11200,"Ġdispute":11201,"Ġcomfortably":11202,"Ġspoiled":11203,"Ġrubbing":11204,"Ġturf":11205,"ĠMinister":11206,"Ġunwilling":11207,"Ġprominent":11208,"ĠRemember":11209,"Ġbetrayed":11210,"Ġpolitely":11211,"Ġpreceding":11212,"umption":11213,"Ġworshipped":11214,"ĠBeatrice":11215,"Hullo":11216,"ĠMir":11217,"ĠDuke":11218,"Ġamusing":11219,"ĠKab":11220,"Ġremedy":11221,"Ġcrouched":11222,"Ġinduce":11223,"Ġcircl":11224,"Ġstrife":11225,"ĠRoom":11226,"Ġdemands":11227,"ĠFlore":11228,"Ġnorthward":11229,"Ġgroaned":11230,"Ġeastward":11231,"Ġprimitive":11232,"ĠGolden":11233,"Ġdischarge":11234,"Ġimprovement":11235,"Ġcultivated":11236,"Ġcongrat":11237,"Ġtravellers":11238,"Ġscreen":11239,"Any":11240,"Bless":11241,"vis":11242,"Ġwoo":11243,"ĠTor":11244,"Ġeh":11245,"Ġwhipped":11246,"Ġreass":11247,"ĠAustr":11248,"child":11249,"ĠCub":11250,"umm":11251,"Ġliken":11252,"urned":11253,"Ġcoloured":11254,"ĠDecl":11255,"Ġrealm":11256,"Ġadmired":11257,"Ġjourneyed":11258,"Ġgarment":11259,"Ġleapt":11260,"ĠCampbell":11261,"Ġgleam":11262,"Ġimpatiently":11263,"Ġwriters":11264,"Ġninety":11265,"Every":11266,"may":11267,"town":11268,"Ġhuts":11269,"Ġheaps":11270,"legs":11271,"owes":11272,"ĠBRO":11273,"Ġray":11274,"Ġrattle":11275,"Ġplot":11276,"Ġclust":11277,"ĠKate":11278,"Ġprejud":11279,"Ġending":11280,"Ġmarching":11281,"Ġbrood":11282,"ORD":11283,"Ġfearing":11284,"ĠReg":11285,"Ġdoubtful":11286,"Ġexpressions":11287,"Ġstretching":11288,"Ġapplication":11289,"Ġlacking":11290,"ĠRocky":11291,"Ġechoed":11292,"ĠTeddy":11293,"Ġleisure":11294,"ĠDulcie":11295,"Father":11296,"WARD":11297,"cup":11298,"eet":11299,"sis":11300,"would":11301,"Ġpaces":11302,"ĠMak":11303,"Ġramp":11304,"Ġbutcher":11305,"ĠLar":11306,"ĠLater":11307,"Ġclinging":11308,"Ġflav":11309,"Ġspeck":11310,"Ġemigr":11311,"Ġoccurs":11312,"Ġlodging":11313,"Ġrepresentative":11314,"Ġfaintly":11315,"Ġfloat":11316,"Ġgenuine":11317,"ĠDEF":11318,"Ġundertake":11319,"Ġborders":11320,"Ġholidays":11321,"Ġintentions":11322,"encies":11323,"ĠInto":11324,"Ġenchanted":11325,"Ġwigw":11326,"Ġzeal":11327,"Americ":11328,"gency":11329,"ubl":11330,"Ġhob":11331,"Ġcrooked":11332,"Ġdainty":11333,"asil":11334,"ĠThebes":11335,"ĠHunt":11336,"Ġshelf":11337,"ĠDep":11338,"Ġviz":11339,"Ġpledge":11340,"Ġquaint":11341,"Ġflocks":11342,"ĠShaw":11343,"Ġcharity":11344,"ĠBeast":11345,"ĠNorris":11346,"Ġcurled":11347,"useum":11348,"AMP":11349,"Ġbelly":11350,"Ġelders":11351,"Ġsuspended":11352,"Ġscreaming":11353,"Ġinstitutions":11354,"Ġsleeve":11355,"Ġabolition":11356,"Ġcamera":11357,"45":11358,"Wait":11359,"Ġaer":11360,"Ġaided":11361,"inois":11362,"Ġcalf":11363,"Ġpanic":11364,"Ġnonsense":11365,"Ġstun":11366,"Ġstamped":11367,"ĠHop":11368,"ĠPo":11369,"ĠWat":11370,"aste":11371,"Ġexclus":11372,"Ġtrous":11373,"Ġappe":11374,"Ġslid":11375,"Ġslim":11376,"ulture":11377,"Ġassigned":11378,"Ġminor":11379,"Ġmines":11380,"Ġbrightly":11381,"arris":11382,"Ġjudges":11383,"Ġhostile":11384,"Ġrubber":11385,"ĠFarley":11386,"Ġdigging":11387,"Ġuneas":11388,"Ġmourning":11389,"ĠConnect":11390,"Ġdilig":11391,"ĠButterfly":11392,"Ġadministration":11393,"REN":11394,"lings":11395,"Ġtank":11396,"Ġbapt":11397,"itan":11398,"Ġheel":11399,"Ġanaly":11400,"ĠCovered":11401,"Ġchicken":11402,"Ġspun":11403,"ĠEllen":11404,"Ġbob":11405,"Ġbetwixt":11406,"Ġglare":11407,"Ġgloves":11408,"undered":11409,"Ġconsul":11410,"Ġincon":11411,"ĠPrarie":11412,"ĠTrans":11413,"ĠRev":11414,"ĠSeven":11415,"Ġsweetly":11416,"ĠCrab":11417,"Ġnegot":11418,"Ġthreatening":11419,"Ġwhistling":11420,"Ġretainers":11421,"Ġcomparatively":11422,"Ġnursery":11423,"Ġpronounced":11424,"ĠBuddh":11425,"Ġemphat":11426,"oked":11427,"pon":11428,"uk":11429,"Ġpump":11430,"ador":11431,"ĠGil":11432,"ĠNome":11433,"unched":11434,"Ġplent":11435,"Ġwouldst":11436,"ĠUs":11437,"ĠChop":11438,"Ġrepublic":11439,"Ġ43":11440,"Ġvisits":11441,"Ġadvoc":11442,"Ġverity":11443,"Ġmainly":11444,"Ġsouthward":11445,"LAND":11446,"Ġhealthy":11447,"Ġrecorded":11448,"Ġreverence":11449,"Ġporch":11450,"ĠSquire":11451,"Ġscrews":11452,"Ġexperiences":11453,"ĠIllinois":11454,"Ġpierced":11455,"ĠFrancisco":11456,"Azyr":11457,"Con":11458,"Ho":11459,"rim":11460,"Ġdyn":11461,"ĠMarsh":11462,"ĠFortun":11463,"Ġvap":11464,"abouts":11465,"ources":11466,"ĠKnow":11467,"Ġdeser":11468,"ĠVict":11469,"ĠWhatever":11470,"ĠAthens":11471,"ĠAlmost":11472,"Ġpromises":11473,"ĠCliges":11474,"Ġdecre":11475,"Ġwinning":11476,"Ġscratched":11477,"Ġdesigned":11478,"Ġstockings":11479,"Ġlocks":11480,"Ġswallow":11481,"Ġgrinned":11482,"Shall":11483,"Ġtalent":11484,"Murdo":11485,"ĠPerseus":11486,"ĠCharteris":11487,"_.--":11488,"Ġtribute":11489,"inter":11490,"Ġoven":11491,"itched":11492,"Ġcul":11493,"kel":11494,"Ġsult":11495,"geant":11496,"ĠDet":11497,"artment":11498,"ĠNich":11499,"ĠOw":11500,"ĠOcean":11501,"ĠAss":11502,"Ġoppressed":11503,"ĠConst":11504,"Ġtransformed":11505,"Ġcourtesy":11506,"Ġneglect":11507,"Ġproudly":11508,"Ġgrimly":11509,"Ġtranslated":11510,"quisite":11511,"Ġkneeling":11512,"Ġspecimen":11513,"wife":11514,"Ġbunch":11515,"iser":11516,"Ġmound":11517,"ication":11518,"Ġseizing":11519,"allels":11520,"ĠDa":11521,"ugs":11522,"Ġexplo":11523,"brance":11524,"Ġsweat":11525,"ifications":11526,"Ġestim":11527,"Ġbabe":11528,"ĠMcMurdo":11529,"Ġchoked":11530,"Ġdesigns":11531,"Ġwhistled":11532,"Ġfortunes":11533,"Ġberry":11534,"ĠGeorgia":11535,"';":11536,"Does":11537,"half":11538,"point":11539,"Ġcore":11540,"Ġcig":11541,"esp":11542,"ĠCAR":11543,"ĠFa":11544,"apted":11545,"emly":11546,"Ġvital":11547,"ĠRound":11548,"Ġarea":11549,"agen":11550,"Ġworkers":11551,"ountered":11552,"ressing":11553,"Ġswarm":11554,"Ġspecially":11555,"Ġrepair":11556,"Ġrecalled":11557,"Ġskil":11558,"ĠShan":11559,"Ġbestowed":11560,"Ġbelieving":11561,"ĠXI":11562,"Ġpatiently":11563,"scape":11564,"Ġvalleys":11565,"Ġheavenly":11566,"ĠMediter":11567,"Ġcells":11568,"Ġabandon":11569,"Ġivory":11570,"Ġsofa":11571,"Ġlikeness":11572,"jac":11573,"lan":11574,"Ġtack":11575,"Ġsed":11576,"Ġpsych":11577,"Ġlane":11578,"Ġgap":11579,"Ġgale":11580,"ĠAmen":11581,"ura":11582,"ĠCru":11583,"Ġrider":11584,"Ġvul":11585,"Ġbravery":11586,"jected":11587,"udence":11588,"Ġperched":11589,"Ġdeserved":11590,"ottie":11591,"Ġemotions":11592,"ĠClay":11593,"ĠClare":11594,"ĠClowes":11595,"Ġinvari":11596,"Ġthickness":11597,"Ġencountered":11598,"Ġapolog":11599,"ĠEdith":11600,"Ġtorrent":11601,"Ġundoubtedly":11602,"Ġrejoice":11603,"Ġinstructed":11604,"ĠOutwood":11605,"Ġcitizen":11606,"ulsion":11607,"Ġcriminal":11608,"Ġcommented":11609,"Ġsupreme":11610,"Ġparrot":11611,"AIL":11612,"ties":11613,"Ġcaves":11614,"Ġpouch":11615,"immer":11616,"Ġstately":11617,"ĠMas":11618,"ĠFO":11619,"ĠRic":11620,"Ġintimate":11621,"ciously":11622,"Ġscared":11623,"necess":11624,"Ġemancipation":11625,"Ġguided":11626,"azed":11627,"Ġassert":11628,"Ġsnakes":11629,"Ġawaken":11630,"Ġcurved":11631,"Ġfortress":11632,"Ġcomplaint":11633,"Ġcaptives":11634,"Ġcrews":11635,"ĠJanie":11636,"Ġtravelers":11637,"Ġattendants":11638,"Ġproblems":11639,"Ġindustrial":11640,"Ġexhaust":11641,"Ġhorizont":11642,"Ġprivilege":11643,"ĠPuddin":11644,"ĠMediterranean":11645,"bin":11646,"covered":11647,"called":11648,"fashion":11649,"groom":11650,"ko":11651,"inated":11652,"inating":11653,"rem":11654,"Ġbully":11655,"Ġcad":11656,"ĠTower":11657,"acer":11658,"ĠMade":11659,"Ġshorter":11660,"Ġsuited":11661,"ĠDisk":11662,"Ġconj":11663,"Ġslack":11664,"Ġchildish":11665,"Ġgenerals":11666,"grown":11667,"Ġcasting":11668,"ĠXII":11669,"Ġsuccessfully":11670,"ĠWilliams":11671,"Ġhymn":11672,"ĠCollins":11673,"Ġrescued":11674,"Ġmaintained":11675,"Ġaffectionate":11676,"Ġjewel":11677,"ĠJudge":11678,"Ġcomrade":11679,"Ġambition":11680,"Ġwrecked":11681,"ĠCurrent":11682,"Ġdismissed":11683,"hill":11684,"oral":11685,"Ġhem":11686,"Ġgor":11687,"ste":11688,"ĠHarrison":11689,"ĠMent":11690,"ĠFro":11691,"ĠEric":11692,"Ġtram":11693,"Ġbored":11694,"Ġsworn":11695,"Ġcarpent":11696,"Ġfrontier":11697,"going":11698,"ĠBabylon":11699,"ĠTurtle":11700,"Ġpraised":11701,"Ġretained":11702,"Ġdrifted":11703,"Ġdebate":11704,"Ġbetray":11705,"Ġravine":11706,"Ġromance":11707,"burgh":11708,"Ġpudding":11709,"Ġdreary":11710,"dened":11711,"rance":11712,"tail":11713,"itors":11714,"Ġpail":11715,"adle":11716,"alan":11717,"ĠBurn":11718,"Ġdealt":11719,"ĠObed":11720,"Ġintently":11721,"Ġcrust":11722,"Ġdrown":11723,"Ġendless":11724,"arson":11725,"Ġrounded":11726,"Ġ54":11727,"ĠXIV":11728,"Ġheroic":11729,"ĠJosephus":11730,"ĠGlad":11731,"Stop":11732,"Ġmirth":11733,"ĠJacques":11734,"Ġaccompanying":11735,"Ġshrug":11736,"Ġbondage":11737,"Ġtreachery":11738,"Ġcavalry":11739,"jah":11740,"rors":11741,"vi":11742,"atoes":11743,"ithe":11744,"Ġcel":11745,"ongh":11746,"ĠTaylor":11747,"Ġef":11748,"Ġshops":11749,"Ġkite":11750,"ĠLottie":11751,"ĠDuc":11752,"Ġfeud":11753,"Ġleve":11754,"ĠHeb":11755,"Ġlighter":11756,"ollo":11757,"ĠAllan":11758,"Ġcares":11759,"Ġobjected":11760,"Ġcalam":11761,"ĠSlide":11762,"Ġconceive":11763,"Ġfavorable":11764,"Ġversions":11765,"Ġfavourable":11766,"Ġgreeting":11767,"ĠDelaware":11768,"Ġoxen":11769,"Ġembraced":11770,"Ġpanting":11771,"Ġchuckled":11772,"Ġtemporary":11773,"mind":11774,"vain":11775,"Ġwreat":11776,"Ġbald":11777,"itar":11778,"Ġmes":11779,"Ġpenn":11780,"Ġpige":11781,"Ġlain":11782,"Ġgal":11783,"ĠAch":11784,"ĠBat":11785,"ĠPop":11786,"Ġhermit":11787,"ĠGoose":11788,"istry":11789,"Ġgoss":11790,"ĠJos":11791,"Ġperp":11792,"Ġscow":11793,"ĠAsh":11794,"Ġ42":11795,"Ġmonot":11796,"Ġ56":11797,"Ġextending":11798,"ITIONS":11799,"annah":11800,"Ġstaying":11801,"Ġpatron":11802,"Ġaltered":11803,"Ġcolonial":11804,"Ġepis":11805,"Ġfragments":11806,"Ġdecorated":11807,"Ġstubborn":11808,"aum":11809,"table":11810,"woman":11811,"Ġfret":11812,"Ġcash":11813,"Ġms":11814,"Ġlent":11815,"ĠSac":11816,"Ġsauc":11817,"andra":11818,"agu":11819,"ĠJa":11820,"arecrow":11821,"Ġoverl":11822,"ilding":11823,"Ġflashing":11824,"Ġsmashed":11825,"Ġreprodu":11826,"Ġserving":11827,"Ġ58":11828,"Ġassisted":11829,"Ġasserted":11830,"Ġwidely":11831,"ennie":11832,"Ġproceedings":11833,"Ġdreadfully":11834,"Ġtremble":11835,"OOL":11836,"Ġdiscoveries":11837,"Ġcombination":11838,"ĠSkins":11839,"Ġcautious":11840,"Ġharbor":11841,"Ġawaiting":11842,"Ġattained":11843,"ĠJellico":11844,"ĠEverard":11845,"Ġbewildered":11846,"Ġburglar":11847,"ĠDrummond":11848,"After":11849,"ĠBehind":11850,"Se":11851,"Surely":11852,"Ġcured":11853,"icoe":11854,"ĠBree":11855,"ĠWay":11856,"estone":11857,"anting":11858,"Ġtraged":11859,"Ġcanal":11860,"ĠKo":11861,"Ġsmith":11862,"Ġcrazy":11863,"Ġresent":11864,"Ġskies":11865,"Ġspeaker":11866,"Ġvolumes":11867,"Ġsprung":11868,"ĠCharley":11869,"Ġdealing":11870,"ĠSammy":11871,"Ġbullets":11872,"Ġmutual":11873,"Ġwitnesses":11874,"Ġbasin":11875,"Ġvirtues":11876,"Ġsobbed":11877,"Ġimprisoned":11878,"Ġinevitable":11879,"ĠCaesar":11880,"fire":11881,"vy":11882,"heard":11883,"Ġbamboo":11884,"Ġpul":11885,"Ġlid":11886,"ĠTs":11887,"ĠSize":11888,"ĠBeth":11889,"Ġexquisite":11890,"unci":11891,"ummy":11892,"Ġpartner":11893,"Ġolden":11894,"ĠUnt":11895,"Ġdistressed":11896,"Ġcargo":11897,"Ġendured":11898,"Ġsurm":11899,"Ġ66":11900,"Ġbesie":11901,"Ġtrading":11902,"Ġgardener":11903,"Ġcomforted":11904,"Ġprevailed":11905,"Ġpitched":11906,"Ġaddressing":11907,"holders":11908,"Ġmiracle":11909,"Ġwhirled":11910,"ĠBurgess":11911,"Ġnewspapers":11912,"plicity":11913,"rynhild":11914,"ĠGREAT":11915,"=.":11916,"Was":11917,"_,\"":11918,"Ġwider":11919,"rection":11920,"ede":11921,"omi":11922,"Ġreigned":11923,"Ġanigh":11924,"ĠPret":11925,"arde":11926,"ĠDoes":11927,"Ġtract":11928,"Ġworkmen":11929,"henomen":11930,"Ġdistinction":11931,"rup":11932,"Ġrefres":11933,"Ġdelayed":11934,"Ġinterval":11935,"Ġbiggest":11936,"ĠProt":11937,"Ġinserted":11938,"Ġsimpl":11939,"Ġbounded":11940,"Ġbreathless":11941,"Ġdollar":11942,"Ġpersuade":11943,"Ġestablishment":11944,"Ġcups":11945,"Ġcolumns":11946,"ĠDeclaration":11947,"Ġfuss":11948,"Ġlav":11949,"Ġgau":11950,"ĠSC":11951,"Ġweighed":11952,"amouche":11953,"ĠHipp":11954,"Ġrash":11955,"Ġvice":11956,"ĠEve":11957,"uny":11958,"ĠJad":11959,"Ġjam":11960,"Ġdislike":11961,"ĠYe":11962,"Ġparlor":11963,"Ġcertainty":11964,"Ġadvantages":11965,"Ġresemblance":11966,"Ġwitnessed":11967,"ĠBoys":11968,"Ġnineteen":11969,"En":11970,"bot":11971,"bour":11972,"cular":11973,"mun":11974,"round":11975,"your":11976,"Ġbann":11977,"Ġlamb":11978,"Ġyouths":11979,"ĠHER":11980,"ĠMeth":11981,"Ġshudd":11982,"Ġdod":11983,"Ġvile":11984,"Ġvary":11985,"ola":11986,"oli":11987,"ĠEb":11988,"ĠHell":11989,"ango":11990,"ĠVd":11991,"Ġrighteous":11992,"ĠAtt":11993,"peare":11994,"Ġ44":11995,"Ġstrongest":11996,"Ġapproved":11997,"Ġlowest":11998,"Ġlimits":11999,"ĠMercier":12000,"Ġdusty":12001,"Ġhesitate":12002,"Ġbridegroom":12003,"Ġtempted":12004,"Ġconveyed":12005,"Ġpearls":12006,"Ġportrait":12007,"ĠSlidell":12008,"wr":12009,"wine":12010,"erity":12011,"Ġdynasty":12012,"ĠSleep":12013,"ĠHolland":12014,"ĠBumper":12015,"ĠLi":12016,"Ġchased":12017,"olph":12018,"ĠNational":12019,"Ġoffence":12020,"Ġpeered":12021,"Ġponder":12022,"Ġspeeches":12023,"ĠThereupon":12024,"Ġconsulted":12025,"Ġsteered":12026,"ibilities":12027,"Ġpromising":12028,"Ġobserving":12029,"Ġmode":12030,"Ġbowling":12031,"ĠQuoth":12032,"Ġforgetting":12033,"Ġassistant":12034,"Ġheights":12035,"ĠSupp":12036,"Ġculture":12037,"Ġreckless":12038,"Ġembrace":12039,"Ġinstitution":12040,"Ġtyrant":12041,"Ġinfected":12042,"Ġprosperity":12043,"Ġbuggy":12044,"codile":12045,"ĠGudrun":12046,"Ġtrousers":12047,"pill":12048,"va":12049,"Ġauth":12050,"uther":12051,"ĠAway":12052,"ĠMISS":12053,"ĠBrynhild":12054,"Ġmeek":12055,"ulars":12056,"ousin":12057,"Ġarist":12058,"Ġcanst":12059,"Ġoverfl":12060,"ĠSold":12061,"ensity":12062,"Ġsurge":12063,"Ġkindred":12064,"OUSE":12065,"Ġremembrance":12066,"ĠEnglishman":12067,"Ġsecrets":12068,"Ġdivide":12069,"zzle":12070,"Ġtongues":12071,"Ġcrowned":12072,"Ġtearing":12073,"Ġdischarged":12074,"________":12075,"Maybe":12076,"Ġinspection":12077,"ĠJellicoe":12078,"Ġinfection":12079,"Ġnineteenth":12080,"Ġtwinkling":12081,"Ġphysician":12082,"Ġtonight":12083,"Ġceremonies":12084,"Ġsturdy":12085,"gone":12086,"inished":12087,"Ġtoy":12088,"Ġlined":12089,"Ġreview":12090,"ĠSend":12091,"ĠSides":12092,"Ġhailed":12093,"ĠPa":12094,"Ġweren":12095,"Ġupro":12096,"ĠLO":12097,"Ġoutlaw":12098,"ĠOs":12099,"ĠOft":12100,"Ġplunder":12101,"Ġtray":12102,"Ġprogram":12103,"Ġoverth":12104,"Ġcomposition":12105,"perhaps":12106,"Ġrightly":12107,"Ġpleaded":12108,"Ġkeeper":12109,"Ġforemost":12110,"Ġministers":12111,"Ġdeprived":12112,"ooner":12113,"grim":12114,"ternity":12115,"ĠLeete":12116,"Ġrespectable":12117,"Ġrapids":12118,"Ġglasses":12119,"Ġturkey":12120,"Ġera":12121,"Ġaccommod":12122,"Ġbaskets":12123,"Ġfortunately":12124,"ĠBrook":12125,"Ġillustrated":12126,"Ġillustrations":12127,"ĠRepublican":12128,"Ġannoyed":12129,"ĠTagalog":12130,"ĠDiskos":12131,"MAN":12132,"raged":12133,"atisf":12134,"itively":12135,"Ġduly":12136,"Ġbeams":12137,"Ġrevel":12138,"Ġshattered":12139,"ĠPH":12140,"Ġrab":12141,"ĠLiber":12142,"ĠDie":12143,"ĠEp":12144,"ĠThings":12145,"Ġunnecess":12146,"Ġboar":12147,"Ġbackground":12148,"Ġsled":12149,"Ġscales":12150,"Ġcounting":12151,"ĠArnold":12152,"Ġtech":12153,"Ġguilt":12154,"Ġextract":12155,"Ġdeepest":12156,"Ġideals":12157,"Ġcomplained":12158,"Ġspray":12159,"Ġattempting":12160,"Ġsticking":12161,"ĠSpecies":12162,"Ġresembles":12163,"handed":12164,"Ġducks":12165,"Ġcorresponding":12166,"ĠHawk":12167,"ĠBOYS":12168,"Ġdesirable":12169,"Ġartificial":12170,"ĠFlorence":12171,"ĠNicholas":12172,"AW":12173,"Am":12174,"lay":12175,"rav":12176,"tice":12177,"Ġfuriously":12178,"Ġcards":12179,"Ġmand":12180,"Ġdome":12181,"Ġdivers":12182,"ĠSem":12183,"ĠSage":12184,"ĠSabb":12185,"chair":12186,"Ġsoap":12187,"Ġsullen":12188,"Ġchambers":12189,"cker":12190,"ĠInc":12191,"Ġresources":12192,"Ġminded":12193,"ĠShields":12194,"aneous":12195,"Ġcircles":12196,"Ġtrifle":12197,"Ġpaste":12198,"Ġpasture":12199,"ĠDavis":12200,"Ġwarmly":12201,"ASS":12202,"Ġharmony":12203,"Ġthrob":12204,"Ġbitterness":12205,"Ġwealthy":12206,"Ġresembling":12207,"Ġexceeding":12208,"Ġemerged":12209,"Ġappealed":12210,"Ġlegends":12211,"Ġdeliberately":12212,"good":12213,"lad":12214,"Ġwick":12215,"Ġol":12216,"Ġgalley":12217,"ĠPen":12218,"ĠGeth":12219,"ĠGRA":12220,"quence":12221,"Ġmane":12222,"Ġwhereupon":12223,"Ġslipping":12224,"sooth":12225,"Ġloop":12226,"Ġwarfare":12227,"Ġrefresh":12228,"Ġnamely":12229,"Ġcheered":12230,"Ġcaps":12231,"Ġsubse":12232,"ĠPray":12233,"OUN":12234,"Ġ95":12235,"ĠNotes":12236,"Ġlieutenant":12237,"ĠAnton":12238,"Ġeagerness":12239,"ependence":12240,"ĠErm":12241,"Ġfilm":12242,"Ġgeography":12243,"Ġsenior":12244,"Ġhospital":12245,"Ġappreciate":12246,"Ġreproach":12247,"Ġbuttons":12248,"ĠTALE":12249,"ĠOxford":12250,"Ġsurvivors":12251,"ĠPryor":12252,"fashioned":12253,"ĠSabbath":12254,"iner":12255,"Ġware":12256,"oug":12257,"Ġmac":12258,"Ġeve":12259,"roken":12260,"Ġsections":12261,"romise":12262,"ĠField":12263,"ĠFIR":12264,"Ġdoom":12265,"ĠThrog":12266,"ipm":12267,"Ġlookt":12268,"Ġrelieve":12269,"ORN":12270,"Ġearthly":12271,"ĠClose":12272,"Those":12273,"ĠReview":12274,"Ġcausing":12275,"Ġjoyful":12276,"Ġverd":12277,"Ġfrighten":12278,"Ġbellige":12279,"Ġpunct":12280,"Ġmassive":12281,"Ġconquest":12282,"Ġfaults":12283,"Ġexecuted":12284,"Ġsufferings":12285,"Ġchestnut":12286,"Ġaimed":12287,"Ġfetched":12288,"afe":12289,"giving":12290,"Ġhood":12291,"Ġpots":12292,"Ġpyramid":12293,"Ġheated":12294,"ĠTu":12295,"ĠTiger":12296,"veland":12297,"ĠBi":12298,"ĠWel":12299,"nton":12300,"ĠDead":12301,"Ġchickens":12302,"Ġmanhood":12303,"indere":12304,"iven":12305,"Ġprolong":12306,"awk":12307,"Ġprem":12308,"Ġglancing":12309,"Ġcourty":12310,"ssuri":12311,"Ġdepended":12312,"Ġintercourse":12313,"Ġcuts":12314,"ĠCHAR":12315,"althy":12316,"ĠAbove":12317,"Ġmessages":12318,"Ġattacks":12319,"rified":12320,"Ġintroduction":12321,"Ġdignified":12322,"Ġlatest":12323,"ĠJapanese":12324,"ĠSlowly":12325,"alayapan":12326,"Ġtempest":12327,"inderella":12328,"gi":12329,"vin":12330,"wa":12331,"Ġtuck":12332,"Ġtries":12333,"Ġsire":12334,"edle":12335,"Ġmold":12336,"Ġmonsieur":12337,"Ġginger":12338,"imately":12339,"sex":12340,"Ġwhale":12341,"ĠHope":12342,"Ġsealed":12343,"Ġrack":12344,"ĠWork":12345,"ĠDist":12346,"resist":12347,"Ġnostri":12348,"Ġbrows":12349,"Ġflu":12350,"Ġjoints":12351,"Ġsque":12352,"Ġdevoured":12353,"Ġangles":12354,"ĠCharlest":12355,"Ġbeastly":12356,"ĠTOM":12357,"Ġnegative":12358,"Ġrepresentatives":12359,"Ġrejoined":12360,"Ġmajesty":12361,"Ġimpatience":12362,"ĠFriend":12363,"Ġtotally":12364,"Ġcurtains":12365,"Ġinquiries":12366,"Ġliquor":12367,"ĠAccording":12368,"Ġopponent":12369,"Ġimmortal":12370,"ĠGethryn":12371,"48":12372,"AF":12373,"Bl":12374,"Poor":12375,"pical":12376,"Ġther":12377,"Ġnu":12378,"Ġweeds":12379,"Ġraid":12380,"ĠFrey":12381,"usal":12382,"berries":12383,"Ġnoses":12384,"umerable":12385,"Ġbricks":12386,"Ġprime":12387,"Ġadult":12388,"Ġadapted":12389,"Ġhowling":12390,"Ġattach":12391,"eyond":12392,"ĠShakes":12393,"ĠAlg":12394,"Ġsubdu":12395,"Ġearthqu":12396,"atching":12397,"Ġcursed":12398,"Ġ78":12399,"Ġrespected":12400,"ĠCommission":12401,"Ġglee":12402,"Ġdiscussed":12403,"ĠScaramouche":12404,"Ġneatly":12405,"Ġthirsty":12406,"Ġfulfilled":12407,"Ġpeeped":12408,"ĠAthenians":12409,"ĠPossum":12410,"ĠKadalayapan":12411,"Ġhoofs":12412,"American":12413,"Ġinvariably":12414,"Great":12415,"Pe":12416,"Ġicy":12417,"Ġhire":12418,"Ġcater":12419,"ench":12420,"Ġtool":12421,"Ġnay":12422,"ioned":12423,"ĠSssuri":12424,"ĠBless":12425,"Ġsheets":12426,"ĠFederal":12427,"quest":12428,"ĠLower":12429,"ĠRol":12430,"ĠOwen":12431,"rene":12432,"Ġbegging":12433,"Ġglist":12434,"Ġcommittee":12435,"Ġassail":12436,"ĠGraham":12437,"Ġsweeping":12438,"Ġcircul":12439,"ĠXIII":12440,"Ġbenevol":12441,"Ġrobin":12442,"criptions":12443,"Ġtumult":12444,"Ġspectacles":12445,"Ġentertainment":12446,"Ġprojecting":12447,"Ġindignant":12448,"Ġknocking":12449,"Ġvegetable":12450,"Ġterrific":12451,"Ġprofessional":12452,"Ġsanct":12453,"quarters":12454,"Ġnostrils":12455,"drew":12456,"maker":12457,"tem":12458,"zell":12459,"heim":12460,"Ġfant":12461,"isement":12462,"Ġphenomen":12463,"icut":12464,"iciency":12465,"ĠHEN":12466,"ĠGunn":12467,"Ġdecend":12468,"ppers":12469,"Ġdove":12470,"ĠLil":12471,"Ġexclamation":12472,"Ġagitation":12473,"elope":12474,"Ġunkind":12475,"orns":12476,"ĠChu":12477,"Ġdiscom":12478,"Ġmoves":12479,"pses":12480,"Ġmonument":12481,"ĠNoel":12482,"axter":12483,"Ġdecline":12484,"Ġdreaded":12485,"Ġbarely":12486,"Ġdismal":12487,"ĠCleveland":12488,"Ġcrawl":12489,"footed":12490,"Ġcomparison":12491,"ĠSERIES":12492,"Ġchurches":12493,"Ġelaborate":12494,"Ġauthors":12495,"EP":12496,"Hold":12497,"UB":12498,"bad":12499,"ios":12500,"pa":12501,"rick":12502,"such":12503,"Ġtan":12504,"Ġmathe":12505,"Ġpall":12506,"anan":12507,"Ġlark":12508,"Ġnig":12509,"utter":12510,"Ġrevers":12511,"ĠSound":12512,"Ġsting":12513,"ĠWm":12514,"Ġchaps":12515,"ĠRy":12516,"Ġclasp":12517,"Ġsurf":12518,"Ġmetals":12519,"Ġregards":12520,"Ġassurance":12521,"INC":12522,"cluded":12523,"Ġ65":12524,"Ġ76":12525,"Ġirrit":12526,"Ġsweetness":12527,"Ġexpert":12528,"yrus":12529,"ĠMaybe":12530,"Ġhatche":12531,"ynch":12532,"Ġgriev":12533,"Ġphilosophy":12534,"colored":12535,"Ġgalloped":12536,"oscoe":12537,"Ġseamen":12538,"ĠMemph":12539,"Ġstaggered":12540,"Ġbriskly":12541,"Ġabsorbed":12542,"ĠCarpath":12543,"acre":12544,"rip":12545,"thought":12546,"abama":12547,"olution":12548,"istics":12549,"Ġnoises":12550,"Ġtrotted":12551,"Ġtwigs":12552,"Ġuna":12553,"Ġengr":12554,"Ġcovers":12555,"ĠYue":12556,"Ġaccum":12557,"Ġresign":12558,"Ġrepose":12559,"Ġstillness":12560,"obile":12561,"ixed":12562,"ĠBrad":12563,"Ġstepping":12564,"Ġmounting":12565,"ĠNorse":12566,"ĠGrimm":12567,"ATE":12568,"Ġ96":12569,"Ġbrightness":12570,"Ġpainting":12571,"Ġmoderate":12572,"AME":12573,"Ġsensitive":12574,"Ġsecurely":12575,"Ġsettlements":12576,"Ġslaying":12577,"Ġbatteries":12578,"Ġwinged":12579,"Ġprowess":12580,"ĠAbbey":12581,"ĠKarara":12582,"ĠFifth":12583,"ĠFIRST":12584,"Tom":12585,"tin":12586,"voc":12587,"were":12588,"Ġbould":12589,"ena":12590,"Ġgeese":12591,"ader":12592,"stru":12593,"sea":12594,"Ġrend":12595,"Ġreeds":12596,"ĠAges":12597,"riers":12598,"amma":12599,"ĠHung":12600,"Ġshivered":12601,"ila":12602,"ĠFel":12603,"ĠRoscoe":12604,"ĠProp":12605,"Ġscal":12606,"Ġformal":12607,"Ġrecru":12608,"Ġreceives":12609,"Ġbehaved":12610,"Ġblackness":12611,"Ġsnap":12612,"Ġoppress":12613,"Ġgladness":12614,"Ġchieftain":12615,"Ġpraying":12616,"ĠSwed":12617,"Ġdespised":12618,"Ġindividuals":12619,"Ġ1857":12620,"Ġattractive":12621,"Ġargued":12622,"Ġwretch":12623,"aunted":12624,"Ġpaddle":12625,"Ġrigid":12626,").]":12627,"books":12628,"pan":12629,"Ġaven":12630,"Ġfab":12631,"Ġcited":12632,"ester":12633,"Ġheir":12634,"Ġgust":12635,"ĠTzu":12636,"Ġwithdrew":12637,"Ġruff":12638,"Ġsheriff":12639,"ĠDO":12640,"Ġfeature":12641,"Ġspan":12642,"ĠNation":12643,"Ġnod":12644,"Ġrods":12645,"avement":12646,"Ġflatt":12647,"ĠKa":12648,"Ġcompare":12649,"Ġcrush":12650,"engarde":12651,"Ġvisiting":12652,"Ġcolle":12653,"Ġyeoman":12654,"Ġapron":12655,"Ġuncon":12656,"Ġurging":12657,"justice":12658,"Ġporter":12659,"Ġassembly":12660,"ĠCheif":12661,"Ġdesperately":12662,"Ġsparkling":12663,"Ġwhispering":12664,"ĠDunstable":12665,"ĠSarah":12666,"Ġgorgeous":12667,"Ġgnaw":12668,"indsay":12669,"Ġembroidered":12670,"ĠFortunately":12671,"Fair":12672,"Nor":12673,"bone":12674,"hi":12675,"hope":12676,"wick":12677,"Ġbun":12678,"Ġbats":12679,"Ġnap":12680,"oma":12681,"ĠIl":12682,"lymp":12683,"ctic":12684,"Ġselling":12685,"alling":12686,"ĠPART":12687,"Ġrotten":12688,"ittered":12689,"Ġbrav":12690,"avens":12691,"ĠSteven":12692,"izz":12693,"Ġyoungster":12694,"rete":12695,"Ġsnug":12696,"ĠSpence":12697,"Ġ67":12698,"Ġwonderfully":12699,"Ġpleasantly":12700,"Ġstrive":12701,"mediately":12702,"Ġbrighter":12703,"Ġjournal":12704,"Ġexperiments":12705,"rooms":12706,"Ġdepartment":12707,"ĠEnna":12708,"ĠCourse":12709,"Ġschooner":12710,"ĠXVI":12711,"Ġhenceforth":12712,"ĠMorris":12713,"hotep":12714,"Ġbefallen":12715,"ĠSTORIES":12716,"ĠCarpathia":12717,"Mar":12718,"vate":12719,"Ġtons":12720,"Ġthresh":12721,"anqu":12722,"Ġgear":12723,"Ġbeef":12724,"ĠTad":12725,"rove":12726,"ĠPly":12727,"ĠLin":12728,"ĠLindsay":12729,"Ġmanly":12730,"Ġplane":12731,"Ġtraced":12732,"venant":12733,"awning":12734,"ONS":12735,"organ":12736,"Ġ120":12737,"ĠChristians":12738,"Ġdetained":12739,"Ġdeclined":12740,"Ġ168":12741,"ĠGeraint":12742,"Ġdais":12743,"coming":12744,"flies":12745,"Ġpillar":12746,"inguian":12747,"OST":12748,"ĠDalzell":12749,"Ġtroublesome":12750,"Ġsummons":12751,"Ġbeetles":12752,"Ġthrilling":12753,"Ġappropriate":12754,"ĠMarjory":12755,"ĠRakhal":12756,"ĠDEFIN":12757,"ĠErmengarde":12758,"ipmunk":12759,"43":12760,"Put":12761,"hall":12762,"iary":12763,"oid":12764,"Ġhush":12765,"edo":12766,"enched":12767,"Ġpoo":12768,"Ġbeck":12769,"othes":12770,"ayemon":12771,"ĠHorse":12772,"Ġshift":12773,"ĠGOD":12774,"ĠFRI":12775,"ĠRet":12776,"ĠKeep":12777,"ĠYvain":12778,"oths":12779,"Ġreserved":12780,"Ġattic":12781,"ĠAssy":12782,"Ġsecurity":12783,"liest":12784,"Ġbroom":12785,"shot":12786,"Ġmerit":12787,"ĠClara":12788,"ĠĠĠĠĠĠĠĠĠĠĠĠĠĠĠĠĠĠĠĠĠĠĠĠĠĠĠĠĠĠĠ":12789,"Ġsquire":12790,"Ġjoyfully":12791,"Ġpatches":12792,"ĠPlain":12793,"ĠFlag":12794,"Ġcounc":12795,"IRL":12796,"Ġdimensions":12797,"Ġleadership":12798,"Ġbathed":12799,"Ġtranslation":12800,"Ġvicinity":12801,"ĠGirls":12802,"Ġtheatre":12803,"ĠHopkins":12804,"Long":12805,"nake":12806,"Ġta":12807,"Ġtame":12808,"encing":12809,"Ġnasty":12810,"Ġeate":12811,"etter":12812,"cely":12813,"ĠFil":12814,"aggy":12815,"Ġbrist":12816,"areth":12817,"ĠKings":12818,"orne":12819,"Ġhowl":12820,"Ġsentiments":12821,"Ġdifferences":12822,"Ġ53":12823,"Ġhopped":12824,"Ġsimplicity":12825,"Ġsighted":12826,"Ġjoining":12827,"okes":12828,"Ġ149":12829,"Ġnicely":12830,"Ġweariness":12831,"ĠBarry":12832,"Ġimpressions":12833,"Ġraging":12834,"Ġresembled":12835,"Ġflags":12836,"Ġbanner":12837,"Ġkeenly":12838,"Ġsources":12839,"Ġtemptation":12840,"Ġenchant":12841,"Ġinterpret":12842,"ĠImmort":12843,"Ġcourtyard":12844,"Dr":12845,"NOT":12846,"TO":12847,"_]":12848,"cke":12849,"iage":12850,"ras":12851,"rate":12852,"xter":12853,"Ġbisc":12854,"arant":12855,"ĠCousin":12856,"Ġsuits":12857,"Ġdoomed":12858,"Ġalighted":12859,"ateau":12860,"elia":12861,"never":12862,"oys":12863,"Ġgirdle":12864,"alking":12865,"Ġpleasures":12866,"Ġhairs":12867,"Ġvillain":12868,"ĠDicky":12869,"Ġpotatoes":12870,"ĠWinter":12871,"Ġreveal":12872,"Ġenerget":12873,"Ġneighbouring":12874,"Ġendeavoured":12875,"Ġneutral":12876,"Ġgranite":12877,"Ġelegant":12878,"Ġinspired":12879,"ĠAustralia":12880,"bows":12881,"lam":12882,"ns":12883,"nine":12884,"war":12885,"inement":12886,"Ġbunk":12887,"Ġlace":12888,"ĠTuck":12889,"imp":12890,"ĠCOL":12891,"ĠCinderella":12892,"Ġrans":12893,"anded":12894,"ĠLig":12895,"ĠLear":12896,"Ġtrout":12897,"Ġperse":12898,"Ġjustified":12899,"ĠArm":12900,"ĠForth":12901,"Ġrelate":12902,"Ġbehav":12903,"ĠSpot":12904,"Ġ62":12905,"ANS":12906,"ĠScarecrow":12907,"Ġ97":12908,"Ġ99":12909,"Ġoffices":12910,"Ġequipped":12911,"Ġdemocracy":12912,"Ġsquirrel":12913,"Ġ166":12914,"amental":12915,"Ġyouthful":12916,"Ġbreadth":12917,"Ġbursting":12918,"Ġurge":12919,"ĠTerrans":12920,"Ġsuspicious":12921,"ĠLouisiana":12922,"Ġscientist":12923,"Ġliterally":12924,"Ġshrub":12925,"coloured":12926,"Ġdoctrine":12927,"ĠCambridge":12928,"ĠSituation":12929,"ĠProvidence":12930,"Ġmagistrate":12931,"Suppose":12932,"Ġpeasants":12933,"Me":12934,"dro":12935,"Ġ+":12936,"Ġavenge":12937,"Ġbot":12938,"Ġhing":12939,"isms":12940,"Ġdad":12941,"Ġinjustice":12942,"ĠTow":12943,"ithmet":12944,"ĠHare":12945,"ĠBri":12946,"abao":12947,"Ġconvent":12948,"ĠNavy":12949,"Ġtrunks":12950,"Ġpartially":12951,"Ġpoets":12952,"ĠChamp":12953,"ĠWhenever":12954,"Ġ300":12955,"iao":12956,"ottle":12957,"ĠAlb":12958,"Ġsunrise":12959,"Ġheavier":12960,"Ġinvasion":12961,"Ġadmission":12962,"Ġmediation":12963,"Ġbreaks":12964,"ĠLettice":12965,"ĠPlatt":12966,"ĠZog":12967,"___":12968,"Ġlodged":12969,"Ġinnumerable":12970,"Ġvainly":12971,"Ġrewarded":12972,"Which":12973,"ĠMilton":12974,"Ġblossoms":12975,"Ġgaily":12976,"Ġperfume":12977,"ĠRingg":12978,"Ġgravity":12979,"anasief":12980,"Ad":12981,"Ye":12982,"Ġwert":12983,"Ġholl":12984,"Ġhamm":12985,"oult":12986,"Ġniece":12987,"Ġetext":12988,"Ġyon":12989,"Ġwelf":12990,"Ġhaught":12991,"ĠWang":12992,"thm":12993,"Ġdeleg":12994,"arded":12995,"Ġambit":12996,"Ġconspic":12997,"Ġsupposing":12998,"peak":12999,"Ġawait":13000,"velope":13001,"Ġ87":13002,"ĠTrue":13003,"Ġgreenwood":13004,"ĠApollo":13005,"ĠFlor":13006,"ĠParadise":13007,"Ġhurriedly":13008,"Ġrevolver":13009,"ĠTerra":13010,"Ġgaining":13011,"Ġspectators":13012,"ĠJonas":13013,"Ġengagement":13014,"Ġblossom":13015,"Ġneutrality":13016,"Ġincredible":13017,"Ġemphasis":13018,"Ġdormitory":13019,"Ġcocoa":13020,"Ġunnecessary":13021,"ĠShakespeare":13022,"Ġwelfare":13023,"54":13024,"ext":13025,"hour":13026,"iop":13027,"path":13028,"ino":13029,"Ġfuel":13030,"Ġmare":13031,"arious":13032,"Ġpounded":13033,"adicate":13034,"icle":13035,"Ġrept":13036,"Ġrecess":13037,"Ġasse":13038,"ĠMack":13039,"ĠPs":13040,"ĠDw":13041,"ĠDin":13042,"oped":13043,"Ġclan":13044,"Ġclue":13045,"ĠThink":13046,"Ġcoals":13047,"Ġflitter":13048,"Ġimitation":13049,"renched":13050,"Ġsecre":13051,"ltered":13052,"retched":13053,"apper":13054,"duc":13055,"Ġ92":13056,"Ġvariants":13057,"ĠNorthwood":13058,"ĠLeg":13059,"ĠSTILL":13060,"Ġsecretary":13061,"Ġvexed":13062,"uddled":13063,"Ġapplause":13064,"Ġtenderness":13065,"Ġidentity":13066,"ipton":13067,"Ġregularly":13068,"Ġresemble":13069,"ĠMiller":13070,"Ġjerked":13071,"Ġspecimens":13072,"ĠCloudy":13073,"Ġterrace":13074,"ĠCassandra":13075,"ĠWhitney":13076,"Ġcourteous":13077,"Ġprecaution":13078,"Ġdoubts":13079,"Ġwigwam":13080,"ĠVictor":13081,"Ġcaterpill":13082,"ĠLigi":13083,"hol":13084,"nant":13085,"athed":13086,"onge":13087,"Ġwhiles":13088,"alty":13089,"ĠSW":13090,"ĠPot":13091,"Ġvener":13092,"ĠRED":13093,"ello":13094,"endicular":13095,"Ġthrice":13096,"Ġhereafter":13097,"Ġ51":13098,"Ġmedical":13099,"ĠMarian":13100,"ĠEmily":13101,"Ġrapidity":13102,"Ġliberal":13103,"Ġcivilized":13104,"Ġpetition":13105,"Ġcrops":13106,"Ġghosts":13107,"Ġindignantly":13108,"Ġperilous":13109,"ĠMahomed":13110,"ĠStanhope":13111,"Ġtransparent":13112,"ĠHansel":13113,"Ġridiculous":13114,"Ġtragedy":13115,"Ġsubdued":13116,"ĠDEFINITIONS":13117,"'--":13118,"bul":13119,"cons":13120,"ckey":13121,"craft":13122,"dess":13123,"iro":13124,"lic":13125,"uber":13126,"vice":13127,"Ġtut":13128,"Ġsarc":13129,"Ġmol":13130,"enz":13131,"Ġdame":13132,"lley":13133,"Ġthigh":13134,"Ġpest":13135,"ĠTable":13136,"riber":13137,"tery":13138,"kee":13139,"ĠHa":13140,"ĠBa":13141,"ĠBad":13142,"Ġseaw":13143,"ĠPorter":13144,"Ġherald":13145,"opard":13146,"indle":13147,"umsy":13148,"Ġplunge":13149,"aki":13150,"Ġje":13151,"ella":13152,"Ġbrake":13153,"ĠThoth":13154,"ĠKING":13155,"ĠKansas":13156,"Ġscor":13157,"Ġdonkey":13158,"Ġfriar":13159,"Ġpresume":13160,"Ġformation":13161,"Ġhappier":13162,"Ġeffected":13163,"irdre":13164,"Ġsights":13165,"Ġescort":13166,"ĠTrade":13167,"Ġgovernors":13168,"Ġcostume":13169,"iverse":13170,"Ġlabors":13171,"ĠOrd":13172,"Ġstrokes":13173,"ĠBoone":13174,"Ġarguments":13175,"Ġfolds":13176,"Ġtarget":13177,"Ġdefenders":13178,"Ġodor":13179,"Ġfowls":13180,"Ġumbre":13181,"Ġcylinder":13182,"Ġpeoples":13183,"ĠPlymouth":13184,"nis":13185,"pool":13186,"penny":13187,"rade":13188,"Ġwaking":13189,"Ġbin":13190,"Ġhue":13191,"itches":13192,"Ġdived":13193,"Ġpaws":13194,"idd":13195,"Ġech":13196,"Ġstages":13197,"illes":13198,"ĠMait":13199,"ĠBall":13200,"ĠBaxter":13201,"ĠGE":13202,"ulch":13203,"ĠOlymp":13204,"inda":13205,"Ġgramm":13206,"Ġliable":13207,"Ġflog":13208,"Ġpercept":13209,"blest":13210,"Ġcradle":13211,"Ġearned":13212,"Ġcolonel":13213,"Ġbreach":13214,"Ġconfer":13215,"Ġhillside":13216,"Thanks":13217,"Ġbarred":13218,"Ġsquir":13219,"Ġdefended":13220,"ĠBillina":13221,"Ġfunction":13222,"Ġfoliage":13223,"Ġdares":13224,"ĠPalace":13225,"Ġmuddy":13226,"Ġtombs":13227,"Ġpoisoned":13228,"ĠSalmon":13229,"Ġunfortunately":13230,"Ġvaguely":13231,"Ġsustained":13232,"Ġtorture":13233,"ĠBecky":13234,"Ġmansion":13235,"ĠCuba":13236,"Ġtechn":13237,"Ġbelligerent":13238,"EC":13239,"KE":13240,"PP":13241,"Two":13242,"lasting":13243,"riment":13244,"top":13245,"ouching":13246,"onic":13247,"Ġincess":13248,"entieth":13249,"Ġreins":13250,"ĠHarris":13251,"ĠMust":13252,"ĠMod":13253,"ĠBest":13254,"Ġrim":13255,"ĠFitz":13256,"ĠRod":13257,"ĠRipton":13258,"Ġrog":13259,"iley":13260,"Ġadvers":13261,"Ġcrab":13262,"ronted":13263,"Ġenters":13264,"ĠIndependence":13265,"Ġrests":13266,"Ġbarren":13267,"Ġsixpence":13268,"ĠSwan":13269,"ĠĠĠĠĠĠĠĠĠĠĠĠĠĠĠĠĠĠĠĠĠĠĠĠĠĠĠĠĠĠĠĠĠĠ":13270,"ĠHarald":13271,"Ġstorms":13272,"ĠConfederates":13273,"Ġpositively":13274,"Ġsubstant":13275,"ĠBuzz":13276,"ĠFollow":13277,"Ġfluttered":13278,"Ġluxury":13279,"Ġfisherman":13280,"Ġfairest":13281,"ĠMargaret":13282,"ĠMentor":13283,"Ġthreshold":13284,"First":13285,"gus":13286,"mighty":13287,"terer":13288,"Ġwailing":13289,"Ġsate":13290,"Ġbaked":13291,"eded":13292,"isation":13293,"ĠTop":13294,"ĠAy":13295,"rigg":13296,"ĠCrom":13297,"Ġmeals":13298,"emper":13299,"ĠRoy":13300,"aka":13301,"Ġagents":13302,"elve":13303,"Ġdaybreak":13304,"Ġpassenger":13305,"hess":13306,"Ġcourses":13307,"ĠWeeks":13308,"Ġmars":13309,"Ġsteer":13310,"ĠNorway":13311,"Ġhumming":13312,"Ġ85":13313,"Ġ88":13314,"Ġ71":13315,"cycle":13316,"ĠGrethel":13317,"Ġexpectation":13318,"Ġbleeding":13319,"Ġlaunched":13320,"Ġundertaking":13321,"ĠConfederacy":13322,"ĠJudah":13323,"Ġhinder":13324,"Ġdrifting":13325,"Ġrichest":13326,"Ġcollecting":13327,"Ġdishon":13328,"ĠAcademy":13329,"Ġsobbing":13330,"ĠJulia":13331,"Ġexcessive":13332,"Ġthorns":13333,"Ġdetective":13334,"ĠConnecticut":13335,"cat":13336,"cence":13337,"asium":13338,"ĠIron":13339,"ĠHal":13340,"ĠMoor":13341,"ĠGis":13342,"ĠGIRL":13343,"ĠNote":13344,"Ġplucked":13345,"osa":13346,"ĠJumper":13347,"Ġtrot":13348,"Ġenvelope":13349,"Ġflick":13350,"cible":13351,"ĠVis":13352,"Ġelectrical":13353,"Ġsurp":13354,"Ġmeth":13355,"Ġ52":13356,"Ġbehave":13357,"ITE":13358,"Ġintern":13359,"Ġ63":13360,"Ġ69":13361,"ĠDeirdre":13362,"Ġbeset":13363,"Ġarriving":13364,"Ġcommanding":13365,"Ġreasoning":13366,"Ġ170":13367,"Ġverily":13368,"ĠTheseus":13369,"ĠĠĠĠĠĠĠĠĠĠĠĠĠĠĠĠĠĠĠĠĠĠĠĠĠĠĠĠĠĠĠĠĠ":13370,"Ġtorches":13371,"Ġvictorious":13372,"ĠHarold":13373,"Ġwickedness":13374,"Ġrebu":13375,"ĠDEAR":13376,"Ġenvy":13377,"Ġovertook":13378,"ĠPortugal":13379,"Ġtraveller":13380,"Ġribbon":13381,"ĠCOMP":13382,"Ġhospitality":13383,"Ġepisode":13384,"Master":13385,"VEL":13386,"dale":13387,"lace":13388,"tical":13389,"worth":13390,"edom":13391,"Ġfiled":13392,"Ġmask":13393,"Ġditch":13394,"Ġlil":13395,"uting":13396,"Ġbeans":13397,"Ġford":13398,"urther":13399,"ĠMord":13400,"ĠMurd":13401,"ĠBunch":13402,"ĠPit":13403,"Ġmend":13404,"Ġsheltered":13405,"ĠFal":13406,"Ġclumsy":13407,"Ġtwain":13408,"Ġstrang":13409,"Ġwherefore":13410,"Ġsmiles":13411,"ĠVic":13412,"Ġcars":13413,"Ġresulted":13414,"Ġwarlike":13415,"Ġhousekeeper":13416,"rowing":13417,"Ġguarant":13418,"Ġparcel":13419,"Ġalongside":13420,"ĠDevil":13421,"Ġhairy":13422,"ĠTristr":13423,"Ġdemons":13424,"ĠSmoke":13425,"Ġparticulars":13426,"Ġexcurs":13427,"Ġsandy":13428,"Ġstarving":13429,"Ġroofs":13430,"Ġgroan":13431,"Ġtumble":13432,"Ġretreated":13433,"Ġdeceive":13434,"Ġemerald":13435,"Ġseasons":13436,"ĠImmediately":13437,"ĠLooking":13438,"Ġcorrespondence":13439,"Ġromantic":13440,"Ġchampions":13441,"ĠSummerlee":13442,"Ġhorizontal":13443,"Ġshrugged":13444,"ĠOften":13445,"ĠTristram":13446,"_\"":13447,"oks":13448,"power":13449,"eries":13450,"Ġfib":13451,"Ġinland":13452,"Ġlakes":13453,"lement":13454,"irty":13455,"ĠHob":13456,"ĠMighty":13457,"ĠBol":13458,"ifting":13459,"ilance":13460,"ilton":13461,".\"]":13462,"ĠLess":13463,"agog":13464,"Ġliking":13465,"Ġprudent":13466,"angular":13467,"Ġstrained":13468,"Ġapprent":13469,"Ġslopes":13470,"Ġscound":13471,"Ġconsol":13472,"venth":13473,"Ġsteering":13474,"Ġparish":13475,"Ġforthwith":13476,"ĠAllen":13477,"Ġ68":13478,"Ġcontinues":13479,"oeb":13480,"Ġmagical":13481,"ĠRebe":13482,"ĠSlave":13483,"Ġsympathe":13484,"ĠBetween":13485,"Ġdoctors":13486,"Ġdazed":13487,"Ġprivileges":13488,"ĠBuddha":13489,"Ġmechanical":13490,"Ġbeetle":13491,"Ġrecommend":13492,"Ġpoliceman":13493,"Ġathlet":13494,"ĠCrabtree":13495,"ĠGilbert":13496,"ĠLilias":13497,"):":13498,"des":13499,"ture":13500,"ĠTao":13501,"Ġeats":13502,"ĠSelf":13503,"chie":13504,"ĠHale":13505,"Ġsuck":13506,"inders":13507,"uming":13508,"Ġgoin":13509,"Ġthereafter":13510,"eller":13511,"ĠYear":13512,"Ġmayhap":13513,"Ġseemingly":13514,"into":13515,"Ġfamine":13516,"Ġfinishing":13517,"axe":13518,"Ġsounding":13519,"ĠAfanasief":13520,"ĠCler":13521,"Ġdefiance":13522,"Ġ144":13523,"Ġmiller":13524,"Ġradiant":13525,"Ġdeliverance":13526,"Ġcrowds":13527,"ĠTennes":13528,"ĠHebrew":13529,"ĠGunnar":13530,"ACE":13531,"cap":13532,"cott":13533,"hu":13534,"has":13535,"must":13536,"Ġti":13537,"Ġtus":13538,"Ġtel":13539,"Ġsings":13540,"Ġbacked":13541,"stead":13542,"Ġreaction":13543,"urred":13544,"ĠCoo":13545,"ilian":13546,"ĠWE":13547,"ĠGall":13548,"ĠDak":13549,"ĠRough":13550,"Ġcone":13551,"Ġagitated":13552,"aux":13553,"Ġblades":13554,"Ġample":13555,"Ġhandy":13556,"ĠStud":13557,"Ġslaughter":13558,"Ġheadlong":13559,"Ġlighting":13560,"Ġlandscape":13561,"Ġrefusal":13562,"Ġpersisted":13563,"Ġprizes":13564,"Ġ79":13565,"Ġyea":13566,"Ġdestiny":13567,"Ġfavored":13568,"Ġwithered":13569,"Ġwisest":13570,"Ġcontrad":13571,"Ġexpeditions":13572,"Ġsplash":13573,"ĠWHO":13574,"oosing":13575,"ĠREADER":13576,"Ġexhibited":13577,"Ġfluttering":13578,"Ġkicking":13579,"ATHER":13580,"Ġrecollection":13581,"Ġcomplexion":13582,"ĠChatterer":13583,"ĠCharleston":13584,"Ġmathemat":13585,"AH":13586,"fit":13587,"gle":13588,"great":13589,"nel":13590,"rings":13591,"sized":13592,"world":13593,"atches":13594,"Ġfared":13595,"oric":13596,"Ġdine":13597,"Ġdagger":13598,"Ġpairs":13599,"Ġstall":13600,"Ġvines":13601,"ĠNay":13602,"Ġgrades":13603,"Ġscamp":13604,"lection":13605,"Ġdrums":13606,"Ġuntr":13607,"Ġhumour":13608,"Ġfearless":13609,"Ġcurve":13610,"Ġcoral":13611,"Three":13612,"Ġlimp":13613,"LEY":13614,"Ġstature":13615,"Ġassociation":13616,"ĠCana":13617,"Ġcostly":13618,"Ġsoup":13619,"ĠBobby":13620,"Ġsalmon":13621,"Ġidentical":13622,"ĠSeries":13623,"Ġspectacle":13624,"Ġacknowledge":13625,"Ġcompassion":13626,"Ġprophecy":13627,"Ġtasks":13628,"ĠRoland":13629,"-.":13630,"ja":13631,"sk":13632,"Ġtenth":13633,"Ġsaint":13634,"ouston":13635,"Ġcough":13636,"aro":13637,"icro":13638,"Ġreared":13639,"ĠBac":13640,"Ġseals":13641,"estial":13642,"ĠRain":13643,"Ġspoon":13644,"Ġexting":13645,"Ġintending":13646,"Ġknave":13647,"ilee":13648,"Ġlongest":13649,"ĠChipmunk":13650,"Ġwrists":13651,"oyne":13652,"Ġacres":13653,"Ġrecovery":13654,"Ġarmature":13655,"Ġhumil":13656,"ĠClats":13657,"Ġ98":13658,"Ġbottles":13659,"Ġtablets":13660,"Ġeyeb":13661,"Ġdetected":13662,"Ġ169":13663,"Ġrespective":13664,"Ġguardian":13665,"Ġextreemly":13666,"Ġantagon":13667,"Ġthreats":13668,"Ġdimly":13669,"Ġinjure":13670,"legged":13671,"ĠMidshipman":13672,"Ġwritings":13673,"ĠGawain":13674,"Ġpirate":13675,"ĠRepublicans":13676,"Ġselection":13677,"Ġhaunted":13678,"Ġdisturbance":13679,"Ġinherit":13680,"Ġstimul":13681,"ĠLodges":13682,"Ġpipes":13683,"Smith":13684,"Ġmarshes":13685,"Source":13686,"could":13687,"came":13688,"god":13689,"lar":13690,"tale":13691,"year":13692,"ini":13693,"Ġfits":13694,"Ġcert":13695,"Ġmosqu":13696,"Ġnour":13697,"icles":13698,"cha":13699,"ĠWord":13700,"---":13701,"ĠLow":13702,"Ġchalk":13703,"abby":13704,"Ġspaces":13705,"Ġspending":13706,"Ġalias":13707,"Ġgrind":13708,"Ġcoax":13709,"Ġoffended":13710,"Ġdarker":13711,"Ġassass":13712,"Ġ94":13713,"Ġtouches":13714,"Ġdevote":13715,"Ġstepmother":13716,"Ġtraveler":13717,"Ġengines":13718,"Ġwitches":13719,"rers":13720,"Ġdespatch":13721,"ADE":13722,"ĠNeg":13723,"ĠCoast":13724,"Ġbulls":13725,"Ġverses":13726,"ĠMedic":13727,"Ġpositions":13728,"Ġbolts":13729,"Ġfulfil":13730,"Ġdwarfs":13731,"Ġfowl":13732,"ĠCentral":13733,"urrah":13734,"Ġscrambled":13735,"Ġruddy":13736,"Ġsurroundings":13737,"ymph":13738,"ithmetic":13739,"ĠDwarf":13740,"SH":13741,"Ġbiting":13742,"isle":13743,"Ġpic":13744,"Ġlun":13745,"ĠMars":13746,"ĠMON":13747,"ĠBir":13748,"ĠGord":13749,"ĠDale":13750,"assing":13751,"Ġ____":13752,"Ġblot":13753,"udged":13754,"Ġsmoot":13755,"Ġpassions":13756,"Ġglade":13757,"Ġindian":13758,"Ġcarbon":13759,"Ġattending":13760,"anche":13761,"Ġlovers":13762,"Ġloaf":13763,"Ġburial":13764,"attery":13765,"Ġcommit":13766,"eyn":13767,"ONE":13768,"ocity":13769,"Ġ84":13770,"Ġbesee":13771,"Ġwhiskers":13772,"Ġcaptains":13773,"Ġoccurrence":13774,"Ġsands":13775,"Ġsensations":13776,"Ġseparation":13777,"Ġbodily":13778,"Ġdescending":13779,"Ġdescendants":13780,"ĠEradicate":13781,"ĠTwenty":13782,"ĠXVIII":13783,"ĠEsau":13784,"ĠElijah":13785,"!_\"":13786,"ioux":13787,"Ġvigorously":13788,"ĠMongan":13789,"ĠTurkish":13790,"minded":13791,"Ġwreath":13792,"Ġperpendicular":13793,"MENT":13794,"eff":13795,"fellow":13796,"gie":13797,"lie":13798,"oir":13799,"school":13800,"uer":13801,"inals":13802,"Ġbaff":13803,"Ġhides":13804,"Ġlaz":13805,"Ġlashed":13806,"Ġnets":13807,"Ġger":13808,"Ġsewing":13809,"ĠCertainly":13810,"ĠWales":13811,"ĠGiants":13812,"ersed":13813,"Ġcha":13814,"Ġoutrage":13815,"ĠOcc":13816,"Ġamend":13817,"ĠKe":13818,"ĠYours":13819,"Ġknowest":13820,"actly":13821,"Ġdeserves":13822,"Ġdraft":13823,"Ġcarc":13824,"ulton":13825,"Ġmargin":13826,"Ġsteward":13827,"Ġwaked":13828,"ĠAlas":13829,"Ġdrawer":13830,"Ġ73":13831,"Ġtrials":13832,"ĠWillie":13833,"umbered":13834,"Ġdeclaration":13835,"Ġhalls":13836,"ĠExpl":13837,"Ġannual":13838,"Ġyellowish":13839,"Ġkissing":13840,"Ġhangs":13841,"Ġtwelf":13842,"Ġconductor":13843,"Ġridden":13844,"aturally":13845,"ĠBaby":13846,"Ġrevolt":13847,"Ġrebels":13848,"Ġtariff":13849,"Ġmanagement":13850,"Ġobviously":13851,"ĠGirl":13852,"ĠSCHOOL":13853,"munition":13854,"edleigh":13855,"ĠHENRY":13856,"Ġechoes":13857,"60":13858,"Lord":13859,"Sire":13860,"lorn":13861,"Ġauction":13862,"inch":13863,"Ġwoven":13864,"Ġbower":13865,"itations":13866,"Ġdashing":13867,"arin":13868,"owan":13869,"ĠTan":13870,"Ġreverse":13871,"ĠHot":13872,"ĠBan":13873,"ĠBark":13874,"ĠBeyond":13875,"ĠGO":13876,"ĠLav":13877,"Ġdisre":13878,"Ġdisli":13879,"iph":13880,"Ġindef":13881,"Ġnightfall":13882,"Ġwoodland":13883,"Ġchem":13884,"Ġesp":13885,"Ġgreed":13886,"Ġadvis":13887,"Ġcontinuous":13888,"Ġorderly":13889,"ĠAdvent":13890,"Ġelev":13891,"Ġportions":13892,"ĠPeace":13893,"ĠĠĠĠĠĠĠĠĠĠĠĠĠĠĠĠĠĠĠĠĠĠĠĠĠĠĠĠĠĠĠĠĠĠĠĠĠĠĠĠĠĠ":13894,"ĠJersey":13895,"Ala":13896,"ĠWHY":13897,"Ġshrine":13898,"Ġphilosopher":13899,"Ġvegetation":13900,"Ġvicious":13901,"Ġoutlaws":13902,"Ġtreacherous":13903,"Ġadorned":13904,"ĠEthiop":13905,"ĠOwl":13906,"ĠMaitland":13907,"Ġll":13908,"Ġting":13909,"Ġhug":13910,"Ġmaps":13911,"Ġthump":13912,"ĠTinguian":13913,"ĠSedleigh":13914,"Ġwears":13915,"Ġorph":13916,"Ġintol":13917,"Ġagric":13918,"Ġtranqu":13919,"Ġprostr":13920,"ĠProbably":13921,"Ġbackwards":13922,"Ġpreach":13923,"ribe":13924,"Ġcarabao":13925,"ĠAssoci":13926,"Ġnewcom":13927,"Ġboyhood":13928,"ĠAline":13929,"Ġconference":13930,"Ġinterven":13931,"Ġfiner":13932,"brown":13933,"RED":13934,"ĠComrade":13935,"Ġvariant":13936,"ĠMariano":13937,"ĠPerce":13938,"Ġ110":13939,"Ġmaids":13940,"Ġrepresents":13941,"Ġshades":13942,"ĠQuest":13943,"ABLE":13944,"Ġemergency":13945,"ĠBobbsey":13946,"Ġengineer":13947,"Ġproportions":13948,"Ġunusually":13949,"anza":13950,"Ġjunior":13951,"Ġrecommended":13952,"Ġskilful":13953,"Ġearthquake":13954,"ĠFRIEND":13955,"Ġinternational":13956,"Ġtwelfth":13957,"Ed":13958,"New":13959,"lit":13960,"lane":13961,"tes":13962,"ita":13963,"Ġpavement":13964,"Ġgains":13965,"adays":13966,"Ġecc":13967,"ĠWomen":13968,"Ġmeets":13969,"ĠGama":13970,"ĠFace":13971,"Ġworms":13972,"Ġplough":13973,"Ġprose":13974,"Ġgrapes":13975,"ĠThanks":13976,"Ġenvelop":13977,"Ġoverh":13978,"Ġoverboard":13979,"Ġdiscl":13980,"Ġammunition":13981,"Ġreside":13982,"Ġloath":13983,"Ġopens":13984,"iae":13985,"Ġbucket":13986,"Ġfarms":13987,"ĠWeather":13988,"Ġsnuff":13989,"ĠTrust":13990,"Ġhasten":13991,"ĠXL":13992,"Ġfrowned":13993,"ĠLeague":13994,"Ġdrying":13995,"ĠZe":13996,"ervation":13997,"Ġexisting":13998,"Ġpurely":13999,"ĠBoat":14000,"Ġtemperature":14001,"ĠSusan":14002,"ĠHills":14003,"Ġovertake":14004,"ĠKhan":14005,"Ġeconomic":14006,"Ġmantle":14007,"Ġbefell":14008,"Ġperplex":14009,"Ġmules":14010,"Ġapprehension":14011,"ĠTWO":14012,"ĠDurban":14013,"Ġgossip":14014,"Even":14015,"cus":14016,"fr":14017,"vial":14018,"Ġtangled":14019,"Ġtofore":14020,"Ġtoys":14021,"Ġdates":14022,"Ġweaving":14023,"ĠMAR":14024,"ĠWard":14025,"ĠGam":14026,"ĠLur":14027,"anton":14028,"Ġchat":14029,"ĠRon":14030,"ĠNarr":14031,"agin":14032,"eph":14033,"Ġlily":14034,"ĠThird":14035,"Ġenraged":14036,"Ġadoles":14037,"issa":14038,"ĠTHOM":14039,"Ġdrows":14040,"ulties":14041,"Ġsentin":14042,"Ġcleft":14043,"ĠShad":14044,"Ġnumbered":14045,"Ġminst":14046,"aneously":14047,"grand":14048,"Ġ72":14049,"coal":14050,"Ġdeclaring":14051,"Ġ167":14052,"Ġexpressing":14053,"Ġexamples":14054,"Ġrepresenting":14055,"Ġintroduce":14056,"ĠInstantly":14057,"Ġgrinning":14058,"ĠMusic":14059,"Ġwaistcoat":14060,"Ġvegetables":14061,"ĠHugh":14062,"Ġscholar":14063,"ĠALL":14064,"ĠNaani":14065,"Ġsulph":14066,"ĠBeecher":14067,"Ġclergyman":14068,"Ġexplosion":14069,"ĠAntonio":14070,"ĠCanaan":14071,"59":14072,"AU":14073,"Her":14074,"Sp":14075,"oa":14076,"rich":14077,"Ġtep":14078,"Ġwrigg":14079,"Ġoval":14080,"ati":14081,"Ġfiend":14082,"anter":14083,"Ġlances":14084,"ĠTony":14085,"ĠAge":14086,"ĠMEM":14087,"ĠPor":14088,"ĠPun":14089,"ĠPress":14090,"Ġrugged":14091,"Ġdol":14092,"istur":14093,"Ġplaster":14094,"ĠJove":14095,"inea":14096,"Ġgreatness":14097,"Ġcompens":14098,"Ġcrumb":14099,"Ġcontribut":14100,"Ġreserve":14101,"Ġspece":14102,"uckle":14103,"azing":14104,"ORT":14105,"overing":14106,"ĠPhot":14107,"Ġ82":14108,"Ġpretending":14109,"Ġ160":14110,"Ġrainbow":14111,"Ġfurnace":14112,"ĠĠĠĠĠĠĠĠĠĠĠĠĠĠĠĠĠĠĠĠĠĠĠĠĠĠĠĠĠĠĠĠĠĠĠĠĠĠĠĠĠĠĠĠĠĠĠ":14113,"ĠThornton":14114,"ocrats":14115,"ĠEvil":14116,"ĠXVII":14117,"Ġhauled":14118,"ĠMcKin":14119,"Ġgymnasium":14120,"Ġconspicuous":14121,"xes":14122,"Ġbaker":14123,"Ġhips":14124,"Ġcac":14125,"Ġciv":14126,"Ġdia":14127,"anes":14128,"Ġgam":14129,"Ġec":14130,"Ġez":14131,"ĠSie":14132,"riages":14133,"ĠCelt":14134,"Ġchival":14135,"Ġchateau":14136,"ieving":14137,"ĠEduc":14138,"Ġknob":14139,"Ġgraves":14140,"Ġliver":14141,"Ġunm":14142,"Ġuniverse":14143,"Ġprices":14144,"Ġflint":14145,"ĠKiki":14146,"ĠStew":14147,"Ġheading":14148,"Ġeyel":14149,"Ġjustly":14150,"Ġrepet":14151,"ĠArist":14152,"pecial":14153,"Ġtreason":14154,"Ġplayers":14155,"Ġbestow":14156,"aiment":14157,"Ġgreedy":14158,"Ġinterference":14159,"beit":14160,"Ġcork":14161,"Ġtransform":14162,"ennes":14163,"INGTON":14164,"Ġproduces":14165,"Ġveins":14166,"Ġtastes":14167,"Ġheathen":14168,
[...]
