#version: 0.2 - Trained by `huggingface/tokenizers`
Ġ t
h e
č Ċ
Ġ a
Ġt he
i n
Ġ w
Ġ o
Ġ s
r e
n d
e r
h a
o u
Ġ b
e d
Ġ Ġ
i t
i s
Ġ f
e n
o n
Ġa nd
Ġo f
Ġ c
Ġ m
Ġt o
o r
in g
l l
e s
a r
Ġ d
Ġ p
a t
a s
a n
Ġ in
Ġ h
Ġ l
Ġ he
Ġ n
o m
l e
Ġ ha
u t
Ġ g
ha t
o t
o w
i c
Ġb e
i d
Ġ I
ĠĠ ĠĠ
s t
l d
v e
Ġ e
Ġt h
s e
g h
i m
l y
Ġw as
Ġ y
en t
Ġo n
i on
a y
Ġt hat
a c
Ġ T
e t
r o
it h
i r
Ġ u
v er
a l
Ġ it
Ġ re
Ġf or
a d
Ġy ou
r i
Ġw e
Ġw h
Ġa s
Ġw ith
Ġh is
gh t
Ġ S
a m
u r
Ġs t
he r
c e
o o
Ġ A
e c
Ġa n
Ġha d
Ġ is
Ġ "
a nd
i ll
t er
a in
k e
Ġn ot
Ġa t
ou ld
Ġs a
c h
ĠT he
i f
t h
i l
re d
Ġ M
t he
Ġ H
Ġ B
' s
a ll
Ġh im
r om
Ġs e
Ġ P
. "
Ġthe y
Ġ C
o re
Ġ r
om e
Ġhe r
Ġs o
Ġo r
es s
Ġm e
a g
p p
i ght
ic h
Ġb y
- -
Ġa ll
at ion
u n
Ġ k
Ġth is
Ġ W
Ġsa id
t o
Ġb ut
, "
ec t
Ġu p
Ġf rom
Ġ G
Ġwe re
he n
u s
e m
ĠĠĠĠ ĠĠĠĠ
Ġha ve
Ġs h
u l
q u
Ġs he
ou nd
u st
Ġwh ich
ou t
ar d
Ġs u
e ar
e l
er s
a b
es t
Ġd o
Ġthe m
on g
o p
Ġw or
am e
re s
oo d
an t
Ġ F
Ġm y
o l
i e
Ġ v
is t
ar t
as t
ou r
n t
Ġ L
Ġ D
Ġon e
in d
b er
Ġwh o
e ll
Ġa re
r a
ver y
Ġthe ir
ow n
Ġ R
u m
i ve
Ġo ut
T he
Ġm an
Ġc on
Ġs p
Ġa l
Ġd e
Ġa b
c t
on e
Ġn o
Ġn e
Ġe x
it t
ou s
r y
re at
g e
k ed
ĠĠ Ġ
Ġ E
i g
o s
Ġ 1
id e
ou gh
at e
ac k
Ġk n
i v
p t
Ġg o
Ġ N
Ġ O
ha n
ac e
t her
a k
Ġp l
Ġthe re
Ġc om
Ġw ill
Ġw ould
a ke
Ġa g
Ġl e
se l
or t
k s
Ġw hen
he d
Ġan y
o st
Ġ J
ĠH e
' t
re e
a u
Ġ j
Ġp ro
Ġbe en
e p
o d
Ġ ro
o se
? "
p l
as s
i es
Ġa r
itt le
Ġin to
Ġo ther
Ġc an
Ġu s
im e
j ect
v en
ot her
Ġ if
Ġf e
Ġd id
w ay
h i
a p
u re
ad e
Ġc ould
f f
is h
Ġt r
nd er
c k
he re
in e
Ġl i
ur n
Ġb r
Ġ qu
w e
Ġab out
t e
it y
Ġt w
a re
ic e
it e
Ġc l
f ter
Ġs ha
Ġyou r
Ġg r
Ġs ome
f ore
Ġ very
oo k
ou ght
ut en
Ġl ittle
! "
o f
sel f
u d
ber g
n g
Ġm ore
Ġw hat
an ce
o ve
uten berg
Ġu n
Ġd ay
Ġt ime
ĠA nd
i re
Ġg reat
ou nt
u ll
ab le
o y
a v
h ing
Ġse e
Ġd own
Ġb l
f or
Ġ en
ag e
Ġo ur
Ġo ver
Ġa m
ro ject
m ent
b e
at her
ri ght
Ġag ain
Ġ _
an s
Ġt han
w n
Ġc ame
Ġn ow
c c
Ġof f
o ll
Ġthe n
Ġd is
Ġto o
ing s
o nd
Ġli ke
e nd
h is
ĠI t
or d
Ġup on
Ġf l
Ġm ade
b le
Ġha nd
ic k
all y
u e
in k
ar y
Ġp r
u ch
Ġkn ow
Ġwor k
w ard
Ġ K
b l
o ld
ĠP roject
ac h
p er
Ġ Y
at ed
v ed
a ve
Ġa fter
Ġtw o
Ġl ong
ĠB ut
ĠĠĠĠĠĠĠĠ ĠĠĠĠĠĠĠĠ
Ġth r
s o
res s
en ce
or n
Ġp art
Ġw ent
ar k
i ed
i le
ion s
Ġa d
Ġsh ould
c l
Ġm ay
Ġp e
ri ed
Ġha s
an g
ĠG utenberg
f t
Ġg ood
Ġo ld
Ġ (
Ġa pp
Ġw here
Ġm ust
Ġp er
Ġ 2
c i
Ġm en
e w
Ġbe fore
Ġh ow
r u
Ġb ack
if e
Ġon ly
Ġw ay
Ġ im
am p
t ed
is s
ir st
Ġc ome
b ut
Ġit s
Ġs ay
f ul
at er
Ġs m
t ain
Ġp o
ac t
t y
is e
re n
Ġs l
ha r
Ġm uch
Ġ '
p s
e red
ot h
ĠS t
t m
on s
Ġu nder
n e
Ġs c
Ġp re
op le
ou se
Ġ U
a w
n ot
Ġbe c
t hat
at h
ĠM r
Ġcom p
Ġre m
Ġa way
a il
Ġthr ough
i z
m er
Ġf irst
Ġwe ll
Ġg et
Ġsu ch
os s
m s
Ġthe se
ĠI n
or s
Ġhe ad
Ġbe g
n ess
he s
i ly
Ġo wn
e ver
Ġf ound
a id
Ġd ist
Ġm ake
l ed
or y
i ous
le ct
f e
ear s
Ġsha ll
r on
a ir
m an
Ġbe t
A nd
ation s
en ed
p h
r ow
p e
Ġe ven
hi ld
u nd
H E
Ġp ass
Ġne ver
Ġsa w
i gh
Ġd on
Ġpe ople
Ġm ight
Ġe ar
a red
Ġs et
Ġc all
l and
ĠĠĠĠ ĠĠ
Ġe very
Ġ ke
au se
Ġhe re
Ġg l
Ġth ink
Ġc h
Ġe y
ad y
Ġman y
w ith
Ġth ought
Ġth ose
Ġst r
d e
. .
Ġd es
Ġj ust
Ġl ast
Ġbe l
Ġa cc
as e
Ġl oo
at es
it ed
urn ed
H e
ĠThe y
m ed
oo l
Ġc hild
Ġpl ace
I t
w h
oll ow
v es
o g
t ing
Ġt er
Ġl ook
Ġre t
Ġc ar
Ġse em
ĠS he
Ġcon t
o b
d s
re w
v ing
Ġt ake
Ġw r
i an
Ġl et
Ġwith out
E R
ri end
Ġhim self
i p
Ġb o
Ġre s
Ġwh ile
Ġ ri
Ġha r
ig n
it ion
Ġe nd
Ġ right
Ġn ight
Ġp ut
l ess
o ver
Ġs w
om et
g et
Ġ *
an c
Ġ1 8
Ġ V
Ġm ost
' ll
Ġtoo k
w as
s s
Ġyou ng
em ent
au ght
Ġo b
Ġt ell
i ld
B ut
ĠThe n
o c
en s
ĠY ou
e x
Ġbe ing
Ġ ent
Ġo p
o ck
t s
Ġ 3
ri but
Ġb oy
Ġne w
n ing
Ġh ouse
u p
Ġc op
iv ed
o ot
Ġw ar
Ġc ount
Ġw ater
pp ed
l es
ak ing
Ġle ft
Ġth ree
at ter
i a
l f
Ġex p
Ġf ar
Ġst ill
i x
res ent
Ġal so
Ġg ive
Ġn ear
ir l
Ġl ife
Ġey es
Ġf ollow
is hed
Ġf riend
Ġat t
Ġc our
ow er
Ġb u
Ġw ant
Ġloo ked
g ed
Ġon ce
Ġas ked
Ġim p
Ġe ach
as ter
c hed
od y
in ce
Ġa c
Ġh ome
Ġs ec
Ġs er
Ġs ame
Ġcom m
Ġf ull
ĠI f
ĠS o
Ġm ar
Ġg ot
l i
Ġf ind
en se
ĠT h
Ġso on
ĠThe re
d en
Ġf ell
Ġe lect
Ġe ver
th ing
v ent
Ġan other
i ble
ro ss
i al
en er
Ġs ide
Ġhe ard
Ġu nt
Ġto ld
ic t
u c
Ġw om
Ġwor ks
Y ou
ce pt
un g
at ch
al k
re ad
Ġre p
in t
Ġl ight
Ġy et
Ġl ar
Ġf ather
Ġc r
Ġcon s
im es
re t
ĠW e
ĠC h
a ut
ot t
Ġsu pp
m ost
Ġy ears
c om
ou th
p le
way s
Ġhe art
it her
er tain
a pt
ul t
p r
Ġan s
ust r
m e
Ġc ha
Ġl and
in s
Ġsm all
Ġgo ing
Ġf ace
ron ic
ow s
Ġcall ed
ĠA r
E N
orn ing
ie f
y ou
h y
Ġe m
c on
Ġin d
Ġs omet
Ġth ings
Ġg ave
Ġg irl
Ġha pp
Ġt e
ĠA s
Ġs ur
Ġsp e
Ġhe l
ĠU n
Ġagain st
it s
Ġk ing
Ġs ent
Ġin st
ĠT HE
i red
ic al
ĠW hen
Ġhand s
d er
m y
Ġw ind
Ġre st
in c
Ġth ough
s u
Ġth ou
_ ,
ĠI nd
for m
d ay
Ġg iv
x t
et er
an y
Ġu se
W hat
b y
T hen
Ġbeg an
Ġkn ew
Ġfe w
o h
in ed
Ġcop y
s h
Ġp le
Ġfor m
O N
Ġa ct
Ġday s
Ġc har
Ġunt il
ĠT his
is ed
get her
Ġri ver
om ent
I N
Ġse en
ve l
n er
Ġs at
Ġg u
E S
Ġd ec
ha d
Ġc o
ar s
ak en
Ġk ind
Ġth ing
Ġh or
re st
Ġdo or
id ent
e e
Ġd one
Ġc han
Ġm orning
. '
u al
ĠĠĠĠ Ġ
ustr ation
a le
Ġc ried
ill ed
an k
ch ool
Ġs k
Ġm ind
ie ld
Ġnot hing
Ġwor ld
I ll
I n
b r
Ġm other
Ġre ad
a pp
g g
A R
at t
el t
Ġke ep
we en
Ġ &
Ġ 4
Ġd r
Ġad d
Ġr un
Ill ustration
Ġh igh
ain s
ĠB r
Ġcount ry
re am
al s
ect ion
Ġfe et
Ġd if
, '
Ġn ame
Ġlar ge
ound ation
Ġbec ause
Ġb ro
ull y
Ġp ers
ul ar
Ġchild ren
n ow
Ġc le
Ġv o
Ġm oment
sel ves
Ġw ood
Ġelect ronic
ĠK ing
Ġhar d
s ide
Ġp oss
Ġag re
l ing
ĠO F
Ġseem ed
re nt
Ġhel p
m en
Ġre pl
Ġm et
ire ct
Ġt re
Ġam ong
Ġm o
Ġn or
h o
Ġre f
o ke
Ġha lf
Ġp ur
Ġqu ite
Ġb oth
Ġre c
Ġre ce
s p
u bl
Ġal ways
Ġst e
ĠĠĠĠ ĠĠĠ
Ġwh ite
Ġst ood
' m
a z
Ġro om
Ġc he
iv es
Ġpro v
Ġp ar
oh n
u ck
ĠE ng
Ġh old
Ġbr ought
ain ed
ĠF or
e y
Ġn at
Ġr ound
O R
ac hed
n ed
Ġw a
at ing
Ġh op
Ġl ove
N D
Ġt urned
Ġdis c
Ġs il
ter s
ow ed
ir d
Ġc are
ent ly
ĠF oundation
Ġn um
ĠT om
Ġbet ter
i er
Ġfe el
Ġen ough
ut h
Ġs le
w or
Ġp resent
Ġd ark
Ġl ay
Ġop en
u res
Ġsu re
Ġe l
Ġpl ay
Ġne ed
Ġne xt
the y
Ġother s
f ully
ĠG od
W e
Ġf our
Ġbet ween
one y
i ans
il es
* *
Ġ es
Ġdist ribut
Ġre l
u g
a im
Ġd el
ment s
os ed
s er
Ġb est
Ġh our
Ġm on
Ġc ol
Ġf ire
en g
wh ich
at s
it er
Ġre d
c le
g r
p ro
Ġf ore
Ġcour se
Ġre g
The re
Ġc ertain
ou d
ĠA t
T his
id ed
Ġf all
b ed
ove red
h im
in ess
Ġs un
Ġe ff
Ġwho le
te nd
Ġpass ed
Ġal ong
Ġf ree
0 0
Ġto ward
ra ph
Ġto gether
Ġsomet hing
S o
I T
ĠM iss
ubl ic
Ġst and
Ġhe ar
ĠN o
Ġl aw
Ġt ra
as on
Ġ ed
Ġwom an
Ġ 5
mer ic
ĠJ ohn
ant s
b it
und red
Ġter ms
Ġvo ice
Ġb us
Ġin t
Ġbl ack
Ġwh om
i et
Ġs on
' d
a x
Ġus ed
Ġha ving
Ġf am
Ġt aken
Ġb re
N o
Ġt urn
O h
l s
ect ed
f l
en c
Ġsu b
o nder
cl ud
p art
' ve
ĠA l
Ġgo ld
Ġbe aut
we red
Ġret urn
ut e
I S
ce ed
a h
ĠH is
Ġr an
Ġm in
Ġthe e
it ing
ur ing
et s
ra w
id es
ĠT o
ate ly
Ġg re
Ġpo or
Ġl o
Ġm ount
Ġm atter
as ed
ĠO n
Ġgr ound
Ġf elt
k en
ag es
Ġab ove
Ġgiv en
us ed
n y
o e
u b
Ġs chool
Ġal most
k ing
Ġg ener
ac es
w here
Ġg one
f ect
is on
N ow
A N
um p
W hen
Ġbr other
h ind
Ġst art
Ġn ec
Ġb ig
Ġp rom
Ġo cc
The y
Ġd irect
ress ed
av es
Ġde ad
Ġt ill
Ġl au
Ġbel ie
Ġa ir
ver s
i b
hi p
Ġc ut
ry ing
Ġagre ement
Ġdo es
ang er
Ġv is
ak es
Ġans wered
Ġs ound
Ġw ife
t on
iss ion
u red
Ġa w
Ġf in
ĠN or
W ell
Ġwith in
I I
Ġse a
en e
ĠW hat
Ġin c
if ul
w hat
Ġf air
c ha
n o
or g
r ing
Ġh undred
Ġl ess
Ġp ap
Ġhor se
Ġfor th
ou n
Ġrepl ied
ac ed
ha ps
Ġsec ond
Ġm oney
t en
y ing
ĠI s
it ies
Ġear th
Ġar ound
c ri
f rom
m on
Ġth y
st and
ĠA meric
d o
Ġst re
id er
Ġwor ds
C H
Ġm er
ie w
t r
an e
T hat
iz ed
hi le
in es
Ġcon f
Ġp ower
Ġde ep
we re
Ġad v
un t
d den
Ġw ish
Ġ [
R E
the m
Ġw all
oo ks
ar ch
Ġin ter
ĠS p
aught er
ĠP r
as h
Ġb ed
ent s
Ġany thing
Y es
a f
et h
Ġpers on
Ġcan not
Ġcl ose
Ġhow ever
g l
Ġt ri
Ġf ear
Ġs we
Ġl ear
ĠUn ited
ab ly
Ġe v
Ġstr ong
an ge
-- --
ha ve
G utenberg
ĠSt ates
A T
Ġsu dden
Ġb ody
Ġr ather
c ap
Ġwor d
ou b
ver al
Ġthem selves
Ġp ri
I f
te rest
Ġst ory
w er
l ish
Ġre qu
th is
Ġin de
Ġas s
Ġh um
Ġde ath
) ,
ent y
Ġme an
Ġm aster
ow ing
Ġcont in
e ared
ĠAr ch
Ġbec ame
Ġfriend s
u ff
le t
Ġhe ld
' re
Ġd ear
Ġle g
Ġle ad
Ġser v
ĠA n
Ġ 6
Ġbe hind
. ,
id d
T HE
Ġo pp
Ġ Q
g er
Ġ =
ard s
e ad
Ġe as
Ġe at
O U
the re
s he
Ġsh ort
Ġex pl
Ġme et
s on
Ġy ear
on es
u ed
Ġar t
he ad
f ort
or row
Ġs ince
u ri
Ġp ay
Ġw onder
Ġto wn
Ġbr ing
the ir
Ġt ree
Ġex t
u se
ent ion
ĠC l
il ed
Ġme ans
r ic
Ġw he
ĠT hat
em pt
Ġd ri
ent le
in ted
Ġf act
ĠB e
Ġcom ing
re ady
Ġs ix
ĠH ow
Ġor der
Ġinde ed
S he
Ġle ave
. ]
Ġf ur
al ked
if ic
Ġf oot
ĠS e
Ġs ing
er y
iter ary
o le
cl aim
Ġe B
Ġret urned
Ġa ff
Ġlook ing
b ody
Ġh ur
Ġac ross
Ġd ro
.. ..
Ġc ur
ic ense
o es
Ġse veral
u ct
am es
Ġf ight
Ġnum ber
Ġt imes
Ġqu ick
Ġqu est
Ġc ity
Ġhop e
Ġt alk
Ġc reat
ĠG r
ort s
id ing
Ġf ast
ĠMr s
ĠC on
ag ed
Ġp ublic
Ġst ate
Ġs ight
ag raph
Ġal one
iv ing
Ġs im
Ġl ive
Ġst ru
Ġsle ep
ĠA ll
Ġin v
ot s
Ġcle ar
em ber
c ed
Ġre ady
Ġb ad
pp er
g in
Ġth us
ra ve
Ġke pt
T h
ie ce
iz e
apt ain
ar r
w w
ain t
Ġc ent
Ġdif fe
Ġex c
ĠĠĠĠĠĠĠĠĠĠĠĠĠĠĠĠ ĠĠĠĠĠĠĠĠ
Ġl ost
if t
Ġb es
ri e
Ġp ol
Ġw on
Ġapp ear
Ġar ri
E D
Ġre ached
itt ed
te red
Ġbel ow
f ic
Ġh ill
Ġoff ic
ot e
Ġpart y
Ġin terest
ad em
C T
o or
Ġ 9
Ġin clud
Ġeven ing
Ġof ten
Ġpre p
Ġor d
er ing
Ġsp ec
ĠD e
. --
as ure
Ġar m
o x
Ġbeaut iful
Ġre al
Ġr a
p ect
ĠN ew
h il
A L
Ġb ar
ber t
Ġ18 0
not e
ad d
A s
I L
Ġm ag
u ally
Ġw ild
Ġsay s
or m
Ġsu ff
a ld
Ġm iles
Ġrece ived
Ġpo int
th ough
ĠN ow
Ġmy self
-- "
ĠS ome
us h
Ġpar agraph
T ER
R O
Ġar ms
ter n
w ell
Ġkn own
at ive
av ing
ĠS ir
il t
Ġwho se
ar ing
g es
ors es
Ġtr ou
Ġbelie ve
Ġs n
u nder
Ġc ond
Ġsp ir
il ity
Ġ ill
li ke
w ill
re r
A P
Ġk illed
Ġl ist
ru ct
t t
Ġv ar
g y
Ġtr ue
oub t
Ġcopy right
Ġsh ip
Ġh on
form ation
ĠS c
Ġy e
Ġha ir
bl ed
Ġgl ad
o red
Ġf ive
ĠJ ack
n ight
ous and
ĠArch ive
Ġb ur
r ist
Ġbeg in
st r
os ition
b ers
Ġto p
Ġan g
Ġspe ak
att le
Ġg entle
Ġ 8
Ġro ad
Ġc or
Ġ ide
am ed
A t
Ġv ol
i ant
Ġs ign
Ġb it
ĠF r
Ġwh y
ĠL ord
el s
Ġl ived
Ġme m
i ke
Ġw ide
Ġl ad
Ġw atch
er t
Ġc ast
ut ion
Ġe ither
ĠEng lish
w ould
is ter
ĠBr it
Ġab le
Ġm aking
ĠR ob
Ġt en
Ġha st
Ġf ine
ud e
Ġe qu
Ġes cap
ri es
ne y
ĠC om
itt ing
Ġde p
Ġst ri
ĠO ne
Ġsu m
er n
Ġdid n
Ġc oll
Ġf a
Ġpro p
w o
Ġher self
Ġm ed
Ġboy s
Ġs y
ĠP eter
Ġl ow
Ġl im
S E
Ġst ud
Ġd em
Ġdon ations
med i
Ġtre es
Ġh un
p ed
m ission
Ġan im
Ġse nd
Ġf ield
Ġcar ried
Ġfollow ing
c o
ic ular
Ġre ally
Ġstr ange
Ġal ready
H ow
i am
Ġj o
z e
Ġc e
Ġhe av
w hen
Ġc ir
eng th
Ġm outh
IN G
Ġs ir
O n
on y
re m
un e
Ġsh ow
so ci
s c
Ġw alk
Ġdo g
is ing
L E
ron t
Ġel se
Ġfollow ed
in ter
ĠL iterary
Ġc old
Ġst ay
Ġp ast
Ġpro d
i ver
Ġas k
Ġ 7
h ow
ver n
Ġfor ward
a ven
Ġl ed
Ġnear ly
e k
Ġs qu
Ġd est
T o
Ġv iew
S t
= ,
Ġp al
Ġacc ess
ĠT H
idd le
g o
Ġv ill
c es
Ġf le
Ġh ung
Ġear ly
Ġans wer
le y
us s
Ġh orses
) .
Ġcon st
Ġwom en
Ġsp oke
us hed
itt en
Ġgirl s
Ġgre en
Ġt ried
Ġle ast
Ġd aughter
st er
Ġsl ow
r ough
ing ly
Ġb ott
Ġdiffe rent
ĠS m
Ġlaw s
ro om
v al
oll y
ĠA d
Ġpro per
Ġl oc
ĠA ND
Ġbl ood
ĠH er
Ġre ason
Ġg rew
Ġcomm and
c ome
W hy
Ġt ry
Ġp res
Ġso ld
Ġfam ily
F or
b s
Ġtr ans
Ġob tain
or ies
Ġt ou
Ġc ase
c hes
it ions
pl ay
uc ed
Ġf r
Ġsw ord
ic ked
Ġd om
at ure
i ally
g ing
Ġch ief
Ġbo at
P roject
Ġst ep
Ġm ove
ĠEng land
Ġbec ome
ow ers
ha m
d is
Ġc amp
Ġob ser
Ġposs ess
b o
Ġlong er
Ġapp ro
i ent
Ġde v
Ġswe et
Ġey e
Ġd oubt
inc ess
Ġfor t
Ġp aid
ĠR ed
u ght
oo se
Ġth ousand
Ġl ength
s m
Ġb right
Ġad m
Ġsudden ly
cc ess
Ġro se
Ġqu iet
, --
Ġp ain
m ore
Ġp i
U T
Ġt able
Ġp iece
Ġdist ance
ĠInd ians
Ġbre ak
Ġs it
Ġc ross
adem ark
p ose
ĠW ith
Ġapp eared
ĠW ill
Ġa f
anc es
Ġde f
Ġex cept
ound ed
ur y
Ġm is
Ġso l
Ġro ck
Ġb ir
Ġc al
p re
Ġc a
ĠD o
Ġnec ess
Ġj oy
Ġ ir
? '
u ly
Ġsur pr
Ġunder stand
Ġt em
al t
Ġd anger
Ġst ra
Ġas soci
Ġf re
Ġc aught
ĠA p
ha nd
Ġcon c
are nt
i ence
Ġc ause
ĠRob in
Ġsay ing
Ġ ut
ur ch
f ather
l ight
Ġposs ible
u es
as k
ra id
o pped
ward s
M y
A M
Ġm ist
Ġ1 7
Ġfe e
Ġm us
Ġd raw
ous ly
Ġth ick
Ġfell ow
et y
wh o
s aid
ĠB l
al th
Ġper haps
Ġst one
Ġhapp ened
wor k
re l
Ġwant ed
I C
Ġf ish
Ġso ft
Ġqu e
Ġw at
Ġw alked
Ġd uring
Ġkn ight
Ġen em
ĠNor th
Ġl ady
Ġpap er
Ġm ot
ĠR e
ceed ed
Ġc ap
if f
Ġcons ider
Ġpl an
k n
ou l
Ġ X
Ġpr ot
ĠW h
Ġcomm on
Ġbe ar
Ġag ree
Ġf ood
s ome
al es
Ġp ost
Ġtw enty
Ġt reat
Ġf ront
igh b
ant ly
en ing
Ġm od
Ġl aid
m p
Ġc orn
ic es
Ġchar ge
ĠR o
Ġsh out
ĠM ar
Ġt aking
c ould
Ġ1 0
ĠS h
Ġquest ion
Ġa ge
th s
for med
Ġ1 2
Ġl ater
p ar
ist s
Ġop ened
Ġd ream
Ġpre t
Ġv i
Ġn one
ĠC ol
g hed
if ied
ell ow
Ġvis it
Ġs ort
ab out
Ġb ound
Ġ1 9
in ing
b and
i ps
Ġcomp ly
Ġim medi
F oot
k in
Ġfur ther
Ġ1 5
a j
Ġbu ild
w ood
ren ce
ĠM y
eter m
Ġin f
ut es
ĠC an
ĠN ot
Ġbus iness
Ġob ject
ĠD an
Ġp ull
um b
Ġwhe ther
Foot note
t ime
Ġc row
ag ain
Ġtoward s
Ġb reat
Ġcar ry
a ff
Ġthere fore
o ved
Ġsa fe
Ġman ner
Ġac cept
air s
Ġc ost
ro y
ri ble
in ci
ll ed
/ /
: //
Ġf if
Ġdo ing
tend ed
Ġb ook
at he
ĠCh rist
in ary
Ġd ied
pp ing
a fter
M r
s ha
h old
the n
Ġpe ace
ĠD r
Ġlau gh
ĠE l
ĠInd ian
ĠO ld
Ġsc ar
Ġpl ain
r ang
il ing
Ġgo vern
AP TER
in ation
Ġgr ow
er r
c an
m ber
Ġd am
ar m
Ġd rew
Ġwind ow
Ġst at
l ine
ĠP ro
f ess
Ġin s
claim ed
ĠBrit ish
ĠA fter
Ġqu ar
Ġpl aced
Ġcl ot
Ġit self
Ġhour s
Ġcontin ued
ĠL ittle
C l
ĠAmeric an
Ġbl ue
y ond
Ġimp ort
Ġl ord
ree k
p ec
Ġhapp y
Ġt ax
ĠĠĠĠĠĠĠĠĠĠĠĠĠĠĠĠ ĠĠĠĠĠĠĠĠĠĠĠĠĠĠĠĠ
I ON
Ġ ver
Ġf av
Ġpret ty
Ġw it
is f
Ġd et
N ot
Ġlet ter
Ġcomp le
i um
o ff
it ation
over n
ious ly
ke y
ist ribut
Ġr ich
b ec
s hip
Ġdif fic
A ll
EN T
ist ed
Ġpr ay
ac hing
y our
Ġm ine
Ġcom pl
o k
Ġhum an
Ġout side
Ġassoci ated
Ġe le
ĠS T
Ġset t
Ġide a
Ġg ard
Ġsupp ort
Ġspir it
Ġen g
Ġt ail
Ġsa ve
Ġc ry
in to
ls ie
Ġstart ed
ĠG reat
Ġfor g
d om
ar row
Ġsh ore
Ġj our
Ġheav y
Ġen c
Ġm ain
Ġl ine
Ġk ill
Ġfore st
Ġpart icular
Ġrem ain
Ġarri ved
Ġd ie
ĠL e
Ġgr ass
ĠP er
Ġsu ccess
Ġh ot
Ġcon tain
om an
Ġab s
Ġaf raid
Ġ est
ren ch
g reat
pl oy
ar a
Ġ i
Ġvill age
ac ter
Ġent ered
Ġeff ect
l ittle
ĠS outh
ĠĠĠĠĠĠĠĠ Ġ
en n
Ġprov ide
th rough
anc ed
Ġr u
c ks
Ġsub ject
Ġl ie
ec h
us band
Ġacc om
op e
Ġcom es
Ġstra ight
CH APTER
it ude
Ġm ur
Ġrem ember
Ġp at
c ons
il s
iv id
Ġlau ghed
. _
Ġtr uth
f ace
ng th
Ġpur pose
_ .
Ġv al
be en
Ġtrou ble
al ph
Ġsha r
Ġacc ount
all ey
Ġbott om
Ġc overed
Ġ1 6
R I
Ġb ow
Ġtr ademark
v ol
c he
ĠP hil
ur al
ĠL icense
Ġsomet imes
led ge
b es
d on
Ġb all
un te
Ġdec l
h ouse
Ġadd ed
as hing
y r
Ġf ly
Ġf ail
Ġb ene
Ġf ing
ag er
ab bit
c ess
Ġquick ly
Ġse ven
ress ion
Ġdis play
be fore
as ion
se e
um e
se m
Ġst opped
Ġne ighb
ir m
O T
Ġbro ken
Ġl ab
h ood
i res
as ant
Ġ1 1
com p
Ġex per
Ġb ird
Ġbe yond
g an
Ġe ight
te en
Ġd eterm
v is
Ġcomp an
L I
ir ty
res h
! '
Ġnew s
Ġd a
ci ous
up on
ro d
Ġp ict
Ġsk y
Ġm iddle
e es
Ġis land
Ġb and
Ġb attle
id ence
Ġf ut
Ġacc ord
gy pt
Ġ18 6
ĠB y
j o
Ġwh is
Ġper fect
Ġchan ce
Ġany one
l ong
Ġst ates
ous es
w ise
Ġevery thing
id ge
d d
Ġsh own
ĠS ee
ci ent
A S
l a
m a
ĠG er
Ġslow ly
ĠO f
Ġbes ide
Ġfor ce
am ent
Ġstru ck
Ġdr ink
O ne
con t
E M
j oy
ce nd
Ġf ig
j ust
ĠM an
Ġl iving
c y
Ġp ort
og n
ĠHe re
e ven
un k
ĠA b
ĠeB ooks
Ġshar p
Ġchan ge
n a
Ġwor th
Ġha ll
Ġth ird
ec es
Ġf illed
Ġha t
Ġmount ains
Ġl ate
ud d
in ks
ue en
Ġbo ard
Ġcl ass
ĠE d
Ġgr and
Ġem ploy
i ar
i ers
r or
Ġdom ain
i or
l er
ĠI N
se t
Ġme re
re g
Ġr ain
Ġpr ison
o on
Ġcop ies
st on
Ġd er
Ġg un
Ġwr ong
f ast
Ġf un
est ed
ener al
or k
ĠY OU
Ġ2 0
Ġfeel ing
i ance
Ġdel ight
Ġr ap
ol k
Ġjour ney
ĠC ar
in ner
Ġseem s
Ġf right
Ġpro b
ation al
Ġstand ing
Ġst ream
est s
Ġde al
Ġdes cri
ay s
Ġex claimed
Ġ1 3
Ġwar m
or ge
Ġhis t
re ct
ed er
ac her
Ġdis app
Ġan x
ĠThe se
bl ing
Ġbe ast
Ġs now
Ġget ting
Ġcl im
Ġatt empt
g utenberg
ou red
Ġb orn
Ġm id
Ġeas y
Ġfut ure
Ġo ught
Ġh usband
l ook
ĠB ill
Ġnec k
y n
Ġj ud
Ġref und
Ġto r
Ġsp ring
Ġdistribut ing
ist ance
Ġent ire
Ġmo ved
ad ed
in ct
ro g
Ġpr act
Ġthink ing
ound s
ort un
ang u
Ġsupp ose
Ġescap e
u an
re en
Ġrun ning
e ks
u z
Ġ1 4
sh ould
ĠD av
d own
ri gin
Ġw id
s ed
Ġn amed
am s
Ġbe ll
Ġnat ure
ce ly
Ġdem and
u ro
Ġstre ngth
Ġr ing
Ġa v
Ġgener al
Ġc apt
le ep
d es
Ġcir c
A n
ed s
ic s
Ġpr inci
be red
Ġm akes
1 8
Ġne ither
Ġm aid
Ġy es
Ġ ve
A fter
as hed
no on
Ġj ump
ĠeB ook
A G
ac ked
Ġres pect
ir t
d id
ic ed
D o
Ġ |
Ġse arch
Ġfl oor
Ġinclud ing
Ġlear n
Ġrap id
Ġsh owed
ĠE gypt
w hile
Ġsh ot
Ġvi ol
Ġst op
Ġdis p
Ġf at
ĠO R
pec ially
Ġwr itten
Ġex am
Ġag o
Ġmin utes
ĠM ary
ers on
ĠC har
O O
Ġpl aces
Ġsee ing
Ġrequ ire
ĠR alph
Ġbo x
rie f
A D
Ġvol unte
Ġpal ace
ĠW hy
t han
Ġr ul
ic ally
Ġbro ke
Ġbegin ning
ort ed
_ _
ust om
res ident
c ar
ĠM ay
uth or
ĠAmeric a
ex t
ĠQ ueen
ivid ual
Ġdes p
Ġun to
Ġfa ith
Ġar my
bl es
Ġapp l
Ġdest roy
Ġw ise
Ġd ry
im p
Ġo rigin
ch ing
Ġple ase
Ġsat isf
Ġbel ong
Ġlear ned
b ack
Ġus ing
Ġev il
Ġbir ds
Ġmount ain
Ġm ess
Ġd ut
pl ace
i k
our s
har d
Ġleg s
Ġs itting
Ġd iv
Ġrem ained
Ġf ix
ol f
oss ible
m ade
Ġd ress
ĠN ed
Ġeas ily
et t
Ġinst ead
Ġbe at
Ġd ra
ce ived
Ġcomp any
Ġs or
AN T
ĠE x
A l
Ġv ict
Ġc at
Ġper mission
Ġcour t
h r
Ġhe ro
ĠD on
Ġgard en
u ge
Ġp osition
s y
ĠF rench
Ġbr own
Ġs ick
Ġcha ir
ĠT O
Ġcrow d
Ġnecess ary
ru pt
ag on
u ce
Ġsha d
e lect
us ion
Ġrep resent
Ġl ives
Ġatt ack
Ġcom fort
Ġvar ious
i pp
Ġh tt
is es
on t
Ġv es
Ġc atch
Ġsil ver
Ġgl ass
Ġpri v
Ġme ant
ĠE lsie
are r
at or
Ġdisc overed
ell ed
Ġha ng
ĠT r
v ill
Ġh ole
Ġreg ard
I s
Ġro y
Ġs ad
p ass
ĠS w
Ġhead s
Ġgu ard
Ġs us
Ġs ister
Ġd read
Ġwa it
Ġgold en
a ul
Ġsu gg
Ġal though
Ġre ach
to gether
Ġcertain ly
Ġpart s
Ġmag ic
1 2
Ġint ell
p gl
Ġt all
pgl af
Ġc uri
Ġh id
Ġves sel
ri ll
L et
Ġsec ret
i od
Ġwr iting
Ġatt ention
W ith
m ing
is m
Ġmo on
ĠP l
Ġown er
ic ks
all ed
Ġsp o
o ly
Ġw is
Ġm iss
Ġsp read
m in
Ġo bl
er v
ĠW est
Ġpi eces
Ġsp ot
Ġs oul
Ġwall s
b et
m orrow
Ġspe ed
Ġyour self
Ġdirect ion
ri l
Ġadd ition
uro pe
He re
Ġh ig
Ġme at
ad s
Ġim ag
g u
L A
Ġth rew
Ġbu ilt
Ġl a
e al
Ġnot e
Ġle aves
vel op
ha s
m ar
ĠF l
in a
Ġgreat er
c op
Ġt rying
Ġsh ips
Ġ Z
in ts
ol es
ĠO r
ĠG e
Ġbreat h
r it
I M
Ġstud y
Ġc over
ĠIs land
. _,
al ity
ke ep
i pped
ĠG overn
Ġb ag
Ġenem y
Ġs ong
Ġc ru
athe red
Ġclot hes
st ood
ĠW ell
Ġchar acter
Ġagre ed
Ġwa iting
pe ople
hy s
Ġp ath
Ġwood s
Ġir on
ant ed
ĠR E
Ġed ge
Ġsing le
Ġm ark
Ġb an
Ġl oud
Ġra ised
. )
Ġro de
Ġoff ice
Ġtre m
Ġsil ence
b el
Ġmed ium
Ġnot ice
Ġwe ek
Ġear s
ĠC aptain
ĠL et
f er
Ġl atter
Ġocc ur
ri age
Ġin side
ĠP e
Ġde part
V E
b re
Ġlo ved
Ġconc er
Ġs ides
Ġsh ut
Ġgentle man
Ġknow ledge
Ġs and
p es
se ll
Ġsome what
ĠF rom
Ġter rible
gr ound
Ġb ank
h or
Ġsl ight
Ġw ished
h od
Ġb rave
Ġg ame
Ġsa il
Ġf ool
Ġc oun
Ġnor th
e ed
Ġcomple te
Ġex act
W ho
Ġg ate
ĠS am
re c
Ġt ears
st em
Ġexp ect
Ġgo es
B e
Ġf resh
Ġmin ute
ĠPr ince
Ġle aving
Ġc re
ĠA N
iv il
Ġtr ust
p o
im ent
Ġc aptain
er c
t wo
ĠF ig
Ġut ter
Ġg all
ĠDav id
ĠM other
Ġl ower
ive ly
Ġes pecially
Ġbl ow
Ġrec ogn
ĠH ar
Ġch urch
Ġbrother s
le ase
ci al
Ġappear ance
C ome
e very
Ġk iss
el ve
ose ph
Ġtra vel
Ġy ellow
Ġyou th
Ġun less
ĠG eneral
Ġn arrow
Ġpre vent
Ġhe aven
Ġimport ant
ond on
.. .
o om
Ġcould n
Ġgu ess
cha nt
B y
D on
ww w
W here
Ġserv ice
ha pp
Ġafter noon
l t
Ġm ad
Ġon es
i o
he art
Ġfle w
Ġh ouses
ĠW ho
Ġocc asion
Ġhill s
act ion
Ġdec ided
Ġsure ly
Ġimmedi ately
as es
Ġsp ace
Ġen joy
Ġent er
Ġw inter
Ġle ap
Ġan n
Ġtr ain
Ġe ager
ĠP ar
Ġs ize
fess or
Ġb ab
Ġeff orts
L L
b ing
Ġl ot
c ount
Ġm ach
g ood
Ġcl aim
g ar
Ġp en
k es
ad es
in ion
Ġb read
Ġn ice
r id
ch ild
Ġp hys
Ġde g
Ġper form
p al
Ġang ry
Ġsor ry
Ġg iant
Ġprov ided
Ġp un
ur d
ĠE m
r ay
out her
Ġcon n
Ġanim als
g ain
Ġprob ably
ĠY et
s l
ol n
qu e
Ġ3 0
Ġd inner
Ġst ar
Ġs ense
le g
th ought
Ġper iod
angu age
ruct ion
Ġst ro
Ġres ol
Ġfin ished
on ly
Ġm il
Ġse lf
c r
Ġis n
ĠTh us
ur g
c her
Ġb urn
Ġpre v
Ġhard ly
he l
inc oln
Ġcast le
f ound
Ġp it
Ġhist ory
l aw
ĠD or
Ġth irty
Ġv alley
A r
f it
w ar
1 5
Ġin qu
Ġoffic ial
kn own
ce ive
ĠE urope
n est
Ġus ual
at tered
Ġple asure
Ġs outh
Ġin fl
ic ate
Ġpo ck
Ġwould n
ail s
Ġgiv ing
Ġdistribut ion
Ġbro ad
B ER
Ġmar ked
C E
ĠF ox
pl es
Ġmus ic
Ġre pe
Ġple ased
Ġvolunte ers
ve re
H is
Ġinc re
c har
Ġf ier
Ġl if
outher n
k now
Ġfor med
ĠD ick
ĠP resident
Ġchan ged
m it
s w
ret ched
Ġturn ing
m other
end ed
ott en
I R
e b
Ġg az
Ġfl owers
c ame
ol og
ĠF OR
an ch
ch ief
ĠA m
Ġs ens
Ġopp os
ct or
Ġind ividual
ĠB rer
Ġmight y
Ġli ps
Ġocc up
= =
Ġpro ceeded
ha ll
1 0
Ġa uthor
Ġfor get
Ġar row
be y
Ġpass ing
Ġobser ved
Ġac qu
iet y
Ġstru gg
p ing
Ġb ooks
Ġsh ook
Ġdiffic ult
l ar
Ġprep ared
ac y
Ġwe ak
I ES
n ew
ĠH en
Ġro cks
Ġf ru
Ġdes ire
ide red
Ġm ill
Ġin formation
Ġknow s
1 6
z en
Ġrem ark
Ġw and
Ġsl ave
Ġed uc
Ġb le
qu ently
Ġno ise
in y
ES S
Ġan t
th ur
O f
r ance
Ġ .
am b
ĠBr own
S T
Ġm ass
S ection
ag ue
Ġanim al
ou is
op s
Ġro b
Ġl ying
Ġg rave
ew is
Ġbene ath
k y
Ġd en
pt ion
m n
ĠCh ief
Ġsurpr ise
in n
Ġpresent ly
Ġsum mer
v an
Ġu pper
ĠRo bert
Ġwonder ful
Ġs orrow
m itted
p ered
es us
Ġwhat ever
l o
ĠWill iam
at ic
Ġsu c
Ġst ick
ĠP RO
omet hing
Ġord ered
m ust
elect ronic
Ġl od
ent h
oc ked
it al
Ġdo ll
Ġwr ite
E CT
Ġa id
Ġact ion
Ġwat ched
I D
ĠTH IS
ic y
Ġsu per
Ġnat ural
Ġn ation
Ġfor mer
Ġtr uly
ĠY ork
c ul
Ġbl ess
Ġt ro
Ġwr ote
ex p
ĠUn cle
Ġm ention
Ġpass age
Ġoff ered
en ess
ĠL ondon
IT Y
ĠW ar
f le
ot ion
ro ad
Ġh ost
Ġall owed
Ġ180 5
ll ing
G ood
in et
it es
Ġc ab
Ġc ott
ĠR abbit
Ġth in
us sell
Ġco ast
Ġp op
om es
ĠB E
Ġcond uct
ĠSm all
Ġtou ch
.... ....
Ġf ro
Ġm ission
ĠJ oseph
Ġ2 5
s uch
Ġc ow
c ent
Ġ ice
bec ause
i as
Ġin n
Ġu nd
ĠR oss
him self
g ard
Ġdark ness
Ġbur st
Ġt ired
ĠP olly
ons ie
Ġs ons
ro se
Ġmet hod
Ġeff ort
Ġcur rent
ou p
ĠJ im
Ġ2 2
Ġpur su
Ġread ing
Ġsil ent
oo ked
Ġhur t
um ber
ar n
ĠO h
Ġway s
Ġres p
se c
Ġne g
e ff
m aster
Ġmon ths
ĠW here
Ġst ories
Ġ2 4
Ġdisc over
Ġfall en
Ġtalk ing
Ġad vent
Ġim m
al ed
Ġaccom p
Ġb old
Ġall ow
r ound
Ġst ones
Ġno se
Ġqu oth
Ġsim ple
Ġl ines
Ġun cle
s es
Ġ2 3
' ,
Ġr ise
m ay
Ġsm ile
Ġshout ed
ent ed
um ent
Ġg athered
Ġw ond
ĠB en
A h
T H
ed om
ord s
Ġafter wards
Ġdecl ared
is ion
Ġdeterm ined
Ġt im
Ġf irm
Ġh ide
m uch
is k
wor ks
enc y
Ġsy stem
Ġsus p
O W
Ġr ace
ab ility
Ġrem ar
ex ic
f all
Ġstep s
Ġgovern ment
Ġpict ure
Ġobl ig
Ġro of
Ġcont act
AR R
Ġhar m
Ġexp ected
Ġrece ive
Ġgener ally
Ġrem em
Ġprom ised
ĠFr ance
ce ll
b u
c our
Ġspe ech
ashing ton
han n
m ight
Ġ -
Ġf it
il ar
em ed
Ġgreat ly
og raph
ĠPr incess
Ġdut y
Ġt ale
th ose
Ġfe ast
Ġshould er
Ġcorn er
Ġdistribut ed
I nd
Ġsur face
Ġthought s
Ġstr anger
ri ff
ĠThe ir
if y
os es
es h
le en
p ri
---- ----
Ġpull ed
Ġs ac
Ġp arent
ĠL incoln
Ġno ble
Ġl uck
Ġstre et
h ot
w ater
Ġopp ortun
ath leen
enc es
Cl ark
p or
00 0
anc y
Ġpap a
Ġt one
ĠS ide
Ġinst ant
Ġdra wn
s ing
ur t
Ġcle an
d y
Ġtw elve
ater ial
p ly
u ation
Ġwe ap
Ġpo inted
Ġcha p
Ġsk in
Ġdro pped
Ġco at
A B
Ġw est
Ġple asant
is ters
Ġfam il
look ing
Ġscar cely
Ġsm o
f irst
Ġsl aves
Ġc up
Ġbeaut y
c ertain
Ġmer ry
Ġsold iers
Ġs ite
re me
ha nt
Ġd at
Ġp ra
Ġin vent
Ġgo ds
a way
as ing
** *
Ġrem oved
p et
Ġw in
and father
Ġde fect
Ġsee k
anc ing
w r
Ġsa v
Ġcreat ure
Ġf olk
st it
Ġe vent
Ġart ic
Ġf urn
ac ing
Ġcl osed
Ġha th
Ġsw ift
oc ks
ĠAp on
Ġth ro
Ġor gan
I G
Ġplay ed
ĠQ u
Ġt akes
ro o
Ġrep ly
l in
ĠE very
Ġp ale
ne ver
er ve
ĠB ob
ud den
Ġfig ure
Ġte a
an n
Ġst ir
b ly
w ent
ter ing
C h
Ġp ress
Ġg ra
Ġal ive
ĠJ uan
Ġr ough
ish ing
Ġpr ince
amp ed
Ġfif ty
al ty
Ġpro cess
Ġar rang
Ġentire ly
Ġadd ress
O M
ĠT ra
Ġde er
oth y
fe rence
t ake
Ġb od
Ġwas n
it able
os ing
ish ment
Ġcol or
Ġcont r
it ive
ever al
Ġwa ited
Ġque en
ĠĠĠĠĠĠĠĠĠĠĠĠĠĠĠĠ ĠĠĠĠĠĠĠĠĠĠĠĠĠĠĠĠĠĠĠĠĠĠĠĠ
ib ly
Ġbit ter
ad ing
J ECT
Ġo w
Ġu r
Ġc and
re y
Ġde velop
Ġv ain
Ġimp ossible
Ġpr incess
Ġ2 6
bo ard
m ount
o inted
ĠH ouse
u el
BER G
com m
ĠAr thur
ĠJ o
Ġt ong
Ġg ro
qu est
ha bit
Ġwar ri
ash ion
et ch
ul ty
Ġsp ent
Ġfing ers
U R
a ked
th ree
Ġem pt
Ġe ld
Ġdirect ly
f riend
ot ed
Ġcon v
Ġmag n
1 3
c han
Ġas leep
Ġst ore
Ġse par
Ġ( _
man y
Ġfav or
UT EN
cl ock
aw s
Ġprom ise
" '
a it
Ġw ire
Ġn on
Ġr ub
Ġanx ious
Ġrequire ments
Ġwe ar
Ġop inion
Ġmar ried
i en
Ġc ook
Ġse at
us hing
Ġhold er
ĠG UTEN
Ġle an
Ġcare fully
ĠGUTEN BERG
Ġm ile
the se
Ġca used
ter day
S ome
Ġgr own
p ost
ci ety
ri f
Ġv ast
um st
again st
th ings
Ġpr oud
ĠGe orge
O L
Ġy ards
ou ble
Ġh orn
it ical
Ġsp ite
for d
Ġdistribut e
Ġdisplay ing
ra ft
Ġapp ears
Ġt y
ĠF ather
Ġjo ined
AT ION
W hile
Ġw ings
Ġd ressed
Ġte acher
Ġtr ade
Ġoff er
Ġhold ing
c ol
ir ing
ĠPRO JECT
ĠR ussell
Ġlike ly
i vers
Ġconsider able
ĠAN Y
Ġb ull
omet imes
Ġpock et
ig g
Ġev ident
at ched
ac ement
Ġloo se
Ġpriv ate
ĠM exic
Ġwor se
an i
Ġdr ag
ab les
ĠJ esus
t w
ail ed
Ġres ult
Ġcompl iance
Ġt ast
ro l
Ġf ond
Ġn ames
Ġdis claim
e v
Ġ id
Ġr id
ĠS l
ĠBl ack
Ġfin ally
ARR ANT
Ġs al
Ġst out
Ġsh oot
Ġpri est
Ġsuff ic
ĠW hile
with out
p ort
w en
er ry
Ġbu y
k ind
at ur
os p
Ġfl ed
Ġhon our
Ġexact ly
Ġopportun ity
er ous
Ġhe n
ac c
Ġcom b
Ġgreat est
s ay
ick et
ĠAl ice
Ġaccept ed
Ġg as
Ġwe l
anc hes
Ġru le
Ġm or
ure ly
Ġloo ks
Ġland s
Ġin formed
Ġgr owing
Ġbelie ved
Ġkeep ing
Ġche er
Ġexpl an
ific ation
Ġe t
Ġat e
ĠH ood
Ġthan k
Ġrequ ired
Ġe gg
ĠM any
Ġr ide
ĠR ic
p rom
Ġ er
al most
el ess
Ġse ized
Ġshould ers
Ġpers ons
ĠIn formation
Ġform at
Ġon line
Ġinfl u
Ġh uge
uz z
f our
o is
w ind
Ġtra ve
Ġserv ants
Ġpossess ion
Ġd im
Ġth reat
Ġwor ked
Ġbl ind
Ġsurpr ised
b ro
p resent
ic able
ep end
Ġrel ig
b ar
Ġ err
: --
Ġdep end
re es
Ġst orm
th ink
ĠC r
Ġb ent
Ġf ought
Ġfl at
ield s
Ġbuild ing
per or
1 4
ĠGovern ment
Ġopen ing
ha p
Ġc ou
s ur
Ġso le
ĠA nt
ill y
ĠM c
Ġperfect ly
Ġ180 6
Ġlab or
y e
Ġw et
ĠA S
Ġhe ight
un ch
Ġspe aking
enc ed
Ġp hr
Ġl ake
el p
Ġsha re
IS T
l ast
ad a
Ġconcer ning
R A
Ġb are
ther n
Ġfe ather
Ġhun ting
n ut
ĠW ashington
Ġfl esh
ĠCon t
Ġmem ory
ĠWh ite
Ġa part
Ġw ore
ĠM ike
Ġcar rying
Ġmeet ing
u ous
ĠE ast
Ġwalk ing
Ġbreak fast
Ġcru el
Ġ vers
Ġa ston
Ġfright ened
ha l
or ough
om en
Ġsm iled
Ġte nder
r un
Ġsha pe
Ġdist ant
Ġh y
Ġ2 7
Ġlar ger
II I
Ġremem bered
i ently
t ree
ĠV an
Ġte eth
Ġproper ty
k er
Ġr ushed
g ress
ĠM in
Ġhig her
Ġfru it
e en
Ġf aces
Ġwe eks
Ġcol on
art her
Ġex ist
uct ion
Ġwhis pered
Ġmere ly
Ġd ust
ie ve
Ġ* **
Ġwat ers
Ġprot ect
Ġp ot
ant ic
Ġcal m
Ġlaugh ing
Ġequ ip
Ġoblig ed
Ġv ent
ĠIt s
Ġ2 8
Ġnat ive
Ġha bit
ĠM ount
hi a
Ġsc ene
m et
Ġh unt
Ġfor ced
Ġfight ing
Ġlist en
ĠC ount
ĠC reek
Ġext ra
Ġtou ched
Ġ ident
at ives
ĠK athleen
Ġf aint
Ġfor ty
Ġhapp en
0 1
v iew
ĠS chool
Ġan cient
Ġtem ple
a i
Ġc rew
Ġparent s
ha lf
Ġf ill
Ġbre ast
Ġprep are
Ġmach ine
Ġoffic ers
Ġt ight
Ġn ine
Ġpres ence
le nd
Ġpro ceed
Ġknow ing
it ch
Ġinclud ed
Ġa head
Ġhe alth
Ġg ather
r ict
ĠC ap
Ġsc r
ĠHen ry
P er
Ġp air
Ġkn ife
Ġjo in
Ġfix ed
f act
is ions
Ġcon vers
Ġbu ff
he st
it ary
Ġd are
ĠG l
Ġhung ry
Ġm aterial
Ġfre edom
Ġm ut
ĠE ven
Ġord inary
Ġwatch ing
b ell
be ing
Ġlet ters
Ġshad ow
b oy
m as
Ġthr own
t ell
Ġre jo
Ġprod uced
f oot
Ġke y
Ġparticular ly
Ġoppos ite
Ġwe b
ĠC o
Ġserv ant
Ġat tend
Ġfree ly
Ġphys ical
Ġm atch
Ġwe ight
Ġtell ing
Ġmatter s
Ġmot ion
Ġp ig
Ġg ar
Ġcour age
Ġquest ions
ĠCol umb
_ )
ĠSm ith
D e
n ers
o pp
Ġwe ather
ĠF ar
ĠR iver
Ġli ber
h ost
ĠG reen
Ġcent ury
Ġfield s
Ġa rose
Ġord ers
Ġdraw ing
Ġest ab
o ice
Ġc ave
ell e
Ġpro ved
Ġaddition al
i us
ĠC apt
ĠJ ames
y er
Ġquar ter
Ġcompan ions
Ġd ate
ĠS et
ĠC ome
ra el
1 9
Ġt aught
Ġour selves
Ġheart s
Ġmo ving
Ġcond ition
rod uced
Ġp ick
Ġenem ies
Ġequip ment
P ro
Ġc ustom
ĠJ an
Ġ18 5
Ġnot iced
lect ed
T om
f ollow
ur s
Ġexp ression
f ive
ĠM ag
Ġcons idered
Ġhon or
l ot
se qu
ĠJ uly
ci ence
Ġsim ply
other s
Ġv an
ĠR ep
Ġsupp osed
Ġsent ence
AR T
Ġimmedi ate
W ill
Ġl oss
Ġl anguage
ce an
em s
ug ust
Ġfall ing
su b
Ġdri ven
udden ly
ĠT wo
sha ll
Ġphr ase
t ook
Ġsp lend
ĠN OT
Ġs ought
ren ces
ĠTh om
Ġmon th
Ġexplan ation
ing u
ĠĠĠĠĠĠĠĠ ĠĠĠ
Ġgr oup
Ġsy mp
ant age
um ed
Ġnum bers
u le
Ġsa ved
Ġwork ing
sp ect
Ġi i
1 7
Ġb ore
ord er
Ġlove ly
Ġnat ives
id s
ol ute
Ġrepe ated
F rom
ĠB ab
res p
Ġking dom
Ġplay ing
Ġspo ken
Ġquiet ly
ĠE B
ill a
P l
Ġw icked
Ġshe l
Ġkn ees
Ġl og
Ġref used
ou ds
and er
ĠJ ust
Ġbu ried
Ġspec ial
Ġw ine
Ġcr own
Ġclear ly
Ġlist ened
Ġempt y
b us
Ġsim ilar
Ġd ar
Ġescap ed
Ġfl o
amp le
c hen
ut ed
Ġear nest
Ġhur ried
Ġr ising
ĠL and
Ġsp rang
Ġend s
ĠC H
ong ress
m ake
Ġp ec
Ġind ic
Ġhtt ps
or ing
ĠJ une
G o
c oll
k ins
in st
Ġli ked
Ġinc hes
ing ing
ĠJ e
a pped
Ġb ade
Ġhe at
Ġcl oud
ang ers
ar z
Ġl ose
Ġbod ies
it or
ĠW or
ak er
Ġche ck
Ġext reme
Ġc ivil
ĠDor othy
ar ily
Ġdog s
U N
Ġd well
est y
Ġsec ure
Ġmar ry
ir gin
Ġpost ed
Ġ $
Ġfor ms
ill s
ĠA G
Ġent rance
c il
Ġc red
Ġthr ow
Ġprinci pal
Ġv oy
Ġexp ress
ĠWe b
he ld
Ġcon ce
Ġbes ides
Ġloc ated
Ġo bey
an other
ĠS everal
Ġ2 9
und ay
Ġsle pt
cont in
m und
Ġtra il
Ġforg otten
vill e
R e
Ġf al
ve y
ĠĠĠĠĠĠĠĠ ĠĠĠĠĠĠ
fort un
Ġremar ked
Ġh it
Ġinterest ing
Ġbab y
ĠL y
ĠL ady
Ġcuri ous
r al
Ġw ed
Ġp icked
Ġunder stood
iz ard
Ġch oose
Ġsqu are
m aid
Ġsol ic
Ġtong ue
Ġbus hes
ul ation
Ġgiv es
la very
Ġdescri bed
Ġyes terday
ĠM aster
Ġcal cul
eder al
c alled
p on
Ġcl oth
Ġlead ing
Ġmem bers
Ġas ide
Ġst ars
Ġequ al
2 2
Ġmon key
oun ced
Ġcent er
f in
i pt
Ġe ast
ack s
b id
Ġgr ay
ĠSt ate
Ġoffic er
Ġfing er
Ġexper ience
b an
Ġwe alth
Ġdro ve
ear ly
um n
RE E
ir it
ĠR uth
Ġpr inted
Ġany where
Ġdoes n
Ġsm oke
Ġsc ream
Ġcomm un
Ġdiffic ulty
Ġf arther
Ġn ur
ac ted
Ġmet al
Ġbus y
Ġintell ect
Ġlif ted
f ree
Ġb ark
Ġgo d
Ġdes cend
Ġfell ows
f und
Ġ2 00
ĠE n
m ond
Ġp a
ĠInd ia
Ġsa f
Ġput ting
U S
do or
Ġmer chant
Ġcreat ed
Ġeng aged
Ġm ir
Ġh o
Ġn est
Ġsa ke
ĠP al
ĠR oy
Ġbr anches
aj or
Ġhid den
ra p
wh ite
IT ED
Ġcirc umst
s omething
Ġt alked
Ġd iam
Ġin tended
M iss
o int
ĠS un
ul iar
Ġhear ing
ĠHow ever
n ec
Ġfam ous
Ġo per
ĠM e
you ng
sm ith
ar ies
Ġpl enty
Ġdri ve
Ġsett le
ĠC ity
Ġkind ly
Ġsett led
Ġcompan ion
Ġb ase
Ġus ually
ĠEl k
Ġet c
a ly
s it
ĠB ar
are st
eng er
Ġbuff al
Ġse vent
ear ing
The se
IL L
Ġspir its
Ġorigin al
Ġle vel
Ġ180 4
Ġfl ight
Ġfind ing
Ġex erc
Ġjump ed
Ġdread ful
child ren
es tern
Ġmot or
d ec
s pe
is to
ĠA f
Ġimp ro
Ġstat us
Ġfav our
Ġin j
Ġre ve
ĠAp ril
c overed
r s
Ġsc attered
us es
Ġnum erous
Ġpossess ed
Ġf ox
am on
Ġpl ant
C an
d if
Ġw ounded
ign ed
Ġser ve
Ġneed ed
stand ing
Ġa x
ĠS er
A re
p he
ic ious
us ing
Ġhun ters
Ġha ven
Ġsp l
OO K
ou ri
Ġde b
Ġexpl ained
Ġtreat ed
Ġg rief
Ġne arer
Ġd ue
am a
Ġw aves
Ġm ix
ep ing
Ġcha mber
ĠCom m
Ġcoll ection
ĠS outhern
Ġtw ice
ĠPeter kin
cell ent
Ġ ?
Ġh ollow
um bled
Ġav o
Ġcomp ut
Ġp et
Ġp ill
Ġfe es
Ġr ag
Ġrep ort
Ġf ile
Ġshe ep
Ġdes ired
Ġsw im
Ġpo et
ĠGr andfather
Ġre vol
Ġfull y
e a
Ġt ales
ĠS uch
Ġter ror
ement s
Ġgre y
Ġmur m
Ġaccord ing
J ohn
U n
Ġl icense
Ġl inks
ĠC ON
ul ts
Ġf er
Ġexp ed
C II
Ġstre ets
N or
Ġcare ful
Ġfail ed
L ook
b ow
Ġc ool
ain ing
ĠU nder
iz ation
Ġpur cha
Ġmist ress
D id
G r
d r
on a
Ġin habit
ĠT er
Ġste am
ĠChrist ian
b its
Ġste pped
Ġt ied
Ġc rying
Ġto wer
ĠE ar
Ġdes er
ĠShe riff
ĠIs rael
Ġme l
Ġfar m
Ġhelp ed
Ġed itions
Ġext ent
d ing
Ġw olf
Ġdist inct
ser v
Ġlad ies
Ġme al
ive red
Ġwill ing
. =
ĠJ ew
Ġhands ome
pro v
Ġmaid en
Ġdefect ive
ĠS ha
Ġsmo oth
e ge
ĠSe pt
Ġrapid ly
i ber
ous in
Ġpl ate
od e
IL ITY
istribut ion
Ġt est
Ġa ut
ha el
Ġb ra
Ġf ate
as ures
tain ed
ĠX X
Ġappl icable
m es
ĠC at
uc y
Ġfly ing
1 1
ĠL ewis
not hing
su pp
Ġparagraph s
it ement
on ed
ĠR uss
Ġro pe
st one
un n
Ġknight s
d ist
s at
Ġter m
ĠTh or
Ġlim itation
Ġder iv
_ [
e as
Ġp or
Ġpro ble
AM AG
se arch
Ġwood en
Ġdro p
Ġcreat ures
ĠL IM
ĠSc ot
Ġcir cle
Ġsugg est
l ooked
ar med
Ġbe nd
ĠG o
onsie ur
as c
Ġan ger
av ed
Ġfl ag
Ġsl ain
Ġreg ular
ll y
Ġce ased
; --
re mon
Ġf ashion
ust ed
Ġact ive
p ut
Ġrepl acement
Ġpay ments
Ġwit ness
c to
Ġsh oes
ĠD own
ict ion
o cc
Ġp p
Ġn aught
ain ted
Ġr out
for ce
Ġfall s
4 1
os en
ĠPhil ip
count ry
Ġt ask
re et
ri g
Ġsupp er
Ġcomply ing
Ġda wn
Ġroy al
ĠLIM ITED
Ġp ure
Ġlead er
Ġinflu ence
d el
Ġdon ate
ens es
Ġland ed
Ġpower ful
Ġpay ing
c ast
ect ions
so ever
Ġhop ed
J ust
Ġ ign
ĠA ugust
Ġus er
Ġg en
st e
Ġre ward
ĠM ed
ĠF red
H T
Ġre sem
Ġtr ad
Ġrep orted
Ġobtain ed
Ġbeast s
u pp
Ġc ro
ll en
Ġdo ors
Ġqu ant
Ġser ious
ĠAS CII
W h
Ġconst ant
Ġmid st
he ard
ĠM el
ĠO z
Ġsoon er
in ting
om ing
Ġwind ows
Ġfore ign
Ġderiv ative
Ġde fe
E ng
Ġsa iled
Ġbr ide
Ġapp arent
eng ers
Ġprev ious
Ġs ang
Ġd ance
ĠS hann
Ġse ated
s ue
ĠC amp
ĠN ature
ĠJ ac
v ah
le x
st airs
Ġth under
ĠM arch
Ġp ack
Ġpo ints
Ġdist ur
Ġcall ing
Ġfort une
Ġsaf ety
it chen
Ġro lled
Ġyour s
Ġatt r
ho vah
Ġprov isions
Ġp age
se en
ol in
C K
Ġh ither
cri be
Ġmove ment
I V
i est
Ġg le
ĠAd ams
Ġmess age
Ġp ity
Ġdemand ed
Ġb ased
ĠCh urch
ĠPro fessor
Ġevery body
Ġdisapp eared
ĠC ongress
Ġpro of
Ġke en
Ġatt ached
ĠOn ly
f ield
ĠT e
ol s
cl usion
add le
ver t
Ġar med
Ġdel ay
E L
h um
se ct
ĠM or
Ġfriend ly
Ġadv ice
Ġble w
Ġser ved
Ġwel come
Ġm am
Ġadv anced
Ġstri ke
ic hael
Ġsur v
Ġdanger ous
or ious
ent al
ay en
ac hes
Ġgu ide
Ġver ry
Ġdoll ars
S ir
Ġr age
Ġme asure
ĠE r
Ġwant s
Ġrul es
Ġintell ig
Ġvessel s
Ġcl iff
ac le
Ġas sem
th y
Ġinst ruct
Ġsuc ceeded
A meric
Ġc ell
Ġp owers
Ġcross ed
om ans
ĠS ig
ĠN e
for th
ci p
Ġsl ay
the less
Ġno dd
E T
Ġst ern
ĠJ ane
Ġsound s
s aw
t oo
ish op
wor ld
T han
y l
on or
ath y
Ġbeg un
Ġbo ats
Ġ5 0
ĠCon f
Ġsend ing
Ġaccom pl
Ġhtt p
Ġstrugg le
n at
Ġl ies
el ing
ĠO ur
Ġro ots
Ġsha me
Ġam az
ĠSe a
Ġtem per
Ġsugg ested
p ent
s hi
ĠG u
Ġsh ining
Ġam ount
Ġold er
Ġmean ing
ĠBrit ain
.= --
S ee
n es
Ġt ent
ĠB o
of t
Ġam id
ĠWor ld
it iz
st ill
ĠG ood
Ġsu it
Ġcl ouds
Ġgl oom
Ġwe ary
ĠM er
Ġsh op
N ever
Ġwh ist
ĠS qu
Ġche st
; "
an ny
Ġth orough
Ġthr ust
Ġcount ries
Ġt ur
it le
Ġem p
Ġbir th
Ġresol ved
er able
Ġb ask
Ġd i
al ks
Ġsp r
Ġno body
Ġex ec
Ġfeather s
Ġn et
Ġdo zen
cl es
Ġdisc uss
Ġmention ed
ec ause
Ġsit uation
Ġleap ed
Ġsplend id
Ġgener ations
add y
an ied
Ġr ate
Ġprod uce
Ġfif teen
Ġval ue
roo ge
p ur
ĠS te
Ġfeel ings
Ġfast ened
Ġlim ited
Ġconvers ation
er gy
Ġm ort
Ġless on
ĠRic hard
c or
m ind
Ġb ones
Ġe ating
ĠS ara
if orm
own ed
ĠJ er
go ing
ĠJim my
a o
st ep
them selves
Ġcred it
Q u
ri ver
ĠS ec
am ing
Ġst ation
Ġfe ared
Ġbr ain
Ġgr ad
Ġear li
Ġsuff er
Ġintellect ual
is hes
fe rences
ens ive
Ġcommand ed
Ġabs olute
ĠH all
Ġinc ident
hor se
a is
r ounded
Ġpl ains
Ġbl ock
Ġclim bed
2 0
Ġc ities
ist ered
itt ee
ib ility
resp ond
cto ber
Ġw ound
ic ation
ĠM art
ĠH igh
Ġme ad
ig hed
Ġ9 0
Ġburn ing
u ary
Ġt u
Ġre aching
un less
Ġsk ill
Ġo dd
Ġs isters
ĠS and
ĠM on
ĠG ree
Ġcon qu
Ġrec ord
Ġsing ing
l ife
l ock
ad elp
ĠD em
iz ing
Ġfre quently
a ver
Ġb rief
Ġar g
Ġfe ed
St ates
Ġbl ank
Ġafter ward
land s
Ġfamil iar
Ġpec uliar
I RE
Ġl ack
oc r
Ġclose ly
Ġarrow s
G od
H er
Ġn av
um ents
Ġgr ate
ail able
Ġdesp air
adelp hia
f ind
n or
v ation
ĠT err
ĠN E
Ġpro ve
hi b
Ġcol our
Y our
t ter
Ġb ought
Ġun known
Ġbeg ged
ĠChrist mas
m ir
V ery
Ġelect ric
Ġleg al
Ġforg ot
ar ms
Ġshe ll
Ġcont ent
Ġuse ful
Ġhur ry
I VE
Ġmil k
s chool
Ġh oly
ap ers
ĠPer haps
ul f
Ġsoft ly
Ġs our
ĠE X
Ġgr ace
ĠV irgin
b orn
b oth
Ġb as
Ġg ently
ot ing
Ġr ow
ĠY es
Ġpre cious
Ġha m
p hant
z z
ĠS unday
L ouis
O SE
r ate
v i
Ġv ig
Ġal together
Ġcom mer
m b
Ġc aut
sel ess
ĠSt ill
Ġste ad
Ġcol ored
IT H
ĠI I
Ġvict ory
l ow
Ġin cl
ĠL ake
cl am
Ġvis ited
ĠSw ift
ĠLy ons
Ġhe ap
se y
ĠD es
app ro
B r
ink ing
Ġstay ed
Ġfier ce
ĠB ear
Ġpresent ed
Ġremain ing
] .
Ġl amp
os ity
Ġmar riage
Ġvo ices
Ġworth y
b all
d a
Ġse vere
Ġr ail
Ġend ed
Ġadv antage
Ġso ciety
ĠJ oe
Ġpi pe
Ġst ock
Ġeduc ation
Ġhundred s
Ġhon est
Ġst ared
Ġwor st
ance lot
Ġinst antly
bet ween
Ġs ore
Ġl one
Ġst aff
Ġsp end
Ġun able
ol id
ost on
OR Y
cons ider
Ġsatisf ied
ĠY our
ĠĠĠĠĠĠĠĠĠĠĠĠĠĠĠĠ ĠĠĠ
ĠJack son
is her
ag le
Ġpro gress
Ġh oles
Ġn ations
ut s
im s
ĠC he
Ġex cellent
ĠArch ie
Ġque er
Ġsuffic ient
n et
Ġse ll
Ġyoung er
vel t
clud ed
Ġtast e
m ag
m orning
Ġp ine
ord inary
Ġfle et
Ġartic les
ĠD amon
Ġres c
Ġadv ance
T r
t aken
ut ch
tern al
A CH
P r
ĠM aid
ag o
Ġfl ower
Ġpop ular
Ġs in
Ġp ushed
at us
ĠI ND
ĠS im
ĠW izard
Ġwond ered
Ġb urned
ĠC hild
Ġeat en
Ġgun s
Ġvoy age
Ġa in
Ġf ac
an ic
Ġha l
ri er
Ġapp re
Ġarri val
Ġcor rect
Ġthro at
Ġd ig
ĠA ny
Ġse ason
our ing
reat ing
fe rent
Ġjust ice
Ġst retched
ap er
Ġsl ipped
Ġch osen
ĠTh ose
br ary
Ġcott on
es ides
al ing
ag ree
ĠL a
Ġtreat ment
happ y
s ent
Ġf ired
ri ved
to p
C on
f ire
n on
qu et
Ġcl o
unt il
f ell
Ġp up
Ġwor n
Ġbr idge
ĠTh ree
EN D
Ġind ust
Ġconf ess
aj esty
f ull
Ġf old
Ġf ederal
Ġc art
Ġp in
ĠM en
Ġpre c
com ple
Ġrel ations
oose velt
at ory
ĠR oman
ey es
Ġfair y
Ġexc itement
ĠChar les
Ġkiss ed
e av
Ġv irt
ĠMiss ouri
Ġbr anch
Ġtre asure
Ġappro ached
Ġwarri ors
C om
g est
Ġd ull
Ġdo ctor
M ay
Ġst uff
th ou
Ġsp ear
Ġfl ung
Ġacc ident
ĠG wen
ribut ed
Ġsupp ly
Ġinst r
cour se
ĠR omans
be aut
Ġexc ited
Ġlod ge
Per haps
t ow
w ild
Ġp il
Ġp ressed
an ish
Ġpap ers
h tt
w he
Ġl est
ĠC oll
ous ed
Ġsm iling
Ġdes per
Ġexpl ain
Ġjud ge
Ġha te
Ġg ained
Ġim pl
Ġremark able
ĠM ichael
Ġwhe el
ĠSe ward
Ġpict ures
f ly
y right
Ġto day
Ġmount ed
Ġev idence
ĠC le
Ġal arm
Ġneed s
g ive
Ġe re
ĠC our
Ġr ang
Ġk itchen
Ġper formed
clud ing
Ġsuff ered
Ġfool ish
h ome
al so
cept ion
Ġhapp iness
Ġport ion
ot ted
Ġth ine
un ning
um ph
Ġpr ide
Ġcircumst ances
n al
w ord
Ġo cean
Ġm at
Ġup ward
ĠF air
Ġsc ore
Ġaw are
THE R
d irect
k a
p her
r is
as p
Ġbe aring
ĠM ake
ĠR em
Ġbr ass
Ġrem ains
Ġsole mn
ĠThom as
c a
E very
l ished
Ġf il
Ġother wise
Ġcont rol
Ġcap ital
i ation
Ġcle ver
Ġcomplete ly
p ers
y ears
st ead
Ġal oud
Ġbring ing
ĠBe fore
Ġregard ed
ell ing
Ġcon sequ
ĠHe aven
Ġsign s
ĠJe hovah
ge nd
Ġdef end
Ġaccord ance
Ġfal se
le ft
um s
Ġany body
P lease
Ġf ancy
Ġl in
ĠT ur
Ġr are
Ġprep ar
On ce
ĠAf ric
Ġs igh
ĠW ood
Ġsh owing
ond s
Ġgre et
ĠHer bert
Ġincre ased
s ix
v est
re ceive
Ġsha ft
ove mber
ch o
Ġex ample
ĠU se
e ach
Ġbl az
Ġpol icy
sm all
Ġtim ber
Ġevident ly
Ġliber ty
ast y
ĠN O
Ġte ach
Ġact ually
ale m
Ġinter rupt
Ġswe pt
Ġa p
Ġadvent ure
a very
c ut
Ġc raft
Ġmem ber
L ittle
o very
Ġg ay
pr ot
__ __
Ġb at
em ple
Ġmar ch
Ġsupp l
N ay
p en
Ġc ard
ĠS aw
Ġr iding
Ġfaith ful
Ġ ...
Ġd ared
Ġas su
ak s
Ġfa ult
ĠT it
ro p
ri et
ĠM ass
Ġthr one
Ġobtain ing
in terest
ad v
do es
g ly
s k
Ġb al
Ġp ages
as ons
ĠO ctober
ap an
Ġwhat soever
Ġsl avery
Ġkind ness
Ġmer cy
Ġb id
at ures
Ġe ase
am ong
Ġtr ick
an im
Ġwar ning
Ġexp enses
Ġsafe ly
Ġsh r
ĠD id
Ġfair ly
Ġexc han
O S
ĠG reek
Ġun iform
Ġmind s
br ought
3 0
in ite
Ġst age
op er
Ġ4 5
Th us
Ġspec ies
Ġvar iety
Ġsold ier
Ġproble m
olin ayen
l ers
p oss
read ing
Ġprov iding
uri ous
== ==
X X
a res
b ur
w all
to ld
Ġle af
Ġhad n
ĠP aul
su ff
Ġrece ipt
ib olinayen
Ġce ase
Ġda ily
M e
b on
ul ated
ĠF irst
Ġthrough out
Ġfollow s
c are
Ġc ord
Ġc ases
ĠS il
ĠA unt
Ġgr at
Ġprison er
Ġoccur red
Ġa im
ĠL ong
ĠR ose
Ġsha lt
Ġpr ice
Ġdes ign
Ġfr ame
C ont
I B
w ers
is c
Ġd ouble
Ġun l
bl ack
Ġdr ank
ĠSept ember
s ame
u ated
Ġp ounds
al ways
ĠW in
uri es
Ġinterest ed
Ġvers ion
f am
ĠM o
ist ing
Ġaw ful
ĠTH AT
m outh
t urned
u able
iv al
Ġsmall er
Ġdec k
Ġdelight ed
Ġnodd ed
g ment
Ġl aughter
Ġhe sit
ĠM ore
aster n
Ġcontain ing
er ved
ĠD E
ra ham
Ġdirect ed
Ġele ven
Ġperform ing
Ġinhabit ants
2 5
Ġt iny
Ġw ilt
Ġbut ter
ĠGr ace
S h
ĠS k
ĠRed dy
Ġhang ing
Ġban ks
Ġconn ected
d in
r ation
Ġkind s
Ġaff ection
Ġevent s
atur day
Ġy ield
ab s
ist ic
Ġgl ance
Ġrel ief
Ġclim b
Ġinqu ired
om s
Ġg rie
Ġe rect
Ġr abbit
um mer
Ġrem ove
Ġind epend
Ġhor ror
Ġfort un
c er
d raw
Ġin sp
ĠB oston
ĠC al
ĠN ever
Ġj ew
Ġtell s
IN D
Ġfour th
Ġsol id
Ġsav age
H ave
w oman
Ġw ww
Ġm ud
ac cess
Ġwis dom
C har
m ist
en ough
ĠD ay
ĠO ut
Ġlight s
Ġdestroy ed
Ġf o
Ġprom pt
Ġlead ers
ĠPar is
Ġtro ops
ast ic
ĠE ach
Ġper mitted
Ġadm ir
yr am
Ġfig ures
nec ess
s ol
Ġc ult
ĠS us
Ġman aged
Ġperson al
Ġdiv ided
Ġegg s
u ke
Ġt end
Ġb ill
Ġas king
Ġj olly
Ġpract ice
ĠEm peror
arz an
ĠVirgin ia
Ġm ap
ĠL ucy
um es
EN SE
Ġaccomp anied
Ġlone ly
on ce
ow der
im ents
Ġre ferences
ind ing
ĠOn ce
lar ge
Ġb ol
Ġ6 0
A b
S p
Ġf ol
Ġc itiz
Ġst iff
Ġent ertain
ĠCan ada
Ġr is
te xt
Ġgr anted
ĠAnd re
Ġimport ance
s il
ĠR oosevelt
ĠV ol
Ġposs ibly
urt le
Ġn igh
Ġcar riage
Ġce remon
Ġshel ter
U LL
Ġt ar
ri ly
ER S
uff al
ĠSc rooge
K ing
L e
y s
Ġpart ies
Ġ2 1
Ġste el
RO M
Ġmod ern
g irl
en ance
ist ory
ĠL ancelot
os er
iv ity
Ġcost s
Ġprison ers
Ġexped ition
R S
Ġa ud
ar se
le br
ld om
Ġth read
qu ar
aught ers
Ġcomm itted
ĠSo on
Ġcou ple
re ls
Ġf em
at ors
om ed
Ġe mer
ĠD ane
Ġweap ons
Ġl ion
ĠF ore
less ly
Ġtown s
ĠPhil adelphia
bre ak
Ġcab in
or ous
and s
ĠW as
art ed
ĠK ay
com fort
Ġenc our
m o
Ġp os
st ru
ro ck
ĠC y
ab el
Ġcons cious
Ġsound ed
Ġaff ord
ĠFr ank
f ig
Ġc ries
Ġwas te
ce mber
Ġless ons
Ġhun ter
Ġobject s
Ġsp ect
Ġab und
Ġle ather
pl ess
Ġbel t
ĠTh ough
inc ed
Ġcreat ing
hand s
ustom ed
Ġexist ence
Ġg ates
Ġsh one
per mission
Ġdist ingu
bo at
Ġdeg ree
Ġc hat
tend ing
Ġwis hes
g ot
Ġapp eal
Ġco ff
Ġcre pt
Ġeager ly
r ant
in ently
in cluding
Ġp ubl
Ġre ck
ĠS ax
Ġdes ert
Ġgentle men
ter ms
Ġgood s
Ġexp ressed
Ġdam ages
Ġmor al
u x
the a
ĠL ouis
Ġaff airs
Ġpain ted
alt ies
Ġoccup ied
it ol
ĠI II
urn ing
Ġhand le
Ġstr ing
Ġfact s
ĠEx cept
Ġhig hest
Ġassu red
n umber
p iece
ust er
Ġex ceed
ribut ions
Ġimp at
Ġser ies
Ġreg istered
Ġdeep ly
Ġdiffe rence
Ġadm itted
bet ter
E x
a e
Ġc ree
im ate
Ġsh ows
Ġcan oe
Ġcomp elled
Ġsur rounded
Ġpers u
Ġaff air
RI B
Ġf iles
Ġp uzz
ĠT ex
ri ot
Ġown s
Ġrequ est
Ġf ires
Ġex empt
Ġpro ject
Ġad op
Ġrest rict
pro per
Ġcontin ue
Ġg ain
ĠH ad
Ġro ll
ins more
Ġrun s
Ġsil k
Ġweap on
ĠConf eder
d ated
Ġw ra
un s
Ġdis ci
ĠSp anish
Ġmist ake
Ġwhis per
Ġmark et
Ġthorough ly
Ġs orts
us ual
Ġwor ship
ol ves
Ġal tern
Ġpro fess
Ġpre fer
Ġnat ur
t ic
ex pl
Ġatt itude
app ing
pass ed
z y
Ġs ank
Ġc raw
ĠI ng
ul ous
ung le
olog y
T ell
Ġd ying
ac ious
ain ts
Ġor n
ĠF eb
Ġcar pet
Ġri fle
Ġright s
Ġfar mer
part icular
Ġappro ach
m iss
ain e
hen s
Ġra ise
Mr s
Ġnatur ally
c ond
Ġsp ake
Ġpro f
so on
Ġtri al
EM ENT
p ower
Ġd ign
Ġk ings
ĠE v
Ġbec omes
Ġneighb or
O ld
Ġw ing
ĠSt r
Ġunt ill
Ġh ind
ĠB RE
ĠP ort
ĠE le
Ġgr im
li ament
ĠTh ou
Ġsub st
ker chief
ill e
Ġso il
inc es
Ġamong st
coll ection
m oment
y le
Ġm our
se emed
Ġfl ood
pr ing
Ġauthor ity
Ġsp are
Ġgl ory
Ġdri ft
Ġhast ily
ipp i
free ly
T ake
in al
Ġp oured
Ġwas h
ĠP G
Ġli brary
resent ly
Ġequ ally
Ġemploy ees
ha ving
Ġc ousin
ĠF rog
ven ge
Ġbask et
h us
Ġin ch
if ts
ĠM ark
Ġbo ots
Ġste ep
igg ily
Ġs ch
Ġb atter
Ġthan ks
Ġapp ly
Ġget s
Ġcopy ing
Ġche eks
Ġhast e
Ġimag ine
ĠEB OOK
Ġpa used
clam ation
8 0
Y et
Ġy ard
ĠJ ud
Ġret reat
Ġmar ched
pr act
Ġinst ance
Ġref lect
Ġpol itical
Ġthousand s
ĠGer ald
ĠEd mund
IRE CT
a ult
Ġb ul
ing er
Ġschool s
Ġbad ly
ĠBob b
Ġarrang ed
9 6
Ġl it
Ġst raw
ĠDe er
Ġwid est
Ġsolic it
Ġg ift
Ġar ch
Ġar rest
ĠGer man
E lsie
i ants
an ing
Ġl ock
Ġg host
ĠA gain
Ġr ush
Ġsh ield
Ġpl ans
vent ion
app eared
uck y
exp ected
Ġsm ell
Ġlight ed
Ġread able
Ġmoment s
Ġsleep ing
Ġemploy ed
v ir
Ġto ss
an while
Ġh iding
ĠS ection
ct ion
Ġstand s
ĠAb out
! --
p res
Ġf ug
qu is
Ġfl ame
ĠEd ward
Ġign or
Ġrestrict ions
w a
et e
Ġr ice
os op
su ed
Ġwhen ever
es e
ic ated
ĠT ell
Ġas cend
ĠH or
ant a
Ġpass ion
Ġrece iving
OR E
" --
d ed
Ġn erv
Ġr ust
un ted
Ġapp ointed
iss ippi
Ġend eav
war f
p ublic
ĠO ther
ick ly
Ġgl o
Ġhop es
Ġspec ified
Ġisland s
] ."
Ġm ult
Ġr um
ĠW OR
hi gh
Ġsc rew
Ġsw all
A Y
Ġ --
ir med
ad o
Ġnot es
ul s
ul es
ie ved
ĠD AMAG
Ġkn ocked
Ġbl ows
Ġo h
nd ered
Ġf etch
ĠF ULL
ail ing
IG HT
b en
r ous
u it
u gg
ĠA lex
Ġmy ster
AR D
stit ution
rif ice
ĠW ARRANT
Ġde y
Ġab ide
ĠU p
Ġset ting
Ġcr ack
ĠSp irit
how ever
Ġswift ly
Ġeld er
sub ject
ĠDAMAG ES
c ir
u fact
ĠI r
ĠA re
Ġte am
Ġelectronic ally
Ġtri be
Ġinn oc
d ark
ĠS n
ĠN ovember
Ġbel ief
Ġcr ime
Ġform ats
Ġbott le
Ġbelong ed
R Y
S e
w ing
Ġo il
Ġbe hold
iv en
Ġst uck
Ġr ad
ag ger
ĠĠĠĠĠĠĠĠ ĠĠ
Ġprom oting
ĠCom p
istribut ing
Ġtrain ing
ĠJan uary
Pl ain
comple te
F oundation
b ook
f ar
Ġt um
cri ption
ed ge
Ġhe ed
ic o
ĠR ome
Ġwhen ce
Ġpro fit
act ive
Ġroom s
Ġbre aking
Ġlie u
Ġtor n
RIB UT
t ure
Ġf itted
Ġp hil
Ġu gly
Ġshe d
ĠF ort
ĠD IST
---- "
Ġtrou bles
Ġaccomp any
itol au
b urg
ĠL IC
Ġhand ed
Ġpo ison
har p
Ġent hus
Ġconf idence
ĠSp ain
ĠWARRANT Y
Ġc am
Ġst airs
Ġbr ush
Ġrep orts
any thing
Ġsubject s
m al
um ps
tain ing
prov iding
ĠLIC ENSE
Ġt ap
Ġl over
Ġgr in
Ġsw ung
Ġbu ck
Ġaw oke
bus iness
D ear
Ġas h
ab or
Ġkn ock
Ġent ity
com ing
Ġdream s
istribut e
post ed
ĠVan illa
ĠTer ms
. [
e qu
Ġf are
ri al
Ġroy alties
2 3
ri ar
ĠW olf
Ġhigh ly
Ġaw ake
ĠDon ations
n ame
ha ra
Ġb ay
Ġn ational
ĠH ave
em on
ĠK at
Ġfore ver
Ġloc ations
ĠBRE ACH
L iterary
W ARRANT
st ers
Ġmon ster
Ġsymp athy
ĠRoy alty
WARRANT IES
l ay
y et
en es
ac les
Ġr isk
us k
Ġem ail
Ġconst it
Ġwit ch
l or
re f
Ġd oub
Ġv en
Ġex ha
ĠN an
ru ary
tr ademark
vol ution
Ġavo id
Ġcomput ers
y es
re ceived
er a
st ate
Ġse es
up id
Th ou
Ġdam age
Ġeng ine
Ġgaz ed
Ġur ged
Ġdisclaim er
Ġst ret
ĠW il
ĠW iggily
Ġcan oes
Ġexp ense
Ġind ign
cop ying
ĠAG REE
ĠDIST RIBUT
8 7
a wn
t ra
st ri
ĠD al
ĠD insmore
Ġnight s
Ġscar ce
Ġrelig ious
O ur
z ed
Ġde eds
Ġreturn ing
ĠSp ec
Ġmur der
LI AB
Ġimm ense
ĠW ITH
Ġran ge
L icense
g ave
m atter
ĠB uck
ĠD el
Ġapparent ly
Ġkn ee
Ġcom r
arr ison
ĠDan es
rill iant
Ġr ank
us alem
Ġfore head
Ġprop he
Ġce lebr
ĠApon ibolinayen
p i
p at
ĠS now
Ġr ic
Ġim per
com mon
ĠInd eed
Ġlist ening
A m
d one
Ġwe pt
T wo
on el
Ġre n
Ġsome where
inc re
Ġass istance
str ong
ĠRo ad
ĠColumb us
IB ILITY
r at
Ġs alt
ĠA h
Ġne at
ĠN at
gl ass
Ġpri ze
orm ous
U p
e enth
m aking
t own
ha ri
ĠS ometimes
Ġout er
ines e
eth od
Ġsn ake
Ġty pe
L ewis
Ġa unt
ĠB ishop
app ear
ĠST ART
heart ed
in ent
ol en
Ġsatisf action
Ġexerc ise
P eter
g reen
ĠH im
Ġcl ub
Ġper man
Ġper ceived
ru ce
Ġinv ited
M ar
h undred
m od
Ġw ave
an ed
ĠB O
fe et
Ġevery where
Ġatt acked
Ġdepart ed
t rees
ĠT arzan
ard on
Ġpart ly
f air
ĠL ook
ha med
Ġg ri
ĠM ac
ag g
op en
Ġro ar
Ġsee king
old en
Ġstr ict
Ġdisc overy
Ġpray er
Ġ z
in ally
re v
ĠW H
qu ent
ut ions
Ġtr ack
Ġsum mon
J ack
ou ch
ĠS al
us hes
be gan
Ġprop ort
ĠDan ny
Ġgovern or
Ġslight ly
ois elle
Ġbuffal o
Ġt empt
Ġp ond
Ġin sect
Ġfin al
ĠDe cember
9 7
Ġp ool
ĠA g
Ġinst inct
Ġval uable
S m
Ġg e
am in
ill ing
Ġam use
Ġmar ks
Ġtri p
Ġmil itary
ĠTra vis
w est
ĠL ok
ĠD ec
Ġlike wise
Ġsec ured
Ġcr im
Ġrest ed
Ġste ady
bu ild
Ġhen ce
Ġestab lished
b al
g one
Ġd aughters
ec han
Ġcomp osed
Ġch oice
Ġco pper
Ġexper i
Ġcomfort able
' .
c ur
Ġd ancing
Ġth inks
ĠD addy
Ġwho lly
ig er
Ġsha de
de rer
Ġsw amp
adem oiselle
L D
w ife
ĠP smith
Ġsha red
Ġtrou bled
Ġbeat en
h un
k i
er ness
im m
ul ating
ĠO N
ru b
Ġ18 4
sh ine
Ġw alks
Ġs ne
le e
Ġsha king
Ġpr im
Ġass ist
) (
an z
ri ve
Ġse z
Ġsp ark
Ġvan ished
ĠJac ob
ĠFeb ruary
Ġ ess
Ġh omes
ir ds
ĠS U
ĠM ead
Ġpl un
Ġsha ke
Ġcr icket
Ġpri ests
Ġsign al
ĠFr anc
Ġdev il
Ġdisplay ed
e f
f ish
o pping
w in
Ġs cient
Ġf ed
Ġh oney
ĠM onsieur
ĠP ho
ĠW ind
ant her
ort ing
ĠSt one
row s
Ġwa ist
Ġlear ning
Ġide as
Ġresp ons
Ġl iter
qu ite
Ġhar b
Ġte le
AR K
Ġdam sel
Ġrecogn ized
Ġneg ro
Than k
A d
ĠB oy
ag ement
Ġno on
per haps
sp read
Ġtrem bling
Ġha bits
st ra
ver se
ri fic
ĠS her
Ġbus h
ĠAn thea
Ġfun ny
l ove
Ġc unning
ĠĠĠĠĠĠĠĠĠĠĠĠĠĠĠĠ ĠĠ
ĠUn ion
Ġcor respond
ic ted
Ġu seless
ĠA R
pr ise
Ġappro aching
IC E
Ġm ental
or ter
as ked
ĠMiss issippi
p ol
t aking
Ġa pe
Ġo x
ha w
Ġc ake
Ġd anced
ĠW al
Ġal ter
Ġsome how
Ġfl ash
ĠĠĠĠĠĠĠĠĠĠĠĠĠĠĠĠ Ġ
Ġreason able
Ġmurm ured
R ight
p ret
Ġp ier
ĠH am
ne ed
ĠBl ue
Ġutter ly
F air
d ep
h ill
Ġd ed
as ped
ĠS erv
ĠF ROM
.' "
5 7
P R
Ġto t
Ġan ch
Ġse ldom
Ġ3 2
ĠB esides
Ġen ergy
Ġhor rible
ĠTr ot
ĠRE AD
cher s
Ġsuc ceed
ĠDown ing
Ġt in
ĠM abel
Ġso cial
Ġar ise
Ġsl ip
Ġgl anced
Ġtri bes
Ġinvent or
l oc
Ġd ish
oo p
ĠL u
Ġcon cluded
Ġde ed
Ġsome body
Ġcha se
Ġaw a
Ġfr ag
ĠDo ctor
Ġsuccess ful
Ġder ived
Ġcott age
Ġfirm ly
Ġaston ished
ĠMag ic
C ol
V EN
i ge
Ġs addle
Ġg ames
Ġcut ting
Ġsuff ering
Ġadm it
e ight
Ġal t
Ġle gend
cl ose
Ġcount enance
day s
Ġtra p
Ġconst antly
po int
ĠComm ittee
V ER
W N
ĠT w
te enth
Ġper f
ful ness
Ġref er
Ġele phant
B l
l au
p ast
er k
ch in
yram id
r am
ear th
Ġj ar
uten ant
Ġdist ress
wh ole
Ġriver s
ho le
Ġdel iver
ĠNor thern
Ġhung er
l est
Ġ" _
Ġpo le
con f
ES T
Ġrel ated
Ġpol ite
Ġpres erve
Ġneighb our
vis ion
Ġearli er
' -
O r
Ġha ted
il ty
Ġab road
Ġyoung est
Ġdel ivered
Ġtrans l
........ ........
c ross
se a
Ġse as
Ġsh ock
ĠL ike
ond ay
Ġcoun cil
Ġorgan ized
Ġextra ordinary
Ġdar ling
U L
Ġs ighed
ac co
ĠH onor
el f
Ġpl at
so le
Ġob st
Ġreg ret
Ġmaster s
Ġprot ection
Ġdut ies
Ġabsolute ly
re ck
Ġd ashed
ri a
ĠA T
Ġpol ice
Ġrelig ion
Ġdepend s
ac ity
ĠS aul
ĠP ut
Ġmy st
Ġsword s
Ġclo ak
y ard
Ġd ried
Ġp atter
ĠS aid
ree ze
Ġcl ock
av al
Ġ186 2
ĠTerr an
Ġt ide
ou ched
Ġbe ard
ĠS alt
ul ted
ab ove
we et
Ġpr int
Ġapp le
Ġem b
ĠTo ad
Ġtri umph
Ġsix ty
kn ew
Ġc attle
ĠH A
Ġr ude
Ġviol ent
beaut iful
U D
i el
ĠI m
al ong
Ġst icks
Ġint ent
ĠSp ani
ĠDe ath
Ġcapt ured
Americ an
P LE
re ason
en ch
ĠH ill
Ġown ed
Ġter rit
Ġdr agon
ĠSc ar
ĠWh ich
overn ment
Ġviol ence
Ġwed ding
Ġcommer cial
V I
g s
Ġj ungle
av y
Ġwr it
Ġhel pless
Ġsac red
Ġcand le
Ġt ear
Ġn aked
le ts
Ġnot ed
ĠH ol
Ġen ormous
ph one
ia h
Ġint ention
Ġplain ly
Ġgrow th
oper ation
i pping
Ġ rom
he red
Ġo ak
Ġin form
Ġin ner
ur ate
ĠM ajesty
out side
ick en
ĠEl iz
OO D
hap ter
necess ary
P ar
Q U
d ie
Ġc her
ir rel
ĠB al
ĠB art
ĠP ers
ĠD un
Ġgr ows
Ġun fortun
Ġche ek
Ġprop osed
Ġ186 1
hr onsie
M P
ĠR ou
Ġam b
Ġ3 3
Ġut tered
eal ous
Ġconn ection
Ġadvent ures
ĠApon itolau
Ġcontr ary
Ġmagn ific
ĠJew s
Ġne arest
ĠCh inese
Ġte aching
Ġreal ized
Ġill ustr
Ġloc ked
Ġdeterm ine
l im
re p
it z
Ġpl ants
Ġag ent
end ous
Ġpursu ed
step s
ĠCy ril
ic ing
ĠC ha
ĠG aw
ĠF our
hi re
Ġbec oming
ĠIn ter
Ġdisc har
Ġreturn s
Cl ock
Ġconcer ned
Ġquant ity
Ġgrad ually
Ġw uz
Ġs illy
Ġre ar
ĠS en
ĠW all
Ġcon ven
wh y
Ġstri king
Ġconst ruct
Ġnur se
h on
n ear
Ġw ake
ul a
est ic
ĠR ock
Ġfollow ers
Ġimp ression
Ġem br
app y
idd ing
ĠCour t
P roduced
b ott
ĠC or
ast ed
Ġres ults
Ġturn s
Ġcalcul ated
Ġb owed
Ġp ause
op ing
Ġman age
Ġro ot
ple asant
Ġwa x
Ġjud gment
Ġshad ows
Ġenjoy ed
ĠEurope an
ic ine
st re
Ġas hamed
ĠM ad
ore s
ight ed
ab led
Ġmay be
Ġch ose
Ġ18 9
Ġdrag ged
B ecause
I F
f a
t able
v ar
Ġh ut
th r
th ren
ĠP an
Ġab and
Ġind icate
Ġadd ressed
Ġwonder ing
Ġrepresent ed
ĠScot land
d ro
Ġt al
Ġb und
Ġp ace
Ġl az
Ġth ither
ĠT emple
ect ing
el ed
atch ing
Ġcons ent
Ġgu ests
Ġcoll ected
poss ess
re land
an or
ac he
ount ain
Ġang el
Ġsuper ior
T LE
c ase
Ġb ath
ĠM ouse
ĠB urg
itt y
Ġfe atures
de ad
IN C
ĠBill y
ĠGovern or
Ġc reek
ot es
Ġwas hed
oo f
ĠC ab
Ġacc ustomed
og s
Ġ4 0
Ġclass es
ĠIsland s
j ud
l ad
Ġret ired
Ġhor iz
Ġexam ined
Ġlean ed
Ġdesper ate
5 0
S c
c ked
m is
Ġn arr
Ġbe ach
Ġth irst
ĠA ng
ĠH aw
ĠC a
ĠC ast
Ġshe et
hi ps
Ġlo ving
Ġvol ume
Ġdev oted
Ġfamil ies
ed y
ion n
ĠT ake
ir by
Ġst yle
Ġst olen
Ġfl our
ĠAs he
br idge
Ġav ailable
ĠEgypt ian
Ġann ounced
Ġbless ed
Ġfol ks
e re
Ġs en
ay ley
Ġdis k
Ġcha in
Ġdri ving
Ġcrowd ed
Ġcuri osity
hum an
ĠAfric a
Ġpro c
Ġgl orious
cri pt
Ġcent re
Ġmis erable
yn asty
Ġsepar ate
oint ment
consider able
Ġresc ue
A K
Ġc ock
ĠS ol
ĠH aving
Ġcount y
ĠTom my
Ġnecess ity
ĠNot hing
Ġabs ence
Ġmiss ed
ĠHar ry
sat isf
ĠWin ona
Ġnerv ous
Ġperman ent
F ig
b ol
d aughter
g row
an ks
Ġhe d
ĠB ig
Ġqu al
be hind
On ly
Ġcontain ed
tw enty
Ġvent ure
P T
f ellow
m at
Ġt ext
Ġs cience
Ġha y
Ġbe held
Ġst ated
Ġst upid
ĠM oses
ĠC orn
ol ved
ĠE s
Ġrem ind
Ġsur re
Ġrec overed
OU ND
Ġtu be
Ġinstr ument
Cont ributed
v ious
ay ed
ang le
uc ked
let ter
Ġfish ing
Ġinterrupt ed
ĠW oman
ast s
Ġsp in
Ġstr angers
rew yer
Ġhouse hold
Ġwind s
Ġinf ant
Ġanx iety
Ġpurcha sed
E d
Ġf ears
Ġd oth
ĠR ail
Ġpo inting
Ġdirect ions
co at
Ġextreme ly
ĠJer usalem
b est
EN CE
ĠAn n
Ġheav ily
Ġwarri or
re al
ĠI ll
Ġr at
Ġman ners
Ġartic le
hib ition
f les
Ġo d
Ġb rilliant
id ity
Ġfor ces
ĠS aturday
ĠH el
Ġso b
Ġun happy
Ġref use
Ġdel icate
Ġ6 4
Ġmur derer
Ġcoun sel
Ġcitiz ens
c ing
f re
ut ive
ĠP at
ĠĠĠĠĠĠĠĠĠĠĠĠĠĠĠĠ ĠĠĠĠ
Ġper il
oun ce
Ġobser ve
M ost
] ,
Ġre tain
ĠA li
Ġfe ver
Ġcl oser
Ġoff ers
Ġcr itical
Ġsusp ic
wr itten
ĠIr ish
ĠPho en
c row
p it
Ġs ou
Ġf ain
or ation
Ġgr ain
keep ing
Ġpun ishment
-------- --------
Y ea
l ord
r ain
Ġa ck
Ġl ap
ĠD uring
Ġpl ates
cc ord
Ġwr ath
Ġconf irmed
Ġimag ination
Ġpursu it
Ġgather ing
Ġmam ma
2 6
ĠS ince
Ġpro spect
Ġtr ace
sp ec
Ġdest ruction
Be fore
Ar ch
ĠFar mer
Ġphil osop
2 4
b ox
s a
Ġm ock
ent ial
ir ie
Ġst ole
ĠC am
Ġcom ment
Ġbr id
ick ing
ru ly
str ous
Ġdem on
Ġcapt ure
s per
Ġ x
it ic
ar ound
Ġst aring
ĠM ason
Ġim age
Ġ18 7
ens ed
ĠAs ia
Ġconf usion
cap e
Ġut most
ĠPe ople
ĠMexic an
Ġl ift
ĠT own
al a
ĠP ol
pl ain
Ġthen ce
con st
su ccess
nat ural
Ġconsequ ence
Ġack now
E n
b ably
as per
se veral
the e
ĠB ert
ĠP enn
Ġro be
Ġthr owing
Ġ18 3
gr ace
Ġproper ly
Ġneighb ors
O H
y ear
ĠS ch
ind eed
Ġman ufact
Ġlight ly
att les
Ġexc use
Ġow ed
w ed
Ġp aint
Ġhast ened
Ġcap able
Ġquar rel
Ġpubl ished
v als
Ġbl ade
Ġhor rid
Ġappl ied
Ġdevelop ment
ĠAlex ander
N e
ie ves
Ġpass engers
Ġpresent s
Ġed ition
tr ans
Ġhist or
Ġmix ed
Ġw olves
Ġb er
Ġd uck
ĠS E
ĠC ould
Pro fessor
r ical
w it
Ġwe eping
ge on
os al
ens ion
ĠYou ng
Ġpur ple
Ġins isted
Ġconv inced
B rit
d est
r ather
Ġhe els
ĠS ent
il ities
od ore
Ġhand kerchief
Ġsc orn
Ġlim bs
Ġdescri ption
ĠRuss ian
Ġassem bled
ĠBobb ie
G E
b ene
p osition
Ġb ars
at in
se ven
ra h
Ġ( "
ĠSt reet
Ġcomp ar
Ġreg ion
ĠAl an
Ġfear ful
Ġarm our
medi ately
ĠCar ol
Ġve get
hara oh
c over
t ts
Ġto re
ot hes
Ġbe ars
Ġj ob
ret urned
by e
Ġact s
Ġfin ish
Ġinterest s
Ġgaz e
Ġwand ered
I X
g entle
Ġp ir
Ġh osp
Ġe agle
ach use
Ġsm art
Ġ3 6
let ab
Ġrock y
Ġclot hing
keep er
ĠPe pper
Ġhal ted
achuse tts
E l
P hil
ha b
Ġm ood
an tern
ĠA ss
ĠH IS
ak ened
ND ER
cons cious
Ġpract ical
Ġty pes
Ġt itle
Ġw estern
Ġg a
ic ip
ĠC op
ag s
ĠW ater
Ġal ike
ĠE ND
Ġcl ay
Ġpass es
og er
Ġsong s
letab ille
s n
s un
Ġto mb
wh om
Ġlight ning
Ġcol ony
Ġtax es
Ġmid night
Ġcre ation
d istance
l ist
s ince
z ing
ha st
ut ation
Ġj ack
ang erson
ĠV er
Ġstrong ly
Ġinv al
ĠCan oes
ĠCount ry
G reat
ĠG reg
Ġbr ow
alk ing
Ġread ily
Ġinqu ir
Ġaccompl ished
ĠLok i
2 7
t ri
ĠA pp
ĠH u
ĠH art
Ġgu est
Ġstrong er
Ġfle e
Eng lish
2 8
g iven
is l
Ġf aster
ll a
ly ing
al f
ĠS y
ĠD IS
ĠJ on
ang led
Ġcol ors
Ġbur nt
Ġattempt ed
Ġdepart ure
htt ps
w onder
Ġ ing
it ure
Ġc u
ĠH ome
ĠB ro
Ġro lling
ob ody
Ġlar gest
Ġvis ible
ograph y
Ġmagn et
Ġestab lish
Ġimpro ve
Ġwra pped
Ġis sue
ber ry
Ġcomp ass
Ġdet ails
ĠSig urd
Ġstead ily
p oses
Ġp ink
ĠD irect
Ġtr unk
Ġli qu
for ward
Ġfl ow
Ġsur round
Ġprop riet
Ġmyster ious
c all
Ġo ath
ant ing
cl us
Ġper for
Ġglad ly
Ch rist
Ġmead ow
Ġfem ale
ĠServ ice
ĠSpani ards
g ener
z es
Ġg oose
br other
Ġsun shine
Ġint ense
Ġmess enger
Ġpra ise
Ġincl ined
Ġappre ci
4 0
Ġw ives
Ġm ild
an a
ion ed
Ġas ser
ĠS lavery
Ġse lect
ĠP hronsie
Ġde emed
Ġfl ames
Ġpre y
Ġinter view
ative ly
Ġpray ers
o ked
Ġt yr
Ġo Clock
Ġp hot
ĠI S
ĠH ans
ul se
op ed
ĠD ave
Ġag es
Ġwr ought
Ġgu ilty
Ġfur y
Ġcent uries
even ing
Ġsepar ated
upp ose
b ury
ĠI reland
ac ross
ĠC ame
ĠĠĠĠĠĠĠĠ ĠĠĠĠ
Ġv ague
ĠL hari
Ġj ealous
Ġcl aws
Ġcall s
Ġland ing
ins on
Ġground s
Ġacqu aint
Ġstir red
friend s
Ġf anc
ut ter
ĠS ix
Ġshould n
Ġfriends hip
head ed
Ġcor por
Ġstat ement
Ġsac rifice
opp ortun
h our
Ġt ones
en ned
as ions
om in
al og
Ġst ored
Ġup right
Ġcon clusion
ĠSt ep
ax im
Ġshort ly
vill a
2 9
A gain
c reat
Ġc ra
if ted
ard ed
od ing
Ġun usual
Ġbet ray
Ġch uck
Ġsw am
Ġrep ro
fect s
Ġappear ing
AL L
Ġpit ch
Ġham mer
M other
M any
Ġh olid
Ġbe ating
am o
Ġsp ort
Ġchar ges
Ġvis ion
Ġmove ments
Ġband s
Ġhero es
char ge
sec ond
ĠEar th
G ive
a ac
b ear
f ight
f av
h ouses
Ġ :
Ġw retched
Ġb os
Ġm a
Ġm ajor
Ġre v
oo ped
ĠP et
ru g
ition al
Ġneed le
ug ged
Ġlo aded
Ġstart led
Ġcur tain
arr in
Ġru in
ĠColumb ia
Ġof t
Ġm ing
Ġd ug
Ġp owder
Ġun eas
Ġdown ward
Ġch in
ias m
follow ed
enned y
m ethod
Ġb ite
it ated
Ġcon fl
cl osed
Ġdes k
ian o
fort une
ĠCl ark
Ġsour ce
N ew
f r
ĠA then
ill er
Ġse ed
Ġex ists
Ġres istance
rem ain
Ġaston ishment
ĠFore st
R AD
e le
f old
ll is
Ġp ile
Ġre new
ĠB oth
ag ing
ind er
Ġcl ad
Ġsome one
Ġinst it
Ġco al
Ġnor thern
Ġbre thren
Ġquar ters
F ather
b ird
ur ther
Ġour s
Ġsecond s
Ġcond itions
Ġcult iv
! )
O D
j our
Ġf ame
Ġp an
th ousand
em n
Ġste al
Ġra ft
ĠSam uel
Ġinnoc ent
Ġb orrow
om b
Ġe cho
ĠM a
art s
ĠK night
Ġdec ision
Ġdr unk
Ġgrand father
Ġhorn s
ATION S
C aptain
h ope
t em
in formation
Ġw aved
Ġc ared
ĠI van
Ġre ign
Ġat tended
Ġsh rie
ĠF e
Ġpl ague
ĠJ ul
ud der
Ġover come
orn s
Ġsc ra
Ġfin an
Ġview s
Ġmist aken
Ġborn e
Ġthreat ened
Ġax e
t le
v y
Ġf iew
ĠB ible
ĠN ap
de ep
ian a
Ġimp ress
ĠThere fore
ĠJohn ny
Ġprod uction
Ġnecess arily
ĠMount ains
ill ings
if ully
um per
Ġpre ced
Ġbo ot
Ġext rem
Ġview ed
Ġshout ing
reg ular
van ia
Ġceremon y
ir s
ĠM us
Ġex tended
ĠV ill
ex per
Th ose
off ic
L ord
R ob
T ON
e ase
p in
s im
nd ed
it ter
ĠB uffal
Ġro d
Ġsk ins
ole on
through out
dif ferent
Ġintellig ent
Ġpatter n
ol ate
um in
Ġrec over
Ġlo ad
Ġstart ing
ĠGr ay
Ġenc amped
C ar
Ġ ----
Ġs ack
Ġl os
ĠW he
res pect
ry n
de v
Ġair ship
ĠAd d
mp ire
Not hing
every thing
Ġann oy
Ind eed
Ġdefe ated
ĠSim on
N OT
ha er
Ġto morrow
Ġp ardon
ab b
op es
Ġj un
Ġfind s
ĠAmeric ans
Ġdign ity
R oss
r ot
er al
Ġst or
her self
Ġimp osed
ĠSh ort
sy l
Ġwand ering
Ġeld est
ĠMart ha
ĠGree ks
" ,
s al
ĠS hall
ĠB et
ĠP anther
Ġr av
ĠF ull
ĠN ight
ĠO din
Ġbel oved
ott on
Ġrest ored
ĠAn other
Ġpal m
Ġcomple ted
Ġexam ination
chan ce
Ġerr ors
ĠRep ublic
E ven
L ES
h ur
ed ing
Ġ3 8
Ġbar n
Ġbuild ings
Ġexam ine
ĠFranc is
v ald
ou gl
Ġbe ads
Ġfor bid
and ed
qu es
ĠL ight
Ġwr iter
Ġexc ess
Ġobey ed
ĠOz ma
Ġpuzz led
ĠPort ug
p age
Ġto es
Ġha w
ad ers
with standing
Ġdr owned
Ġbig ger
there fore
ĠMel ville
m ark
p oor
Ġa ver
Ġc ong
Ġm echan
Ġfor k
ĠB UT
ne ighb
Ġbene fit
Ġdrink ing
Ġloud ly
Ġcolon ies
ougl as
i que
Ġp ush
ĠP ublic
Ġher d
ĠR ich
Ġfl ies
per form
ult an
Ġhop ing
bec ame
Ġkill ing
Ġsad ly
eff ort
bro ken
P H
Q ue
f olk
m us
Ġp ed
Ġre asons
ĠB ook
ĠP age
ĠC ivil
ress es
Ġsn apped
Ġeffect s
ĠFair y
OH N
syl vania
B ook
s leep
t ail
Ġm ob
Ġbe ings
se quently
ĠS ar
ĠF ionn
ĠD rewyer
Ġmar ve
uc ks
Ġpray ed
D E
Ġt ip
har m
ons ense
ĠShe en
Ġ3 5
ĠUn less
Ġint roduced
Ġcor rid
Ġrul er
imp ort
Ġgaz ing
Ġsav ages
Ġrub bed
mir al
R AP
f ew
Ġb one
it ives
ĠL ife
Ġcon vey
Ġab ility
Ġcont ro
con om
Ġwild erness
Ġroad s
ze vir
Ġdef inite
Ġexcept ion
Ġdam aged
istribut ed
ĠTit anic
l antic
v oice
Ġc ows
ar ks
le ton
Ġg ifts
ri bly
ĠB ruce
em an
ig s
ĠJ ones
ne ath
Ġcha mp
Ġ19 0
bel ieve
Ġincre ase
Ġeduc ational
ĠBen j
proper ty
ĠPhoen ix
p ite
Ġb ond
Ġf rog
Ġm ouse
ĠC ow
ul ate
ĠN a
Ġro bes
ord ers
Ġpr on
with in
Ġimp r
sh ort
Ġrepl ace
pro d
Ġvirt ue
U M
s ure
Ġs way
Ġg ross
Ġwe aring
Ġle nd
Ġsc he
Ġbeg gar
Ġgu ards
Ġinv est
Ġmis ery
Ġstro ke
rif ied
Ġdescend ed
P e
s lavery
re ached
ĠĠĠĠĠĠĠĠ ĠĠĠĠĠ
ĠL au
ĠE st
ress ing
Ġlad s
Ġbow l
Ġwid ow
Ġaud ience
r d
Ġt urtle
it ud
Ġl ic
ĠB Y
ĠB udd
ind ividual
Ġsp ell
Ġtw isted
cl ass
ne xt
Ġvo id
Ġinclud e
ĠAb raham
Ġid le
Ġsurv ive
Ġexchan ge
Ġterrit ory
S uch
Ġt ie
Ġd az
Ġin tend
Ġl ately
if ies
Ġcon cept
ak ers
ĠHe ad
Ġbl ame
Ġchan ges
Ġdeep er
Ġarri ve
ĠRe volution
ĠAm ong
A ND
M ike
t ill
w ords
ĠP ri
ĠG ar
Ġdo ct
Ġ1 00
od es
ph r
ex c
Ġwar ned
Ġsub s
ony m
Ġrob ber
Ġdistingu ished
g age
ĠS pe
ĠP haraoh
Ġare n
end ing
Ġ3 1
Ġdoor way
Ġbro ok
Ġinv is
Ġcover ing
Ġacqu ainted
Ġcow ard
Ġdistur bed
k yn
ed nes
ic ient
id ly
Ġre ndered
ra ising
Ġkn e
bl ood
Ġch im
de ath
ĠSo ciety
Ġserv ices
Ġsy n
Ġmis chief
Ġdiam eter
" ;
S ON
b urn
ac ific
Ġwe ep
ĠP art
Ġme as
Ġform ing
Ġcol umn
Ġconf irm
Ġstud ied
Ġsharp ly
Ġfro st
R alph
ĠB ay
Ġdo st
Ġfl ashed
Ġgood ness
Ġref uge
Ġhum ble
ĠNot ting
ĠMexic o
N ESS
ĠM ost
ĠC ayley
ry kyn
Ġbeg ins
ertain ly
Ġpar all
part y
Ġchief ly
An other
, -
V ID
b ad
e at
p ir
s old
u ish
Ġf ulf
ĠI V
ĠS an
Ġis sued
ĠM oon
ĠCh ina
Ġrest ing
Ġdevelop ed
contin ued
Ġproport ion
d ra
k illed
w elt
Ġm axim
or a
Ġwh ip
ec hes
Ġshe pher
ĠO wn
Ġthere of
Ġcan non
Ġact ed
Ġlay ing
ĠTra villa
Ġcheer ful
Ġmut tered
Ġsch ol
Ġmagnific ent
ednes day
) ;
H aving
l ive
p ic
he m
Ġb on
Ġun ion
Ġmar ble
my self
Ġchar m
Ġdec ide
Ġsle nder
Ġdoubt less
Ġearnest ly
Ġconce al
ĠUnder ground
er o
Ġse am
od d
Ġcl am
Ġevery one
gg y
Ġmon strous
cri bed
ĠĠĠĠĠĠĠĠĠĠĠĠĠĠĠĠĠĠĠĠĠĠĠĠ Ġ
Ġstri p
Ġvill ages
Ġstat ements
Ġinstruct ions
ĠKat y
Ġfinan cial
C L
I AL
V II
g t
Ġa st
il st
Ġfound ed
Ġed ges
Ġmill ion
Ġsuffic iently
Ġpup ils
r an
Ġ vel
Ġf ow
Ġto ler
Ġd warf
Ġl at
Ġth ir
Ġy onder
ĠC ur
Ġr ushing
ag ues
ĠF ields
oy ote
Ġwhere ver
ip ed
ex cept
Ġlo ves
tern ational
ett le
ĠPar liament
2 1
D r
f elt
t imes
Ġb reeze
Ġm al
se tt
Ġy o
al ready
ĠM ine
Ġtr ump
Ġco ach
So on
Ġlad der
comp an
LI G
ĠCap e
Ġflo ating
s qu
Ġs ection
Ġth ief
Ġnew sp
Ġem otion
Ġbur den
Ġdelight ful
Ġgall ery
Ġscream ed
Ġhesit ated
Ġcomr ades
Ġplat form
3 4
R o
r age
s ight
Ġb ough
Ġas pect
Ġst opping
ĠM ademoiselle
ĠD utch
ap a
Ġun expected
Ġint rod
Ġinter ior
Ġinclud es
Ġdream ed
Ġmiss ing
Ġsevent y
Ġdeser ted
ĠMass achusetts
E LL
N ed
h orses
m ans
p erson
Ġf ence
Ġc y
Ġm orn
Ġto ols
om ach
Ġas hes
ĠD om
ass istance
Ġres ist
Ġ3 7
Ġhop eless
Ġunderstand ing
Ġmod ified
prot ect
Ġsou ls
g re
Ġp isto
Ġl ux
Ġg ap
Ġwh irl
ĠB haer
ĠW ould
Ġun ivers
ĠIs aac
Ġca uses
Ġaccept ing
Ġbitter ly
ĠChild ren
ĠWOR K
cir c
m oney
st ud
ĠT ree
ĠP apers
Ġv ac
ĠU pon
Ġexp osed
Ġspec ific
Ġsupport ed
Ġeight een
Ġpra irie
Ġfurn ished
Ġenthus iasm
Ġplun ged
Ġneighbour hood
ĠDIS C
, [
r ace
s ound
ic a
ĠT ar
ĠL aw
ĠD arrin
Ġab rupt
Ġtw ink
og ue
Ġact ual
Ġcle ared
cle ar
Ġsun set
Th ree
Ġloc al
Ġbelong ing
Ġvict im
ID ENT
Will iam
ĠEB ook
ĠCON T
C hapter
c est
p se
Ġf isher
ĠM il
ĠC oun
Ġal armed
ĠO THER
Ġpe ep
Ġread er
Ġrel atives
ĠDr agon
Ġindic ating
dif fic
A IN
c ity
ĠH oly
ĠP AR
Ġwill ow
Ġfl ock
Ġri val
Ġexp end
Ġmar vel
Ġsk etch
Ġrec all
ĠSc ott
Ġdef ence
Ġfif th
Ġpat ient
Ġaddress es
ĠBab a
ban ks
Ġadop ted
Ġexha usted
n am
p arent
Ġthe ory
an ag
-- '
Ġsh oe
Ġno vel
Ġdis gu
de f
Ġheart ily
Ġind irect
ĠAn na
Ġbold ly
Ġf et
ĠG re
ĠG ive
Ġwor ry
mer ston
Ġpur poses
ĠNo ah
IL D
pre p
Ġconc ern
Ġpat ience
Ġfail ure
ik i
Ġfavor ite
Ġident ify
Ġbos om
onym ous
n el
in th
ha ir
Ġp uff
im mer
Ġsp ears
Ġun like
Ġbl oss
ey ed
Ġmon arch
Ġbed s
sc ar
ION S
Ġaccord ingly
udd y
Ġdisapp ointed
Ġprinci ple
Ġheaven s
Ġdifficult ies
comfort able
Ġprof its
Ġmyst ery
o ard
Ġp udd
os h
Ġpro sper
Ġres umed
Ġfour teen
ump ed
pre ted
Ġbag gage
fall en
Ġow ing
Ġteacher s
Ġconqu er
ĠGreg ory
e ep
i able
o an
x ed
id ers
al one
Ġre nder
ĠS anta
el a
reat h
ĠN early
Ġen chant
Ġact ivity
Ġsil ently
ĠGod s
add in
Ġsum m
Ġcry st
Ġmethod s
Ġpil ot
U ND
b acco
d rew
e rer
m ill
p ossible
Ġm oss
Ġd welt
as hes
ĠB uster
me et
Ġhold s
IT TLE
Ġrecogn ition
leg raph
Ġlean ing
contin ue
Ġgrate fully
ĠIng red
stra ight
Ġc ure
Ġd irty
st ory
ĠC ook
ĠĠĠĠĠĠĠĠ ĠĠĠĠĠĠĠ
Ġal ien
os c
Ġper ceive
ĠSt angerson
Ġsc enes
wh ose
Ġaw fully
Ġmed icine
Ġexper iment
Ġclaim ed
c orn
Ġa pt
Ġf oe
ar atus
Ġn inet
ay ing
ro s
il ight
ĠM onday
Ġso vere
ect ure
Ġhar sh
Ġran ks
Ġmin ister
Ġcoll ege
Ġpen et
Ġsens es
eff erson
ĠJo el
Ġshoot ing
appro ach
agree able
L ong
V ol
n ce
Ġf und
ĠS uddenly
Ġpl anted
Ġsle w
Ġconf ident
Ġca vern
Ġdet ach
Ġgard ens
Ġrul ed
Ġpriv ile
Ġtrem endous
mount ains
Ġsettle ment
Ġadmir ation
ĠFrank lin
Ġsubst ance
Ġalter ation
ĠNap oleon
? --
F irst
_ "
n um
s ometimes
Ġm ast
ic les
em p
ĠJ apan
bl er
Ġpur se
Ġtrem bled
leg s
Eng land
= :
O P
V III
v ous
ed dy
Ġf aced
Ġd aring
ur red
ĠM ER
ĠC ross
ĠW ILL
ĠD ate
Ġcon vert
iv ities
Ġsha ring
Ġad just
ĠSt ar
Ġsw ear
pr ison
Ġra ising
Ġhun ted
ĠAnt ony
urs day
Ġdefe at
Ġmort al
Ġgrat itude
m osp
Ġ iv
nd ing
Ġto ps
ĠS it
em pl
ĠD ouglas
Ġab ode
ĠCh uck
Ġrec oll
under stand
Ġcoll ar
when ever
Ġpull ing
Ġsail or
Ġimpl ied
incre asing
w omen
oo s
ĠC han
os ure
Ġcop ied
ute ly
Ġfat ig
Ġcoun ter
ĠTe am
Ġintellig ence
Ab out
Ġprofess ion
ve t
ĠS harp
Ġsa ils
ĠM id
ĠB el
ĠG iant
ĠU NDER
Ġent ering
Th ough
ĠSh ore
Ġresp ond
Ġchap ter
Ġpress ure
Ġindic ated
Ġconce aled
Ġamaz ement
Ġwhist le
ĠColl ege
OS S
Ġunfortun ate
A C
I E
o a
Ġb ows
le ar
ĠT ime
ong s
Ġv ir
Ġgo at
Ġday light
Ġinst ruction
Ġchar ged
gr am
Ġdro ps
Ġspec im
Ġadm in
ues day
Ġbless ing
Ġgar ments
Ġlin ked
RAP H
G et
f if
r ated
Ġw ounds
Ġm ale
Ġre search
ce l
il ation
Ġse ize
Ġme asures
qu iet
Ġsent iment
ĠAl so
Ġbed room
ĠAn ne
will ing
Ġforest s
gu ard
Ġsail ors
whe ther
ĠHA VE
, =
F ORE
N ext
an es
Ġst able
ĠJ ell
Ġconf ined
Ġadv ised
Ġtrave ll
boy s
tow ard
Ġsuppl ied
ĠCarol ina
d em
Ġt ables
Ġc as
or us
Ġp red
Ġg ang
the l
ĠB ull
ĠL ove
Ġsing ular
Ġprinci ples
Ġinvis ible
W as
g old
is p
al ian
ur ance
ĠC ent
um bling
ĠV alley
Ġ3 4
ĠCon n
Ġprod uct
Ġcommand er
quest ion
Ġdwell ing
rev or
" ),
D uring
P RO
T RAD
d eterm
g le
Ġth o
im ore
Ġr ises
Ġtr icks
Ġthan ked
Ġsec re
ret urn
Ġsun k
ĠBe aut
Ġpain ful
Ġsol ution
Ġball s
Ġrepresent ations
3 7
d ri
Ġt unn
in ate
ow ly
Ġre in
ĠP ur
Ġno bles
Ġun ited
ĠSt an
lect ric
ĠMar ia
Ġremar ks
Ġsummon ed
Ġlaz y
ĠRich mond
A uthor
f aced
Ġw oke
Ġto il
ĠT ales
Ġu m
ĠH o
ag ged
Ġup stairs
ĠD ark
ĠO WN
Ġj est
Ġdis g
ĠĠĠĠĠĠĠĠĠĠĠĠĠĠĠĠĠĠĠĠĠĠĠĠ ĠĠ
car ried
Ġgas ped
Ġcelebr ated
m ail
it tering
Ġg est
Ġre ference
ĠS ame
am ents
Ġr ays
The ir
Ġapp les
com pl
Ġdr um
Ġele ment
Ġanx iously
Ġdeb t
Ġacquaint ance
b ound
f ear
h ung
r ice
t urn
Ġa ch
in ity
Ġp ear
ac ters
et ary
ra ven
ĠR EM
Ġman if
Ġen s
iz es
Ġbet el
hy llis
ĠGr and
Ġbar gain
str ange
Ġdress ing
Ġexec ution
Ġmaxim um
i i
r ise
Ġs outhern
Ġf t
Ġh ired
Ġy ell
ri gg
Ġ" '
qu ired
ĠL E
ĠN ext
man ces
Ġgl ow
ign s
Ġind if
Ġred uced
Ġfre quent
ĠGree ce
Ġash ore
3 5
Ġt id
re quest
ic ian
Ġbe et
et te
Ġre venge
of reading
Ġdel iber
Ġdead ly
Ġsix teen
rem ember
Ġforg ive
Ġdistur b
Ġhither to
Ġbund le
f ashion
r ane
r idge
s us
t is
w ide
z ip
Ġb ench
Ġso ot
-- _
ra v
Ġun w
ans wered
act ory
Ġdisc our
Ġrel ation
ĠMiss ion
ĠSh ould
Ġabs ent
Ġgrate ful
Ġaltern ate
PR ESS
H ara
M ary
in f
Ġs an
Ġs ke
ld er
ro ll
ro ft
Ġsu gar
Ġne phe
Ġcomp ared
fe el
Ġri b
Ġob ed
Ġfather s
Ġadd itions
Ġaw hile
org an
Ġdep ths
Ġgrand mother
Ġprob able
ĠCont in
Ġnet work
ĠNE W
Ġfac ility
Ġnephe w
P resident
R em
d anger
u y
Ġse x
ĠP ed
ĠC ham
Ġup set
ab eth
ĠD og
ĠE rec
per mitted
Ġpre tended
ribut e
Ġwar n
Ġcontin ually
ĠCl oud
ĠEl zevir
Ġdisp osed
Ġspeed ily
E nd
g iving
r ules
in ions
ar ched
ĠT han
ĠS aint
ĠC ons
ĠE li
Ġtr ained
Ġcount ed
IL LI
Ġobser v
alt imore
Ġguess ed
nut s
tow ards
Ġexceed ingly
Ġtele phone
. ;--
m ot
Ġ #
ĠT a
ir ts
Ġse ats
ĠJ OHN
Ġpr ow
ĠIn stead
ĠTh rough
Ġem peror
wor th
Ġwish ing
Ġswe ep
Ġobser vation
Ġder ive
Ġpun ish
ĠSec ret
Ġprepar ations
method s
w ant
Ġin complete
Ġsa iling
Ġse lected
Ġsh rill
ie utenant
our ce
Ġex tr
Ġbl owing
per fect
Ġsc ent
su bs
Ġdif f
ĠWh it
ĠDan iel
ĠST ORY
Ġdisp osition
Ġsus pect
ĠRE P
Ġoppos it
Ġant i
Ind ians
Ġindepend ence
appear ance
Ġexperi enced
Ġsuspic ion
ĠCop yright
3 6
C ON
E Y
p ence
Ġg orge
her s
ab a
ie nd
pl ied
Ġ18 8
Ġtre acher
Ġtou ching
ĠEgypt ians
Ġdat a
say ing
Ġvent ured
Ġfug itives
Ġindirect ly
D av
e ither
g ro
m em
Ġl ament
ac on
and y
ĠC ut
ge red
Ġgr ant
ĠK irby
Ġcont est
ple ased
don ate
Ġvolunte er
Ġmoon light
F l
I P
k ward
Ġst ag
ec utive
Ġr am
ĠW estern
Ġro pes
hi o
of ten
Ġfl ut
Ġsl ope
Ġchar itable
Ġsk ull
Ġkeep s
Ġprot est
Ġcalcul ate
Ġsuggest ion
Ġliter ature
Ġsurre nder
A SE
S uddenly
U ST
b right
g un
s uddenly
v ate
he ar
it o
Ġd angers
Ġl antern
il ion
ĠM ont
ie ge
Ġex tend
Ġgr asp
be gin
ĠK ennedy
Ġback ward
Ġcha ins
Ġple as
Ġche cks
Ġpol it
Ġaccess ible
Ġviol ently
Ġrob bers
Ġmaterial s
ĠSus y
Ġcorpor ation
ĠVill age
W ould
g bert
Ġw rest
om on
Ġbe ha
ĠI MP
se em
ĠW rykyn
Ġv ote
ĠD ey
of ty
Ġcont ributions
Ġcomm enced
pr inci
ĠAr ab
Ġfoot steps
ĠĠĠĠĠĠĠĠĠĠĠĠĠĠĠĠĠĠĠĠĠĠĠĠ ĠĠĠĠ
Ġreal ity
Ġconduct ed
OL D
Ġspl it
ĠScot ch
Ġarg ument
T is
m our
u v
Ġc ub
ĠS H
ag a
Ġv ine
cl oth
Ġback s
aw are
CT U
ĠCol onel
ĠMin chin
Nor th
Ġignor ant
Ġinsect s
A ny
e ous
it self
Ġn ails
le ave
ĠH ind
ĠW y
Ġbut ton
ĠL amb
ĠD ON
ĠR O
Ġtr amp
Ġnever theless
Ġlast ed
Ġcare er
oub ted
Ġleg ally
Ġelse where
Ġest e
TH ING
ĠRem us
Me anwhile
Ġorn ament
ĠBO Y
Ġacknow led
P oor
c al
e g
re ally
Ġd amp
ut er
Ġan ts
if ying
th o
all s
em ned
Ġsh irt
out s
ĠO tter
Ġsm ote
Ġcha llen
Ġact ing
Ġreal ize
bo ats
Ġmain taining
Al as
olog ical
Ġglo be
G er
re a
it ors
it ory
ĠS u
Ġk itten
Ġout law
ge ance
ps on
ĠSt and
ob ser
Ġocc asions
Ġwhe els
Ġsim pl
Ġdep th
Ġbell s
Ġcapt ive
Ġpock ets
Ġwond rous
ĠMexic ans
mosp here
m ort
t ales
Ġo ars
ar i
Ġth rill
Ġst air
ĠP resently
ĠL atin
ĠR af
ĠR IGHT
Ġno is
Ġj oke
Ġro ses
ĠU SE
Ġcont empt
Ġser pent
cha ir
Ġabs urd
Ġchair s
por ary
RA CT
spe ak
Ġjew els
ĠEle anor
Ġperfor mances
R AN
l iness
r ich
Ġf og
Ġp ound
Ġn uts
ĠE mpire
pl aced
ord ered
bl ue
Ġwhere as
AR Y
Ġes c
Ġcoll ect
Ġcross ing
Ġtreat y
Ġwid th
Ġslight est
lo ading
Ġsez ee
Ġconfl ict
Ġchim ney
k night
u a
v as
Ġha re
ent ered
Ġre comm
ec k
Ġan cest
um m
Ġne ut
Ġsw ing
Ġcomm ission
ric ks
Ġview ing
Ġstore s
Ġnaught y
Ġscient ific
loc ated
Brit ish
Ġming led
A nt
b ooks
d ered
Ġf urious
Ġd il
Ġl ou
ir on
Ġbut t
ĠL i
ĠL o
ig ation
Ġind ul
gr own
Ġpol es
ĠAd air
cop y
ĠBE FORE
fund raising
ĠSpec ial
ĠSher wood
phr ase
G u
Ġb idding
Ġwh ilst
ĠP UR
Ġchild hood
Ġcar ved
pro vision
oun ter
ĠCan oe
Ġbox es
Ġcomput er
Ġpoet ry
Ġaut umn
ĠSax ons
H art
S aid
g en
Ġt our
Ġa ught
re present
Ġc ats
Ġm ule
Ġr idge
ĠĠĠĠĠĠĠĠĠĠĠĠĠĠĠĠ ĠĠĠĠĠĠĠ
Ġvisit ors
can not
Ġdet ail
unte ers
Ġdescri be
Ġroy alty
ĠRE F
Ġoccasion ally
eff ect
Ġpurcha se
Ġneighbor hood
pract ically
ĠRou letabille
" _
r ange
w hel
Ġw oe
an o
ĠF OUND
Ġde em
ĠO ver
pl ed
Ġbr ings
ĠIt aly
fe eling
pro pri
Ġmer c
Ġinf ring
Ġ200 1
Ġgen ius
Ġquant ities
ar ie
ĠI F
Ġk in
ĠL ion
Ġpro hibition
ĠK IND
Ġrep utation
Ġexpl ore
ĠAd miral
ĠWith out
Ġplan et
Ġmod ification
sha ped
Ġcatch ing
CE PT
ĠPal merston
ĠEX PRESS
ĠDes pite
Ġanch or
S w
in ations
ĠB ecause
ĠG old
pl om
Ġar ray
Ġli ability
ĠĠĠĠĠĠĠĠĠĠĠĠĠĠĠĠ ĠĠĠĠĠĠ
int ell
Ġco il
Ġgener ous
arr ant
Ġang rily
St ill
enn es
ett a
hel p
Ġfier cely
Ġpop ulation
wind ow
Ġabund ance
ĠComp any
sole te
ĠWall ace
ĠBenj amin
G e
H a
I A
c aught
m iles
er ves
Ġp enc
Ġn ut
Ġe p
ĠS to
ĠB ur
ĠP ass
ud ed
Ġthr ong
fe re
Ġsle e
ĠĠĠĠĠĠĠĠĠĠĠĠĠĠĠĠĠĠĠĠĠĠĠĠ ĠĠĠ
Ġcor pse
Ġbottom s
Ġhat red
Ġgall ant
Ġtravel ing
Ġdeg rees
mount ain
ĠRep l
Ġhed ge
Ġconfirm ation
ĠNotting ham
d et
t ry
Ġt ents
Ġs ust
at a
Ġin acc
im ony
ĠB er
Ġro ared
Ġun certain
ĠU r
HE R
Ġcont ents
Ġser iously
Ġcons cience
Ġans wers
Ġprov ince
ĠFr id
Ġ186 3
Ġmagic ian
happ ened
Ġfru its
Ġtrave led
Ġprepar ation
Ġtoss ed
Ġber ries
L Y
g ent
l ines
p ath
Ġw ires
en force
Ġc age
Ġy er
Ġre le
th us
ct ure
con n
Ġcorn ers
ĠCol in
ĠST RI
Ġhy per
cor rupt
Ġindust ry
Ġbatter y
b ot
c up
Ġc oc
Ġto bacco
Ġp ains
ir k
ĠH istory
Ġex clusion
ĠE nd
ĠE VEN
ap s
Ġbr isk
Ġ17 7
Ġscar let
Ġshore s
Ġsusp ected
mount ed
Ġgloom y
Ġpropriet ary
Ġmajor ity
] ;
l ength
in ery
ĠF ire
ast ing
ell y
ud ent
Ġen abled
Ġob solete
con cept
Ġfin est
Ġprep aring
Ġfr ank
Ġpeace ful
Ġsett lers
Ġluck y
Ġcalm ly
Ġven geance
Ġded uct
4 4
_ ;
_ ."
Ġw ig
re ly
it ate
Ġd u
Ġl ots
Ġth umb
Ġre lease
Ġyour selves
Ġunder neath
Ġri pe
ix ed
Ġcr ash
CH ANT
Ġeas ier
Ġstud ent
ĠZ eb
Ġprevent ed
Ġscr am
Ġswim ming
Ġbal ance
A y
V AL
Ġw agon
Ġh ound
Ġl ofty
ĠP acific
ĠF inally
Ġcl ung
Ġoff ering
Ġpart ed
cl othes
Ġob sc
Ġ3 9
ĠAs gard
head s
ĠTH OSE
Ġmod er
ĠMary land
LA IM
Ġfare well
Ġren amed
ĠCast le
L anguage
_ --
c at
c old
f right
g all
Ġf ert
Ġf oul
Ġc oo
Ġg n
Ġg it
Ġbe aver
st ream
ĠP UN
ĠC hat
Ġr ings
Ġcon vention
Ġper mit
ĠV ery
IT IVE
uri ously
Ġ15 00
Ġbreat hing
see ing
ĠEx ecutive
opportun ities
CL UD
b a
d ream
s weet
Ġs han
Ġn ail
ĠP OSS
ast e
ĠN ile
Ġag ony
Ġch ill
Ġend ure
Ġcons ented
me ans
Ġdec or
Ġfeel s
gr ass
ĠCom pl
Ġagree able
par agraph
chan ge
ĠNE G
Ġfold ed
ĠHol mes
T ra
Ġs ink
Ġb its
Ġl oy
Ġhe ll
om p
om er
Ġbe ak
ĠA ct
and o
ĠM AN
Ġher s
Ġk id
ĠR ip
ĠE ver
au d
pl aces
ĠAnd y
Ġbl oom
Ġpr inces
ĠSt ory
Ġpre cip
anch oly
Ġmill ions
Ġtight ly
sol ic
Ġalt ar
E X
i ou
s kin
w l
ou ps
an x
Ġin ser
ĠD en
um ble
Ġdis miss
Ġlong ing
uc ing
comp ressed
Ġfurn iture
Ġprocess ion
Ġident ification
fam ily
rane an
ILLI AM
S END
b ig
t reat
w arrant
Ġw ool
Ġto wers
Ġe conom
Ġon ward
Ġwh ither
ĠM ajor
ĠP hyllis
Ġsh ine
ĠL ang
Ġany how
Ġgood ly
atter ing
Ġlord s
Ġru ins
Ġemploy ee
Br own
ĠPenn sylvania
I AN
S ay
d istribution
g overnment
l eness
r ors
en em
es pecially
Ġbe wild
ĠM iddle
Ġse eds
ĠC arm
ul ting
ĠF enn
Ġdis may
Ġter min
Ġind emn
Ġhapp ens
Ġstat ue
ship man
Ġfat al
Ġmeant ime
Ġfortun ate
ĠDirect or
Ġparall el
t a
Ġst omach
ĠG irl
ĠG IVE
Ġthere in
Ġbr ick
Ġdis grace
Ġri g
Ġreg ulating
Ġprom inently
Ġleg isl
Ġang le
SE QU
... ."
Ġhide ous
Ġinj ured
Ġmult itude
harm less
d oubt
m ine
Ġw aving
ed itions
it led
Ġf acing
Ġin k
Ġl ust
Ġl unch
ad er
Ġr ot
ĠL ard
Ġlong ed
Ġpe asant
ob ject
In ternational
** ***
Ġass ure
Ġest ate
Ġlab our
Ġimag ined
Ġpen ny
ais y
Ġgreet ed
ĠWil son
Ġqual ities
Ġlic ensed
Ġinacc urate
3 3
6 22
N ITY
h in
l ur
l ived
ha ired
at han
ĠA c
ĠF riend
ĠF IT
Ġkn elt
iv s
Ġpro found
Ġli kes
ull o
In formation
Ġhelp ing
Ġaw akened
Ġopp on
ĠDe fect
ues e
Ġcomple x
LA C
Ġdiscuss ion
Ġprompt ly
ĠMER CHANT
Ġinfring ement
c reating
l aid
p op
Ġc odes
Ġm ice
ĠD IRECT
Ġpl acing
Ġqu ality
ĠK ent
Ġsc ale
Ġbo ards
ĠOn line
Ġsign ed
LI ED
cop yright
Ġdisclaim ers
Ġmerchant s
Ġproof read
Ġamid st
Char acter
Ġhoriz on
Ġhyper text
4 7
F r
R even
l icense
Ġa ven
Ġw ha
Ġc akes
Ġha ul
id a
ke pt
ĠP oor
Ġout ward
Ġar oused
Ġtr aces
Ġtw ilight
ĠU T
Ġgl owing
Ġhar mon
int on
Ġhapp ily
Ġrest ore
Ġlarge ly
Ġstream s
Ġrag ged
ĠCON SEQU
c amp
f o
ac count
ĠH appy
ĠW ild
Ġsu itable
ol ation
ĠL ar
Ġj er
ĠIn ternal
man cip
Ġdon ors
Ġdes ir
ens ions
ON G
Ġcent ral
18 87
Ġperiod ic
icy cle
Ġaut om
Ġattr acted
Ġconstruct ed
perform ing
ĠREM ED
P OSE
c ry
m or
Ġa le
Ġm ate
Ġg ig
ri pp
ĠS aints
Ġsh o
ost er
pl ine
ĠK itty
Ġcons ists
sh ot
Ġchar ming
az e
inter preted
Ġtrans cribe
comp any
Ġbelong s
roo ked
Ġdistinct ly
==== ====
pi eces
ĠSU CH
Ġcorrid or
dra wn
CLUD ING
T itle
g li
i ot
i ors
ou bled
Ġf olly
Ġm ant
as ping
al ay
al though
ĠA ccord
ĠC OM
ol ition
Ġar d
ud ge
Ġsc old
Ġjo int
LE CT
Ġwit hal
ĠIN CLUDING
Ġmass es
Ġvir us
d istribute
l ost
p ict
r ants
Ġwas hing
ad ron
ĠS av
ĠC ave
ul pt
Ġsp ared
ĠE IN
Ġdon ation
Ġhar der
su per
Ġcol ours
ĠJohn son
OU R
arr ay
Ġwon t
Ġra ven
Ġlow ered
Ġinf er
Ġtor ment
ĠNOT ICE
Re lease
LIG ENCE
IDENT AL
ĠFrid ay
ĠSTRI CT
622 15
ĠREMED IES
L ESS
P ER
d iv
n old
Ġl as
ĠT hing
ĠM and
ĠH un
Ġsh y
el se
Ġapp et
Ġcare less
Ġaff ected
Ġlive ly
Ġang els
Ġtrans cription
ENT IAL
cast le
ĠIND IRECT
stru ck
ĠConfeder ate
Ġsyn onymous
VID ED
ĠDom ain
ĠCONT RACT
ĠPUR POSE
Ġindemn ify
O ut
b irds
t xt
Ġb inary
Ġb attles
as y
st able
ir led
ĠS ections
ĠM at
ess es
Ġv ic
Ġde w
av ailable
ĠK anag
Ġcomp ilation
Ġset s
ex am
Ġind ians
Ġchar acters
Ġred istributing
Ġ5 96
Ġ17 9
Ġpaper work
ĠRe fund
Ġcontain s
EM NITY
cop ied
Ġfurn ish
ĠANY THING
De fects
ĠMel an
Ġcliff s
build ing
ĠDISC LAIM
ĠIMP LIED
ĠNEG LIGENCE
ĠFIT NESS
ĠDISCLAIM ER
f illed
r ained
s pring
v a
Ġw its
Ġp add
Ġl osing
ĠB altimore
ĠC ass
ol ent
Ġman kind
Ġex isted
de fect
br own
ĠBe ing
ĠĠĠĠĠĠĠĠĠĠĠĠĠĠĠĠĠĠĠĠĠĠĠĠ ĠĠĠĠĠ
Ġconsider ation
Ġstro de
Ġaver age
Ġens uring
CTU AL
ĠCONSEQU ENTIAL
M ore
n i
Ġw ard
le ast
ĠS part
ĠM R
ĠP R
ĠL ITTLE
ĠO ff
Ġdis continue
ci er
ĠV en
Ġchan ging
Ġsun light
Ġ8 0
Ġcirc uit
Ġorigin ator
Ġprocess ing
Ġdiam ond
Ġconqu ered
Ġpup il
Ġpersu aded
ĠPUN ITIVE
solic ited
5 01
P resently
d uring
re search
Ġc ooked
Ġl iterary
ic ago
st aff
ver ted
ĠA K
ul ations
Ġdis aster
pe ace
Ġplay s
ĠAt lantic
Ġaw kward
Ġdear ly
Ġenc oding
Ġstraight way
AG E
AG RAPH
Ġdiv ine
Ġerr and
ĠThor vald
Wh ich
Ġpisto l
ĠPAR AGRAPH
ĠRepl acement
62215 41
u ing
w art
er g
ĠI ce
Ġu lt
Ġst amp
ĠB ow
us ually
Ġwor shi
ist ence
Ġag ed
Ġun solicited
Ġdown loading
ĠSt ard
lf red
br ing
IS H
Ġarm ies
Ġpres erved
Ġnews letter
Ġtrust ed
Ġenter prise
Ġpun ished
char acter
know ledge
ĠCont act
Ġsolic itation
Ġmir ror
ĠSqu irrel
Ġsche me
ĠOWN ER
ĠREP LAC
C reating
a ur
e z
f aces
Ġt umbled
re fund
st atus
ĠA E
Ġsp ed
Ġwill ingly
ans wer
ick ens
fe es
man ner
Ġexp orting
ple asure
Ġref lected
Ġpur sue
Ġ8 41
Ġtem ples
Ġinf inite
Ġviol ates
rec ogn
Ġfro zen
ivers ity
prom otion
ĠCont ributions
Ġ*** **
ĠMount ain
Ġattr act
ĠEX CEPT
Ġsevere ly
Rob in
ĠAdd itional
Ġimpr ison
itud es
Vol unteers
propri etary
8 01
g od
ent ity
Ġas certain
ur ity
ĠA CTUAL
Ġnot ifies
red istribution
ĠF if
Ġmy th
Ġde let
ĠJ erry
Ġad apt
Ġdist r
li ability
Ġelect ed
Ġcons isted
Ġ4 7
Ġ9 97
ĠNew by
Ġbur gl
Ġele ments
Ġabs or
Ġpract ically
char ities
ĠRuss ia
htt p
Ġarrest ed
Ġdeduct ible
ĠPOSS IBILITY
Reven ue
Ġ841 16
3 8
M an
T imes
b new
p ill
s had
v ain
Ġs its
at ers
Ġg bnew
ic le
ĠI RS
ver ty
Ġwith draw
ĠS on
if orn
ĠD arz
Ġout dated
Ġsp orts
ĠJ efferson
pl an
Ġsha ken
Ġun enforce
for ms
Ġsl umber
Ġsw itch
Ġred istribute
do ing
RE EMENT
Ġass umed
ĠGr anny
Ġfast en
How ever
Ġaccess ed
ĠRed istributing
EM ARK
Ġsearch ing
LA F
ĠEm ail
Ġnon proprietary
prom inently
ĠAG REEMENT
Ġearli est
Ġ45 57
Ġunl ink
ĠDISTRIBUT OR
Up dated
PLE ASE
Ġconven ient
Arch ive
hab ited
Ġinval idity
subs cribe
ĠDON ATIONS
ĠREF UND
ĠFOUND ATION
ĠREPLAC EMENT
Ġdelet ions
Ġ997 12
Ġgbnew by
Ġunenforce ability
L ike
S hall
c ause
Ġm as
at o
Ġg y
ĠP ool
Ġr att
Ġso ber
ĠD ry
ret t
con cer
Ġwind ing
Ġ7 0
Ġenc amp
comp uter
AS T
bu ilt
Ġarrang ement
Ġrejo iced
LIAB LE
lau gh
Ġcryst al
( $
D AMAG
r ine
Ġt on
Ġd umb
ĠH E
ĠD is
ass es
Ġam used
Ġpo verty
att empt
ĠBr other
Ġsix th
Ġmouth s
go als
ĠRed istribution
bec ome
think ing
Ġcivil ization
fin ished
Ġcell ar
ĠIND EMNITY
ĠPG LAF
ĠDISTRIBUT E
LIAB ILITY
Fair banks
INC IDENTAL
PRO VIDED
TRAD EMARK
ĠCompl iance
warrant ies
DAMAG E
V v
a ign
b od
m ove
ĠThe odore
ĠH an
ĠC O
ĠE astern
Ġrec ent
Ġreg ions
ĠAl addin
Ġinc red
Ġrequ ested
arr is
Ġye omen
Ġide al
Ġdev ice
Ġhot el
long er
Ġattempt s
Ġstrugg led
ĠFred die
ĠDem i
g ate
m id
t ried
u k
Ġp acked
Ġg ent
Ġun pleasant
Ġnow here
ĠĠĠĠĠĠĠĠĠĠĠĠĠĠĠĠ ĠĠĠĠĠ
ark er
Ġown ers
Ġmost ly
Ġheart y
sp o
imp se
Ġcuri ously
Ġspo il
Ġrecogn ize
Ġrefer red
Ġaband oned
d ear
Ġt ub
Ġn ought
Ġse arched
ist en
ĠL ine
ise ly
aid a
ĠV I
Ġcons ult
att ention
Ġdep os
Ġchief s
dis covered
Ġfee ble
Ġguard ed
Ġincre asing
sw ord
might y
Ġtrave lled
Ġreve aled
Ġmel ted
occ up
girl s
ĠDal gard
ĠPet ers
4 6
n early
p ot
w on
w ine
Ġf est
on ies
am m
Ġv ivid
Ġex ert
Ġro aring
ap sed
Ġbr ains
fore st
Ġfl ushed
Ġhand ful
Ġapp aratus
Ġcomp et
Ġlet ting
Ġrest less
ĠCl over
iver ing
Ġindepend ent
F F
p aper
t an
Ġw ot
id able
ĠH ume
art ment
own ing
Ġgo dd
Ġgr an
ĠAnd rew
ix t
uc ation
Ġcons ist
iet h
ĠAl though
ets y
Ġext ensive
ĠCom mon
Ġbreat he
Ġball oon
Ġsick ness
follow ing
direct ion
ĠSil ver
stre ngth
M c
b ra
s pr
Ġt ha
en z
or se
Ġh om
Ġe astern
ĠS ummer
ĠO hio
Ġle is
av ilion
ĠK ar
com ed
Ġtri ump
uff led
Ġrevol ution
Ġcaut ion
C ertainly
M aster
f are
Ġp iled
im mediately
ĠH y
ĠJ asper
Ġpre tend
Ġwar s
ĠTh rog
IN E
Ġstre ng
tr ouble
Ġhur led
Ġcond emned
Ġmem ories
Ġplan ned
Ġclim bing
Ġexam ining
run ning
Ġbend ing
Ġblaz ing
Ġcoff in
Ġreck on
Ġcree ping
Ġthir teen
3 9
M ur
P E
c apt
Ġc rest
ĠT revor
ĠM O
ĠB ell
ĠB ald
ĠG RE
ĠF re
Ġv ow
Ġde ce
Ġacc ur
did n
Ġresol ution
Ġprev iously
Ġamaz ed
Ġincident s
Ġconscious ness
ĠSax on
Ġphot ograph
B et
b read
v iously
z er
Ġm ould
Ġd un
Ġst are
est ab
Ġdo c
ĠR ay
Ġen able
bl ance
oss ie
Ġrel ieved
Ġcontin ent
ĠSe en
Ġmus cles
Ġshout s
ĠPhil ist
just ice
Ġfright ful
rec ked
Ġrepe at
ĠSer gt
Ġrout e
Ġascend ed
ĠEliz abeth
A CK
U E
i pe
Ġt a
Ġf ountain
ĠT or
ad ise
ĠM ars
Ġk ick
Ġbl ocks
ink led
Ġcont ented
Ġsur vey
Ġcur se
Ġdom estic
Ġjump ing
epend ence
Ġlog s
Ġpill ow
Ġstret ch
Ġabrupt ly
H ar
h ist
Ġwh it
ĠS ur
ĠC row
ĠW AS
ĠG host
os qu
Ġcl erk
Ġbl ast
Ġover head
Ġsl ipp
ĠSt ri
Ġsw inging
Ġanswer ing
uss y
Ġmis fortune
Ġprot ected
Ġformer ly
Ġflo ated
shi ps
Ġsuppl ies
Ġris en
Ġswall owed
Ġshepher d
p un
Ġf an
st ones
ĠS at
Ġnot ion
Ġat mosphere
Ġsa ving
Ġr hy
Ġr oused
ul c
iv eness
Ġcan e
Ġbl own
Ġdis hes
ĠIt alian
Ġent itled
sp irit
Ġgener ation
ĠCon stitution
Ġru ined
ĠDick on
Ġsens ible
Ġcand id
acc ord
Ġvig or
Ġdisci ples
80 9
Ġbrid le
Ġpenc il
S am
w are
im ag
Ġsa le
ĠL od
ĠR over
Ġear n
fl u
Ġconf used
bell ion
ĠMore over
Ġbol t
ĠWal ter
p ally
v il
ĠS han
ĠS ER
ĠS omething
Ġst em
and a
th ird
ĠP lease
Ġr ows
ĠG et
ĠO LD
au a
Ġar k
Ġsw ore
Ġcr ushed
Ġhel m
Ġste ed
Ġel bow
Ġstand ard
Ġpres ident
IC K
Ġport ra
Ġmonkey s
Ġemp ire
Ġerect ed
Ġamuse ment
ĠHel en
Dav id
I bid
p a
p osed
Ġc ents
or o
Ġd ash
Ġd ining
Ġn ic
ĠC raven
op ened
Ġv est
Ġri fles
Ġwant ing
Ġdr am
Ġposs ibility
Ġrec ently
tr ue
Ġopp osition
Ġclear ing
Ġtail or
RI VAL
Ġsens ation
Ġgrave ly
Ġmurm ur
Ġblank ets
Ġimpat ient
Ġmour n
ĠMERCHANT IBILITY
H en
P ut
T O
g a
s ir
z u
Ġt iger
Ġd re
ic ity
ĠA ust
ĠB inet
ĠC all
pp ers
ĠL ee
Ġkn ot
pt on
Ġput s
fl o
Ġfa ire
Ġpost s
ĠPro ofreading
Ġeight y
ĠGer many
Ġmaid ens
Ġblank et
Ġcommer ce
Ġcraw led
w anted
Ġin her
Ġth ieves
ri an
ri ous
Ġst ub
Ġr aw
un ks
Ġdid st
Ġbr on
Ġpo em
Ġcomp re
Ġrem o
Ġhead ed
Ġdist rict
rew d
Ġbo iled
li ver
Ġelect ion
Ġ4 9
Ġint r
Ġopp osed
Ġstud ies
Ġquestion ed
Ġfier y
Ġcomb ined
ĠSol omon
" .
E ar
S hann
S ometimes
b ug
g d
t was
Ġs ul
is is
ĠH and
Ġr ats
ess ion
ĠD ar
ig es
Ġfound ation
Ġcour te
Ġbu b
Ġem bro
Ġdet ect
Ġeffect ive
Ġmam my
ĠSec ond
Ġprophe t
Ġvel vet
iforn ia
S everal
k ers
in v
Ġf ishes
Ġm ail
Ġp atch
th row
ĠH OW
Ġse m
ĠP yramid
ĠG ib
sel s
Ġtr acks
ans as
Ġdis ease
ink er
act ly
Ġdel icious
Ġinter fere
ĠPro v
._ --
Ġexpect ing
sw ald
Ġden y
Ġcoff ee
Ġfug itive
ĠPut nam
import ant
Ġtunn el
Ġlou der
M en
Ġb ind
ic ians
Ġbe es
ac qu
ĠT AL
ĠS ub
ĠS pring
ĠF ree
ĠR aj
Ġsp ider
ig ious
Ġthere by
Ġj aws
Ġ4 8
Ġinv ite
arr ass
Ġlim it
Ġconsider ing
Ġneighb ours
Ġweak ness
occ asion
yl on
ĠSk unk
ĠOther s
Ġcrim son
Ġt ick
Ġb ust
es c
Ġp ie
Ġh oof
Ġl ing
Ġha lt
im med
Ġas ks
if ull
ist ration
ous ins
Ġrem ote
ung s
Ġcr itic
ĠWe re
ars an
Ġread ers
Ġclot hed
ĠPhil ipp
Ġav ail
Ġrespect s
Ġmach inery
amb oo
ĠĠĠĠĠĠĠĠĠĠĠĠĠĠĠĠĠĠĠĠĠĠĠĠĠĠĠĠĠĠĠĠĠĠĠĠĠĠĠĠ ĠĠĠĠĠĠ
col ored
Ġrid ic
rs ula
Ġmel ancholy
Ġextrem ity
ĠBuffal ow
c od
f ine
Ġw reck
er ies
Ġb order
Ġf oes
Ġf iring
Ġd ense
Ġp ark
Ġst im
th ick
ĠM ess
ight s
ĠL ab
ĠL ast
Ġpl um
Ġmore over
Ġover whel
Ġret orted
Ġimp ulse
ident ly
Ġ4 6
Ġla wn
Ġcomb at
Americ a
oubted ly
ĠDarz ac
S et
W H
c ried
f urther
h usband
t ale
Ġbe er
Ġbe half
ro b
ĠB ird
ag ers
ĠR oger
Ġgo ver
pl ing
Ġcl osing
ĠY ellow
Ġim ages
Ġsc ri
Ġthought ful
ip es
Ġrepl ies
Ġlaw yer
IS S
ĠGer da
Ġant icip
ĠChief s
Ġstir ring
Ġemp has
ĠDem ocr
Ġrare ly
Ġconstit ution
Am ong
H o
i y
n ine
t re
Ġf ir
es p
es y
Ġin ward
le ans
ĠT en
ĠB ess
ĠP E
ĠC oyote
Ġk icked
el come
Ġwor m
ol is
Ġseem ing
vent ure
uc es
Ġind uced
Ġadd ing
Ġ5 01
Ġadv ancing
Ġtail s
vill age
Ġcheer fully
Ġinj ury
fam il
quar ters
Ġrespons ible
sa fe
B less
S urely
f ront
Ġt une
Ġthe at
Ġl ump
id o
Ġsh ower
Ġsp ots
ap e
Ġcl ut
Ġper ple
.. ."
Ġwr ist
Ġco arse
OU S
Ġaff l
Ġ17 8
Ġdeterm ination
Ġdisapp ointment
LA ND
Ġself ish
Ġacqu ired
Ġwand er
Ġelectric ity
Ġignor ance
ĠSn ake
E gypt
p gd
Ġ ze
Ġt read
Ġf ist
Ġha z
ly n
ĠT y
Ġst ove
oo ping
em en
qu ickly
Ġab oard
Ġpro fessor
ass o
ĠK now
ĠBut ter
Ġsw ell
Ġact ions
tr uth
AT H
rem em
room s
Ġappro pri
ĠWh ose
ENT S
Ġele g
Ġstro ve
Ġsevent een
pur pose
ĠPortug uese
pgd p
s is
Ġc ob
Ġu ng
Ġre nt
ĠH ard
ĠC old
ant e
ol as
Ġtheir s
ĠHe nd
Ġli p
be yond
Ġacc used
Ġhar p
Ġcha riot
Ġhel met
Ġrec ords
wor thy
Ġthy self
Ġrequ ires
Ġbar bar
Ġconst ruction
Ġaccount s
sy ch
Ġpath s
Ind ian
Ġsac rific
ĠTex as
Ġharb our
mancip ation
S ince
g eneral
s ac
Ġt ough
Ġf aded
Ġl ur
Ġg own
Ġup wards
Ġcl aw
Ġsha ped
ĠK illed
Ġres idence
get ting
Ġnew ly
sh ow
Ġcountry men
enc ies
ĠSm iling
Ġdisapp ear
arer s
Ġbrave ly
Ġapart ment
ĠThom pson
Wh ite
Ġpos itive
ĠCab inet
N G
S outh
e er
l ie
Ġs inking
Ġha il
Ġst ooped
ĠM ah
ĠP oss
un ts
Ġsh illings
ĠD aisy
Ġbr ut
gr and
gr ims
Ġmem or
Ġstri ps
Ġprop osal
Ġlim b
Ġcommand s
hand ed
Ġwest ward
Ġinvent ion
Ġcommun ication
Ġinstr uments
Ġawa ited
ĠSecret ary
H ad
O tho
Ġs iege
ar on
ĠB ag
ĠB right
Ġr ushes
ĠG al
Ġv oc
Ġpl ot
ang ed
Ġgl impse
Ġent reat
Ġmer maid
gl ad
Ġwhe at
Ġvisit or
Ġhuman ity
Ġleap ing
Ġchap el
Ġpill ars
Ġmead ows
Ġgrace ful
Ġabund ant
Sm ith
5 4
E Book
i ens
in ety
re plied
is er
Ġl ance
ent er
Ġre aches
ag re
ĠW ednesday
Ġper pet
ph in
Ġstr ain
Ġatt ent
com es
rem ained
pass ing
Ġbag s
hall enger
Ġden ied
Ġwond ers
Ġthank ful
Ġerr or
ĠMart in
Ġspin ning
Ġfert ile
. -
b i
in o
ed ar
Ġc aval
ll s
Ġl angu
ut t
ĠS or
ain ty
ĠH as
act s
Ġbo iling
Ġchan ces
Ġrel uct
ĠNor a
Ġhorse men
adem y
Ġsign ific
alth y
Ġpat riot
fer red
Ġcup board
Ġfarm ers
Ġprefer red
ĠCa es
oan na
s ign
Ġhe ars
ot ions
st art
ĠF riar
Ġde af
ig aw
Ġgr oups
sh ore
Ġmo ist
Ġche ap
ĠAl bert
uff s
ĠDan ish
Ġtor ch
IR D
Ġlod ges
stit ute
Ġoper ation
Ġfeed ing
Ġing en
Ġrenew ed
D ick
m ain
n ature
u ously
Ġw ag
Ġc yl
Ġd ur
Ġd usk
le ment
ĠT im
ĠS uff
ĠM ill
ĠB ec
ĠR ing
Ġdis agreeable
ret ch
ult ure
Ġte legraph
Ġtra itor
Ġlead s
Ġstrange ly
Ġval iant
18 6
Ġsatisf y
ik ki
Al though
Ġimm ort
ograph ical
Ġsmo king
ĠMor se
Ġess ential
A z
B ill
T Y
in qu
Ġd iver
ĠS a
ĠL ind
Ġcon ceived
Ġj aw
Ġhas n
Ġch orus
Ġimp ressed
Ġland lord
az ine
RO W
Ġce iling
Ġadm ire
Ġvi br
athe tic
Ġwarm th
ĠPl ace
Ġlif ting
Ġid ol
Ġcolon ists
ĠStr ong
wa iting
jour ney
ĠUr rea
D oes
g rew
l ater
n ir
Ġo we
Ġb onds
Ġb inding
Ġe ternal
ĠT ri
ĠP il
ĠR and
Ġde ceived
oll and
Ġpo ems
Ġsub d
Ġsum mit
Ġmus k
Ġ186 4
Ġstrugg ling
Ġcand les
ĠEar l
Ġshell s
Ġvig orous
Ġbough s
T S
m ates
Ġ 0
Ġo le
on se
Ġc ush
ing ton
ar rived
st retched
ĠB u
ĠC otton
op les
ĠL ieutenant
ĠJ ason
Ġcl ergy
Ġcar ries
Ġcour ts
ĠCh icago
Ġsn iff
Ġbur y
Ġlad en
kn ife
Ġdecl are
Ġow l
ĠMe anwhile
Ġgri p
Ġpir ates
NOT ES
Ġhaw k
Ro bert
b attle
Ġs ins
Ġb rig
Ġp ushing
Ġg iants
ent ire
ri ft
ra il
ĠE D
ure ka
ink le
ci a
ru p
Ġem ig
Ġco ats
Ġrel ative
ser y
ĠBe at
Ġinv itation
Ġbreat hed
Ġmain tain
Ġmur dered
Ġdra ught
Ġinvent ed
Ġmix ture
Ġcaut iously
U nder
d og
m ess
n ational
r ality
ll ous
se us
se par
Ġfor ks
ab bed
Ġsp y
Ġal as
Ġgo ats
ĠJ ess
Ġar chers
Ġbr ute
ĠU tter
Ġgl ittering
ey mour
Ġel o
ats on
Ġed itor
Ġsend s
Ġprot ested
Ġmod el
after noon
Ġsuccess ion
bel ow
atur ally
ĠTex ans
Ġbul k
pret ty
Ġtot al
ĠStep hen
prep ared
ĠBeaut y
J uan
_ .,
i ated
v ict
Ġst ump
th rop
ĠB at
ĠO x
are t
Ġold est
ĠU rsula
com b
ho e
Ġnat ivs
ĠĠĠĠĠĠĠĠĠĠĠĠĠĠĠĠĠĠĠĠĠĠĠĠ ĠĠĠĠĠĠ
Ġcirc ular
Ġwise ly
Ġpress ing
Ġmotion less
Ġcommun ity
Ġtrad ition
nat ured
elf th
v o
Ġl ions
ow gli
ac hel
ĠB etsy
ant ages
Ġj u
Ġpart ing
Ġper sec
con ven
Ġdec ent
ĠAl amo
Ġinter vals
Ġled ge
Ġaf ar
Ġsol itary
Ġspirit ual
udd in
Ġremark ably
OM E
Ġcook ing
Ġyield ed
ĠMead ow
Ġgig antic
Ġgodd ess
d am
i ency
l oe
p ull
Ġd irt
ĠT ill
ag an
ĠE agle
Ġkn ives
ud s
omet er
Ġob vious
me ads
gr im
Ġmean while
Ġart ist
Ġpol ic
Ġtrans port
Ġauthor ities
Ġaccompl ish
Ġnav y
ĠTur k
Ġcree p
Ġreflect ion
Ġdemon str
Ġrele ased
H OW
S il
d ress
s itting
Ġc ream
Ġto ken
Ġwe igh
ĠM RS
ĠSt utely
Ġch o
Ġgot ten
Ġrep ent
ĠFor m
Ġadv ise
Ġpol ished
Ġjoy ous
Ġ15 0
inst ead
Ġavo ided
Ġappre hens
Ġgrie ved
ĠNever theless
Ġjack et
Ġuneas y
ĠPed ro
Ge orge
W ait
p ain
s ar
s ays
t rem
u ber
w ixt
Ġs ung
er ted
Ġin ev
ro lled
ĠM ist
ĠW ILLIAM
ĠL O
ĠL arsan
Ġsc ant
Ġmo or
Ġsqu adron
Ġremain der
Ġmess engers
Ġenjoy ing
lar ation
Ġrob bed
Ġarrang ements
Ġrejo icing
supp ose
Ġprec aut
Ġdoub ted
ĠMead ows
ĠScar let
Ġfanc ied
Ġtid ings
U RE
c raft
f ing
Ġw iped
Ġp ony
im ately
ĠH um
Ġor ange
ĠF A
um a
ud son
Ġper ish
Ġsc ulpt
de velop
Ġwar rant
ON D
ĠAll ison
Ġarm or
Ġprop ose
Ġir regular
jo ined
Ġtender ly
Ġspr ings
Ġmat ches
Ġblaz e
Ġremind ed
Ġchallen ge
intell ig
ĠCarm el
J oseph
M ER
R ed
n amed
s oft
Ġb other
Ġb ob
Ġp aw
Ġp avilion
as ks
Ġh ook
ow es
st ick
ro cks
ĠF in
Ġman ey
Ġany way
Ġqu oted
Ġdes erve
Ġneed n
Ġmag ist
Ġcommon ly
Ġneighb oring
Ġve il
Gr andfather
serv ice
Ġbrief ly
rock ett
Ġrespond ed
4 8
G eneral
b ons
j un
u ine
ou che
ĠT ob
ĠS we
ab y
ĠD ur
Ġar ts
Ġcl apped
ove l
de al
Ġret ire
Ġhar ness
Ġhar vest
Ġhear th
Ġdro pping
Ġill ustration
Ġblood y
Ġthick et
ĠPer cy
cend ed
Ġrul ers
Ġdiv ision
ĠFl ossie
ĠGe org
Ġperform ance
chan ged
Ġwel comed
ĠAnt i
bal aua
Ġdisg ust
A pon
b ia
i ac
l ings
Ġt un
Ġs add
Ġin it
Ġy oke
ay lor
ĠT uesday
Ġun seen
Ġfl owed
Ġpe as
ang s
con ce
Ġmer rily
Ġass ume
ĠAd am
Ġdress es
Ġban quet
Ġcruel ty
Ġentertain ed
cond uct
ĠCoun cil
LESS ON
4 3
B ob
E ach
W est
g otten
Ġm art
et her
Ġse al
ĠD ynasty
ĠR at
Ġro sy
ĠK ad
Ġmust n
br others
Ġprov ision
Ġsorrow ful
gard en
Ġfill ing
Ġfavour ite
ĠFred er
Ġarch it
bott om
Ġforbid den
Ġbron ze
F ar
i ate
p ock
Ġm orrow
an as
ĠS ultan
ĠM E
Ġr asc
un a
Ġsh rewd
our ces
ĠR ead
um ption
Ġout line
te rer
Ġgr asped
Ġun conscious
be at
cl im
Ġmay st
ĠSt ra
ĠTh ursday
Ġcr acked
Ġ5 5
Ġwild ly
Ġstud ents
Ġfun eral
Ġbas is
Ġdisci pline
G l
J im
K athleen
M ag
p han
u ity
Ġa we
it an
Ġd in
st ar
ĠT our
ĠT au
ĠA lfred
ĠC ath
Ġtr ot
Ġun just
orn ed
ĠU N
ĠV II
OR D
Ġhum or
Ġstru cture
Ġsleep y
Ġstri kes
Ġquar re
Ġcustom s
Ġrail way
Ġconfess ed
Col umb
Ġsurround ing
Ġdaz z
obser ved
ulc ie
C he
F rench
S top
e au
p ha
Ġs ly
Ġg at
Ġg ird
Ġwas ted
ĠT W
ir th
Ġre b
ĠV i
ial s
Ġel abor
fl oor
Ġass ault
Ġmeet ings
Ġspeak s
Ġhast y
Ġcamp aign
Ġsit uated
ees e
Ġsecret ly
ĠOr leans
Ġclaim s
ĠGl ass
ĠShann on
Ġafford ed
ĠHor ace
Ġsovere ign
E urope
n ie
Ġb i
Ġto e
Ġl ame
st arted
se nd
Ġre ef
ĠS ic
ĠS kin
ĠM et
ĠM al
ĠM erry
ĠP re
ĠC amped
Ġk ins
ound ing
ĠR aven
ĠN aida
Ġj ars
for ced
lect ion
Ġshall ow
und ered
Ġbo ast
Ġhar ds
Ġbar rel
Ġ17 6
Ġthick ly
Ġmot ive
Ġdesp ite
Ġgra vel
Ġrough ly
ĠCount rey
ĠRoy al
ĠIsrael ites
Ġlamp s
Ġlin en
Ġencour aged
Bl ack
determ ined
Ġacknowled ged
4 5
W ARD
p est
w his
y m
or ig
as il
Ġh ounds
ot a
Ġbe e
st opped
se x
ĠA L
Ġan on
Ġk ettle
ĠW r
Ġshe er
Ġwho ever
Ġar range
Ġhead master
aut hor
Ġple asing
Ġlear nt
Ġexpl os
Ġdem ocr
ĠMar quis
after wards
pal ace
Ġoccup ation
isto cr
Ġgle aming
May be
Ġfo am
D or
H old
a ired
m oved
Ġb ills
Ġc ousins
Ġin spect
Ġha ts
ay an
ĠS P
ĠS urely
ĠP erson
ĠL es
Ġgo al
ĠJ ay
Ġcan vas
hi bit
ĠSt ories
fe ather
Ġch ur
Ġbu zz
Ġche cked
use um
add ed
Ġmus ical
car ry
Ġhang ed
Ġwis er
sl owly
dec l
Ġrag s
ĠTit us
Ġric hes
Ġholid ay
Ġschol ars
Ġgest ure
begin ning
B Y
R EN
S uppose
a us
b ul
w an
in ois
Ġf asc
Ġd orm
Ġd arted
Ġg arrison
Ġbe am
Ġre ception
ad or
Ġwe e
ĠS ign
ĠA be
ĠM ink
ĠB a
ĠB RO
Ġher ds
Ġhave ing
ber ries
ĠO swald
Ġpro clamation
ors hip
Ġdes ires
Ġac id
Ġfair ies
Ġdri ll
Ġcap acity
Ġbound s
wood s
Ġcompl ain
cour t
ĠMc K
Ġho arse
Ġdiam onds
Ġdisgu ise
Ġinfer ior
Ġappet ite
H ullo
b our
b uck
w alk
Ġt act
Ġp our
Ġth orn
Ġy ds
Ġy elled
am an
ra ised
Ġde arest
Ġmother s
Ġnor mal
pro bably
Ġ5 7
Ġbeaut ifully
Ġmad ness
bus hes
hib ited
quis ite
ĠPers ian
Ġinquir y
Ġmeas ured
# #
C ould
N E
e ast
o bey
p ool
t ion
u er
it he
Ġm ou
Ġl ecture
ro ar
Ġre ather
Ġal oft
Ġbr u
ne ither
Ġsc out
Ġhome ward
ple ase
Ġsub mit
af raid
ific ations
Ġfoot ball
Ġhur rying
Ġbar rier
your self
Ġdecided ly
Ġresp onse
Ġconv iction
Ġtrad ers
Ġblock ade
ĠCle ment
ĠTur key
Ġexchan ged
Ġindign ation
Ġtrump et
Mur do
Az yr
B esides
C hild
E m
H all
Q ueen
Ġw icket
Ġb icycle
it ar
it ality
Ġn ests
ter is
ke l
ĠP oint
Ġr ay
ĠR ec
Ġsp arrow
Ġal ert
ĠN one
Ġj ail
Ġus es
Ġsha pes
Ġsl ide
Ġthought fully
Ġinst ances
Ġsn ar
about s
Ġgrow led
Ġrich ly
great er
Ġcompan ies
Ġspread ing
Ġbull et
ĠNe ither
anim als
Ġstrict ly
Ġliqu id
_ .--
b in
f urn
n one
t or
t ur
es cape
Ġn erve
im a
Ġre con
art ha
ge ant
Ġgr acious
Ġpass ages
Ġact ivities
Ġco in
Ġsun ny
cha mber
Ġinv olved
Ġstud ying
Ġsurpr ising
ĠMar j
hold ing
Ġbab ies
ĠSl id
Ġkey s
ĠCH ILD
Ġdi plom
Ġorn aments
rug ged
ĠEst elle
circ umst
M AN
R ep
f ood
h u
w ig
Ġe h
ĠM ong
ĠM iles
ĠG orge
ĠR ad
ĠR am
Ġun common
for mer
Ġper ished
Ġchan ced
br ance
Ġill ness
bes ide
reg ard
Ġjud ged
Ġmach ines
Ar thur
Ġtast ed
Ġpig s
Ġtest imony
ĠGaw aine
ĠSen ate
Ġinvest ig
Ġcy cle
ĠIce land
' ;
C o
L incoln
g i
g room
l ady
Ġd ict
Ġst ool
Ġst urd
ĠP ry
Ġso oth
un ched
ĠD a
Ġcl asped
ount ered
so oth
Ġstr ings
Ġbo il
Ġcr isis
Ġsmall est
Ġhapp ening
ĠInd ies
Ġread iness
Ġrepl aced
Ġhorse back
Ġdri ver
ĠGr ant
AM P
ok es
ĠCar l
Ġspring ing
Ġgro ve
Ġgro aned
Ġstern ly
Ġnegro es
gentle man
diffic ult
Ġfatig ue
Ġindif ferent
Ġpolit ics
W ashington
b one
h oles
j ac
t urning
Ġw ages
Ġs om
ou ching
Ġn erves
Ġwe ird
am ma
Ġan k
ĠM ight
ĠF olk
Ġqu it
ud ence
Ġdown stairs
Ġfl owing
Ġwhere in
Ġpre tt
Ġter ribly
Ġter rified
Ġri bs
li ked
ott ie
iter ranean
ĠQ ue
Ġescap ing
Ġstri pped
Ġdream ing
hold ers
uls ion
ĠPhilist ines
remem bered
G HT
f ields
f inger
m bers
p end
w atch
w arm
Ġ ]
Ġp ouring
Ġh int
le aves
ĠT ag
ĠA ld
ĠH ER
ĠD istributed
ra ke
um mond
Ġman s
ous ers
ig her
ack ing
ject ed
ru it
And re
sp oke
fl ies
Ġappro val
Ġdef ense
ĠST OR
Ġ186 0
should er
Ġcou ch
Ġsteam er
Ġtrad er
Ġpolite ly
Ġcher ry
Ġmanufact ure
3 1
L ondon
d read
l ives
t alk
w alked
in ch
al ia
ĠS id
ĠA D
ĠA st
Ġnot withstanding
il ful
ĠH ence
ĠP o
un ned
Ġsp here
Ġal way
Ġpl uck
Ġle agues
Ġpe b
ci ously
Ġch um
ĠV al
Ġop inions
ĠUn iversity
ars on
az ed
ĠRo om
Ġstat ues
OO L
Ġrecogn ised
Ġenjoy ment
Ġofficial s
ĠCr us
Ġsevent h
interest ing
ĠUp meads
D own
R uth
t om
Ġw oo
Ġd art
st orm
Ġy awn
Ġfor b
ĠS CH
ĠS uppose
Ġst ake
ĠH ell
Ġr attle
un ci
ĠE lectric
ĠN etta
Ġri pp
su gg
Ġdif fer
Ġexc iting
Ġfort night
Ġmod est
ĠHar riet
Ġneg lected
Ġoper ations
ĠEr nest
Than ks
Ġnav al
fa ith
Ġecho ed
Ġchamp ion
fashion ed
J ames
s ave
Ġs hat
er ity
Ġto m
or al
Ġp iano
Ġth res
ĠS ay
ĠH ay
ĠH udson
ĠB re
Ġr aces
Ġsh ots
ol ence
ĠR hod
ct ions
Ġun comfortable
Ġdis order
cl ed
Ġdes cent
Ġchan nel
Ġ4 1
Ġinter val
Ġpay ment
Ġinv ol
ĠEnglish men
Ġconc ent
could n
off ice
Ġprinci pally
nec k
Un cle
Ġsurv iv
ĠAfric an
bur gh
stru gg
Ġborrow ed
ĠUtter bol
b ag
j ah
p ress
s hed
Ġf itting
Ġe f
ir its
ĠS um
Ġat h
ĠB OOK
Ġr owed
ĠW atson
ĠD uke
ĠE ight
ĠN ome
Ġle apt
Ġbr ace
Ġmon sters
Ġ5 9
ken ess
ific ial
Ġstri fe
Ġ7 5
Ġdest ined
Ġobject ion
Ġver se
Ġremember ing
Ġdisp atched
bel ong
Ġeduc ated
Ġexerc ises
ĠCal ifornia
Ġnarr ative
A IL
I CH
S omething
p an
r ade
Ġw o
Ġb unch
ed e
Ġf ring
ĠI d
ro st
Ġst umbled
ĠP ope
ĠC hi
ĠC alled
un y
ol ph
ĠD ear
ĠE ben
ĠE gbert
Ġbr ack
Ġsl id
ĠSt ark
Ġcons isting
con tr
Ġform idable
Ġrel ax
IT IONS
what ever
Ġspec k
Ġreal m
Ġvar ied
Ġcal f
AS S
Ġring ing
Ġfaith fully
po inted
Ġoccup y
friend ly
ĠMin ister
fin ite
serv ants
Ġsore ly
pen ny
Ġglo ves
Ġgrin ned
Ġze al
d ig
f at
h ours
w ear
he avy
Ġh ob
Ġl ass
Ġr amp
Ġwor ried
ĠF oanna
um my
Ġal iens
Ġpl edge
Ġpre jud
Ġnec ks
ane ous
Ġaff ect
Th or
Ġang uish
Ġsqu ee
Ġloc ks
Ġdev ils
enn ie
ament al
Ġemploy ment
min utes
Ġtravel s
ĠDor a
Ġpick ing
Ġgle am
Ġheap s
Ġgrim ly
Ġnewsp aper
Ġunivers al
Ġach ieve
3 2
J esus
M ake
U B
c hard
l od
Ġf iend
Ġp ad
Ġp aces
Ġp anic
ic oe
Ġre bellion
Ġfor s
and ra
all ow
ĠC L
ich olas
ĠG ard
ist ry
os ite
Ġcomm ence
Ġcons ul
Ġcol oured
Ġmin es
Ġvis its
Ġbell y
Ġdisp ute
Ġcharacter istic
Ġoccur s
Ġnorth ward
port ion
Ġlabor atory
Ġcircumst ance
Ġtur f
Ġlack ing
Ġpier ced
Ġobserv ations
E P
T w
b ank
i op
k o
en a
Ġin habited
Ġn inety
Ġse izing
ĠC ub
ore nce
Ġsh ields
ul ars
Ġdo ings
Ġv iz
Ġv ault
Ġare a
Ġsp un
Ġbr and
Ġloo s
Ġworld s
Ġste aling
Ġbab e
Ġtro op
arn es
Ġeld ers
Ġrub bing
Ġfaint ly
fortun ately
Ġprec isely
Ġenthus i
Sm all
Ġemb arrass
ĠEliz a
Ġdischar ge
ĠJon athan
Ġholid ays
ryn hild
lear ned
= .
A F
B art
M on
S ec
_ ,"
c ott
i pper
l iving
r aged
Ġb erry
Ġc ore
Ġp orts
im in
ĠG olden
hen omen
Ġshe lf
ĠO cean
be i
Ġunder ground
Ġrem edy
Ġend ing
li est
Ġhigh way
Ġdoubt ful
Ġdrag ging
Ġscream ing
Ġproc ure
Ġproc ured
Ġancest ors
Hen ry
ĠButter fly
S unday
U pon
b ows
k ill
m ur
m ach
s ky
t in
Ġw har
re qu
Ġp ul
ac cept
Ġre vel
ad le
Ġwh oles
am ouche
ĠH old
Ġso fa
Ġbut cher
ĠL inton
Ġqu aint
ud run
ĠK ate
Ġsl im
ĠTh y
Ġbro od
fl owers
ĠPr arie
Ġpossess ions
Ġmot ives
ĠRe v
Ġins ult
Ġmain ly
Ġsatisf actory
Ġregard ing
Ġoccasion al
certain ly
Ġrub ber
col oured
Ġnur sery
Ġsolemn ly
____ ____
Ġimpat iently
Ġslee ve
Ġleis ure
B en
S aturday
m el
Ġt ank
Ġa ided
in er
Ġo ven
Ġc rooked
Ġd ainty
Ġp ump
at oes
ac er
ĠT in
ur a
ĠM ak
ĠC re
ol a
Ġv ap
ast on
ĠR un
ĠO liver
ĠJ a
Ġpro claimed
Ġcl inging
end s
Ġbet wixt
pe are
You ng
Ġcr ouched
sh owed
Ġchar ity
Ġopen ly
Ġcur led
Ġsn atched
Ġver ity
Ġenc ounter
ortun ately
ann ah
comm and
Ġproceed ing
Ġscr atch
Ġgar ment
adv antage
Ġtend ency
Ġcam era
tra vel
Ġprim itive
sold iers
ĠKent ucky
4 9
G overnment
Y e
b able
w ick
y ellow
at hi
ĠT rist
Ġre ass
ĠS eymour
ter rible
il ton
ĠM Y
ĠR el
ĠE llen
Ġj ug
Ġfl ocks
ang o
ip ing
Ġent r
ict or
Ġind uce
Ġdel ic
ib ilities
ĠCl iges
ĠPer seus
Ġjourney ed
Ġvict ims
Ġspo iled
Ġflo at
bur st
hun ting
ĠRock y
Ġtal ent
Ġpreced ing
Ġwig w
Ġgy mn
Ġtriump hant
cod ile
6 0
S te
S ara
w ish
Ġc ad
Ġm s
Ġm es
Ġm ound
Ġp anting
ut her
ĠT urtle
Ġcon sequently
ĠJ en
Ġun willing
oy s
Ġsc reen
Ġgl are
Ġsw arm
ĠV III
ens ity
Ġmar ching
Ġprom inent
OU SE
Th rough
Ġdev otion
some what
imp ossible
Ġinqu ire
Ġhost ile
Ġtim id
Ġwin ning
bro ke
Ġbuffal oe
Ġpor ch
Ġswall ow
Ġhistor ical
Ġbetray ed
Ġmarve llous
Ġenchant ed
t ight
Ġt an
Ġa er
Ġb orders
Ġl ane
Ġn onsense
ĠT ower
Ġwh ipped
Ġst amped
Ġat tain
ĠM em
ĠH alf
ĠP el
ĠC ir
Ġr ider
res ist
ĠD ulcie
ĠE ureka
are n
Ġam using
Ġper ched
Ġcont empl
gg ing
Ġtre asures
Ġgener als
Ġorigin ally
Ġann ounce
sl ave
Ġlod ging
isk os
Ġgra v
ĠCamp bell
Ġox en
Ġelephant s
Ġwrit ers
Ġkne eling
Ġiv ory
Ġtravell ers
m il
s uc
s itation
Ġb apt
it ively
Ġd yn
Ġhe el
Ġhe sitation
Ġg ale
ĠT eddy
ĠA ustr
th irty
ĠF a
Ġsp ur
oll o
Ġfl av
Ġch oked
Ġbo red
Ġche ese
Ġexpl o
CT ION
sc ore
ĠWith in
AM E
Ġconsider ably
ĠEd ith
des p
Ġvalley s
sec ret
wr iting
Ġorgan ization
Ġproud ly
Ġmir th
ĠSha w
Ġbra very
Ġwhist led
Ġwhist ling
nor th
wall s
sil ver
Ġretain ers
bene ath
ĠGeorg ia
c ivil
Ġa fore
Ġb amboo
Ġc ig
Ġre form
ri val
ĠThe bes
Ġpl ent
ick er
ĠK ab
ft en
Ġsm ith
Ġunder take
vent h
me ant
Ġsk ies
pro ceeded
Ġint im
ax e
enc ing
Ġprom ises
Ġjud ges
Ġdemand s
Ġtravel ers
Ġsusp ended
comm un
ev il
Ġhy mn
ĠFar ley
Ġgen uine
Ġcell s
Ġrecord ed
Ġcomment ed
abb ath
Ġpron ounced
Ġobed ience
Ġworshi pped
Ġburgl ar
H ur
b rew
c re
m aker
r ad
s ummer
v oc
Ġf uss
at hed
Ġl ent
ce iving
all owed
ĠP a
ĠP op
ĠC overed
un ting
ust y
Ġsu ited
ĠE ric
Ġwork ers
ĠU t
Ġdes olate
Ġsw orn
ĠCh loe
sh own
rent s
ey e
Ġmin or
ĠCl are
ĠAd ela
Ġadm ired
Ġheaven ly
Ġcrew s
Ġscr atched
Ġimpro ved
Ġdeb ate
ĠSig mund
fre quently
ĠAthen s
d ied
g ency
n ation
s ort
s ized
Ġb ully
Ġp ail
ĠT urn
ĠP uddin
ĠC arr
ĠC hallenger
ĠC rockett
Ġv ital
ĠD O
um bs
Ġsp ray
Ġwould st
Ġcl ust
ĠK or
Ġcar go
ob ed
atter y
con v
sh out
eth ryn
Ġfear ing
OU N
ĠAll an
Ġbright ly
Ġpat iently
Ġhero ic
sy mp
Ġcomfort ed
IR ST
Ġdoll ar
eas ily
Ġstock ings
Ġharb or
Ġsob bed
ĠBOY S
Ġep is
Ġdre ary
ĠAdela ide
C ur
F IN
k ne
s ides
in flu
ve land
all ing
Ġr ash
em ploy
Ġv ile
ĠD ep
ind ere
ĠR ak
Ġex clus
ĠN ag
are crow
Ġsc ared
ss uri
ĠAr t
Ġgu ided
Ġpar rot
ĠNor ris
Ġsn akes
under stood
Ġspeak er
key s
ech n
cons idered
exp ression
cent ury
Ġvers ions
Ġcolon ial
Ġexpress ions
Ġdesign s
Ġjew el
ĠOut wood
Ġscrew s
Ġstret ching
Ġrom ance
Ġaband on
ĠIll inois
Ġcultiv ated
Ġpudd ing
Ġspecim en
Ġdismiss ed
alay apan
indere lla
B oth
O ver
h ills
l am
l ate
o v
Ġt ribute
Ġc ove
Ġto y
Ġp enn
Ġh ight
Ġh uts
Ġl amb
ĠA B
Ġan igh
Ġan aly
Ġat tained
ĠM owgli
Ġher mit
ol and
ie ft
nt on
ĠD er
ĠD uc
Ġthere with
Ġtr aged
Ġpart ner
Ġdes igned
Ġchild ish
ĠV d
con vers
Ġadv oc
Ġwide ly
Ġca res
Ġir rit
Ġer a
Ġtrave lling
ĠCr ab
Ġeast ward
fell ows
Ġrespons ibility
Ġperf ection
Ġimprove ment
gener ally
Ġchuck led
Ġmanif est
ĠBeat rice
L ady
S outhern
c oun
ac re
Ġall owing
un ition
us al
us ky
ĠF ive
ĠR ey
Ġab olition
Ġj am
Ġbl ot
Ġsc ow
Ġch oo
Ġch icken
vent ures
me ad
Ġint imate
Ġswe at
Ġass igned
ĠCl ay
Ġspec ially
Ġvol umes
ĠRob inson
Ġfre ed
ĠGl ad
foot ed
Ġbirth day
Ġdig ging
Ġexha ust
Ġstub born
J e
W he
o bl
s or
t im
is ha
Ġc ured
Ġp ouch
Ġp sych
om a
ut y
Ġwe ighed
Ġwh irled
ch urch
if ting
ĠC ru
em per
Ġsh orter
Ġsu pre
el ope
ist ent
ra z
Ġde alt
Ġli keness
be ard
ater pill
ren e
Ġend less
Ġser ving
ple nd
Ġem otions
ON E
br ush
Ġround ed
Ġint ently
Ġcal am
Al ice
Ġcomfort ably
Ġpit ched
Ġsouth ward
Ġbull ets
tell ing
Ġrejo ice
Ġvirt ues
Ġdrift ed
Ġcu ps
fav or
Ġcong rat
ĠGRE AT
ĠCaes ar
c ru
c ular
l ower
p os
s we
z ell
re em
Ġc aves
ing le
es cap
Ġl ain
le igh
ic ut
ir ation
Ġre tained
Ġst ately
ĠM ade
Ġk ite
ĠW ay
ĠG il
ĠO m
Ġtr ading
we ed
ĠK o
Ġold en
Ġsl ack
ps es
ob ile
Ġrep air
Ġrec alled
Ġ5 8
Ġbelie ving
rer s
Ġcast ing
would n
Ġtrans formed
Ġsweet ly
Ġfront ier
Ġobject ed
kes peare
gard e
Ġneg ot
Ġneg lect
sur pr
Ġdust y
Ġdeser ved
Ġproble ms
del ight
Ġmour ning
Ġcrim inal
Ġamb ition
Ġcra zy
Ġto oth
Ġl un
le aving
Ġg oss
ĠI nt
ĠS old
ĠB umper
un cle
Ġsh ops
Ġsu cc
Ġdo ve
ol i
ĠD et
ĠO bed
Ġpe ered
Ġdist ressed
me an
hip m
Ġsy mb
Ġlow est
Ġappro ved
Ġfort ress
Ġmod e
Ġest im
yr us
cy cle
oon er
rect ion
yn ch
Ġrepresent ative
mar ked
hot ep
phe t
Ġspr ung
Ġresc ued
ĠRem ember
Ġconsequ ences
Ġfortun es
Ġfrag ments
dest roy
creat ures
osc oe
Ġdil ig
fright ened
Ġbewild ered
Ġencamp ment
Ġsupre me
R ussell
S ha
p ine
r ising
y ards
it ations
Ġn ay
le af
Ġg au
ĠS ides
ĠS ize
ĠS kins
ĠM ir
ĠH ast
ab ama
ol ic
ist ics
Ġcan st
Ġright ly
Ġbest owed
AT E
ĠCl owes
Ġvol can
ĠRe g
vis ions
Ġgall op
Ġpra ised
Ġcontr ast
Ġhealth y
Ġreve rence
Ġdelay ed
pent er
Ġcitiz en
Ġcomr ade
Ġawa iting
Ġinstit utions
ĠFrancis co
Ġcaval ry
C r
F riend
c ord
Ġw ider
Ġs ed
Ġb ald
Ġb ounded
en joy
Ġl id
Ġe mancipation
ĠT iger
Ġre igned
ĠS C
ĠC AR
el ia
av a
Ġbo ar
Ġbu ggy
ON S
Ġkeep er
Ġfore most
ib al
Ġass isted
Ġopp ressed
Th om
tern ity
pre vent
Ġthick ness
athe mat
Ġgard ener
Ġdiv ide
ont al
Ġmut ual
ĠBab ylon
Ġmir acle
Ġfavour able
Ġbas in
Ġdistingu ish
Ġaccompany ing
Ġintent ions
Ġembr ace
Ġasser ted
Ġrav ine
Ġbond age
Ġlat est
Ġprivile ge
ĠConn ect
) .]
d ressed
i ary
o oth
t ro
Ġm ac
Ġm onsieur
es ter
Ġd ucks
Ġg al
Ġe ve
ĠH op
Ġme ek
ers ed
ĠR ound
Ġcon ceive
ud g
Ġend ured
ustr ated
men garde
Ġ6 6
Ġcur ved
Ġstay ing
ĠChar ley
Ġglass es
Ġtrem ble
Ġprev ailed
Ġund oubtedly
prom ise
ĠJac ques
ĠSqu ire
Ġcaut ious
ĠColl ins
Ġgreet ing
pat hia
Ġembr aced
thr own
ĠSER IES
4 2
C or
h ide
s ick
Ġb ang
it ating
Ġm and
an qu
Ġl ined
Ġg or
ly mp
Ġre view
ĠM as
ĠH olland
ĠG oose
Ġdo om
Ġv ary
ĠR ight
ct ic
itt ered
ĠE ve
ĠN obody
Ġcan al
Ġun a
Ġter rific
ĠCh op
Ġcha sed
Ġcut s
Ġaw aken
co al
Ġpat ron
cont ent
Ġattend ants
Ġcrown ed
Ġwitness es
Ġemp hat
whe el
Ġfil m
Ġap olog
Ġaffection ate
Ġemer ged
Ġexperi ences
Ġannoy ed
Ġloy al
Ġportra it
I m
b reath
f ool
l ace
he ro
Ġc ards
Ġd uly
Ġd ynasty
ĠI X
Ġyou ths
ri ers
qu ence
est one
ĠL ottie
ell a
um erable
ĠJ os
Ġpro gram
ven ant
ff ic
Ġbr icks
cl ing
Ġsl ed
oot s
ins ide
Ġste ered
Ġ5 6
part s
ĠPr ot
ĠBe ast
Ġ9 5
iver se
Ġcompl aint
Ġmain tained
Ġdread fully
Ġtong ues
last ing
ingu ian
Ġresem blance
suff icient
Ġexceed ing
lest on
Ġtransl ated
ĠHaw k
enem y
Ġton ight
famil iar
C apt
H as
h id
s am
s light
Ġw recked
ou g
Ġf ret
en ched
Ġc el
Ġto w
ar ant
st ant
ent or
ay emon
al an
ĠS age
ĠM ISS
ĠP or
Ġr ab
Ġr ained
qu ake
Ġdo d
Ġv ice
ĠL uc
Ġman e
Ġtr am
Ġfl ashing
ty ard
ex pect
Ġrep ublic
Ġcr ust
Ġmind ed
Ġ4 2
Ġred d
ĠĠĠĠĠĠĠĠĠĠĠĠĠĠĠĠĠĠĠĠĠĠĠĠ ĠĠĠĠĠĠĠ
ruct ed
Ġpast e
Ġsqu e
ask et
ĠLe ete
ett ice
IR L
fle et
Ġbride groom
Ġgle e
Ġinstruct ed
Ġindust rial
Com m
Ġpersu ade
ĠJud ge
Ġsen ior
Christ ian
Ġconvey ed
ĠWy att
Tra vis
Ġinser ted
ĠSlid ell
ĠPry or
hipm unk
5 6
F our
S it
a um
l ab
n s
s urely
s harp
y outh
Ġc ited
Ġd ome
Ġp ots
ĠS in
th reat
Ġr aid
Ġwere n
Ġsu llen
Ġal tered
ig i
are th
Ġoff ence
orn e
ph ys
Ġch ickens
Ġlook t
Ġwar fare
Ġlight er
Ġpar lor
Ġcertain ty
ax ter
fl ower
Ġpast ure
arent ly
Ġsuccess fully
Ġbow ling
Ġdeal ing
ĠChar teris
ĠSam my
Ġinsp ection
Ġcorrespond ing
Ġtot ally
wonder ful
ĠBro ok
Ġtwink ling
Ġninet een
D ane
P ol
e rest
l it
Ġs ire
Ġc ul
Ġd ivers
il a
ĠP ot
ĠC hap
ĠW m
ĠG raham
ie u
ie ving
Ġv ul
ĠD iskos
ell o
Ġex quisite
ĠO l
Ġtr ousers
Ġwork men
ave ment
Ġsm ashed
Ġres ources
Ġcha l
Ġspe eches
Ġprom ising
vers ed
Ġdeep est
Ġang les
ĠEnglish man
Ġfa ults
Ġobser ving
Ġlie utenant
che t
should ers
Ġrapid s
mar ried
Ġstick ing
Ġharm less
Ġthreat ening
Ġ185 7
dec ided
Ġbask ets
Ġnav ig
Pr incess
Ġhesit ate
Ġtempt ed
Ġlegend s
Ġadmin istration
Ġsecre ts
Ġsturd y
l atter
Ġt earing
is land
Ġh ire
ĠT aylor
Ġwe eds
ter y
th ro
ĠH ope
Ġr ug
ĠL iber
os a
Ġtr ay
Ġdis like
Ġfl u
ble m
bl ess
Ġpo nder
Ġsc ales
iz z
ĠV ye
Ġtri es
Ġstrong est
ĠSe ven
Ġjoy ful
Ġwarm ly
Ġforget ting
ĠEvery thing
Ġcomb ination
ĠAnt on
Ġrejo ined
mag n
cond ition
dark ness
equ al
ĠSpec ies
Ġneat ly
Ġpear ls
Ġharmon y
9 2
b at
g olden
m aterial
o id
p ole
Ġa uth
in habit
Ġf uriously
Ġp ant
Ġha iled
Ġbe ef
st ro
ith met
ad ually
ĠS ac
ur bed
ab ao
ĠD uck
Ġex tending
ge ons
ĠN ational
Ġpl under
Ġen v
cl ad
Ġback ground
Ġloo p
Ġright eous
Ġple aded
OR N
pro ve
Ġreg ards
Ġearth ly
Ġtri fle
Ġdep rived
Ġlim its
Ġcir cles
Ġenc ountered
Ġcapt ives
Ġthro b
ĠTer ra
Ġwitness ed
Con f
care fully
Ġcult ure
Ġreck less
Ġcraw l
ĠBoy s
compan ions
Ġninet eenth
Ġbutt ons
anas ief
ĠSTOR IES
C le
G wen
K E
R ic
c u
c ill
d ale
g oes
h istory
Ġt ack
Ġw are
is ms
ar ation
ĠT u
ĠS abbath
Ġst ing
Ġso ap
to e
ĠG ra
ĠG RA
ĠD oes
ĠR y
Ġbr ows
Ġbeg ging
Ġmar s
vel ope
Ġgu ilt
Ġrel ieve
IT E
Ġbes ie
Ġtem pest
Ġinf ected
ĠDr ummond
Ġver d
overn or
udd led
Ġbeast ly
Ġcourt esy
ĠJoseph us
Ġaddress ing
Ġheight s
ĠXX X
Ġresem bles
Ġaim ed
quar ter
Ġassist ant
Ġtyr ant
fav our
DE FIN
scar cely
Ġtreacher y
Dor othy
M er
d le
d inner
g aret
j a
r as
r ick
s ens
s outh
t one
Ġ icy
Ġto ol
Ġh ood
Ġhe ated
Ġbe ams
im ming
Ġre eds
ĠW AR
to k
Ġshe riff
ide a
ĠN icholas
ĠO b
ree zes
Ġdis sol
ren ched
Ġcount ing
Ġrep ose
Ġform al
pro ceed
Ġadv antages
RE D
Ġsn ap
dis c
Ġ12 0
Ġinf ection
Ġfright en
Ġbreath less
Ġgall oped
know ing
Ġrob in
inn ers
Ġfavor able
ĠJan ie
Ġwealth y
spe ed
Un ited
ĠMer cier
Ġexec uted
mind ed
Pr ince
anim al
satisf ied
Ġdecor ated
Ġhoof s
W in
b road
j ar
n ant
p ical
w ished
Ġt uck
in ated
Ġs ar
ed o
st ock
ly mouth
ke e
the ned
ĠP en
ĠP res
Ġshe ets
ard ly
ĠF ield
Ġman hood
Ġno ses
Ġtw igs
Ġun kind
for gotten
ĠK ot
ĠY vain
not iced
Ġcomp osition
Ġres ent
Ġmo ves
ey ond
wor king
ĠPr ay
Ġswe eping
ĠGr imm
Ġ7 8
Ġca using
Ġtem porary
imp ly
hard ly
Ġcover s
ĠWilliam s
ipt on
dr ink
Ġappeal ed
lau ghed
Ġappreci ate
pic uous
Ġsan ct
ĠFif th
pend icular
! _
f resh
g athered
m oon
s ister
Ġm ajesty
at ha
Ġg alley
se ems
Ġse aled
ĠG ro
op ard
ĠD ead
um sy
ig ger
ĠO ri
ĠO wen
bl est
ĠY e
Ġsl ipping
oth s
Ġkind red
Ġref res
Ġrece ives
ird re
pro ved
Ġcur sed
Ġide als
udd ing
Ġphys ician
Ġmass ive
Ġbare ly
Ġchest nut
Ġdiscuss ed
respond ence
ĠChe if
particular ly
Ġdign ified
Ġwing ed
ĠDel aware
Ġillustr ated
Ġinstit ution
sus p
spo ken
Ġinev itable
Ġsurviv ors
' --
T ime
c and
d oll
g ers
j i
n arrow
in formed
re pe
Ġn asty
le ad
Ġbe fallen
Ġy on
ĠS had
il ias
Ġse lling
Ġr otten
ĠG unn
qu ick
ĠL ower
Ġover fl
Ġcomm ittee
Ġcr ush
ret ty
me aning
Ġche ered
ĠST ILL
Ġeng age
Ġ16 8
Ġappl ication
wr ong
serv ant
ĠMed iterranean
Ġfortun ately
break fast
Ġthirst y
Ġcompar atively
Ġliqu or
ĠAthen ians
Ġcolumn s
Ġnewsp apers
Ġbrisk ly
Ġimprison ed
ĠPoss um
( _
9 0
A CE
A ccord
F red
K eep
R U
d iam
r iment
s le
he im
Ġs ections
Ġm old
Ġp oo
as sem
Ġh ush
Ġh opped
ĠH a
ĠH ear
ĠH ung
to ise
Ġsh ivered
ĠF RI
nt il
han ging
Ġro ds
end ricks
ĠK n
ĠK eep
ile y
ron ted
Ġstill ness
Ġatt ic
pr ay
Ġmin isters
do ors
ĠĠĠĠĠĠĠĠĠĠĠĠĠĠĠĠĠĠĠĠĠĠĠĠĠĠĠĠĠĠĠĠ ĠĠ
Ġdet ained
Ġexper t
Ġda is
sy stem
With out
ĠFl orence
Ġdiscover ies
Ġremem brance
present ly
ĠCH APTER
Ġresem bling
Ġsour ces
Ġknock ing
ĠDec laration
Ġdischar ged
success ful
creat ure
Ġpeep ed
ĠJapan ese
Ġdeliber ately
perfect ly
ĠEver ard
Ġwha le
Ġdesir able
Ġabsor bed
fing ers
feather s
DEFIN ITIONS
L ast
O ther
S tr
d i
f ier
n igh
s ense
v ice
Ġa venge
Ġthe r
Ġb ould
Ġb ats
is ation
Ġd ad
Ġp yramid
Ġg ear
Ġbe ck
ĠT zu
ri b
am er
ĠA men
ec her
ill es
ĠP ost
ag en
ag og
Ġsh udder
op l
ĠF el
ĠF rey
Ġno d
ĠJ ad
Ġtr otted
oy ne
Ġcha ps
ĠAs h
Ġname ly
Ġmon ot
ĠNo el
Ġ9 6
Ġ9 7
Ġtrans p
Ġsweet ness
ĠSh ields
Ġcompl ained
ĠDav is
Ġrespect able
Ġmess ages
thought s
inn ie
Ġproceed ings
Ġslay ing
Never theless
haw k
Ġillustr ations
Ġveget able
Ġcurtain s
ĠWhe ther
Ġfulf illed
Ġfet ched
Ġprosper ity
Ġadapt ed
Ġchur ches
D es
N OW
W ar
h ine
n is
t ies
u pper
nd ers
Ġb un
Ġf ab
Ġf ant
Ġp all
as ium
Ġn ap
Ġg eese
ic ations
ic ulars
st at
st ay
Ġe ate
im on
ĠA ges
il ian
ĠM uch
ĠH arrison
ĠC had
ag u
un to
ĠR es
ĠR oscoe
Ġtw ist
ud ged
Ġpr ime
har ds
Ġyoung ster
Ġ3 00
Ġcons ulted
Ġcha mbers
Ġmet als
ĠNo v
Ġbig gest
ĠNor se
Ġsn ug
Ġ7 6
ĠX I
ĠĠĠĠĠĠĠĠĠĠĠĠĠĠĠĠĠĠĠĠĠĠĠĠĠĠĠĠĠĠĠĠ Ġ
war ri
Ġneg ative
prom ised
sur face
ĠCH AR
Ġpill ar
Ġdistinct ion
ĠMor ris
Tr ue
Ġge ography
possess ion
grow ing
Ġseam en
Ġbloss oms
Ġtheat re
ĠKad alayapan
Ġshat tered
5 5
S ource
d ess
n ings
o ons
p ul
t rying
Ġt ame
Ġt ons
Ġw retch
at on
Ġhe ir
ĠF IRST
ĠR ED
Ġex clamation
Ġar istocr
we alth
ang ular
Ġgl ist
li er
Ġye oman
rem ark
Ġvill ain
Ġpain ting
Ġmis er
pre ter
Ġur ging
Ġhy p
Ġflag s
Tr ans
Ġceremon ies
Ġgorge ous
E s
c as
l ies
m ad
s i
t rave
ed ed
Ġc ash
Ġwe lf
ĠS end
ĠS upp
il ance
ĠH ipp
ĠB urn
." ]
ĠG en
ĠF ederal
Ġno ises
Ġag itation
Ġfe ud
Ġbr ist
Ġdis mal
Ġhow ling
tain s
ne g
Ġsc al
Ġres erved
ĠAr nold
su it
Ġdec line
app ointed
Ġbro om
Ġref resh
Ġste pping
clud e
Ġass ail
Ġ9 2
Ġhair s
Ġdep ended
Ġbright er
ĠX II
fast ened
ĠCar pathia
Ġattack s
Ġeager ness
Ġpor ter
Qu ite
Ġarg ued
IF E
Ġhosp ital
Ġinquir ies
Ġpleas antly
Ġoppon ent
pop ular
Ġimmort al
ĠLind say
Ġwelf are
) :
C ount
S ix
s ong
s pl
re ve
Ġe text
ĠT ad
ĠS W
th iop
to s
ĠG IRL
ĠL in
um ing
ĠY ue
Ġhow l
ru ff
Ġpre m
pr incess
Ġcha nt
Ġple asures
att ack
AT HER
Ġ6 7
idd y
ĠCl ara
Ġ9 9
Ġstri ve
play ed
dis cover
Ġbreak s
Ġpray ing
Ġve xed
ĠFl or
leg ged
Ġur ge
ĠHor se
Ġindign ant
ĠDal zell
Ġestablish ment
Ġvic inity
Bet ter
Ġelabor ate
D istributed
M ENT
S C
S H
T ruly
c ab
f led
l an
l anguage
m ate
t alking
u f
x es
Ġt ut
Ġw ert
Ġf riar
Ġh ing
Ġh oll
ut ing
ot an
ic iently
st ories
se ver
ĠM iller
ĠH are
Ġr ans
ĠG i
ĠG udrun
Ġsu ck
Ġsu its
ol ution
Ġpro long
Ġfe ature
Ġtr out
Ġgr am
Ġad vert
Ġsec urity
Ġdec re
Ġ5 4
Ġmount ing
ump ing
Ġart ificial
ĠBe hind
ĠSc arecrow
Ġbur d
Ġjo ints
Ġdev oured
ĠRe view
Ġjour nal
Ġnice ly
cour age
Ġbitter ness
ĠCour se
Ġbat hed
Ġimpat ience
Ġproject ing
Ġdoub ts
Ġperf ume
Ġbeet les
Ear ly
Ġsubd ued
entire ly
ĠMarj ory
circumst ances
ĠTag alog
A H
A p
B ar
N one
S ire
m iddle
w ait
in ating
Ġm uddy
ro ads
ĠH AR
ĠB ack
ĠC ousin
Ġme nd
Ġman ly
Ġcon quest
Ġj e
Ġtr aced
Ġcl an
ount ains
Ġcomp are
anc he
ĠBr ad
sp ace
Ġsun rise
Ġvis iting
ĠWhat ever
Ġinter course
Ġ6 2
Ġ8 7
ĠCom mission
ĠX IV
ĠMay be
ĠTr ade
Ġdread ed
Ġbread th
Ġsens itive
sing le
Ġdim in
Ġbatter ies
Ġhence forth
Ġtransl ation
Ġphilosop hy
ĠRepublic an
Ġprow ess
Ant ony
Ġgn aw
ĠOx ford
Ġtraged y
- .
1 00
E C
M Y
O OT
_ ]
l oy
p owder
s um
t all
w atching
Ġt i
ou ston
Ġb unk
Ġf uel
ar o
Ġd ame
Ġp ounded
Ġl ace
Ġg ust
ĠT uck
ĠS leep
ĠB est
ind le
ind ers
Ġcon vent
Ġpl ane
ile e
Ġapp e
og rap
Ġatt ach
ĠCh u
Ġext reem
Ġglad ness
St and
ĠPl ain
ĠZ og
Ġresp ected
Ġcontr act
osp el
ĠAf anasief
ĠSte ven
Ġap ron
mist ress
Ġplun ge
Ġga ily
Ġfow ls
Ġstag gered
Ġesc ort
pict ure
5 8
9 8
H istory
c ence
m akes
p ie
s ize
t es
w ond
Ġb in
Ġp aws
Ġp addle
id el
st antly
ve red
Ġe ch
ĠT enn
ĠB less
ĠB rynhild
Ġr uff
Ġher ald
-- -
qu er
Ġno stri
Ġex hibit
Ġtr unks
Ġcl ue
per iod
Ġad mission
ru bs
Ġgl ancing
Ġter race
irl ing
ĠSp ence
Ġequ ipped
Ġmed iation
Ġsqu ire
Ġpres ume
Ġbright ness
off ered
great est
Ġaccom mod
che er
ĠGer aint
ĠAb bey
Ġbell ige
ĠSw ed
Ġban ner
Ġinn umerable
pri vate
eless ly
Ġsymp athi
ĠPal ace
Ġrevol ver
Ġbra ke
Ġcro ps
Ġkeen ly
Ġsuffer ings
sil ence
ĠLouis iana
hun ters
Ġrepro ach
Ġsumm ons
Ġbeha ved
Ġthrill ing
Ġmoder ate
ĠThing s
Ġridic ulous
Ġpeas ants
! _"
B o
D ec
R uss
S pe
e vent
e ager
h op
k as
p ay
t ical
w inter
is le
Ġd ived
Ġp henomen
Ġha ught
ic ro
ir ies
ch ie
Ġr im
Ġdo omed
ĠF il
ĠL igi
ell er
ĠN avy
Ġthr ice
ang es
hes s
Ġcar s
oc ity
Ġcr ab
Ġmon ument
pro of
cha nd
Ġinv asion
Ġjoy fully
Ġcrow ds
Ġbene vol
Ġdesp ised
pass age
ĠFl ag
Ġwear iness
beaut y
Ġfol i
Ġspect acles
Ġwhisper ing
Ġtroubles ome
pi pe
ĠREAD ER
satisf action
Ġod or
ĠJell ico
Ġneut ral
ennes see
iou x
Ġeleg ant
pock et
Ġdorm itory
Ġgrav ity
ithmet ic
Ġnostri ls
A U
A lex
b out
b uffal
h urt
l orn
s now
Ġs ings
Ġm are
Ġd ine
ut tered
ow an
Ġbe ans
Ġwith drew
Ġis su
ĠH EN
to fore
ĠG ethryn
te acher
for get
Ġwhere upon
Ġpo ets
Ġch ieft
Ġacc um
Ġent ers
Ġsec urely
Ġcr adle
Ġsupp osing
ult on
app re
Ġ6 5
soci ation
play ing
ĠMar ian
cons ciously
ĠBill ina
__ _
Ġdepart ment
ĠDick y
Ġlod ged
ait land
Ġpot atoes
Ġliber al
Ġcivil ized
draw ing
Ġtum ult
Jack son
Ġdoct rine
Ġspecim ens
conn ected
Ġmagist rate
A la
F ive
S chool
d rive
m ical
on ment
Ġin justice
Ġl am
Ġg inger
st ring
Ġwh iles
un ner
ĠL ettice
Ġal ias
Ġde leg
Ġex ult
ig ration
Ġag ents
Ġro g
ap art
oll en
ĠK a
ĠK ings
bl ow
Ġcour tyard
Ġco als
Ġrel ate
Ġaw ait
Ġsight s
Ġoffic es
Ġvar iants
Ġcost ly
Ġlab ors
Ġla unched
exp ress
Ġburst ing
Ġsusp icious
AB LE
ĠĠĠĠĠĠĠĠĠĠĠĠĠĠĠĠĠĠĠĠĠĠĠĠĠĠĠĠĠĠĠĠĠĠĠĠĠĠĠĠ ĠĠ
Ġreve al
Her bert
Ġfold s
Ġdesper ately
Ġentertain ment
Ġadop t
Ġtum ble
Ġtempt ation
anz a
ĠCam bridge
ĠSar ah
stud y
Ġfisher man
ĠJell icoe
ĠHan sel
Ġcourte ous
Ġembro idered
ĠHop kins
E AR
P apa
a an
o ir
s and
s li
t i
he aven
Ġs oup
er get
Ġb isc
it ches
le arn
ot hered
Ġre ared
ri ots
ĠS ed
ĠS ho
Ġst ages
ĠM oor
ĠB axter
Ġse ver
ĠP H
ĠP it
Ġr ack
Ġsh rugged
ĠR ipton
Ġgo in
ĠN ation
Ġen erget
ĠK ING
ĠInd ependence
app l
Ġdisc ri
Ġass urance
Ġsight ed
Ġbes e
str anger
Ġ8 8
Ġlim p
LE Y
Ġsqu irrel
ĠAp ollo
Ġ16 6
don ations
ĠSee ing
Ġtor t
Ġrepresent atives
Ġvain ly
bar ked
Ġhurried ly
ĠEn na
Ġsettle ments
ĠTerr ans
Ġham m
interest ed
fig ure
ĠWH O
ĠSal mon
Ġspark ling
ĠScar amouche
ĠAss y
ĠCur rent
ĠWhit ney
Ġemphas is
Ġgird le
Ġtom bs
Ġwigw am
B rer
L isten
M us
M exic
M ajor
N obody
b as
n ic
r ates
t ar
Ġl il
Ġn iece
le ading
Ġg aining
Ġth orns
ad ays
ĠB on
ĠP orter
Ġr uddy
ĠW inter
Ġal ighted
Ġday break
ment ioned
Ġfl itter
Ġsl aughter
ia e
Ġhapp ier
OR T
Ġopp ress
Ġwonder fully
AL E
Ġbar ren
Ġjo ining
rect ed
des ire
ext ra
Ġappl ause
erv ation
Ġyouth ful
ĠPar adise
quest ions
Ġrid den
ĠSl ave
ĠMc G
ĠMc Murdo
Ġcolon el
Ġrag ing
Qu est
ĠCle veland
Ġdrift ing
Ġpoison ed
yes terday
Ġintrod uction
CON T
Ġfaire st
ĠMah omed
Ġepis ode
D el
b ones
f un
o let
s av
s ail
s udden
v ial
y ers
Ġt echn
Ġp est
Ġn om
ut ure
st ir
Ġe ats
Ġre de
Ġfor d
ĠH al
ĠW ang
Ġsh rub
op y
ak a
ine a
Ġli able
we ight
ĠK han
Ġpe oples
Ġear ned
Ġres ign
ult ies
Ġ4 3
gr ay
Ġeff ected
ĠNor way
ane ously
ĠCl ose
Ġdiffe rences
Ġbes et
Ġye a
Ġmed ical
ĠLe g
Ġdecl ined
Ġfun ction
ĠThese us
Ġattempt ing
Ġpun ct
Ġble eding
Ġroof s
ĠBar ry
Ġreward ed
Ġassem bly
ĠDE AR
pres ence
possess ed
Ġperil ous
Ġcompar ison
Ġprofession al
ĠStan hope
Ġflut tered
Ġjer ked
Ġgran ite
Ġcyl inder
Ġdemocr acy
ĠCub a
ĠAustr alia
P ray
b earing
Ġt it
it a
is ance
Ġf ared
at i
Ġh ue
om y
ĠT ao
ĠB uzz
Ġup roar
ĠF itz
ak i
Ġpl ucked
Ġgr ind
ord on
Ġpr udent
ĠK ansas
Ġpart ially
act ions
Ġsent iments
Ġrest s
Ġmet h
wor ked
Ġblack ness
Ġbre ach
cha se
Ġconf er
ĠAll en
Ġinv ari
Ġarri ving
Ġhill side
Ġ7 1
ĠChrist ians
Ġ14 4
Ġsand y
Ġstar ving
Ġmill er
ĠĠĠĠĠĠĠĠĠĠĠĠĠĠĠĠĠĠĠĠĠĠĠĠĠĠĠĠĠĠĠĠĠĠĠĠĠĠĠĠ ĠĠĠĠĠĠĠ
Ġbull s
fortun es
Ġinj ure
Ġresem ble
Ġresem bled
XX X
Ġspect ators
Ġhind er
Ġsch ooner
ĠJud ah
ĠBurg ess
ĠJul ia
ĠBudd ha
parent s
ĠKar ara
ĠTrist ram
Ġfoli age
Ġinvari ably
B el
L ife
R ou
m ixed
s orrow
w s
w orn
in ley
in tended
Ġw aking
Ġw ailing
Ġb ower
Ġf its
ic ar
ĠT ed
ĠT an
ĠT able
Ġre pt
ri ages
all els
ĠP O
ĠC oo
ĠG OD
ol ver
ĠL ear
ĠR oland
ĠE p
ĠO ct
Ġli king
be it
Ġhand y
Ġwhere fore
Ġhere after
Ġjust ified
Ġelect rical
com er
Ġfam ine
ĠAl g
Ġlo af
Ġinter pret
Ġhum ming
Ġ9 8
ĠDe vil
Ġcor rupt
ING TON
Ġcost ume
great ly
Ġpat ches
Ġda res
Ġhang s
min ute
bel ieved
ĠHar ald
Ġconn ect
dist inct
Char les
Ġleaders hip
Ġtar get
expl ained
Ġscient ist
Sc rooge
ĠJon as
fight ing
exper ience
offic ers
diffic ulty
Ġtravell er
ĠCloud y
Ġcoc oa
ĠGirl s
accord ing
ĠProv idence
Ġappropri ate
ĠMight y
ĠSCH OOL
ĠConnect icut
Ġauth ors
' ?
H ear
J uly
L a
R es
S car
T rent
v alley
w alking
in cl
in tend
Ġc udg
Ġp ipes
at ches
Ġe z
Ġre ven
ke red
ĠH ur
ĠB eth
ĠP lymouth
Ġv ener
Ġsp oon
Ġde ceive
pl ate
Ġtw ain
Ġcl umsy
Ġen vy
Ġover took
Ġam ple
be au
Ġfl og
Ġmay hap
Ġim itation
Ġsm iles
oth mes
con sequ
sh oot
Ġform ation
att r
Ġste er
Ġste ering
Ġpar ish
Ġwa ked
Ġsound ing
mon ths
Ġpri zes
Ġmag ical
under standing
Ġcoll e
Ġdem ons
Ġheav ier
Ġsqu at
dis appeared
Ġcap s
Ġver ily
Ġ16 7
Ġneighb ouring
vis it
Ġtor ches
Ġstro kes
Ġindividual s
Ġident ity
Ġpet ition
Ġrad iant
Ġsob bing
Ġvague ly
Ġstor ms
Ġchamp ions
Ġdoct ors
Ġdwarf s
Ġlux ury
Ġbloss om
Ġum bre
ĠAccord ingly
estab lished
flo at
Ġpolic eman
Ġech oes
H ouse
L O
P age
b rows
Ġt asks
re ach
Ġm ol
Ġm osqu
Ġl akes
st reet
Ġth igh
Ġwe ars
Ġst ature
ĠM ust
ĠH arris
ĠB ad
Ġse asons
Ġme als
Ġk icking
ant on
ĠD i
ĠD um
ĠD ale
Ġpl ac
ĠJ umper
Ġun necessary
Ġen velope
Ġknow est
Ġsl opes
Ġsc ound
ĠIn to
Ġpass enger
ĠV ictor
oc key
Ġcour ses
sh ut
Ġgu arant
Ġpers isted
bit ter
IS E
ĠSp ot
Ġhum our
Ġexc urs
Ġbar red
Ġhair y
Ġ8 5
Ġdest iny
Ġbott les
ĠSm oke
Ġ17 0
Ġins ist
Ġfav ored
Ġeng ines
ler able
Ġrapid ity
ĠTO M
Is n
bre ast
every body
Ġgra pes
Ġgro an
uzz le
Ġattr active
Ġgrie v
Ġendeav oured
Ġindign antly
ĠAR RIVAL
ĠGaw ain
Phil ip
Ġdaz ed
ĠGre thel
Ġbeet le
Ġsimpl icity
ĠTurk ish
ĠGunn ar
6 8
C O
R IST
T was
d well
f al
s en
he nd
Ġb acked
Ġp airs
Ġha unted
Ġbe have
se ek
im ble
ĠT inguian
Ġre ins
ĠM ord
ĠB all
ĠB unch
ĠW el
op ening
ĠD warf
Ġsp aces
Ġex hibited
Ġtr act
Ġcl er
Ġbl ades
Ġen lar
ĠK e
ft s
Ġwar like
Ġbu rial
Ġac res
Ġrest r
br anches
Ġref usal
Ġbest ow
Ġinc ess
cha e
oun cing
ĠCl ats
Ġcur ve
Ġ9 4
Ġgreen wood
Ġstep mother
Ġsweet heart
ĠĠĠĠĠĠĠĠĠĠĠĠĠĠĠĠĠĠĠĠĠĠĠĠĠĠĠĠĠĠĠĠ ĠĠĠĠĠĠ
Ġeng agement
Ġtor ture
Ġwis est
Ġsand s
ĠĠĠĠĠĠĠĠĠĠĠĠĠĠĠĠĠĠĠĠĠĠĠĠĠĠĠĠĠĠĠĠĠĠĠĠĠĠĠĠ ĠĠĠĠĠ
tw elve
Ġsal mon
sur prise
Ġspl ash
Ġshr ine
Ġinsp ired
Ġbol ts
Se ward
Ġric hest
ĠIm mort
ĠDun stable
var ious
umin ous
ĠPortug al
Ġfow l
corn er
ĠSit uation
Ġoutlaw s
Ġsust ained
Ġprecaut ion
ĠDur ban
Columb us
ym ph
ĠRak hal
ĠFRI END
7 8
A ugust
C our
C oll
C amp
E ast
M onday
R ose
V ENT
c aut
i ature
k iss
l ic
m ile
s ons
t ong
v in
in vent
Ġs aint
Ġb aked
ed ucation
Ġf ag
Ġc aterpill
Ġd agger
se at
im per
ac ion
ĠS ound
ĠS hi
ĠS ssuri
ce remon
ĠB ac
ĠC rom
ĠC OL
Ġme ets
Ġsh ift
Ġsu p
Ġv ines
ĠR et
ĠR ough
ĠO wl
ĠO lymp
ree ks
Ġqu iver
we ap
Ġam ended
ile t
ĠU s
ĠV is
Ġop ens
me at
Ġ5 2
Ġfin ishing
Ġforth with
cri ber
Ġ6 8
ones ome
ric ts
Ġsix pence
Ġfa wn
Ġfr owned
Ġdef ended
AM ES
Ġ16 0
ĠEm ily
sl aves
Ġshel tered
shi re
ĠJer sey
Ġemer ald
ĠConfeder ates
Ġghost s
vir onment
Ġprophe cy
Ġliter ally
Ġpir ate
tem pered
Ġimpress ions
ĠCent ral
anx ious
Ġincred ible
Ġreb els
Ġthres hold
Ġwo ven
P olly
e ur
g um
o ks
u its
Ġt enth
in ous
Ġo val
Ġm ask
ir rels
ĠS M
ĠS pr
Ġsa ll
th in
ĠM ack
the st
Ġse als
ĠG O
our selves
our nal
ĠR ag
Ġcon e
ig o
ĠN ay
ĠJ es
ish ly
Ġli ly
Ġsha m
Ġbl uff
Ġen cl
Ġunder taking
aw a
Ġhead long
over ing
IN T
elt ic
Ġdr ums
Ġpar cel
oud ed
Ġarm ature
co very
Ġwit hered
jo ining
ĠChar leston
Ġsecret ary
lo ad
hann el
Ġthreat s
opp osite
fin ally
spe aking
ĠSer ies
Ġexped itions
dist ingu
Ġregular ly
ĠEr mengarde
Ġspend ing
Ġdefend ers
Ġmap s
Ġpos itively
Ġrom antic
Par liament
---------------- ----------------
fold ed
Ġmechan ical
compan ion
Ġrib bon
ĠAc ademy
ĠCOM P
Ġmans ion
Ġmars hes
M onsieur
c aptain
g rave
l ifted
s in
Ġt ing
in j
Ġf ri
Ġc ough
Ġto ys
Ġn u
ow ard
ac compl
et on
ad icate
Ġwe aving
ĠS em
ĠS elf
ĠA y
ĠM od
ĠB ol
ĠW ork
ĠL ater
Ġsp an
ig an
Ġthere after
Ġag itated
ĠJ ove
ans ion
bl ock
Ġsc or
Ġstr ained
ob o
Ġres ulted
Ġind ian
Ġrec overy
Ġdark er
Ġ5 3
Ġlo ath
cha l
Ġcontin ues
Ġcontin uous
Ġcor al
ĠĠĠĠĠĠĠĠĠĠĠĠĠĠĠĠĠĠĠĠĠĠĠĠĠĠĠĠĠĠĠĠ ĠĠĠ
ĠAb ove
Ġvict orious
Ġrepresent s
ĠSw an
Ġfool s
Ġkiss ing
Ġopportun ities
acc ustomed
Ġdim ly
Ġattend ing
resp ons
Ġsubst ant
Ġlover s
Ġbuck et
Ġexcess ive
ĠNa ani
Ġeste em
ĠLod ges
H onor
d os
g ie
l oved
w ounded
Ġw ick
Ġb aff
Ġm ules
or ks
Ġp ic
an ter
st alk
Ġst all
ke w
ĠH ills
rom ise
ĠG is
ĠG ama
op inion
ra ved
ra ise
ĠR a
Ġout rage
Ġab str
Ġgr ades
Ġam bit
be ast
Ġboy hood
Ġfar ms
ĠWe eks
Ġco ax
OR K
Ġ6 3
Ġbur row
ern ation
Ġprod uces
Ġfr own
Ġdraw er
Ġgovern ors
pec ial
mar ks
VE L
Ġtravel er
ĠEvery body
Ġbod ily
Ġdim ensions
Ġvers es
Ġtender ness
Ġrevol t
pers ons
Ġtar iff
mo ving
Ġretreat ed
ĠBobb sey
Ġhosp itality
Pe ople
Ġinher it
ĠCrab tree
surpr ised
Ġextreem ly
5 9
A pp
C y
H or
S er
T AIN
b ish
p aid
t ired
Ġw reath
ed ged
it ably
on ic
Ġd ates
Ġin land
ro e
ad venture
her d
ĠM entor
ĠP ark
Ġk ids
ul us
ĠF ace
ĠL ilias
ber y
Ġpl aster
Ġag g
ĠHe brew
ep h
ass ed
Ġ_ ___
ĠY aga
ang ling
ru its
Ġsm oot
Ġcar abao
Ġseem ingly
less ness
Ġob viously
ia o
Ġlight ing
ott le
enc er
Ġfin er
Ġmer it
Ġ6 9
Ġcoll ecting
Ġsy m
Ġcommand ing
Ġdev ote
Ġtable ts
Ġhall s
Ġguard ian
arn et
Ġfurn ace
ĠĠĠĠĠĠĠĠĠĠĠĠĠĠĠĠĠĠĠĠĠĠĠĠĠĠĠĠĠĠĠĠĠĠĠĠĠĠĠĠ ĠĠĠĠ
yram ids
ĠHu gh
Ġselect ion
Ġfulf il
ĠMil ton
Ġflut tering
Ġscram bled
Ġhaul ed
Ġdetect ive
igaw en
Win ona
ĠFlor ida
C ongress
D an
F rid
S l
c am
c ases
r oun
Ġt ips
in it
Ġb iting
Ġb aker
it ched
is an
Ġc ac
Ġc ert
Ġd ive
Ġd ashing
Ġd itch
as co
Ġh ips
Ġl ashed
ot he
Ġbe fell
ri ving
ĠH IST
ĠP ress
ĠC hipmunk
est ial
os o
Ġkn ave
Ġam m
ĠY ear
Ġad vers
iss ue
ph ur
Ġcar bon
ĠTh ink
ret ion
Ġco ils
Ġlay s
Ġ5 1
Ġgre ed
Ġtri als
Ġsn uff
Ġ7 3
Ġreason ing
Ġtrans parent
Ġtou ches
ĠWill ie
Ġdef iance
Ġele v
reg on
reg arded
Ġ13 7
Ġve ins
Ġrespect ive
Ġdesp atch
Is land
ĠHar old
Ġann ual
Ġant agon
ĠSha kespeare
unn ish
Ġencour age
Ġpos itions
conf idence
Ġwrit ings
Ġhoriz ontal
ĠEs au
Ġx x
sim ilar
Ġjun ior
Ġneut rality
Ġcomplex ion
Ġmant le
occup ied
Ġdoc ument
ĠGil bert
Thom as
Ġchal k
Frid ay
S n
i our
y a
Ġ +
it ans
is n
or ic
Ġh ol
Ġn ets
st op
am beau
Ġse wing
ĠG rey
ul er
qu al
ĠD ist
au g
Ġro ast
Ġli ver
per ate
orn ey
Ġres ide
Ġcomm it
What ever
Ġwood land
Ġgre edy
ring ton
OU T
she l
ĠDe irdre
Ġhast en
ĠX VI
Ġwit ches
Ġ11 0
Ġrain bow
Ġhero ine
elect ric
ĠPe ace
happ iness
ĠBab y
Ġwicked ness
Ġdescend ants
dist ant
ĠBo one
bon o
ĠEv il
matter s
Peter kin
ĠCham p
Ġvigor ously
convers ation
G IN
G reen
H alf
M ad
b rave
c ake
h one
i ating
Ġt ep
Ġt angled
Ġf ib
Ġf iddle
Ġd ia
Ġh ides
Ġn our
Ġg ains
ĠI ron
Ġre action
ce val
ĠA way
ĠM aitland
ĠH ot
ĠC inderella
ĠF ulton
ĠD ak
Ġpro se
te nder
Ġtw elfth
be g
Ġoff ended
ĠY ours
Ġad orned
Ġapp rent
ĠSt ud
HE N
pr ints
Ġadv is
unt ary
she ll
Ġvar iant
co ats
hand kerchief
ĠX III
Ġvi olet
Ġdet ected
Ġmaid s
Ġspot ted
Ġoccur rence
happ en
Ġmad am
Ġconduct or
col or
Ġ185 8
Ġheat hen
cur rent
Par allels
Ġcompass ion
ĠChat terer
ĠAccord ing
laugh ing
ĠAnton io
D is
D al
S lavery
i ations
m otion
w atched
he era
ou st
is dom
Ġf oc
Ġf iled
Ġc ords
Ġm athemat
Ġp y
an an
an cient
Ġl ag
Ġg wine
st ates
Ġe c
ent rance
ro de
ver b
ce is
ĠA LL
th m
ĠM ON
ĠW at
ĠW ales
ĠL av
Ġkn ob
Ġpl ough
cl o
iss ors
Ġhead ing
Ġwr ists
Ġmar gin
ĠTh ird
ener y
Ġste ward
OR S
eng aged
iter ature
gr andfather
Ġalong side
ĠAl b
vers ion
Ġsince re
Ġorder ly
Ġ8 2
Ġ8 4
ĠCom rade
Ġ7 9
pre par
ĠMar garet
Ġbow ler
che st
Ġexper iments
Ġ186 5
Ġwhis kers
ĠTr ans
ĠOr d
Ġexpect ation
BER T
fall ing
Ġgra ves
Ġdescend ing
Ġdeser ves
Ġdeliver ance
ĠSix th
Ġrev ived
num bers
ĠEli jah
Ġrecomm end
Ġeconom ic
Ġclergy man
ĠJess ica
Ġath let
. ;
A V
A W
R ather
l og
n ar
Ġ ll
Ġt el
Ġo o
Ġc iv
Ġin tending
Ġl ark
Ġl ances
st ained
Ġe cc
im er
Ġre ap
ad iou
th ony
th orough
ĠP ag
ĠP sam
Ġor phan
Ġor chard
ĠG a
ĠG am
ĠG iants
us ks
ab as
Ġdo l
Ġwor ms
ie go
ĠD odd
ĠR od
Ġman agement
ig ator
te gr
Ġsha des
Ġfl ax
ĠK u
Ġper cept
de er
Ġtre ason
ĠAl ine
ger y
Ġfact ory
ĠBe echer
Ġ7 2
Ġpain fully
aff old
pec uliar
vis ible
EM ORY
Ġ13 6
Ġexam ples
ext reme
ĠBob by
Ġsepar ation
Ġid iot
Ġexist ing
ĠCo ast
Ġbark ing
ĠMed lock
ĠGu y
ĠBo at
Ġarg uments
Sh ort
Ġspect acle
Ġz inc
................ ................
ĠAnn ie
spec ial
Phil adelphia
Ġschol ar
LECT IC
ĠCass andra
ĠBec ky
H ush
L ee
S ure
b ush
f ruit
g iant
i ro
s plend
t ruly
Ġt rod
Ġw izard
Ġs ate
Ġb red
Ġto fore
ar my
Ġg er
Ġre bel
Ġfor lorn
ur rection
Ġr ugged
ĠW ard
to ps
ĠF eder
ĠL ess
Ġgreat ness
oy ce
Ġen closed
Ġfl int
bl ind
Ġpart iculars
Ġad o
Ġgl ade
ves sels
Ġres ort
Ġsk ilful
ĠBr idge
ĠFor th
AN S
AN Y
Ġearth quake
Ġhum il
Ġsleep s
ced ed
ĠSc ots
sc ene
ĠTH OM
ĠRed s
Ġassoci ation
hand some
light s
ĠX V
Ġdecl aring
ĠTr ue
Ġgate way
erc adiou
Ġcontr ad
Ġtast es
maid en
ĠSus an
Ġpool s
need ed
Ġod ds
sn ake
Ġshrie ked
fif ty
Rem ember
agre ed
Ġhards hips
Ġexplos ion
decl ared
obed ience
B E
B O
C at
F inally
I ng
M ass
S us
W ednesday
f its
f ires
l abor
m ined
m itting
s af
t ears
Ġ `
Ġa uction
in ence
Ġf el
Ġd ire
Ġd oubled
Ġp urely
as ury
Ġg am
Ġbe fall
ĠT s
ro ying
Ġan ew
ĠM ur
Ġso bs
ust rious
Ġv icious
ate ur
han g
Ġen raged
Ġmay or
Ġpe ering
Ġpre tending
Ġpass ions
Ġch ival
Ġey el
Ġjust ly
Ġnight fall
Ġwar med
Ġser geant
ĠWe ather
me rely
ĠWhen ever
sp irits
Ġche ers
Ġel apsed
ĠĠĠĠĠĠĠĠĠĠĠĠĠĠĠĠĠĠĠĠĠĠĠĠĠĠĠĠĠĠĠĠ ĠĠĠĠĠ
ship men
Ġcapt ains
gu ess
Ġresol ve
stit uted
spe ech
Ġnodd ing
Ġcorrect ed
ca used
Ġunl ucky
ĠWOR LD
Ġtap e
ĠSy ria
ĠRepublic ans
Ġrecoll ection
Ġrasc al
influ ence
J ac
M ed
N arr
d ry
e ged
p atch
w ire
in ked
ar g
Ġp ious
Ġp ins
Ġh ip
Ġhe m
Ġbe le
Ġe b
Ġfor ci
ĠS HE
am ount
il ted
ĠB an
ĠP hill
ĠW ren
ber ts
ĠR ain
Ġsp ong
ĠE thiop
au x
Ġcl ump
Ġam end
oll ey
ord an
Ġfl ing
Ġlong est
Ġback wards
Ġpre ach
oss om
ron gh
Ġhouse keeper
con y
att en
Ġnum bered
Ġsub tle
ĠAl most
Ġmin st
ring le
Ġless er
Ġinter ven
eth inks
Ġhum bly
Ġcur ls
Ġ9 1
ĠNew ton
str ate
Ġcor k
ING S
ĠLe ague
Ġport ions
Ġviol in
urd ock
Ġsens ations
Ġgas p
Ġlands cape
Ġpor ridge
Ġchat eau
Ġassured ly
uls ive
Se pt
fles h
Arch ie
Ġjealous y
Ġintrod uce
Child ren
L y
S ig
m are
w aters
Ġw rigg
Ġs aints
Ġb en
is ement
Ġf rig
Ġm ats
Ġm used
Ġd rying
an throp
Ġre verse
ĠS el
ĠA ge
ĠC oon
Ġr aged
Ġso ci
ag ant
ĠF arr
Ġcon ference
Ġcon verted
ĠE t
os itions
Ġag ric
ap se
we ek
Ġcl apping
cc as
ĠShe ll
ĠV ar
ĠV ols
up reme
ĠCh o
me al
ows er
Ġmo at
az ing
pro cess
There fore
enc hes
str icken
Ġpal aces
Ġfr antic
Ġcompl iment
ĠLe if
cont rol
Ġ14 0
car rying
Ġobl ige
Ġspeed y
ĠZ e
Ġpursu ers
inst ruct
bene zer
sim ple
meet ing
quiet ly
Ġsoot hing
Ġtreacher ous
Ġnois y
Ġrecomm ended
Sw ift
Ġobsc ure
Ġoppon ents
ĠSummer lee
ĠHend ricks
Ġbrut al
Ġgymn asium
obl ig
Ġfant astic
rongh old
6 6
O G
P S
b age
c ustom
f rey
r ons
v able
Ġa post
Ġw ist
re ts
Ġb ail
Ġb omb
Ġp omp
Ġp avement
Ġl ash
ĠT ony
al ive
ĠS ie
ĠS how
ec d
ĠB ox
all ic
Ġr he
Ġr apt
Ġr ains
ab und
ant i
ĠF IG
Ġde fic
ig ion
here nt
Ġbr ushed
Ġtw ent
Ġun f
Ġen velop
ond e
Ġfl ows
Ġfl ask
ick ory
Ġunder taken
Ġgl immer
ĠV a
ĠV ine
Ġimp et
Ġrep ay
Ġple ad
We re
Ġass ass
ĠQ U
ĠCl oth
ĠTH REE
Ġtem por
Ġdraw s
ĠCan aan
Ġhat ch
Ġcirc um
Ġrespect ing
Ġtim bered
Ġclean ed
inst ant
eas y
ĠEr adicate
Ġamaz ing
ĠSim ple
ĠConfeder acy
power ful
Ġgrin ning
Ġric her
ĠCow ley
Ġbon net
erer s
Ġprivile ges
emp his
UST R
ĠSpart ans
Ġdram atic
Ġling ered
Ġwag ons
Jim my
Ġpeb bles
Ġcalam ity
ĠHEN RY
ĠHIST ORY
, )
A f
D a
G H
P al
b reat
g or
g ay
g us
g ra
p ack
t ouch
w and
Ġt ended
in ia
Ġd ial
Ġl icked
Ġl ungs
Ġn ailed
le ap
id ance
et ition
ĠP un
ĠP arker
ĠG E
Ġsh ocked
Ġv ass
Ġv ale
ĠL ow
ĠD ays
Ġex ting
ry pin
ĠO ak
Ġcom eth
Ġpro claim
Ġus ial
we ak
Ġen force
Ġpr ices
cl iff
ang ry
ĠU pper
Ġgl ue
Ġstr ang
Ġloo sed
Ġres erve
ex erc
com par
xt on
Ġchar coal
eng ine
ĠAt t
Ġinter national
let ters
Ġdri lled
Ġhope ful
Ġcreat e
ĠFr anz
medi ate
Ġanim ated
sc rew
sm ooth
Ġ12 8
hold er
Ġquar ry
Ġdecl aration
comp anied
rod uction
Ġ13 0
des ired
Ġvoy ages
Ġexpress ing
Ġexec ute
ball s
Ġrust y
Ġrust ling
Ġinstinct s
hun ter
Ġwaist coat
ĠTw enty
cript ions
Ġphilosop her
Ġacknow ledge
Ġveget ation
Ġveget ables
Ġstor my
Ġsway ing
Ġpenet rate
Ġfund amental
Ġslipp ery
ĠGard en
Je hovah
ĠTenn ant
E v
H igh
N ING
f irm
g own
l uck
n ames
o il
r um
Ġt ab
Ġt icket
in ement
is ons
Ġf ra
Ġf ath
Ġf ists
Ġc edar
Ġd ined
st ore
Ġst unned
th rew
ĠM ind
ĠM ung
ĠP ower
Ġr iddle
ight ing
ĠW right
Ġdo ck
Ġv owed
ĠD ad
ĠN aval
Ġtr anqu
Ġun usually
ĠAnd erson
Ġen quired
Ġpe ak
Ġpe aks
ft ed
Ġsc ur
aw an
Ġdon key
ool s
Ġrun ner
Ġsil very
Ġdark ened
ah s
ĠNor folk
Ġ8 3
Ġeye brows
father s
aff y
Ġport age
Ġstream ing
Ġ13 4
Ġclim ate
ĠMay or
Ġsor ter
Ġstrugg les
four th
Ġbra vest
Ġtemper ature
Every thing
Ġshr ank
Ġtum bling
Ġclub s
Ġproport ions
ĠFour th
Ġmock ing
exper i
Ġpuff ed
ĠPhilipp ines
Ġperple x
iae val
ĠBuzz ard
9 9
E lectric
J er
L ore
M ac
R oman
T oo
U CK
b are
f ling
h om
s cient
Ġt ucked
Ġb ishop
Ġd ies
Ġg ild
ac companied
ro of
ce ased
ĠA ch
ĠM ARY
to le
ear nest
ant al
ĠF am
ĠR on
Ġab y
Ġex agger
ĠE aster
ĠN OR
Ġgr asping
Ġdis mounted
Ġthr ows
Ġper pendicular
ci an
not ice
Ġeven ings
Ġacc urate
ex ped
ĠTh umb
ict ions
Ġsent in
Ġref rain
sp ot
Ġsub stitute
king dom
Ġdri pping
Th ink
Ġmus cle
Ġ19 7
off er
enn a
joy ed
Ġve x
Ġsad ness
.) ]
Ġyellow ish
Ġdoll s
Ġinn ings
ĠQu oth
UR ES
Ġconv ince
Ġfox es
Ġscore s
Ġcorrespond ence
Ġunfortun ately
dro pped
Ne il
wit ness
Ġga unt
Ġdisturb ance
Fr ank
Ġaven ue
ĠStri ped
Ġbru ised
ĠMong an
Ġank le
Ġannounce ment
inhabit ants
ĠSteven s
CONT ENTS
C ons
E ver
J o
M uch
R OU
f ought
g ame
g ather
t ouched
Ġt res
Ġt ire
Ġw ate
Ġs ect
Ġb athe
ed i
Ġf ren
Ġc ens
Ġc ripp
or ms
ic he
ac a
ĠT ennessee
ro pe
ĠS ou
ĠS ioux
am med
th under
ĠH on
ĠC hapter
ĠG az
ĠF RAN
ol ine
ĠO mar
Ġj ury
Ġar cher
Ġqu ivering
Ġun iverse
Ġover board
Ġdis pleased
irst y
Ġsl iding
Ġcomp ens
Ġgl ared
oc he
Ġcr imes
Ġcle ft
ug u
pro fess
Ġtra ps
Ġquick er
like ly
Ġcold ly
Ġbound ary
Ġ15 8
Ġcrow s
ĠPro phet
Ġfun ctions
than k
new s
tell er
Ġemer gency
Ġcraw ling
ĠSal ar
Ġrecover ing
treat ed
Ġard ent
ĠFre edom
ĠRing g
Ġdazz ling
Ġchoo sing
Ġvul gar
Ġamm unition
A unt
E le
F ox
F rance
H ood
I EL
L and
O C
P smith
T E
Y M
c ke
g ans
n ose
s ought
t ha
w id
Ġw ipe
Ġb uds
ar in
Ġin conven
Ġl y
ow ered
ĠT al
Ġfor fe
ĠS IR
ce ls
ĠP ath
Ġr aim
qu ant
ant es
ĠF al
ol ated
ĠL ead
ĠR ow
Ġex claim
Ġsha ggy
Ġover take
Ġdis s
act ing
Ġwr ites
Ġri ot
ex ha
Ġcount less
Ġexp osure
ĠAs sociation
Ġ4 4
ĠFor bes
Ġplay ers
Ġbelie ves
Ġinc ap
Ġfear less
ĠBe aver
Ġinv aders
Th ursday
Ġmouth ful
Ġ15 7
ĠĠĠĠĠĠĠĠĠĠĠĠĠĠĠĠĠĠĠĠĠĠĠĠĠĠĠĠĠĠĠĠ ĠĠĠĠĠĠĠĠĠĠĠĠĠĠĠĠ
ok u
Ġest a
Ġeight h
Ġmid shipman
aul ts
Ġsorrow s
Ġcab inet
Ġapart ments
ĠCount y
Ġbreast s
isher s
Ġbat hing
ĠEle phant
Ġengine er
Ġfrag rant
AK E
Ġscra pe
ĠMid shipman
Ġindif ference
Ġextend s
Ġratt ling
Ġarchit ect
mach ine
aum ains
D em
F ort
P ort
S qu
T err
W ater
c atch
Ġt ies
Ġw ink
ha se
Ġb ri
Ġd otted
as el
as ian
as leep
Ġhe ather
ri ott
ĠS ep
Ġst ating
ĠM uss
ĠM olly
ĠW onder
ers ons
res ult
ĠD iv
ĠR achel
Ġout lines
Ġne ared
Ġex cell
Ġex ternal
ĠE lder
iv ated
ĠJ i
Ġun c
Ġbl iss
Ġfl aming
Ġcont ribut
ex claimed
ĠThere upon
Ġrep aired
ither to
pr ince
Ġgu ides
Ġel k
do zen
Ġinter nal
Ġheav ed
sc ope
Ġ7 4
Ġ7 7
ĠMar iano
Ġgrow l
Ġpract ised
Ġattack ing
Ġperiod s
Ġacqu ire
Ġsuper st
Ġbless ings
Ġsmo ked
IG N
igg ers
Ġident ical
ĠLady bug
ĠFore ign
Ġascend ing
Ġcam el
onel iness
Ġanch ored
ĠGaw igawen
Ġ---- =,
neighb our
Ġcoach man
Ġfisher men
Ġprosper ous
Gu ire
Ġcandid ate
Ġmermaid s
Ġapprehens ion
Ġwholes ome
suc ceeded
Rou letabille
Ġaby ss
Ġraim ent
C al
F OOT
b asket
h igher
m atch
n atives
s oul
s imply
Ġo ar
Ġb og
es op
Ġhe aled
Ġha n
ow l
ad mir
ĠS ak
ur ston
ter m
ĠM AR
ĠB rah
ĠW omen
ul ed
qu ity
el ic
ven el
we ather
ove re
ĠK iki
Ġad oles
cl oud
Ġsc re
Ġpre acher
Ġch ir
Ġacc us
Ġcont ributed
Ġres isted
Ġ18 12
atter s
Ġac he
Ġcr ushing
me asure
Ġem inent
Ġem barked
Ġche w
Ġche ering
OR GE
Ġlay er
Ġinc ons
no ise
tr ade
Ġinter ference
Ġopp ression
Ġ8 6
Ġstri ving
ĠHer od
Ġtrans ferred
Ġconc ert
rel ief
Ġplan ning
aff ection
after ward
udd ered
cr own
bu ried
Ġempt ied
present ed
sur rounded
supp osed
Ġcro codile
find ing
Ġrail road
Ġblaz ed
Ġtoss ing
Ġsurround ings
Ġmarve lled
Ġseam an
Ġvac ant
Ġpenet rated
Ġdiscour aged
Ġrig id
ĠMand ans
Ġult imately
Ġdepos ited
Ġslipp ers
sac rifice
Ġec st
C LE
F ire
I r
T uesday
Y ork
b or
c art
p il
v ile
w ag
w ich
Ġt ires
on ing
Ġp es
Ġl ime
Ġl ull
Ġl umber
Ġn ymph
ic er
Ġbe an
Ġwh ome
ĠS cript
am ie
ur ous
Ġst agger
Ġhad st
ch i
ĠM ang
ĠM useum
Ġr owing
ĠG ass
us ha
ĠR ug
ĠN ine
Ġpl ight
ass ador
ure au
Ġtr ag
Ġgr umbled
Ġacc ent
Ġcar c
Ġcont rived
Ġbu ying
Ġser ves
li ber
li ps
ung ing
Ġcare lessly
Ġmon k
ĠAl as
Ġstart ling
unt arily
Ġass ent
Ġexpl ored
Ġprod ucing
Ġsqu eal
Ġdev ices
Ġver anda
Ġgrass y
cend ing
Ġpract iced
Ġcirc us
Ġstar ve
Ġhost el
Ġ25 0
wind ows
Nor thern
ĠEar ly
Ġplate au
mag ic
Every body
Ġshaft s
RY F
Ġpond ered
Ad ams
fre edom
ĠHome made
NOT E
ĠScott ish
ĠFriend s
======== ========
ĠTAL ES
ĠRaj a
ĠSwe yn
Ġenthusi astic
ĠDuc a
Ġgoss ip
ĠJos iah
edi ately
. ).
F ore
M in
b ie
c ure
d ust
i ents
s an
in arily
Ġs ultan
er ate
ou bles
ĠT E
ĠT RA
al together
Ġhis sing
il ess
ĠP ussy
Ġr udder
ag les
ĠW alk
ĠG OOD
us ive
res olved
art y
um bers
os y
pl ant
Ġsha wl
Ġgr unted
ud ing
ĠK ercadiou
old er
Ġpe eping
Ġim itate
ne ying
Ġch ina
de g
ob tained
ild s
Ġent ry
Ġbu gle
Ġmar sh
inc ing
Ġhor ribly
Ġred uce
iet ies
ĠAl mighty
Ġmer riment
Ġinter preter
AT ER
ĠAn im
Ġ6 1
Ġ9 3
Ġmed ic
ham med
Ġdev our
Ġ10 9
sha w
ĠPro clamation
Ġver ge
Not es
ĠPer ry
bre aking
Ġshut ting
Ġkiss es
Ġmusic ian
cent er
Ġdiscover s
ĠRic hards
sequ ent
Ġfac ulties
Ġhate ful
direct ed
direct ly
Ġcord ial
Ġbol ted
Ġroll s
dep art
otes que
Ġcontro lled
prod uced
princi pal
Ġcompre hens
Ġanticip ated
Ġsacrific es
ĠTW O
Ġplent iful
ibal agen
Ġmeth inks
Narr ated
A ID
R abbit
b ore
b ull
f ixed
o cious
t ent
Ġo y
Ġo be
Ġb ake
Ġf ern
Ġm ent
Ġd ipped
Ġp ion
Ġp ite
Ġg igg
Ġg ulf
id ency
Ġe ternity
et ies
ĠS ave
Ġst ained
ĠB ank
ĠP L
ĠP ig
Ġher bs
ĠG ate
Ġcon ception
iv ian
Ġpl ump
Ġro asted
other wise
Ġcl ing
Ġsha b
Ġsee ks
Ġpr ick
ĠY ORK
ci en
amp s
Ġsl edge
ĠSt ation
Ġsc an
Ġsc ored
ath ies
Ġres ume
ĠTh under
EN N
Ġhor rors
Ġche mical
Ġneed ful
Ġrel ating
ĠIs le
ash ore
Ġext inct
Ġstri ped
Ġtrans mit
Ġsol itude
Ġstra it
Ġthick er
Ġquar rels
Ġimag in
Ġenter ance
fall s
comm anded
post s
Ġdrag ons
Ġsal vation
ĠXX V
Ġsuggest ions
ĠSte wart
Ġthread s
wa ited
Ġdish on
ĠPers ia
opportun ity
illings hot
Ġcontro vers
Ġdefinite ly
sett led
Ġmarvel ous
ĠContin ued
Ġfrank ly
ĠHun ter
shad ow
Ġclut ched
Ġlangu ages
Ġingen ious
pha bet
ĠSic ily
AF L
ĠOri ental
' ."
7 0
C ap
R IC
c rit
c itiz
h os
j ik
l oose
p ents
t emple
z a
Ġw ager
re quired
Ġm uffled
or ong
ing o
Ġbe ech
ec ess
ĠM ot
ĠH orn
ĠH ob
ĠC ock
ĠC ats
Ġr ue
ĠW E
ect or
Ġsh ifted
ĠF oger
ĠL at
ĠL anc
ra pped
Ġkn ots
ĠO ften
Ġj erk
Ġar ithmetic
Ġtw in
Ġun ite
Ġun broken
Ġen qu
Ġdis obey
Ġpr inting
ĠY edo
iss a
It s
li k
Ġcons umed
Ġcons picuous
EN S
att ened
Ġclose t
Ġpri or
ĠAn thony
Ġsim ult
co ast
Ġconst able
Ġappro ve
Ġsweet est
Ġ10 5
ĠPro bably
!' "
Ġhusband s
ett les
Ġchurch yard
Ġstar ved
fle w
acc ident
ĠThor nton
Ġtrad itions
school s
Ġfil en
Ġbid den
Ġgrie ve
Ġinsp iration
sil ent
Ġmour ned
ĠAlex and
Ġimper fect
ĠMagic ian
thr ust
ĠAng el
Ed mund
Ġtyr anny
hur ried
Ġfrog s
Ġsway ed
exc itement
Ġdisgu ised
Ġfund s
mem bers
knight s
Ġfest ival
ĠAust in
resist ible
escap ed
Ġemphat ic
Ġrab bits
EC LECTIC
orong il
B ack
F olk
K S
L OW
P ass
P enn
R iver
d rop
n un
t iny
in i
in an
in str
Ġw olver
Ġs izes
re sem
Ġc ot
es ide
Ġp iles
Ġp anted
ĠT at
Ġfor ts
ad os
ĠS om
ĠS AM
ĠA bs
ĠW innie
Ġsh ivering
Ġab use
ĠE NG
Ġro le
Ġun fit
Ġun armed
ĠK il
Ġsc our
He aven
ob serv
Ġbo on
was hed
ex cellent
ĠAr m
Ġple ases
Ġdr inks
pro gress
raw ling
aced on
Ġfear fully
Ġopp ose
Ġmag azine
ald ing
Ġ8 1
Ġten nis
sc attered
Ġcamp ed
Ġadm iring
Ġprot r
Ġ10 1
Ġ10 6
ĠĠĠĠĠĠĠĠĠĠĠĠĠĠĠĠĠĠĠĠĠĠĠĠĠĠĠĠĠĠĠĠ ĠĠĠĠ
Ġest imate
Ġfut ile
cont act
cont ented
Ġhat chet
Ġwrong s
Ġdesp atched
ĠFrench men
Ġrepresent ing
Ġgall ows
Ġrepe ating
sw ift
Ġice berg
Ġpursu ing
ĠĠĠĠĠĠĠĠĠĠĠĠĠĠĠĠĠĠĠĠĠĠĠĠĠĠĠĠĠĠĠĠĠĠĠĠĠĠĠĠ ĠĠĠ
Ġwear ied
Ġoffer ings
Ġsal uted
Ġshadow y
Ġcloud y
maid s
Ġexerc ised
supp ort
Ġdiscuss ing
ĠChe ster
ĠMo z
Ġadmir able
Ġtar ry
Ġencour agement
Ġpassion ate
Ġgri pped
grow th
ĠBet ter
Ġadjust ed
ĠSit uated
Ġske leton
danger ous
ĠOff ice
bod ies
Ġstreng then
Ġsem i
Ġattent ively
Ġelo quence
ĠGlad stone
Ġumbre lla
. ),
5 1
F UL
H um
I nt
V irgin
c rying
c ils
i os
s ch
Ġo un
re nder
Ġb owing
it ute
Ġm ul
Ġha ze
ut tering
st ation
ĠT i
ir y
ĠS ick
am i
ĠM oo
ĠP ole
ĠC eltic
ĠG OLD
ul ously
ab and
ĠF ollow
Ġsp arks
ous ing
ĠE yes
pt ions
ĠO t
Ġle ague
Ġpro sec
Ġar ched
we y
fore ign
Ġhand led
ĠK h
Ġpe er
oss y
Ġgl ided
ex actly
Ġac ute
Ġsec uring
Ġprov inces
Ġpar aly
Ġeff ic
Ġmer chand
tr ust
Ġpol itic
add les
Ġstri pes
sc ream
sc roft
Ġprod igious
Ġpal ms
Ġstra p
Ġ12 6
ĠĠĠĠĠĠĠĠĠĠĠĠĠĠĠĠĠĠĠĠĠĠĠĠĠĠĠĠĠĠĠĠ ĠĠĠĠĠĠĠ
Ġpat ted
Ġfail ing
Ġpict ured
Ġpract ise
Ġ14 8
Ġcourt iers
ĠPl an
Ġinfl icted
Ġhost s
arn ie
Ġax es
prov ided
appro ached
mist ry
reason able
hon our
Ġmagnet ic
Christ mas
Ġappreci ation
Ġexcess ively
Ġunexpected ly
Ġextr act
concer ned
Apon ibolinayen
ĠMcK inley
dread ful
unci ation
Ġvap or
Ġenerget ic
Ġtep ee
' !
5 3
L ight
U C
_ !"
c ock
c ities
n us
t ower
Ġw ail
Ġs acks
Ġb rew
ed uc
Ġh ushed
Ġl oft
Ġwh ites
ĠS oft
ĠH at
ĠP owers
ĠC AP
Ġall ies
to es
ĠG ordon
ul um
est ine
ĠD rake
ĠR ais
Ġman ager
Ġsp iders
ĠO cc
ĠJ ordan
od ed
Ġnow adays
Ġfl ann
ink ling
Ġapp ointment
ru le
amp ier
Ġdist ricts
Ġcont em
Ġsw elled
Ġatt ire
Ġever lasting
Ġsupp ressed
inc hes
sh op
,' "
ser ve
Ġbus ily
Ġcontin uing
Ġfight s
Ġwatch man
St ark
Ġut il
Ġ10 7
sha pe
Ġval ued
Ġlab ored
Ġ11 7
car riage
Ġpen alty
Ġconn ections
lo ving
ĠQu aker
Ch ief
Ġprocess es
Ġassem ble
ĠMon key
Ġbul b
Ġnerv ously
ĠHam ilton
Ġcher ished
ĠBal in
Ġsurre ndered
Ġshrie k
Ġtoler ably
ĠTar rypin
Ġeste emed
Ġcompet ition
Ġaccur acy
estab lish
WH Y
ĠBag heera
ĠGal ilee
Ġemig rants
Ġkins man
Conf eder
ĠRy cke
repe ated
Ġgram mar
E r
G lad
N ovember
S un
W or
b ang
c ook
j er
l ake
l ined
n ations
s ad
y the
he ars
Ġw al
er os
ha ven
on ous
an ne
Ġl onesome
le hem
ĠI T
ac iously
ĠT op
ĠC ec
Ġbut ifull
ĠG asc
ĠF O
ĠF le
ist r
ĠL ou
ĠL ot
itt ens
Ġpl ank
au phin
other ing
Ġfe at
Ġtr ades
Ġgr ade
Ġgr inding
Ġbl unt
Ġam iable
ĠK ind
Ġad ult
Ġpe ach
Ġpre ached
ĠU ntil
mer chant
ret ien
ĠUn c
Ġgu idance
app ears
Ġdr own
Ġhard ened
Ġref using
Ġpar l
Ġsil ken
Ġes p
Ġfire place
Ġtra ffic
AN CE
Ġstart s
Ġsix teenth
arr ang
arr anged
ĠDe ep
Ġdev ised
Ġwat ches
Ġsett ling
ĠPer ceval
comp elled
Ġprob ability
Ġtor rent
IM E
Ġcru elly
po ints
lar ger
lo aded
TH IRD
Ġfeast ing
Ġstation ed
zz ly
Ġstuff ed
Ġwheel ed
Ġpictures que
Ġreck oned
Ġlit ter
Ġven ison
feel ings
Ġratt led
Ġstreng thened
ĠBald ur
Ġbust le
esp asian
Ġmart yr
Ġafore said
Ġfab ric
B ring
C ent
D un
E h
H ello
L o
L au
R un
T en
b ark
b urning
l oud
l ah
n ice
u ate
he alth
in ty
re te
Ġp t
at ically
Ġhe ark
ic ating
ic ism
ve ying
Ġfor sooth
Ġst if
Ġst ooping
her ry
Ġsa g
th ieves
ĠM usk
el ier
ĠL ock
Ġcon clus
ĠN ear
Ġthere to
Ġle ver
ime by
Ġbr andy
Ġbl inked
Ġen sued
Ġen vironment
Ġpart ners
Ġad equ
Ġsl ung
Ġsc rap
Ġgl aring
Ġlook out
ob st
ex ter
Ġunt r
Ġchar med
IN S
Ġco ins
In stead
app er
Ġhard est
Ġeff icient
Ġinc ense
ĠCl ub
Ġbar rels
Ġcast les
ĠRe gin
Ġlab ore
ĠYOU NG
Ġneck lace
Ġ14 7
Ġvict ual
Ġtall er
ĠSam son
Ġpit cher
master s
ĠSl owly
Ġsal ute
Ġextra v
olute ly
ĠCH RIST
Ġdawn ed
Ġheap ed
Ġrang ed
Ġfem ales
cir cle
Ne ither
Ġflee ing
mus ic
import ance
Ġach ieved
ĠThan ks
Ġmerc iful
pict ures
esc ope
pull ed
Ġrelax ed
ĠProt est
Ġchieft ain
Ġcudg el
D ay
O b
S ch
e ers
f ail
g ained
g ments
h orn
i ography
k u
k ings
r ating
w icked
in ers
Ġb ids
Ġm i
Ġd ances
Ġd usky
Ġg ait
ic ide
ĠS alem
ĠM aj
ĠB owser
ĠP h
ĠP ay
ĠP ert
Ġor anges
ĠW ord
us cript
nt y
ĠR oll
Ġcon j
Ġsp ade
ĠO regon
Ġbr im
self ish
Ġun natural
Ġdis d
bl ank
Ġthr all
Ġper chance
Ġhow led
Ġsl oping
Ġrem on
ph y
He y
og ers
og ues
Ġcar penter
ens ible
Ġspe ceis
Ġsent ences
ES US
AR E
AR RIVAL
Ġrece iver
Ġpar ade
Ġel bows
pro visions
RE T
Ġexpl aining
fic ial
ĠDe f
orm ons
Ġhon ors
Ġhon ored
ces ter
bo ards
ĠX VII
ĠRo berts
Ġlord ship
ĠPer ks
Ġfail s
Ġ11 6
AS TER
Ġsnow y
que en
ĠWar lock
arn ak
IG H
Ġur gent
Ġwire less
Ġrid ers
Ġkingdom s
inst antly
Re ally
sit uation
Ġtur key
Ġbal cony
ĠMo ors
Ġinnoc ence
tra il
ĠCha se
ĠMad ame
ĠWhe el
ĠBet ween
ĠLau rence
ĠPart y
Ġmal ice
Ġwhirl ing
Ġrecoll ect
Ġrib bons
enem ies
Ġmourn ful
Ġcritic ism
Ġsignific ance
Ġprolong ed
5 2
J an
J une
K at
M EMORY
e ating
f ered
h ound
l on
l ore
m ass
m arch
p roject
Ġt ying
Ġa float
Ġo tter
Ġc ant
Ġm ah
Ġp arson
an se
se ized
ĠT ail
ĠS ing
ĠS ong
ĠS weet
ur mined
Ġst ony
Ġst ronghold
ĠM aine
ĠB ed
ĠB ors
Ġse rene
ĠP ER
Ġso ck
ag ut
ĠW inc
our se
ĠL iver
ind a
ind ust
Ġle ve
Ġpro ves
ass an
Ġtw isting
Ġad ds
Ġmen ace
ĠSt re
ĠSt ones
Ġcomp el
Ġcomp act
ph il
Ġri p
ign ant
ex ample
ix on
Ġser mon
ĠAr k
sh ining
ES C
Ġworld ly
ĠKing dom
Ġref ined
ger ton
entle men
Ġsqu aw
Ġtrans form
ask a
ĠNorth men
Ġ12 7
Ġenc ir
Ġaccount ed
bes ides
Ġobl ong
Ġstro lled
Ġthreat en
Ġsole ly
Ġhonor able
Ġvan ish
ĠJust ice
Ġho isted
Ġdeb ts
ĠJew ish
ĠCle ar
ĠWood man
ĠTex an
Ġpoison ous
Ġren own
incre ased
Ġwax ed
dro ps
Ġtal ents
ĠBro oke
Ġstair case
Ġautom obile
div ided
ĠMO THER
Ġremo ving
Ġscant y
ĠCHILD REN
strugg le
Ġbesie ged
Ġrans om
idel ity
ĠTHOM AS
Ġtwent ieth
A she
N onsense
R eddy
b old
e h
n aturally
p ear
le aders
se ts
ac hi
ĠT on
ĠT ruly
ro be
al ter
ĠC ro
ĠC ertainly
Ġall eged
Ġbut ler
ĠR ames
ĠR iding
ĠR iders
Ġno blest
ĠE mer
Ġtr ains
Ġun worthy
Ġdis liked
per ceived
Ġpe pper
Ġwhere by
Ġbefore hand
oth ric
iz zy
HE S
Ġwr inkled
Ġsat in
Ġhard y
ubl ished
ser ious
mon th
RO S
AP P
ĠNorth wood
Ġboard ing
Ġ| |
OO SE
Ġtrust y
Ġphys icians
Ġstar vation
olog ist
Ġfro ck
wr ote
Ġaston ishing
Ġsplend our
rap idly
Ġpet ty
Ġtower ing
Ġgle amed
Ġstead fast
Ġrail ways
mist ak
complete ly
Ġess ay
lim inary
thousand s
dri ven
Ġexert ions
Ġrhy thm
ĠPil grims
Ġfring e
Ġgor illa
ĠChop unnish
Alex ander
ĠBac ri
? _
B uck
C all
L ok
P ART
t est
t akes
Ġa ched
en y
Ġm ak
ing ale
Ġl ink
le vel
Ġg ems
ent ertain
ent ric
Ġon to
ri v
Ġas under
Ġst ress
ĠA z
ĠA by
Ġsa ge
ĠM is
ĠM urdock
ĠM emphis
ĠW id
em aker
Ġsh rubs
ĠF ront
ĠF ortunately
art icles
ĠL illy
ĠR i
Ġcon str
Ġsp ied
ĠJ am
Ġgr ab
Ġover se
Ġfl own
Ġfl ush
ru ck
but ter
Ġsl ing
Ġrem orse
mer ce
row ing
de fe
Ġdes olation
ĠShe ep
Ġlet s
ER Y
Ġsw elling
ĠV il
ĠTh ousand
Ġrep etition
Ġsk illed
Ġpar ap
ug ar
Ġbre ed
ub by
AN G
Ġvis ions
uff y
dis p
Ġpossess es
ĠRed oubt
Ġpain ter
ĠSh ot
Ġquestion ing
Ġ15 6
arrow s
Ġworth less
Ġdry ed
ĠDon ald
ĠFl ower
ĠFl ambeau
Ġban ished
Ġstro ked
Ġble ak
Ġdiscover ing
stit ious
Ġcustom ary
Ġ185 6
Ġvan ity
Ġsymp athetic
isto pher
Gr and
Gr ace
Ġincl ination
ĠDun can
Brit ain
El iz
hast ly
tre asure
ĠFreder ic
beat en
ĠCath olic
sugg est
magn ific
Ric hard
Ġhaught y
Ġecc entric
thorough ly
H am
M o
M ade
T ales
W E
h unt
l ul
Ġ ..."
re jo
ha ms
Ġb att
or ial
Ġd y
st ance
se vent
ĠT ry
et ime
Ġre bu
ĠS uan
ĠA M
ĠA aron
Ġan ci
ĠP tole
Ġr ides
Ġme lt
Ġsh ove
Ġsh illing
el opes
ant ime
ĠF ish
ĠF rost
Ġv otes
ĠL IFE
Ġal ms
Ġde gr
ĠE N
ĠN ote
Ġthere on
Ġli z
Ġpart ial
Ġunder took
Ġdist ances
air n
Ġch ums
li hood
ĠTh othmes
inc ident
su ck
Ġchar ter
Ġdec ay
Ġsk irt
Ġhalf way
Ġschool room
af nir
uff ed
fort y
Ġfoot ing
Ġpublic ation
oor oo
Ġconst ernation
Ġ10 2
Ġ10 8
yr al
Ġ13 2
Ġcrowd ing
Ġrepresent ation
ĠPl ains
Ġprev ail
Ġmission aries
Ġ22 9
Ġfeast ed
col our
Ġdepend ent
ĠCr ane
Ġplant ing
phe us
Ġcro p
See ing
ĠBo ard
cor rect
glass es
fair y
Ġge ographical
ĠSher man
ĠIm mediately
stre ets
const ruction
pir ation
Ġsumm ary
mot or
represent ed
Ġsust ain
ĠSor ce
Ġloos ened
ĠMas kew
pul ch
Ġfeud al
Ġvener able
orks hire
L ancelot
M ademoiselle
S k
a unt
j ab
m ult
t ikki
Ġb itten
Ġf rench
Ġm icro
or ated
ar ooroo
Ġl acked
Ġl oneliness
id ences
ĠT ha
ĠT ale
ĠT ik
ĠT inker
ri z
ĠS ally
ĠA qu
ĠH ale
ĠH OUSE
ĠB ry
ĠB eyond
ĠP ow
Ġr ud
ĠG ener
Ġsh uddered
ĠF anny
ĠD iego
ĠE benezer
ĠN est
ĠN ame
ĠO UT
Ġar rog
ure ing
Ġcl atter
ĠK err
cl ouds
Ġsc rub
ĠU P
not es
Ġdist emper
Ġstr icken
Ġsw oon
Ġpur ity
Ġpar ch
Ġplay er
gr ounds
ĠAl ready
Ġperson ally
Ġprop hes
Ġrock ing
Ġ10 3
roy d
Ġrespect fully
ĠPl att
pri est
ĠApon ibalagen
ĠĠĠĠĠĠĠĠĠĠĠĠĠĠĠĠĠĠĠĠĠĠĠĠĠĠĠĠĠĠĠĠĠĠĠĠĠĠĠĠ Ġ
ev idently
Ġprotect ing
ĠBab e
Ġpa using
Ġfer ocious
Ġprompt ed
Ġsubst ances
Ġcam els
ĠTw elve
Ġconven ience
ĠBeaut iful
Ġslee ves
Ġdesir ous
Ġgent leness
Ġta vern
Ġgover ned
Ġcush ion
chie vous
ĠSed leigh
C op
K now
L i
M ark
S or
S ide
c rew
c otton
d ogs
f ed
f uture
o king
o iled
r ide
v ig
w right
Ġt apped
Ġb ait
Ġf oster
Ġp ies
Ġh ooks
le ader
Ġg room
ot am
Ġbe ware
Ġe jac
ĠT re
Ġre jected
Ġas se
ĠS ons
Ġst ems
ĠB L
ĠB arnes
ĠP ast
." [
Ġsp elling
te eth
be asts
ĠK ill
ang an
Ġper ch
amp h
Ġpre aching
Ġhere tofore
Ġlast ing
Ġbel ike
Ġwr ung
Ġres ided
Ġem ence
rest ed
Ġes pecial
Ġsub mitted
Ġsecond ary
ĠIs n
ĠBe et
She en
Ġinv iting
Ġord ained
Ġill umin
Ġroad side
Ġequ ality
Ġmus cular
Ġdet ain
Ġsubject ed
Ġ16 9
Ġ11 8
Ġpriv ately
Ġimag inary
Ġmad ame
Ġoccup ants
Ġund o
Ġarrang ing
Ġscr atching
Tom my
fortun ate
Ġwed ded
Ġsurv ived
Ġindust rious
Ġcard board
suff er
Ġpuzz le
Ġendeav our
Ġmult i
Ġimper ial
ĠLook ing
Ġge omet
ĠCorn wall
Ġpreced ed
ĠPri or
Ġrobber y
Ġshepher ds
Ġlat itude
Ġpudd in
Ġiv y
ĠChan g
Ġobed ient
Ġwrest ling
god s
Ġdistr acted
Ġremo val
Ġoverwhel ming
ĠRand olph
ĠFA IR
ĠWr ite
## #
________ __
opl ane
Ġenlar ged
ĠPert ell
6 7
D ave
J ane
P at
P art
c hat
c ost
f ond
f rog
k ah
m ies
t aught
w ound
Ġa ching
is en
Ġc ode
Ġm un
ar ia
Ġp ett
as ide
Ġl oses
Ġn ick
ot hing
ic it
se ated
gh ing
et ic
ver ing
ad vert
ur able
Ġst ab
ĠP ringle
ĠC hen
ag ging
ĠW atch
ĠG all
ĠG iles
Ġsh ines
Ġsh iver
Ġsh oved
ĠF ountain
ist urbed
ĠL abor
ĠD ag
ĠR ap
Ġout stretched
Ġman ual
Ġsp it
ĠE L
ĠN i
Ġtr u
Ġbr an
te a
Ġbl amed
Ġbl ushing
ang ar
Ġper ogue
ĠSt u
ĠSt ream
Ġcomp let
Ġbeg g
Ġear l
Ġsw ine
Ġimp art
Ġcr ashed
com pre
Ġrest rain
Ġchar ms
Ġlaw yers
Ġdirect ing
ĠSp iller
AT ED
well ers
Ġmed iaeval
Ġfr ay
sm oke
ĠAp ache
ĠMar riott
Ġ10 4
Ġ12 4
ĠCol ter
ĠCol our
Ġinf ancy
Ġ14 6
Ġ14 9
Al most
Al abama
LA Y
Ġutter ing
Ġrecogn ise
Ġlif eless
wr ite
Ġgro ves
Ġinflu enced
ĠDem on
Ġarg ue
utch inson
Ġcorrect ly
Ġindust ries
Ġcart s
Ġbal anced
Ġprofess ed
Ġbund les
Ġtrump ets
squ are
Ġproduct s
ĠThan k
eg iance
Ġprecip ice
ĠRay mond
Ġcandid ates
Ġperpet ual
ĠCHAR LES
ĠWeather staff
Virgin ia
D en
P an
R IT
S ea
T arzan
b irth
u ations
v oy
he aring
Ġa str
Ġw iping
nd ish
er ving
Ġb oss
on to
Ġto ad
es to
Ġl ens
Ġhe red
se ason
ĠT oo
al ted
ri ans
ri lled
ĠS all
Ġst ile
ĠB or
ĠP itt
ĠP ete
ĠC AN
Ġr acing
," --
ul i
ĠF ear
Ġmy ths
ol an
ist le
Ġun consciously
Ġ_ "
Ġpo pped
aw ake
Ġcar le
ign ific
ĠV ig
oot y
Ġwood lands
sp in
az a
cle an
There with
fl at
Ġsound ly
no is
no ble
af at
ĠBe aumains
Ġhon oured
Ġfine ly
ham es
sm ile
Ġexcept ing
ĠX VIII
Ġ12 9
Ġins olent
Ġver tical
Ġ11 1
Ġdiv isions
cr ack
ĠCr atch
Ġcommun icate
US H
Ġaut o
occ urred
Ġattr action
ĠSand y
vi olence
Ġvig our
Ġpil grims
does n
ĠMo hammed
pract ice
ĠPat rol
list en
Ġcong reg
neighb or
Ġkne el
osh ua
Ġcoo lly
Ġconsult ation
Ġsul phur
ĠRaj ah
Ġoverwhel med
ĠDemocr ats
ĠDep artment
ĠSold ier
hid den
Ġcel estial
Ġsever ity
Ġwate red
Ġtrag ic
P re
e an
f ro
g ang
g rey
h osp
r im
r ushed
t ailed
in als
Ġb attered
Ġc his
Ġto ilet
Ġl uminous
Ġhe aling
ot ch
Ġbe thought
Ġth ump
Ġy ew
ir i
al om
Ġst ain
ĠA ut
ĠA ud
ĠB rig
ĠC are
ĠG arnet
us ions
est ead
ĠL og
ĠR oe
ĠO VER
Ġwill ows
Ġar c
Ġtr uce
Ġtw ig
Ġgr uff
Ġun anim
Ġam ateur
Ġpr icked
ĠK arnak
Ġper ception
Ġri ve
Ġcr ude
ĠCh ou
su ke
Ġact or
Ġrun ners
Ġcle arer
Ġposs ibilities
ird ath
Ġsle igh
ug ly
pro portion
Ġint ensity
Ġmin eral
Ġhum ans
Ġappear ances
hil afat
Ġbar ley
ruct ive
Ġhon esty
Ġlim estone
Ġhun ts
LE T
inter rupt
Ġdom inion
Ġfort ified
Ġpi geon
Ġmis fortunes
rel ations
Ġ12 1
Ġpeace fully
Ġforg iven
Ġjour neying
ĠCar nes
Ġdescri bing
Ġ13 9
Ġmid shipmen
Ġdra ft
po ch
erc hen
Ġweak er
ĠWar ner
Ind ia
Ġid ols
Ġblind ed
ĠMin or
ĠBar on
Ġhonest ly
Ġpil grim
Ġentertain ing
town s
ĠAR ROW
itz er
Ġasser t
Ġtoler able
prison ers
Rem arks
ĠStand ing
mor in
Ġascertain ed
Ġcourte ously
Ġperple xed
Ġreluct antly
orig inal
Ġsymb ol
ĠLiber ty
Ġglist ening
Ġburd ens
ĠFlag gan
Ġtit les
oblig ed
" )
A ss
H appy
M or
M id
N ote
P or
S now
T it
b ility
f ant
l ston
r ings
v ard
re ation
Ġf um
Ġm uff
om i
Ġha unt
Ġg ul
Ġg ospel
Ġbe ats
et he
ur ion
ĠA MER
Ġsa fer
if ferent
the d
ĠH ab
ĠB AT
ĠC ard
ĠC ase
Ġr aced
Ġor gans
ag ram
ĠW ain
ab ella
ĠF en
ĠF ast
ol ished
ĠR ynch
ĠJ un
Ġar bit
Ġcan opy
Ġgr otesque
Ġen light
Ġen erg
ick ering
Ġsc enery
Ġwr oth
less ons
Ġfar thest
li able
ĠAr ctic
con qu
my ster
Ġkind led
az ines
Ġche wed
Ġround s
Ġtra iling
Ġbre eches
Ġmin iature
cha p
Ġstre wn
Ġaff irm
Ġforward s
Ġloc ate
dis ci
Ġjoy s
Ġmist akes
ĠBl ind
ĠBl ock
Ġsoft ened
Ġkill s
Ġpat ent
Ġeight eenth
Ġ13 5
enth us
Ġclean ing
Ġmut tering
Ġshel ves
Ġcrown s
Ġho ard
Miss ouri
Ġfashion ed
vi our
ĠTur ks
suff ering
suff iciently
Ġris pect
Ex c
ĠThou venel
Ġprim ary
Ġsucceed ing
VER Y
ĠPers ians
ĠJul iet
Ger man
Ġlust y
amm ered
ĠRay nor
ĠTAL E
Europe an
Ġscholars hip
bour ne
UB L
Hur rah
ĠUt ah
Accord ingly
warri ors
Ġsubstant ial
Ġambit ious
Dal gard
ĠGasc oyne
; '
B LE
H AM
T hy
t u
u ished
er ated
Ġb uns
Ġf ins
Ġf iction
Ġm aj
Ġto ast
ar ked
Ġd ing
Ġd ip
Ġp hant
at te
Ġh ilt
Ġl ect
ot o
Ġth undered
Ġfor bear
ĠB urd
ĠP y
ĠP ine
ĠP apa
ĠC artha
ĠC hannel
un ken
Ġdo se
ĠF er
Ġv ind
Ġv ase
ĠL one
ive rer
ĠO s
ort on
ĠJ ACK
Ġgr abbed
Ġover heard
end eav
per ation
Ġper sever
fe ast
Ġgl owed
ves sel
ign or
Ġsw ollen
Ġexp ensive
Ġser pents
Ġcr abs
Ġcons ol
ret te
con stitution
Ġhapp iest
sh oes
Ġco inc
br am
Ġrec ess
Ġpar a
ug s
gr in
ĠAt li
Ġed ged
Ġblack smith
Ġsub sequent
Ġcontin ual
Ġaff ections
Ġsuff rage
Ġwatch ful
Ġcir cled
Ġdest roying
Ġfr owning
Ġbir ch
Ġ19 3
Ġcost umes
Ġcompl icated
Ġele vation
Ġdescri bes
Ġfix ing
Be ing
Ġutter ance
rid ges
Ġburn s
hel sea
inn oc
Ġnoble man
roo ks
ĠMc Neil
19 0
Ġsymp athies
Ġrepeated ly
put ting
ĠSqu are
ĠSaw horse
Ġyield ing
ĠEv ans
ĠON E
Ġuneas ily
Ġconceal ment
Ġdisg usted
igaw ani
ĠMist ress
ĠVi enna
ĠFa ith
Whe ther
Russ ian
extra ordinary
ĠMoz art
ĠAMER IC
B IT
C ut
D anny
H ans
O ctober
P aul
W ood
b ted
c ro
f arther
g n
l as
l ocked
n obody
p ale
t ons
w estern
Ġo mitted
er an
Ġb enches
it ics
is ive
Ġf rail
Ġd ated
Ġd ru
Ġp uri
Ġp inn
at tend
hat h
ac ock
Ġwe ed
Ġwith drawn
oo ps
th or
ĠM ethod
ĠH ug
ĠB U
ĠB asil
ĠC hes
Ġr ouse
Ġr ung
un ity
out ing
ĠF ate
ol ks
ĠD A
ĠD in
ell ers
own ers
ĠJ ennie
au v
ap le
Ġqu er
Ġover taken
be ams
Ġhand ling
Ġpe a
ew ed
act ic
Ġsc affold
Ġgl ances
Ġstr aining
Ġhar k
was n
uc er
Ġcha sing
Ġhands om
Ġsk irts
br anch
pro p
Ġlo an
Ġlo ads
tr aining
Ġinde bted
Ġfact ories
Ġsn ows
Ġill ustrious
oubt less
Ġescap es
Ġshow ers
ĠAd ventures
hand le
light ed
Ġplan ets
kn ows
ĠX IX
Ġsupport ing
Ġ11 3
gan a
vis ited
Ġ20 1
Ġ13 8
Ġjud ic
Ġresol ute
Ġsuper natural
eff orts
Ġgovernment al
met al
Ġdwell ings
Ġcommun icated
ĠXX I
Ġpack ing
zz ar
rate ful
Ġaccident s
fly ing
Ġbutter fly
Ġdoub ly
Ġrude ly
lad ies
gentle men
Ġpattern s
fif teen
ĠRO B
Ġornament ed
ĠLang ley
Say ang
spr ang
ĠGib son
asso ci
Ġcush ions
ĠRat sey
ĠLes bia
Ġanaly sis
cill or
Ġpoo rer
Ġtechn ical
ĠImmort als
Ġspong e
ĠCho bei
Ir ish
A UT
C IS
H elp
H endricks
M artha
O ff
P op
S end
T ur
V er
f ied
g ently
i per
m akers
r us
s ake
t el
w ac
w orship
Ġt ed
Ġa qu
in ine
Ġo min
ou ches
Ġb ordered
Ġd iving
Ġp ow
Ġh uddled
Ġn a
Ġre ct
Ġwh ir
Ġan ecd
Ġsa h
the ast
ĠB attle
ĠC ause
ĠC yrus
Ġme ll
Ġsh iny
ab uro
op ton
ĠL is
ĠD ame
ĠD auphin
ĠR ICH
Ġsp ies
ĠJ ob
Ġpr ints
Ġwhere of
ĠSt ay
Ġsc are
Ġsc issors
ĠU l
ĠIn ches
Ġsw an
was h
ild a
ĠTh urston
Ġelect ro
Ġcr ashing
com ers
ustr ations
Ġcha ff
Ġdif ic
Ġmet allic
Ġmo ons
Ġvis age
ĠIs d
ĠSp encer
Ġtri fling
she ep
Ġart istic
Ġsince rely
Ġfact or
ĠBe ard
ĠBe ach
ĠBe van
Ġexc av
Ġbar ber
Ġprop osition
Ġprod ig
St ep
Ġbound ing
wood en
Ġgrand son
Ġdisp osal
Ġdisp ersed
Ġvict ories
Ġcat ches
aul ted
heart s
Ġlif etime
sing ing
Ġdevelop ing
Ġmut ton
Ġpig lets
Ġgen ial
Ġconfess ion
Ġgrie vous
Ġflood s
Ġmyster ies
Ġelder ly
ĠWal ton
call ing
Ġfanc ies
Ġboot y
ĠBuffal o
Ġinvest igation
prison er
Ġelement ary
Ġpolit eness
Ġlegisl ature
Ġult imate
Ġhom age
Ġsurvey ed
ĠSur vey
Ġfaire r
Ġaffl icted
ĠBRO WN
Ġlam bs
Ġrog ue
ĠCOMP ANY
ĠAlb any
Ġincap able
Ġshab by
Ġfilen ame
Ġremon str
, --"
A ye
H ol
J ell
R af
d at
g on
g oy
k tom
p ound
p ressed
t aste
Ġt ense
he av
Ġo gre
is a
Ġf idd
Ġf ainted
Ġm uzzle
Ġp ulse
Ġl ob
Ġha unts
hat an
ĠT od
ĠT affy
ĠT hames
et ers
ir a
Ġwith stand
Ġnot icing
th orn
est own
ĠF arnie
ĠR ID
um at
um bered
Ġab iding
ĠE ld
iv able
ak y
Ġpl a
ĠJ ill
Ġinto lerable
Ġbr ink
are well
Ġbl ushed
Ġover joyed
Ġoff end
Ġsc outs
Ġstr ay
Ġres igned
ĠV asco
Ġcr utch
ĠInd ust
Ġfew er
Ġdec ks
Ġdr unken
ĠEng ine
Ġwa res
Ġdisc ern
Ġdisc retion
ub ber
Ġinc ome
Ġconf ided
ĠPr uss
Ġev ils
ĠCl im
ize h
Ġlist s
Ġtop ic
Ġ8 9
Ġjo kes
Ġtable t
IC AL
ĠNot es
ĠLe othric
Ġ11 4
Ġwhis pers
ĠHere ford
Ġ20 3
Ġstream ed
Ġ13 3
rog en
Ġ14 2
AD E
Ġsugg ests
Ġban ners
rec ord
Ġmusic ians
exp ressed
Ġsusp ense
-------- ----
ĠJo ab
ĠMc Guire
Ġhy ster
Ġgar b
Ġfal tered
ĠPal estine
dif ference
ste ady
ĠMon k
born e
ĠAny how
Sh ould
Ġchat tering
ĠStr ange
fair ly
tem per
dev il
Ġmeas uring
ĠMoon fleet
hung ry
ĠMars hall
Ġdur st
Ġsniff ed
Ġelo quent
Ġtun ic
Rep ublic
Ġprejud ice
Cur rent
sor ry
cru el
Ġflu id
Ġsanct uary
Ġbould ers
Ġnu isance
ĠFarr agut
Ġparl our
, _
W on
b un
c ong
c amped
d emon
g ence
m ember
r ines
x ter
Ġw ailed
Ġm asts
ar as
Ġd row
Ġp upp
as se
Ġl ugg
ut ies
ly ph
ad min
Ġst aid
Ġst ables
Ġan am
ĠM d
ĠH ist
ĠB as
ĠC has
Ġme nded
ĠG y
ĠG ates
ĠF oot
ie ll
ĠL ane
Ġex asper
Ġpl aint
od a
Ġdown wards
ren cy
ne arer
ĠIn n
Ġimp osing
Ġsupp orts
Ġcha st
Ġkind er
br inging
Ġdr ama
Ġbro oks
Ġhelp ful
wor se
enc our
ĠAl ger
AN N
ĠHow ard
Ġaff ords
Ġbur g
ĠWill ard
ĠAp aches
Ġconc rete
Ġmist y
Ġdraw bridge
Ġfif teenth
ĠLe gend
Ġsuccess or
Ġval or
che l
see king
sem bly
Ġshad y
pass ion
min ent
Ġcru ise
Ġshut ters
Be aut
Ġconn ecting
Ġcoast s
Ġ25 9
Ġ22 3
Ġallow ance
ev idence
Ġhonour able
Ġhen s
Ġattend ant
Ġii i
ĠNe gro
Ġfold ing
pers u
adv anced
ĠLong legs
stru wac
Ex actly
Ġreflect ions
ref used
love ly
ĠRou ge
Ed ward
Ġphilosop h
Ġast ron
erg us
enz aburo
imag ination
ĠLod ge
Ġhaz ard
ĠHend erson
develop ment
Ġrefres hed
Ġholl er
neighbour hood
Ġtires ome
ĠAlexand ria
ktom i
A g
B ro
O F
O z
W il
W oman
b ine
c ou
f itting
i atic
p icked
p apa
t inent
u i
w ings
re aching
Ġb a
it als
Ġm ister
ing en
Ġp oll
at hing
Ġh ockey
Ġn igger
ut rality
ic ting
ĠI l
se vere
et ry
Ġre ed
Ġst y
Ġst alk
Ġst ammered
ĠA RE
Ġat ter
ĠM erc
ĠH ound
Ġse wed
ĠP hi
to l
Ġsu ms
ĠF urther
Ġv ot
ĠL or
ĠD am
Ġout come
Ġcon verse
Ġde ft
Ġkn it
Ġpro verb
Ġtr im
Ġqu art
Ġoff ensive
Ġfl attened
ĠK uan
bl ossom
Ġshould st
Ġsl it
Ġsc ull
Ġfound ations
Ġke el
Ġgl im
ER E
Ġbo oth
pr oud
con c
Ġsent ry
app arently
Ġmo aned
Ġste alth
Ġmon op
Ġcol oss
Ġmer man
Ġdro oping
ĠCon stant
rem arked
Ġdest ination
St ay
Ġsold ered
Ġdraw ers
rel igious
ĠRe ub
Ġ19 6
Ġ15 5
Ġinf lection
OT T
Ġlab ours
la us
ĠEd ucation
ĠCar rington
Ġdemand ing
sy che
Is rael
Ar t
Ġund one
OW N
ĠQu ick
Ġexplan ations
Ġident ified
Ġscr ut
Ġ185 0
Ġearnest ness
Ġbuffal ow
Ġplant ation
mag net
Ġven om
ĠIll ustrated
mark et
ĠSpe ak
mans hip
clear ly
ĠStan ning
uy emon
ĠLar ge
recogn ized
ĠBess ie
ĠBu ild
ĠFreder ick
whis pered
Ġfasc inating
Ġdiplom atic
Ġcommence ment
disc uss
ĠBeth lehem
tong ue
saf ety
7 5
B on
D at
F ROM
O pen
P o
b red
c ult
d iss
d ouble
g rie
h oo
h ounds
m ers
s wer
t ically
u ps
v ast
Ġt angle
Ġt usks
Ġb aking
Ġm im
Ġp ens
Ġp yramids
Ġl ore
Ġn inth
le ments
ut ton
Ġg ib
Ġg hastly
ic ia
Ġy arn
ĠT rent
ĠS har
am per
ĠM AG
ĠP ier
Ġor acle
ĠW ass
ĠW az
Ġup side
Ġcon clude
Ġex alted
ĠE lect
ig ers
iv ka
Ġj elly
Ġtr immed
Ġcl enched
Ġen vious
Ġapp oint
ci ences
amp shire
Ġsm ite
Ġret iring
Ġcar p
ign ity
den ing
int ention
Ġcr ouching
pr im
con fess
su pper
Ġread s
gg s
Ġmoment ary
eng u
Ġ5 00
Ġblack s
part ies
ub s
Ġinc or
Ġmer its
Ġ= ----
Ġdro ll
Ġbes ought
St ar
Ġobser ver
Ġsol ve
Ġmist s
Ġbear ings
RI GHT
Ġdelight s
Ġdisapp ro
uz anne
Ġcharacter istics
Ġ22 7
ĠQu ite
ĠQu akers
Pro bably
ĠRep resent
Ġlog ical
ĠMer lin
Ġgrad uated
Con stitution
Ġpin ned
prot ected
Ġbutter flies
Ġencour aging
ĠOther wise
ĠLok eth
Ġsne ered
Ġspark led
Bl ue
Ġregret ted
ĠSE A
Ġcultiv ate
Ġcontro ls
Ġdiscour se
ĠCons ider
ĠLo ch
ĠSto ck
cup ine
ĠThrog s
Ġdece ased
Ġpatriot ism
mess age
Ġdemonstr ation
Ġinvestig ate
ĠSid i
Ġforb ade
Ġbapt ized
symp athy
ĠShad ow
Ġbeck oned
Ġbellige rent
Ġlil ies
ĠWel sh
Ġrestr aint
Ġdia lect
Ġparch ment
. *
: ]
I Z
K ING
K irby
P ost
S ax
T ill
c ave
d im
f arm
h onor
l ooks
n ur
n aught
n orm
n ative
s aved
s ighted
u ent
w et
y u
y on
Ġt inker
Ġa rived
Ġs ieve
er xes
Ġc it
Ġd rug
Ġp ore
Ġp end
Ġp hase
ow ards
Ġe ll
ĠT est
ĠT art
Ġas cent
Ġst ung
ĠA C
red e
ĠH undred
ĠB raz
Ġall ey
ĠW oe
res istance
Ġv ases
Ġv olley
ell s
ĠR an
ĠR ather
Ġsp indle
Ġex it
pt uous
Ġj et
Ġfe eds
ap olis
Ġun covered
Ġun mistak
ĠK hilafat
ren uous
Ġhead ache
ĠV ers
ĠCh retien
com men
Ġrest rained
In to
app le
ug itive
ser ved
Ġred ish
ĠJohn nie
ĠAl ong
arch y
AT ES
Ġass ented
empt y
Ġleave l
Ġfur s
Ġtop ics
ĠLord s
Ġdest itute
Ġdom in
Ġir resistible
ĠPro f
ĠĠĠĠĠĠĠĠĠĠĠĠĠĠĠĠĠĠĠĠĠĠĠĠĠĠĠĠĠĠĠĠ ĠĠĠĠĠĠĠĠĠĠĠĠĠĠĠĠĠĠ
Ġgrass es
Ġhot ly
Ġpat ting
car pet
mar riage
count enance
Ġtro pical
Ġhost ility
Ġmission ary
Ġ22 6
Ġhabit ation
De cember
ĠGreen land
Ġ185 4
ĠEn ide
Did n
Ġpack et
Ġthrust ing
Ġmat ron
Ġadventure rs
Ġscrew ed
Ġcelebr ate
Ġpier ce
Ġobst inate
dest ruction
omin ated
Ġjun ction
rot hed
Ġcoward ly
Ġtwink le
Ġenchant ment
mem ory
ĠSav iour
ĠVen us
Ġinher ited
Ġgover ness
Ġhaz el
Ġprett iest
lod ge
Ġtriumphant ly
Ġexplo its
desp air
ĠDer by
Ġtransp orted
Ġcontrovers y
A ng
G olden
K ennedy
O B
R et
S even
T urn
b urned
c ade
f em
h ollow
l aughter
m ant
m ometer
n els
p us
s kins
Ġa h
Ġw ield
Ġo live
Ġb out
it ious
Ġc ocked
Ġc hess
Ġm ater
or able
Ġd irk
Ġl ick
Ġl atch
Ġl emon
Ġl ava
ot hed
id ian
Ġe poch
ĠT roy
Ġre nd
ĠS upreme
Ġst up
ter ior
Ġnot ions
ch osen
ĠThe ban
ĠM acedon
ĠH utchinson
ĠB i
ĠB road
Ġse pulch
ĠP AGE
ĠP retty
ĠC reat
ĠC AT
Ġall iance
ĠG oli
Ġsh ifting
ie g
ast rous
ĠD wellers
ig hest
ap h
Ġcl ick
Ġpr one
ĠK ur
Ġad joining
amp ered
Ġsl ips
aw ares
ĠIn c
man ufact
Ġcar riages
anc roft
Ġexp ansion
Ġcons olation
ĠWe althy
Ġsur geon
gg er
att oo
Ġrun away
ĠBr others
Ġmo ccas
Ġmon uments
Ġsub ter
raw led
Ġgener osity
cha sed
org ul
Ġperson ality
let ons
Ġexpl oring
Ġcent ers
Ġcir cling
sc r
Ġpossess ing
Ġca ress
Ġfre qu
ĠX L
Ġins cription
bec ca
Ġeng raved
ĠLe a
Ġfly er
Ġ11 5
Ġ13 1
des ert
des cribed
Ġcirc ulation
Ġexam inations
Ġvict or
every where
happ ily
Ġinqu iring
ĠAm az
ĠAm mon
hot ograph
Ġthro ats
OM AN
Ġrub bish
ani el
sur round
Ġproceed s
ĠBar low
Ġspl ashed
ĠChristian ity
Ġdistur bing
ĠSte ep
ĠSil ence
ĠJud y
Ġrust ic
Ġphil anthrop
Ġsne ak
Ġtele gram
Ġpier cing
ĠLu cien
sole mn
crow d
Ġmanufact uring
ĠHu ang
offic er
ĠCross ed
ĠPur itans
ĠDog gie
Ġchallen ged
Ġexplore rs
Ġarray ed
Ġphotograph s
Ġtick ets
ĠRaven scroft
Ġrecon c
Ġdyn amo
employ ed
Ġtram pled
doll ars
dess a
remark able
Ġconfer red
Ġguarant ee
Ġencl osure
Ġmathemat ics
Sept ember
Ġbail iff
Ġgild ed
ĠMuss al
Penn sylvania
othering ay
ĠVil morin
riz ona
angar oo
B u
B al
I mp
M ust
O THER
S low
T e
W all
b ill
b orough
h og
r r
r ust
Ġthe ories
in ster
in vest
Ġs i
re pro
it age
Ġf ade
Ġc ust
Ġp ag
Ġp ines
Ġh ier
Ġn ook
st out
ĠT og
ĠT imes
Ġre cl
ĠS hen
ĠS top
Ġst ations
ĠM ice
ĠM aking
the ne
ĠB and
pp ings
un known
Ġk ist
ĠG ot
Ġsh ovel
res c
Ġcon ject
Ġsp at
Ġsp lin
ĠE AR
ig rants
ide on
hi pped
Ġun ity
Ġbl ithe
Ġen l
ment ed
ĠY an
ĠY orkshire
Ġgl ossy
Ġch illy
Ġri vals
ock ing
Ġcount s
ĠAr abs
Ġsur f
ho pper
Ġreg iment
Ġlaw ful
fl ight
ene ath
Ġpower less
gl ance
ĠBe gin
Ġinv aded
ĠDe wey
ĠNew s
IL Y
Ġsy ll
Ġassoci ations
Ġ17 1
ĠBl uff
Ġ19 5
Ġdet ailed
ok otan
Ġsuccess ive
Ġstraight ened
Ġstates man
na e
ĠTr ust
ĠZ ar
eb uc
ĠBE AR
Ġund isturbed
Ġ24 7
Ġ23 0
Ġwin ked
Ġ26 6
ĠMin istry
ĠGl en
Ġfellows hip
Ġbuffal oes
Ġmel ody
Ġsmooth ly
ste in
ĠMed ic
Qu ick
ĠMon roe
Ġnav igation
vi olent
ĠChild e
quet te
Ġpin ch
Ġinterrupt ion
cut ting
sk irts
Ġunl ocked
Ġstiff ly
hon est
var i
spec ially
Ġhistor ian
Ġthir teenth
Ġwhirl wind
Ġfatig ued
ĠBel oved
Ġindul ged
Ġscold ing
lyn n
ĠMist ah
Ġarchit ecture
author ity
Ġentr usted
Ġcig ar
kne es
Ġexclus ively
Ġpant ry
Ġappe als
Ġbaff led
Ġpic nic
ĠPsam mead
exped ition
FOOT NOTES
ĠLiver pool
hams hire
ĠTik tok
7 6
8 5
F ollow
H i
I ce
J oe
O Y
S u
S al
c urious
f ur
f ailed
g am
h uge
m ast
o ors
p apers
w aves
y ield
y la
he ight
Ġa isle
Ġthe ft
Ġs ow
Ġs cept
er ment
ha bits
Ġd uel
Ġd uke
Ġp ike
Ġp iety
ow a
Ġbe aming
st ool
ĠT aking
ĠS uke
ĠS uther
ĠA cc
ec ho
ĠH ouston
ĠH assan
ĠB irds
ĠP in
ĠP amp
ĠC edar
ĠC OUN
ĠW OOD
ĠF ern
ĠF afnir
Ġv oted
ĠD R
Ġsp ices
Ġsp urs
Ġal ight
Ġex hibition
Ġpl unging
ĠJ oshua
pl ains
pl enty
Ġbr utes
Ġqu ad
Ġqu ivered
Ġtw ins
Ġbl ush
Ġover throw
Ġfl ank
Ġper ceiving
Ġim ediately
ps y
Ġsc atter
Ġfound er
und son
Ġbo asted
over s
me re
me as
Ġte ams
inc erity
Ġchar ging
gg ar
sp ent
az ar
Ġopen ings
Ġmon ks
fl ame
oe uf
Ġconf ronted
Ġrequ is
Ġarri ves
Ġbar ked
will ingly
Ġbur ying
Ġdom inions
Ġcamp s
Ġdoubt fully
Ġinf ants
Ġbow ls
ĠDav ie
Ġrespect ively
Ġdesp ise
Al so
Ġshad ed
po inting
Ġgall oping
Ġmad ly
Ġant elope
Ġevent ually
ann in
Ch urch
Ġgas ping
ĠWeb ster
Ġtrail men
Ġcool ness
Ġgloom ily
poss ibly
Ġgrat ified
ĠDE ATH
expl an
Ġheed ed
Ġconstit ute
Ġprophe ts
win eter
Ġded icated
ĠPat rick
ĠVer ity
Ġflee ce
Ġmechan ism
Ġpear l
ĠHind u
cal m
Ġloy alty
jun ction
ĠAD VENT
Ġviz ier
ĠKot suke
Ġmonot onous
Ġassail ants
ĠMord red
Ġsmoot hed
Ġflann el
ĠCec il
Ġadequ ate
ĠPow hatan
auv oo
" ?
; .
B ig
C orn
I OUS
N ature
T ALE
V ES
W ind
W elcome
b ub
c ore
f s
h ol
i arty
n ament
t al
Ġt ren
in her
Ġw er
Ġb ud
Ġb acon
ed der
ed ric
Ġm ales
Ġd izzy
Ġp ry
as much
Ġin aug
Ġh ug
Ġl b
Ġl air
om ai
le mag
Ġg urg
ow ulf
ic ts
ay ette
ĠT yr
ir ley
Ġfor cing
ĠA P
ter min
il ant
ĠM S
ĠB us
ĠB reezes
all as
Ġse w
ĠP le
Ġall egiance
ĠW ait
ĠG izeh
Ġsu nd
ood le
ĠD oll
ĠR uler
Ġman uscript
Ġno bility
ge ir
ĠE gerton
os uke
ĠN antes
Ġpl edged
ass ured
Ġcl ans
av o
Ġsm elt
fe y
man aged
Ġch opped
Ġter med
ĠV orongil
oc ation
oot ing
Ġatt ributed
Ġcr ane
Ġcr isp
Ġcr umbs
Ġte aches
app et
Ġtre asury
Ġmo aning
Ġche ery
Ġpar cels
Ġlay ers
gr at
Ġinter vention
ĠCl uny
Ġfast ening
Ġbad ge
Ġsn apping
Ġequ ival
Ġdep ression
soci ety
St ri
Ġfr amed
dis app
Ġcross es
Ġ15 2
Ġimport ed
Ġ16 1
Ġ16 4
Ġ11 9
Ġband age
Ġdisapp earing
Ġjud ging
Ġ14 5
Ġstop s
ik es
ett es
ray ed
Ġ22 8
Ġ23 1
ĠApon igawani
Some body
Ġprivate ers
Ġwed ge
Ġsevent eenth
iction ary
ĠBo ar
Ġimpl ored
Ġris ks
Ġaltern ative
Ġflood ed
Ġrum bling
subject s
Ġrad iance
Ġtap est
Ġimmense ly
ĠWH ITE
Ġappreci ated
ĠFe ather
Ġcorrid ors
eat en
Ġconquer or
isp ens
Ġyell s
Ġscold ed
enz ie
Ġdun geon
ĠSat an
Ġintr ud
ĠMess rs
Ġplum age
Ġsacrific ed
destroy ed
Cor respondence
Ġvary ing
Ġredd ish
orne o
Ġmosqu ito
Ġexcurs ion
clo ak
ĠGE ORGE
Ġecst asy
Ġcarc ass
Ġbegg ars
ĠSuther land
lemag ne
' ,"
' ?"
) =,
C ross
C hr
F ortunately
H INGTON
L ater
L ucy
T er
T ex
d ar
d ate
g ri
g ear
j t
l ocks
p ure
y gen
Ġt ipped
Ġt alks
Ġw ins
Ġs ine
er ation
Ġf able
Ġf idelity
ing ham
Ġh ull
Ġh ord
Ġh ugged
Ġg ull
id y
st icks
ay a
ro phe
al u
ad ian
am or
ĠA ug
Ġsa ith
ĠH aven
ĠB ee
." --
ĠC ord
Ġor ator
ĠW orm
ĠG os
ĠR ogers
Ġout fit
Ġout door
ĠO p
ven ile
Ġbr ant
are ine
Ġcl ang
Ġcl uster
av rill
Ġover looked
Ġdis comfort
ord inate
Ġfl ashes
Ġhand ing
ĠY ears
ang el
Ġper ils
Ġsl ate
Ġsl ower
Ġnight mare
less on
ĠV espasian
ex ec
ex istence
Ġexp elled
ĠInd ex
br ain
Ġste eds
Ġpar ched
ĠMiss ou
ĠAl ways
no x
mon ster
tr ain
Ġwall ed
Ġinde finite
uff ling
ĠAn cient
OU LD
Ġart ists
uri osity
Ġcur ly
Ġsuff ice
Ġspir ited
Ġhon ours
Ġdep ressed
St one
ĠDo ct
Ġfee bly
Ġ12 2
._ ]
Ġ11 2
jo in
Ġstates men
Ġmid day
Ġcapt ivity
ext ent
back s
With in
ĠPl ay
LA CK
Ġlot us
Ġpit iful
Ġweak ened
ĠHen kel
Ġ23 6
Ġoblig ation
Ġinvent ions
ĠSl av
ĠBlack burn
epend ent
sur v
ĠSet i
Ġscream s
Ġmir acles
Ġdeser ts
Ġfarm house
ĠGo ing
ste pped
Ġshame ful
Ġmort ar
ĠSim ilar
Ġvirt uous
Com p
Ġap ology
cross ed
Ġobst acle
Ġhed ges
Ġbrid ges
list ened
ĠLau ghing
Ġtwink led
mill ion
Ġdiff ers
Ġscram ble
Ġeconom y
Ġdepos it
Ġju ice
Ġcho king
intellig ence
Ġsom bre
uny ip
Ġclust ers
thro at
ĠSwed en
consequ ence
Ġcaterpill ars
distingu ished
splend id
Ly ons
ĠSalar iki
ĠMoo re
Ġpett ico
avrill ac
7 4
F ear
G es
J A
S ent
_ :
a head
b ation
d ance
d aughters
g ates
g overnor
m ons
r ays
w rit
Ġw aken
Ġb ale
on ial
or ie
ar ian
Ġd iet
Ġp oul
Ġp sal
as g
Ġl av
om bs
le ather
Ġbe wit
st ery
ĠT ib
ĠS ure
ĠS yr
ĠS ky
ur ai
Ġst akes
Ġsa us
th irds
ĠM iao
ĠM irdath
ĠH unt
ĠB ooks
ĠB oom
ĠP ART
ĠC ain
ĠC ond
ĠC raw
un ion
ĠW a
ĠW ife
ĠG ay
ĠG RYF
ul ses
ĠL an
ra irie
ĠR ee
ĠR oche
Ġcon ver
Ġar isen
Ġus age
Ġcl ash
Ġun har
oy o
Ġbl ocked
Ġpart icip
Ġpart icles
Ġsl ugg
ne x
land ed
Ġsw ans
ĠV ivian
Ġcomm end
Ġunt ouched
Ġsur m
br id
Ġpers ist
OR AL
Ġel astic
Ġreg ain
bed s
IT ION
Ġsub mission
Ġlo aves
cap ital
Ġpay s
ĠCl er
Ġfoot prints
bert ies
Ġproper ties
rel igion
Ġplan ks
Ġ15 1
aff ord
inci al
Ġgovern ments
pec ker
Ġele venth
ĠLe on
ĠGer mans
Ġve h
Ġve in
ril o
mar ry
Ġtrem end
char ged
Ġsuper stitious
cul ated
Ġpig let
inst inct
Ġavo iding
del ighted
Ġpeculiar ly
appro aching
Ġexcited ly
prot ection
Le ave
Ġsne e
satisf actory
Ġoath s
Ġbeha viour
Ġtermin al
ĠMand an
ĠHun ting
exam ination
Ġdoc uments
iy an
Ġingen uity
jac ent
sugg ested
ĠMak arooroo
Ġverd ict
Ġgalley s
wond ered
Ġelev ated
Ġforci bly
ĠPun jab
Ġwolver ines
ĠMusk rat
ĠMaj nun
phil osop
Ġenerg ies
7 2
8 9
B ear
B oston
F lynn
G entlemen
K ay
R ock
R omans
S an
S ol
_ ?"
f ox
g as
g al
l at
o ch
p ushed
p owers
u h
w elcome
Ġt ens
Ġw ary
re ward
Ġm ates
Ġd anc
le by
Ġg um
ic an
st an
ac ies
Ġhis sed
ĠS op
Ġan alog
ĠM ax
ĠH i
ĠH omer
ĠB arker
ĠP oly
ĠP syche
Ġsu bl
Ġthem e
ĠF isher
ĠD est
ĠD iam
ĠJ AMES
Ġbr am
Ġcl asp
ĠAnd res
Ġen acted
his m
ĠK oku
Ġ2 14
Ġsm ash
Ġpre fects
og lyph
Ġnight ingale
ĠV ice
Ġatt orney
Ġcomm od
ple te
ĠAr my
Ġact ors
Ġsk et
att itude
Ġcountry side
Ġmo le
ho ly
Ġrec itation
Ġrec ruits
Ġlove liness
Ġsle ek
Ġrel ish
Ġschool master
RE M
Ġass es
Ġexc ite
.-- "
AL S
Ġbar ons
Ġsign als
Ġcoll ision
Ġmis chievous
Ġsol ved
pre ced
Ġstra ps
Ġ17 2
Ġ17 5
Ġins ane
Ġins ulted
Ġest ates
Ġdeal ings
Ġ14 3
ĠEx per
Ġmark ets
vere nd
Ġmass acre
Ġ22 4
Ġwin ters
Ġid leness
kind s
atur ity
Ġpot ent
Ġtight ened
De ath
Ġho pping
John ny
Ġpack age
Ġproof s
ais ie
OSE PH
Ġcraft s
ĠWH AT
Ġfrag rance
Ġamb assador
ĠPan ama
Ġintense ly
Ġuneas iness
Ġextrem ities
offic ial
umin um
hur st
Ġsubs ided
ĠArab ia
ĠSu per
Ġautom atic
ĠKar l
Ġcompre hend
Ġlur king
Ġsignific ant
ĠQue ens
belong ed
Thor vald
Ġflav or
Ġexclus ive
susp ected
sle pt
assem bled
Ġmiser ably
Trans criber
Ġscal p
appre ci
Ġdeleg ates
incl ined
Parliament ary
ĠDak ota
Ġchival ry
Ġeyel ids
experi enced
Jer usalem
scient ific
Ġdisd ain
ĠJam estown
Ġanci ents
Cop yright
Ġejac ulated
ĠStu art
iell yn
6 9
D U
G overnor
L aw
N at
N ight
P ri
R ip
b ars
f itted
f inn
i hil
l en
l one
m ash
s ore
s isters
s overe
t at
t ied
Ġt ested
Ġt issue
Ġw an
Ġw aded
Ġo z
Ġs ill
er als
Ġb rill
en et
on iyan
Ġm useum
or ters
or ier
ar ah
Ġd ub
le phone
Ġg ilt
hat e
ot ic
ĠI LL
ith ing
ĠA venant
and al
Ġsa ucy
the w
Ġor deal
ag ara
ĠW ald
op led
ĠF RO
ĠF inding
Ġv ag
ĠL uck
ĠR ace
ĠR io
ĠR ikki
Ġman ned
Ġal oof
Ġde re
ĠE re
os hi
Ġj og
Ġj oust
Ġro oster
Ġoff spring
Ġdis e
ble ms
Ġwork er
per f
ĠY EAR
ave l
Ġsm itten
act or
Ġsl ipper
Ġcomp ound
Ġcomp romise
ĠIn stantly
row ed
Ġgl ob
de b
Ġhome ly
Ġsec l
cept ible
Ġcha ined
Ġgu ise
br and
elt a
Ġmo an
ho ven
sp ite
Ġpresent ing
Ġtra its
Ġbeaut ies
Ġdirect or
ib o
mon t
Ġstre ak
ger ald
ĠSe aton
Ġcur l
Ġcur ling
Ġbad ger
Ġcond emn
Ġill um
Ġvar n
Ġvol s
Ġmed d
Ġforward ed
Ġsqu irrels
pre cious
Ġfre ight
Ġmod els
Ġ19 9
roy al
Ġcompl aints
Ġball ad
Ġrain y
ĠChar lot
Ġmark ing
bel ief
io let
Ġenter pr
Ġleap s
Ġphys i
ĠAm elia
Ġtro ll
Ġ23 2
Ġ26 7
Ġvast ly
Ġinflu ences
Ġ185 9
spect or
Ġoper ator
isto l
adv ice
among st
Sp irit
Ġconstit uted
ĠAg nes
Ġcorrespond ent
ĠMad ison
Ġprospect s
Ġpan el
ĠBudd hist
ĠPur itan
ĠDark ness
ĠHind us
dream s
move ment
Ġexert ion
acqu ainted
Ġattent ive
Ġhards hip
asil issa
AMP LES
Ġbenevol ence
Ġdiscri bed
ĠAlg iers
ĠBol te
Ġantagon ist
Ġminst rel
citiz ens
ĠFAIR Y
ĠRoe buck
A IR
B illy
C ayley
M aid
S aw
h iding
l ated
p y
p read
r iding
s ien
s burg
u bert
re port
Ġb aw
it ime
it ching
Ġc rave
Ġm uy
or ical
ll ers
Ġd arts
Ġp aced
Ġh ogs
Ġbe ad
Ġre ly
Ġre vers
ad m
ur ated
ur day
oo led
ĠA ff
ec hing
Ġan gered
if ice
ĠM EN
ĠH AS
ĠH si
ĠP ack
ĠP ainted
Ġr ails
Ġso d
ag ogue
em ar
Ġsh irts
ul sed
ard y
Ġv iv
ĠD AY
ĠR hine
Ġout break
Ġsp acious
Ġsp urred
ig ence
ish ops
Ġcl over
fore head
Ġpr udence
Ġpe w
Ġ2 17
iz ations
mer c
Ġch op
Ġey ed
Ġstr ide
Ġret reating
Ġyoung sters
Ġwar mer
Ġsec ession
Ġsupp lement
ĠAr ist
Ġhel ps
ider y
Ġbed side
Ġass ign
Ġass ailed
Ġmaster y
Ġexpl oration
Ġtrans fer
Ġdef ined
ĠBl ake
some where
Ġtreat ing
Ġ12 5
Ġ15 4
Ġins ignific
Ġdet urmined
Ġmain land
Ġval ise
Ġ16 5
comp osed
ogn i
ĠEd itor
yn x
ams ie
Ġrespect ful
Ġbox ing
Ġrul ing
imp at
erv ative
mar ine
ĠEm il
Ġcurrent s
Ġswift ness
Ġwear ily
Ġfond ly
Ġstout ly
kind ly
Ġmor sel
Ġgar ret
Ġcourage ous
Ġexpress ive
Ġmurm uring
ĠXX II
sect ion
clam ations
direct ions
Ġfil thy
ĠMass a
isc oe
pract ical
Ġremind s
Ġsuspic ions
Ġscorn fully
Ġinval id
fr ame
Ġscra ped
Ġpisto ls
ĠArab ian
EX AMPLES
Fr anc
ripp a
Ġrhy me
Sil ence
Ġprecaut ions
Apon itolau
Ġuncommon ly
Ġdart ing
ĠRhod e
Ġconcent rated
Ġsquee zed
Ġexhaust ion
Ġawaken ing
Ġredd ened
Ġhing es
Jac ob
Ġvass als
Ġexcell ence
ĠVig ilance
6 1
C ES
C reek
E ight
G G
G ray
H el
H aw
K IN
P ers
S ur
b rief
d ying
d uty
g uns
j ack
p oured
t age
t rap
u ki
w recked
Ġt ension
he nded
Ġw age
Ġw ither
Ġw agg
Ġb ount
it imate
ar ose
Ġd an
Ġd ough
as king
an ity
ut ted
st ars
Ġe agles
im o
ro it
Ġre wards
ĠS att
am use
ĠA thene
Ġnot hin
ĠB reeze
ĠP ale
Ġall y
Ġall uded
ĠW is
ĠW IL
Ġv irgin
Ġsp ont
Ġsp acer
Ġde cended
itt ance
Ġpl umes
Ġj ur
Ġj umps
Ġar ouse
Ġcan on
Ġcl asping
Ġgr unt
Ġday time
av an
be ha
Ġnow ise
Ġhand ic
ĠK urt
Ġthr alls
Ġpo inter
Ġpre liminary
ĠShe pher
ĠV asilissa
Ġcons pir
Ġem bers
Ġple a
sp ark
ĠTo omai
ĠOn es
tr ick
ĠPr ice
Ġdri ves
Ġclear ness
Ġpol ar
Ġbar ge
add ened
TER S
Ġdef iant
Ġknight ly
ĠSh osh
ĠSh opton
Ġ15 9
ĠĠĠĠĠĠĠĠĠĠĠĠĠĠĠĠĠĠĠĠĠĠĠĠĠĠĠĠĠĠĠĠ ĠĠĠĠĠĠĠĠĠĠĠĠĠĠĠĠĠ
ament e
Ġhat es
Ġ20 4
Ġdescri ptions
Al addin
pass es
Ġmiss iles
gu ards
ĠWell s
Ġpun ch
sl ain
Ġmil it
hel pless
Ġoccup ations
may be
tw ice
Ġshoot s
Ġfal con
bid den
Ġnur ses
ĠSig geir
Ġspr inkled
Ġgrad ual
ĠMon struwac
ocr ates
Ġdespair ing
ĠDes ert
Com o
wild erness
Ġbill ows
Ġaltern ately
ĠIng olf
soon er
Ġsmell s
pol itical
Ġamb ush
Ġcultiv ation
jour n
ĠMus ic
ĠGar goy
sold ier
Ġrender ing
lear ning
Ġsex es
ĠCham ber
Ġesc orted
super ior
ĠAE sir
Ġimprison ment
Ġpersec ution
Ġyawn ing
Ġpump kin
shout ed
Ġpenn ies
tim ber
ĠChap elier
ĠGro ve
ĠFrey a
Ġbisc uits
ĠOrd way
Ġtel escope
Ġobe ying
Ġsimult aneously
Wor ld
Ġomin ous
F e
H ill
R oosevelt
S anta
W y
W ord
_ !
_ ).
c ool
e nder
f il
g ings
g led
i ph
j ew
p up
r out
he res
Ġw rap
re ply
ou ter
ou cester
Ġb ump
on er
Ġm ature
Ġh ose
Ġh og
Ġh ump
Ġha b
Ġha voc
ot al
im an
Ġwas ting
ĠT her
ĠT ete
ad el
ri fle
ĠS here
ur b
and re
Ġsa uce
ch us
ch oose
ĠB ancroft
ĠP ict
Ġher itage
ĠW ise
ĠG oll
ĠG inger
em er
Ġdo le
ĠF E
ĠF ew
ĠD ampier
ra ult
Ġex ile
ĠN ell
ĠN av
ĠN auvoo
Ġbl uffs
ĠK i
Ġpe gs
Ġch rist
Ġri pping
ĠV OL
ex tended
irl s
ĠAr ound
ĠAs iatic
Ġdec ree
Ġdoor step
Ġel m
Ġdel ir
Ġstand ards
ton es
Ġsea weed
org iana
ĠIs lam
tr oubles
ĠSp ace
ĠCom yn
SE L
Ġvill agers
Ġfle x
Ġdifferent ly
Ġblood shed
Ġthick ets
Ġ15 3
Ġpull ey
ĠIndian a
Ġforg iveness
ĠLe inster
Ġve ter
Ġspo ils
ĠWhere ver
Ġfirm ness
Ġpra iries
Ġrid ges
ĠCo al
Ġsplend or
ule esh
dr inking
yl um
Ġdi jo
Ġmort als
Ġsin ister
Ġpil ots
Ġrang es
Ġfalse hood
care ful
Ġhesit ating
ĠAgain st
ĠAg atha
ĠDec atur
Ġrefer ring
ĠBal oo
bott le
ĠEs q
wit hal
conscious ness
list ening
ele phant
Ġbon ny
Ġsingular ly
Ġdeliber ate
Ġsimpl est
Ġuncertain ty
Ġconvention al
hin oc
Ġinfinite ly
Ġdistr ust
Ġdece it
Ġentreat ed
Ġinspect or
furn ished
ĠRhod es
ĠMir iam
fool ish
Comm ittee
Ġthrob bing
Ġbese ech
ĠCoo per
shel ter
Ġathlet ic
ĠGam ala
Ġamend ment
ĠAbs alom
Ġeffic iency
ispens able
7 1
E st
H ume
R el
b elt
f aint
g ives
l amp
m its
n ock
p ainted
r ush
t ide
v ings
z o
Ġa kin
in ople
re le
ha le
Ġc oy
Ġc ement
Ġm all
Ġm ummy
or i
Ġl eng
Ġg wineter
st age
Ġy elling
et ing
ro ot
ĠS au
ter ror
ch uck
ĠM s
ĠH annah
ĠP OL
." _
ĠC reeks
Ġr uth
ich i
ĠW ag
ĠW EST
ĠG ri
Ġshe ath
ear ch
ĠF OUR
ĠD raw
ĠR ud
Ġal phabet
Ġab ated
Ġab hor
ĠN ancy
ĠO gre
Ġpro strate
Ġro amed
Ġfe athered
Ġgr ains
Ġbl under
Ġen ables
Ġam iss
Ġdis pose
ang as
Ġwhere abouts
act ually
Ġcomp artment
iz ure
Ġbeg u
Ġch oke
de eds
Ġcar r
Ġcar ing
up iter
Ġexp anse
li qu
Ġrep ast
Ġrep rod
pr it
Ġcha sm
Ġind oors
ĠAs sembly
form ing
any body
Ġco iled
ale igh
Ġsure ty
Ġreg ained
Ġint ric
fl ung
ides pread
Ġgre ase
ib ald
cha la
gl oom
Ġorder ing
Ġoffic ially
Ġwild est
Ġlength s
Ġpi geons
Ġdraw ings
Ġcap e
Ġplan ters
airs hip
udd le
Ġjourney s
Ġtor toise
Ġpract ices
min ster
ĠOr pheus
Ġpath way
ĠPe gana
po ison
Ġnarrow ed
cr im
urg ha
Ġcab bage
Ġfro lic
Ġ23 5
Ġ23 9
pri ests
AB BIT
Ġblind ly
Ġphr ases
Ġprotect or
Ġ185 5
dec k
Ġhollow s
ĠWorld s
Ġdi pping
fam ous
Ġghost ly
Ġendeav or
Ġbelief s
ĠNat han
Ġcrim inals
Ġloving ly
Ġphot o
ugged o
Ġshrie king
Ġimpress ive
sleep ing
exc ited
Ġclam or
Ġclam bered
Ġpuff ing
Ġunlike ly
num erous
sus pic
intell ect
bod ied
ĠPeters burg
pun ishment
acqu aint
Ġung rateful
Ġmoist ure
ĠTob acco
bul k
Ġyawn ed
mil k
Ġestim ated
Ġmeek ly
Ġti ene
ĠMcG inty
Ġcler ks
ĠJes se
Ing red
Ġbele ive
Ġfrig ate
Ġfren zy
ĠRug by
ĠFO X
Ġheark en
ĠWinc helsea
ĠCratch it
ĠSatt urday
A li
C Y
D ar
G R
M el
R ead
U EL
a ik
b ent
b ade
c ard
j e
n oth
p air
p oles
w olf
y in
Ġ ................................
Ġt int
Ġa pes
Ġs ot
Ġf erry
Ġf ountains
ar act
Ġd angling
Ġp he
Ġh overing
Ġl add
Ġbe amed
id ad
im prove
ith s
ce ler
ĠA thel
ĠA bram
ill ery
ĠM un
ĠM undson
ĠB ern
ĠB orneo
ĠB unyip
ĠP end
ĠC ole
ĠW es
ĠG arrison
ol ars
ĠL AST
ĠR ABBIT
itt in
ig nty
hed ral
ĠJ ournal
Ġar ising
ap ata
ud ging
for got
be am
Ġfl ound
ĠK ami
Ġad jacent
Ġapp are
Ġ2 10
Ġgl or
og oro
Ġter rors
Ġcar ving
Ġbo om
ex ceed
Ġcons ulting
ĠCh r
ins p
ins ula
EN G
any where
Ġple ading
Ġgu iding
ĠBr itt
Ġrel inqu
enc hant
ĠAl okotan
Ġran ch
Ġpoor ly
oe uv
Ġtri pped
Ġtri vial
Ġhum orous
Ġdeath s
She riff
Ġhur ts
Ġreal ised
Ġmag azines
Ġmed dle
ham mer
ĠRed head
Ġaf resh
ĠRe f
some body
Ġ19 8
Ġobject ions
sha re
Ġdet ached
your s
Ġ16 3
Ġball ance
OT H
cont est
na pped
Ġemploy er
Ġjud icious
An thea
Do ctor
than ks
Ġglass y
cop ha
Ġcru c
ĠWell eran
Ġtrust ing
Ġmad man
ĠEm ma
Ġmill s
Ġ23 7
Ġ26 0
Ġ26 5
chan ging
ĠCr own
Ġpot ato
Ġmotion ed
Ġcustom ers
Ġdwell ers
ĠRoy lston
Ġmel od
Ġgen ie
ĠFred a
ĠGu ard
mind s
ĠHigh ness
Ġcraft y
rop olis
ĠSil as
Ġaffection ately
Ġtend ing
agg i
Ġemb ark
ĠHol royd
Par is
ĠSen ator
attles n
cover ing
Ġshrie ks
Ġsche mes
Ġmorn in
Ġconcern s
Ġmanif ested
ĠDen mark
ĠSav annah
ĠAE ge
concer ning
mid st
intellig ent
Ġsadd les
faith ful
Sec ond
ĠGoose y
Quest ions
Ġscound rel
Ġinherit ance
Ġfath oms
wag inan
ĠMang ab
liber ty
magnific ent
Ġted ious
Ġmell ow
6 4
G old
J ew
N eal
O E
R ing
U P
b ud
c ow
c red
d ish
d iff
f u
g om
g ol
g reet
k not
l oss
p ig
p ron
r able
t ie
v ior
v irt
Ġa lder
in burgh
Ġs ash
re ast
is ans
Ġm ute
Ġto ma
es cent
Ġp ork
Ġp aved
Ġp onies
Ġp amph
at to
Ġh ooked
Ġn ib
Ġg em
Ġe pit
ĠT R
ĠT urning
ro ots
ir ited
ri o
Ġas pir
ĠS ays
am my
Ġis olated
and ing
ill on
ĠM ol
ĠH ooty
ĠB UR
ĠB LACK
ĠP ork
ĠC ool
Ġr app
ĠG ulf
ĠG illing
ĠF inn
ĠF alls
Ġmy ri
ol ve
ĠL ay
ĠL ost
ĠD exter
own er
Ġsp orting
Ġal c
Ġde ity
ack now
Ġgo ble
ĠJ il
ven ham
Ġbr oth
Ġqu ote
Ġun well
Ġdis mount
ĠY alding
Ġwhere on
Ġsm elled
not withstanding
mer ry
Ġhead axe
Ġdist orted
fe ared
land ers
Ġstr ides
Ġjust ify
Ġtake ing
Ġ3 25
Ġnew comer
Ġimp udent
Ġmar rying
Ġmar sha
Ġfell ed
ĠCh in
ĠAs k
sh ield
Ġsk ip
sp ered
sp reading
Ġneed les
Ġfour teenth
Ġreg ulations
tr ained
idd les
Ġexpl ains
Ġpublic ly
ĠDe k
str ings
ĠFr anks
Ġdep ot
ern al
rem oved
Ġloc ation
Ġpres um
Ġjoy ously
ĠRe al
aff in
ĠEd inburgh
des cription
ours es
pass engers
ĠLet ters
count ries
good s
Ġpen it
hel ped
Ġ25 2
Ġ23 4
friend ship
bell s
follow s
UN T
Ġ29 5
Ġoper ated
ĠComm ons
Ġrout ine
Ġforeign ers
ĠIND IAN
suff ered
Ġrust le
Ġendeav ored
Ġmult ip
agger t
Ġobst acles
Ġcher ries
Sc ott
Ġnarr ated
ĠJul i
Ġannoy ance
Ġped est
ĠGar rett
Ġnovel s
Ġharsh ly
Ġconfident ly
Ġnois elessly
Ġmerc ury
Ġmoder ately
treat ment
More over
Ġstamp s
ĠBow ie
Ġsober ly
Ġaccur ately
Ġnic er
Ġsadd led
Ġquarre lling
ĠSic ilian
fat ig
Ġachieve ment
ĠCre we
Ġgau ge
Ġtow el
Ġresent ment
ĠTan ner
ĠClats ops
Ġwick ets
ĠDist rict
Sig urd
Af ric
ĠJi uyemon
hos ph
Ġwal nut
ĠRames es
ĠAqu areine
Ġmaj estic
ĠRepresent atives
ĠBraz il
ebuc had
A c
A way
B ooks
B oeuf
F ionn
J AFL
M S
M amma
P RE
T ry
b ath
b ron
b ase
d n
m ouse
p atter
r abbit
s ided
s ils
t alked
w itch
z on
Ġ uten
Ġt ests
re volution
en ial
Ġc able
Ġm ocked
ar rival
Ġp as
Ġl ard
Ġl ashing
Ġbe arer
id en
st ern
st ruction
Ġre ver
ri el
ĠB acon
ĠB eside
ĠP addy
ĠC edric
Ġall ows
ĠG avrillac
ab oard
ant ically
ĠL AND
ĠL ONG
ĠD ixon
ind y
ind eer
ĠE ll
ĠE lf
os m
os it
pl us
Ġtr ough
Ġbr aces
Ġcl ap
ud a
Ġdis gr
ink les
bl ers
per t
per ial
Ġad here
ang les
Ġapp alling
Ġ2 16
ph ins
Ġgl ittered
Ġret r
Ġright ful
ical s
Ġwood y
Ġrel ates
ser ies
Ġcol t
ĠAl abama
ĠIs abella
stand s
do ctor
ash man
Ġperson age
Ġswe eter
Ġexpl oded
ĠGr ass
IL E
Ġvar ieties
St angerson
UT H
ĠBl ood
Ġ12 3
Ġbuild s
umb rilo
ĠEl isha
Ġdam ned
Not ting
ĠLe ave
Ġval our
che ster
des perate
Ġlearn s
Ġdisp utes
icks burg
Ġspo ons
Ġnarrow ly
Ġble ed
Ġsorrow fully
fle e
Ġcott ages
Ġ24 5
Ġaccomp an
Ġtim bers
Ġprincess es
ĠBlack y
Ġer u
Ġfill s
Ġattend ance
Ġindic ation
ĠMor iarty
Ġhal ves
stri ke
Ġtempt ing
ĠHam mond
Ġfrag ment
Ġdischar ges
ĠHaw aik
Ġflour ished
spec ies
Ġasser tion
Ġchuck le
Ġscra ps
ĠNa omi
Ġvac ation
Ġrein force
Ġdiff ered
ĠCave ndish
osqu in
Sam uel
Ġportra its
Ġrevel ation
Ġdelic ately
conv inced
ĠRey nal
Ġnegot iation
stro ke
ĠFel ix
ĠNorse men
Ġphenomen on
buffal o
ĠMahomed ans
ĠMentor ian
Ġdol phins
deg ree
Lok i
ĠNest or
Exc use
Slow ly
ĠChr istopher
B oys
C ab
E TH
G reek
H ome
H ardly
K ar
M AR
O ST
O PLE
R ec
W ild
d rogen
g ement
i kin
k ens
n in
p ick
Ġo iled
Ġs ample
ha y
it ou
Ġf i
Ġm atched
Ġp acks
Ġin forms
Ġh overed
Ġth ud
se ed
ent ially
ac company
ĠT ab
ĠT asso
ro lling
ĠS IGN
ur as
Ġst ocks
Ġst umbling
oo sk
ĠThe m
if orms
il fully
ĠM ich
ĠM ans
ĠM inn
ĠM ARK
ĠH ap
ĠB RA
ĠB elle
ĠP resent
Ġall igator
un ited
ĠG enzaburo
ul ator
el son
ab ul
op a
ĠF ergus
ist inct
art icle
ast rophe
ĠL isten
ĠR as
Ġde pl
Ġno bly
Ġex h
ĠE xt
Ġkn itting
ĠN es
ĠN umber
Ġcom est
Ġro am
pl ates
Ġar ches
Ġli berties
Ġgr udge
Ġun ique
Ġbl ur
Ġthan king
Ġdis astrous
Ġwork man
ĠK yral
ĠY ea
so ay
Ġ2 18
ĠSt art
aw ed
ĠIn side
Ġmake ing
und ays
Ġstr agg
get s
anc hed
ĠV ER
Ġimp ass
Ġcr ater
ret ches
ĠCh il
Ġcha riots
EN ER
Ġrest oration
sh owing
Ġdec oration
Ġbro oding
Ġwood ed
Ġrec ited
sp ear
az kas
Ġche mistry
Ġpar liament
Ġrel ent
cle ver
Ġgre ens
Ġmount s
ib ule
Ġconf eder
Ġwall et
ĠSp itz
AT S
Ġeas iest
ric ane
ole ts
Ġcor pses
Ġmed al
rem acy
Ġdog ged
Ġreason ed
Ġthick est
Ġmot ions
ĠRe becca
ĠSh irley
ĠCol or
aff airs
Ġdet est
bec omes
asion ally
ĠAb bot
Ġgrand eur
Ġ14 1
ext rem
Ġhero ism
ĠFrench man
ĠZ eal
bel oved
Ġweek ly
ĠHar per
war ning
umber land
Ġtim idly
stit utions
Ġgro ans
Ġgro aning
Ġsepar ately
OL N
kind ness
Ġcivil isation
Ġflight s
Ġreve rent
Ġspl ashing
Ġsteam boat
ste el
ĠJac into
Ġexec utive
stead ily
Ġsigh ing
cut ter
adv ance
Ġshr ink
abs olutely
Ġmap le
miss ed
name ly
Ġinstinct ively
ĠCha ir
Ġsuperior ity
INC OLN
Ġinfant ry
Ġmock ery
Ġimprove ments
ĠLight foot
Ġgap ing
num bered
Ġsecre ted
seem ing
Ġindul ge
ĠGold burg
Ġthrong ed
ĠLang a
Ġsho emaker
ĠSpart an
Ġhelm ets
inv ited
Ġclut ching
Ġaffl iction
Ġbuzz ing
Ġtact ics
Ġmou jik
ĠJen ny
Ġtut or
Ġissu ing
ĠTao ist
Ġdares ay
Ġadvers ary
Ġenvelop ed
admir ation
educ ated
Ġliz ard
Ġasse nded
Ġcongreg ation
Ġlugg age
commen ced
ĠCharlot te
A UL
B ec
B uffal
D aniel
J efferson
L ove
M ormons
R ev
S y
S on
S im
T ar
b ags
b oots
c ousin
o it
p ox
p ounds
p udding
p ublished
w ax
Ġt attered
Ġt igers
he at
Ġa ug
Ġs ane
Ġs inner
re vol
nd s
Ġm oth
Ġp ears
Ġp anther
at tended
as ent
Ġh inted
Ġg iddy
ot us
st iff
gh ost
ent e
ac o
ver ry
Ġre hears
Ġas p
oo red
Ġ" ...
ĠM u
ĠM end
ĠH od
ĠH ampshire
Ġse q
Ġse ashore
ĠP ubl
ĠP illingshot
ore sc
-- ?"
Ġk etch
ĠW on
ĠW aters
ĠW OND
ĠG org
ĠG entle
est e
ĠF otheringay
ĠL ET
ind ign
ĠR en
Ġsp ool
ĠN ic
ĠN ur
Ġthere upon
ap ing
ade qu
we eks
Ġdown cast
Ġbl ouse
Ġbl aster
Ġfl ute
Ġfl inging
Ġpr ickly
bl eness
ci us
Ġsc attering
Ġpre cept
Ġpre ference
ĠU gly
oss ibility
und ers
Ġch oc
Ġstr ung
og any
Ġres ource
Ġri gging
Ġend urance
Ġfar thing
Ġbu cks
ret urning
pr int
sh r
Ġdisc arded
Ġfore told
Ġbus ied
Ġbus hy
fl our
fl akes
fl uous
AN E
Ġhorse man
ĠBe owulf
Ġstay s
val ue
Ġcommand ers
Ġpres ervation
dis posed
Ġappro ving
ĠMar ie
par all
Ġ19 1
Ġaccept ance
Ġins urrection
che i
ĠMan or
ĠChar lemagne
ik ky
ĠEx pl
ĠSw itzer
Ġguard ians
Ġcoun sell
Ġresol utions
cr icket
Ġoppos ing
Ġauthor ized
ST ON
Ġtro dden
Ġgra zing
Ġerr ands
Pro ofreading
Ġflo ors
Ġfer vent
Ġaccident ally
ĠWood s
sk ill
Ġproject ed
Ġreflect ing
Ġprofit able
equ ally
ĠDel orier
Ġsne er
Ġillustr ate
bol t
Ġkne eled
osh chei
determ ination
Ġskull s
ĠVen ice
Ġbub bling
Ġling ering
ĠPE TER
Ġreluct ant
rup ulous
Ġweigh ing
ĠHum pt
accept ed
diam eter
Ġexult ation
sli pped
Ġtort ured
Ġincess ant
kiss ed
weap ons
Ġlag oon
tegr ity
instruct ions
ĠVine gar
iche ver
Ġparap et
ĠSorce rer
ĠROB IN
edder burn
8 8
A I
F if
F OR
F ront
H and
L u
L ieutenant
M ine
N a
N ER
P retty
S ub
T revor
V ING
a unted
b aby
d river
f ers
j ump
l ass
m ally
n om
in habited
Ġw idespread
nd e
is man
ar is
an ked
Ġh i
Ġh itting
se cr
ĠS pl
ĠS cience
ĠS ONG
ĠS uzanne
il ated
ĠM orning
ĠB ru
ĠB og
ĠB eck
Ġso aked
ĠW en
ĠG ideon
out ed
ast ically
ĠD uv
ĠR est
ĠE T
ĠE LECT
ĠE SC
Ġkn uck
pt oms
ĠN os
Ġle v
Ġqu itted
be hold
Ġfl ap
Ġfl ickering
ble tt
ĠK ane
Ġad orn
Ġ2 15
Ġsay est
ĠSt ick
iz ar
Ġear then
Ġdes iring
Ġter rif
Ġ18 96
ĠV ale
Ġboy ish
ross ed
Ġside ways
con tained
Ġsomet ime
Ġdec ked
att ached
ĠBr ing
ĠBr ant
ĠBr immer
Ġpar adise
Ġneed less
gr adually
Ġfore fathers
Ġfree ze
Ġtra ils
Ġblack ened
Ġconf ounded
Ġtri ps
Ġinv ested
Ġsn atch
Ġcoll apsed
co ff
rem aining
Ġsqu aws
Ġdev out
sm iling
Ġdef y
Ġstra its
Ġbuild ers
ĠLe ft
Ġ16 2
che on
set ting
Ġfright fully
Ġbab es
Ġphys ically
Ġstro ll
Ġincre ases
Ġacqu ies
Ġcab ins
Ġcow ards
Ġcontr acted
uel a
Ġmagn ets
elp iece
Ġoper ate
ĠMe le
young er
supp orted
Ġthunder ing
IV ES
Qu oth
Ġodd ly
Ġgrace fully
Tr ot
Ġhal ting
Ġbat ting
bur nt
Ab raham
Ġfem inine
fig ures
ĠLouis a
Ġdisci ple
ĠEv idently
lay ing
Ġcompar ative
fr ag
Ġjun iors
ĠNight s
prod uce
Ġspell s
person al
Ġlux urious
ĠLaw rence
Ġanti quity
CON D
doubt less
Ġtorment ed
ĠSpart a
Ġtub es
ĠWAS HINGTON
Ġstim ulus
ĠDemocr atic
vict ory
Ġcho ir
ĠStra its
Ġank les
Ġbrack fast
Ġfors ake
Ben j
mil itary
Ġtack le
Ġprem ature
Spe ak
ĠFil ip
Ġpest il
ĠFitz gerald
ĠMack enzie
ĠSie gbert
ĠMARY LAND
ĠFam ily
Ġexagger ated
profess ion
ĠBrah man
ĠRichards on
Ġcontem porary
Ġvictual s
compre hens
thor pe
gom ery
ĠDek lay
7 3
7 9
B re
B ert
C am
E li
H ast
M AS
S aint
W r
W AY
b ishop
c ounter
d ue
d ressing
h orns
j umped
n ets
p ond
w ives
y o
Ġs own
Ġf ives
on i
Ġm ounds
Ġd aint
Ġp iv
Ġh ive
Ġhe al
Ġha uber
Ġg in
ot ent
st ane
ve get
Ġy el
ĠT orgul
ir g
ir able
ĠS ayen
am id
am eless
ce lled
ĠA uthor
ĠM organ
Ġr ates
Ġall ied
ul ace
ĠF L
ĠF arm
ĠL ag
Ġout burst
Ġal beit
Ġde xter
ig ible
Ġpro ced
Ġro c
Ġinto x
Ġtw el
Ġdis com
Ġdis regard
Ġfl ocked
Ġhow ls
but ton
Ġsl ice
Ġsc ru
Ġsc aled
Ġsw earing
Ġimp ost
Ġimp ulses
ott est
Ġform ula
app eal
att acked
Ġref uses
wor m
gr an
Ġlo omed
ĠNor man
Ġserv ile
she lls
ĠCl arks
ĠSe as
Ġaff ecting
Ġreal ise
Ġbar on
ĠSome how
night s
soci al
Ġdev ouring
Ġassoci ate
Ġprot ests
can oes
ĠPer ogue
Ġtruth s
Ġval ve
Ġ20 6
Ġhist ories
Ġsick ening
ĠPl um
hor iz
Ġcre ed
Ġpit ied
law s
Ar ab
ĠWhere upon
Ġ24 0
Ġ24 4
Ġpra ises
Ġow es
Ġcand lest
ĠVan ir
ĠGl ennie
Ġloss es
ĠLand s
Ġcivil ised
Ġnur sed
Ġ200 3
Ġrevol ving
Ġsteam ship
Ġmel ting
ĠMer chant
ĠSte ward
Ġrelations hip
Ġshr oud
Ġcord ially
ĠSil ent
Ġsavage ly
Mar ry
close ly
ĠTw ice
const antly
ĠCarol ine
Ġmild ly
ĠSpe ech
Ġemotion al
fif th
ĠCent er
Bet ween
ĠDar ius
Ġbub ble
Ġclaw ed
Ġdisappear ance
grand mother
Ġpatriot ic
Ġmusk et
Ġtransport ation
develop ed
clim bed
ĠSum ner
Ġsquee ze
aston ishment
Ġdelic acy
Ġadvoc ate
ĠDet ails
ĠAmen hotep
ĠGIRL S
ĠMoor ish
Ġinterpret ation
Ġsquat ted
Cour t
ĠVols ung
ĠZe us
Ġrhe umat
Ġtempor arily
Ġexting uished
tha h
ĠEmer ald
Ġglim pses
A VE
H ist
L ITTLE
S en
S imon
T hing
a un
b rilliant
c aster
d ull
h olid
h ighest
i ol
i ques
l ied
m ol
m ity
m amma
s ou
v ine
z i
Ġt ilted
Ġt attoo
he t
he w
he ment
Ġa iding
Ġo int
Ġo ats
ou mer
Ġb othered
Ġf res
Ġf encing
en rede
ll e
Ġd ureing
Ġp el
Ġp athetic
Ġp hosph
at aka
as a
Ġh ub
Ġh ues
Ġl ank
Ġha bia
ic kered
id as
id ious
Ġe th
im en
ĠT ak
et un
Ġre nders
ri x
Ġas ylum
Ġst er
Ġst owed
Ġst renuous
ke en
Ġat ro
Ġsa ves
th on
ĠM aisie
ĠH ogni
ĠB aker
ĠC u
ĠW itch
ĠG owan
us hat
em b
ul ent
qu el
ĠF ra
ĠF IRE
art a
ast el
ĠL iving
Ġcon ting
ĠO k
ĠJ r
pl at
ass ist
Ġfe ats
ine as
Ġgr aciously
Ġun sc
Ġun fair
av ia
Ġen am
Ġover came
be er
Ġdis abled
Ġfl utter
Ġpr arie
ĠK hat
Ġsc ope
aw mash
fe atures
man n
Ġgl en
Ġgl iding
Ġacc use
Ġres ident
Ġres ented
Ġexp anded
Ġcons cient
ĠUn ktomi
any one
Ġsat chel
Ġchan nels
ĠOF F
Ġche at
uck oo
aim ed
There upon
Ġtra versed
Ġgener ously
ĠIs les
Ġconf inement
Ġass umes
Ġext ension
like wise
Ġsqu ares
dis covery
Ġ17 3
rel ated
Ġwat chers
Ġmot to
Ġplan es
Ġpost ure
aj a
sha me
cont empt
Ġgrand ma
Ġdiv iding
gu ing
ĠRE V
eb bs
Ġsens ory
Ġden ial
Ġsuper intend
Ġ22 0
Ġadvent urous
Ġ23 3
Ġspeech less
pri vile
Ġchap ters
Ġgra pe
Ġ26 8
uel ty
Ġrub ies
Ġloose ly
Ġdepend ing
ĠMag azine
Pl ay
Ġpill ows
Un less
dr agon
del iver
ĠTe acher
ĠTe gum
Ġinstruct or
Ġchest s
Br other
da wn
Ġdesper ation
Le gs
wa ist
Ġswall ows
Ġaunt ie
build ings
ĠAT T
ĠBal four
Ġsen seless
crow ded
Ġhistor ic
ĠSar gol
class es
Ġdoct rines
Ġmast ered
Ġjest ing
ĠContin ue
Ġballoon ist
Ġrevolution ary
Ġreckon ing
accord ingly
occasion ally
Ġdazz led
Ġsnar led
Ġembarrass ed
Ġscow led
oug astel
Pol ivka
bless ed
cu ps
agu ar
Ap ril
event s
ĠCrom well
Ġemerald s
accompl ished
ĠLess er
Ġassass in
exerc ise
esop otam
Ġpite ous
ĠBeet hoven
Ġpersever ance
innoc ent
Ġequival ent
ĠMonstruwac an
etun heim
= ),
A tt
B urg
F enn
M EN
T M
U MP
W IN
b acked
c f
c uriosity
e on
e ld
g ill
k itchen
k illing
l os
o ving
p acked
p owered
u cc
z ens
Ġa ye
Ġw oes
Ġw rench
Ġw akened
Ġo mn
ha us
ou x
Ġb ung
Ġm ason
at z
Ġin human
Ġha ck
ot apata
id get
ĠI on
st ruct
st eal
Ġth rees
et a
al is
Ġit ems
ĠS ul
Ġst ark
ĠA LI
Ġis le
ch u
ĠB ore
ĠB anks
ĠP aper
ĠC hing
ĠW ords
us a
Ġsu icide
el and
ĠF all
ĠL urgha
ĠL INCOLN
ĠR ennes
Ġab ashed
ig ated
ĠN aught
ĠN eed
Ġag gress
ĠJ oy
od anan
Ġro oted
Ġqu ail
we e
ud o
Ġun successful
Ġun awares
Ġun iforms
be arer
Ġfl apping
Ġhand les
ĠK wan
Ġrem nant
ail i
Ġmight ily
ĠV inc
Ġbu oy
ult ural
pr ide
ĠAr tic
con cluded
Ġte ase
Ġsur ly
Ġpers istent
Ġrec ount
Ġfore finger
Ġsub stituted
IS ON
Ġair s
Ġev olution
Ġhum bug
use ful
ĠCl if
Ġfight er
ĠGr am
Ġexc used
ĠDe pt
co pper
Ġfr ames
Ġcommon place
Ġ19 14
Ġdeterm ining
Ġ20 8
ĠDav y
keep ers
hor ror
Ġ25 3
Ġoblig ations
Ġcand y
Ġblind ing
fact or
Ġconvers ing
Ġvan qu
coll ected
Can ada
ĠComm ander
John son
ĠXX IV
ĠEr in
Ġassem bl
Ġamount ed
ĠDes cribe
appro pri
Ġsin ned
ĠMen lik
Ġprec ise
abs ence
necess ity
ugg ing
Ġtroubles om
Ġmurder ous
Ġcelebr ation
ĠAh med
mod ern
Ġamuse ments
anz ayemon
Ġterrit ories
IF T
dro ve
Sc ot
AK ES
Ġfever ish
ĠSch ubert
Ġchuck ling
Ġfrost y
Ġcas ual
Ger ald
Ġpound ing
Ġtour nament
object s
Ġconsist ent
Ġhom estead
Ġvest ibule
throw ing
Ġwander ings
Ġcob bler
Bob bie
Em peror
Ġembarrass ment
ĠKab oniyan
Ġvolcan o
Ġdissol ved
Ġissu es
Ġplac id
Ġabstr act
Ġcac ique
beg ged
Ġadvis able
Ġpy g
Ġrapt ure
Ġperplex ity
Ġdiss ip
Ġsuperst ition
ĠLanc aster
ĠDef oe
Kat y
voy age
myster ious
ĠClim ene
Ġstealth ily
norm al
Ġsubter ranean
ĠAmaz on
ĠADVENT URES
abul ary
ĠTegum ai
A men
C ham
D og
F orm
H ard
L iber
M E
M orning
M ead
M ountains
f ill
f isher
h ook
m oth
m atic
t empt
Ġt reading
he ls
Ġa y
Ġa right
in sect
Ġo aken
er ang
Ġf ags
Ġf angs
Ġc ask
Ġm ush
Ġm aze
Ġd ot
Ġh usk
Ġl umps
Ġha gg
ĠI waginan
st raw
ve x
gh y
ĠT RE
et le
al oud
Ġre versed
ad ventures
ri ety
Ġhis s
ĠS LA
Ġst ew
Ġst alked
ĠA ir
Ġsa lly
th read
ĠB ir
ĠB apt
ĠB aggert
Ġso da
ĠW IND
to day
ect ive
ĠG as
em eter
ab e
ab al
est ion
ie re
ĠL am
ĠD oor
Ġal mond
Ġab omin
ĠN ations
ĠO pen
Ġpl ow
Ġpro ving
Ġpro spered
Ġcan n
Ġtw ine
Ġgr umbling
fore ver
Ġun it
Ġun rest
Ġun finished
Ġun noticed
Ġen forced
Ġdis pleasure
Ġdis obedience
Ġpre fect
Ġdist aste
Ġgl ories
Ġbel ts
og a
ob tain
Ġend owed
Ġob el
Ġcount ies
Ġwater y
Ġmar ine
ĠCh inn
Ġsur ch
oh ol
sh one
Ġgu inea
Ġsk irm
ĠBr un
Ġlove liest
Ġsun s
ax es
Ġdeep ened
Ġtri gger
ĠCl ass
Ġcur ses
ĠSome body
Ġill usion
Ġbegin nings
Ġpal frey
Ġdef ensive
Ġexcept ions
Ġ17 4
ĠX erxes
ĠMy th
Ġsuccess es
Ġeffect ually
unk er
Ġsharp ened
Ġ20 2
Ġtor rents
Ġsick ly
Ġregard less
Ġtall ow
sl aught
Ġsuc ked
Ġ25 1
sec ure
Ġ24 3
Ġbold ness
ĠBen fey
Ġsystem atic
never theless
Ġcomb inations
Ġmor als
Ġ27 6
Pro v
cil ess
Ġnur sing
Ġmir ac
Ġpoet ic
Look ing
Ġhandsome ly
occ ur
zz i
Ġprec ision
Ġsolemn ity
small er
interest s
Me antime
Cont in
Ġchat ter
expl ain
ĠFort une
ĠKat ie
ĠAg rippa
Ġdamsel s
Ġobst in
ĠHaw kins
Ġflour ishing
ĠMa erchen
Ġmast aba
Ġsoot he
Ġlantern s
princi ple
Ġdu pl
Ġbewild erment
Ġstamp ing
Ġsports man
hist oric
ĠHand el
ĠPE OPLE
Ġvoc al
separ ated
Ġsnar l
Ġfors aken
requ ire
ĠJen ks
Ġexplo it
commun ication
ĠClare nce
ĠRey nold
tro ops
Ġprogram me
threat ened
ĠHear t
agog ical
loy d
Ġbisc uit
Ġreven ue
Ġincess antly
ĠSpr ings
Ġfib ers
ĠHot el
Mass achusetts
Ġsoci eties
YM N
Ġlabore rs
interrupt ed
Ġunhar med
ĠGargoy les
ĠBritt any
ĠMangab oos
ĠGilling ham
ĠESC AP
' )
6 3
; [
A ct
A be
C ast
C ass
D rewyer
F a
H it
H an
H ark
I KE
P ur
U r
X II
c ree
i very
p red
p ier
r aces
r ades
s ang
t ap
t ub
v ices
w ore
w itted
he els
Ġa us
Ġw renched
Ġm aturity
es cri
ar io
at ag
Ġha zy
Ġg ifted
ve h
Ġwas p
ac use
ĠT UR
ĠT iber
Ġit em
Ġre ci
Ġre eled
ĠS oul
am en
Ġst alks
oo h
ĠA cross
ill ity
ĠM oh
the ning
ĠB our
ĠP arr
Ġr ally
ag ements
ĠW M
ĠW ERE
ĠG R
Ġdo e
Ġwor rying
ant ine
ĠL ocks
ĠR ule
Ġsp okes
ig ham
ĠN ut
ĠJ ude
pl ings
are a
ud es
Ġam ber
be e
right s
ĠK ey
ft y
Ġ2 12
Ġpo pp
ne eds
og un
ian ces
ip el
ĠV icar
ning ton
Ġbu g
Ġimp udence
Ġem blem
Ġsk ipping
Ġsil ks
ny son
Ġprom oted
cha in
tr ad
tr unk
Ġinter cept
Ġinter preted
Ġinter posed
Ġinter mixed
let t
Ġquick ened
Ġpol ish
As k
Ġsn are
sc he
Ġtrans formation
Ġfr antically
sm elling
some how
Ġvi olets
Ġ19 00
sha king
Ġbow els
na ked
Ġdeal er
des cend
18 0
Ġcomfort s
vill ages
Ġcru iser
ĠLet ter
Be hold
Ġprevent s
Don ald
Ġdeg ener
char ds
ĠDick ens
Ġoccup ying
van ished
Ġfeast s
ĠQu ar
Ġgro ove
Ġprotect ive
Ġhappen ings
ĠSchool s
Ġcloud ed
Ġoper a
Ġax le
Ġfashion able
Wh ose
Ġleaf ed
Ġframe work
Ġinsp ire
Ġfo oth
Sp ani
Sp anish
Ġappeal ing
Ġfires ide
Ġendeav ouring
Ġhelpless ly
Ġlaz ily
ĠAng lo
real ized
Ġhandkerchief s
Ġpron ounce
Ġclam ber
Ġhopeless ly
Ġadmin istered
Ġsecre cy
Ġtunn els
Ġgest ures
Ġbloom ing
Ġlegisl ation
fo il
ĠLar amie
ez vous
Ġleis urely
capt ured
ĠAust ria
WH AT
Egypt ian
ĠSor iki
Ġimmort ality
Ġmusk ets
ĠSwe venham
ĠBRO THER
NE W
Ġmou st
ĠRam esses
Ġprejud ices
suc ceed
swe pt
Es sex
anche ster
Ġshrub bery
Ġrept iles
ĠGis chala
Ġfoc us
Short ly
Sus y
Ġagric ulture
Ġsentin els
IEL D
ĠMot or
ĠWheel er
ĠAby dos
ĠFast en
Ġphant om
Oz ma
Ġunmistak able
Ġmoccas ins
hinoc eros
Ġcoy otes
' _
7 7
B S
F ATHER
G re
J on
L ISH
] --
a ire
a ise
c ery
d il
d irs
g rief
m ou
o cean
r itation
s ailed
w ors
w rapped
Ġw i
Ġw aged
re in
re ndered
Ġb ony
it oes
is ers
Ġc um
Ġm amsie
or ations
Ġd eter
Ġp its
Ġp icks
at re
as en
as phe
Ġin expl
Ġh ints
Ġl bs
Ġha res
im mediate
ac ha
ĠT hi
ĠT ory
ĠA ber
ec o
ĠM orgiana
Ġse izure
ĠP ain
ĠP har
ĠP orts
." --_
ĠC ad
ĠC osquin
Ġher b
Ġso les
ich in
ĠG land
qu in
Ġdo ves
ĠF lying
ĠF annin
ol o
ol ently
ast ies
ĠL ora
ĠL aca
ĠD u
ĠD aw
Ġare na
ra ps
ĠR u
ĠR anger
Ġde ze
Ġab reast
ĠN y
ĠO rigin
Ġpl ug
Ġcom ic
Ġwill ed
Ġle e
Ġar ises
ject ion
Ġtr udged
Ġqu ot
we eping
te aching
Ġcl utch
Ġbl inking
ment al
be kah
Ġfl attered
ĠK irk
ĠY in
ew are
mer cial
ĠIn spector
Ġhead quarters
ness es
man age
Ġcar n
up ward
Ġcount en
Ġfar ming
Ġunt ied
Ġcr acks
com mission
ĠUn fortunately
sh ook
ĠBr iscoe
Ġprov incial
Ġrel ics
Ġfree zing
Ġint act
unt ill
Ġtri angular
Ġdep rive
Ġfield ing
Ġcold er
Ġdest ructive
val uable
Ġtrans mitted
dis agreeable
Ġbright ened
Ġdef ied
Ġconc il
err im
Ġins ensible
Ġcompl iments
Ġdecl ares
Ġrain ing
Ġcapt ors
Ġappl au
ik h
Ġguard ing
ĠHar vard
que er
Ġweak ly
ĠHen ny
Ġsorrow ing
sing ton
Ġbare foot
Ġpet als
ĠGo at
ĠConf u
ĠGu ild
Ġsplendid ly
pur suit
lock y
consider ation
Ġleaf y
Ġgrat ify
din and
Ġapply ing
uls ively
enes chal
ĠWH ICH
ĠHam pton
ĠHA ND
Ġinform ing
Ġmanufact ures
Ġscorn ful
ĠApp leby
ĠSy stem
Ġpropriet or
ele ven
ele ments
deep ly
Ġhaw ks
Ġcoward ice
Ġlux uri
def ence
Ġmoss y
dem anded
Ġextr acted
Ġsuspect ing
ĠBer lin
Ġscram bling
Ġinward ly
Ġselfish ness
Ġmemor able
Ġdur ation
Ġvibr ation
Ġpersec uted
Ġtrot ting
Ġkins men
ĠCarl os
Ġripp ling
Ġbrace let
Ġcad ets
ĠCir cle
Ġhymn s
Ġirrit ated
favor able
favour able
ĠKot ick
fier ce
cab in
Ġphenomen a
ĠPH IL
ĠChamp ions
extreme ly
Ġstrang est
Ġforfe it
instr ument
ĠProtest ant
ĠThousand s
Ġcomplet ion
ĠPruss ia
cou ple
Ġinexpl icable
8 1
B ow
C oyote
F ACE
L es
M ight
M oses
N ap
S and
T emple
_ ?
c us
c ub
c ane
d all
d are
d ancing
f ounded
i ences
l ain
l ose
l iterature
n av
s ounds
t ly
w isdom
Ġo l
Ġs inners
er ie
Ġf oss
Ġd ale
Ġp ang
Ġhe aving
Ġn im
le m
Ġg our
ĠI da
Ġth rilled
ion ys
ĠT ol
ĠT EM
ĠT IME
et c
Ġwe aken
Ġas c
ĠS inf
ĠS OME
ĠS ogoro
Ġst rew
ill ust
if ter
ĠH ouses
ĠH IM
ĠB ul
ĠB IRD
ĠP rom
ĠC over
un able
ear ned
ĠF i
ĠD elta
Ġout let
Ġal uminum
Ġab olished
Ġkn otted
Ġcom in
Ġcom ical
ĠJ ESUS
od s
Ġro cked
ven ue
Ġcl umps
Ġgr ub
be ings
ather ine
right ly
ĠK oshchei
Ġpo ised
Ġsl ab
Ġsl apped
Ġunder brush
Ġsc abb
Ġrem ed
aid ia
Ġbet rothed
Ġeven ly
und ance
Ġob t
oc uments
ens ively
inc inn
IN ES
ident ial
Ġsk ipped
br an
Ġref rained
az areth
Ġsil enced
Ġrel atively
pro sper
Ġtra iled
fl ag
Ġadv ances
Ġinter fered
Ġpri zed
Ġrequ iring
Ġserv itude
Ġreal izing
itting ton
rem ains
Ġgreen ish
oose y
ĠWill ow
pre vious
Ġbound less
Ġbound aries
umb ly
aff ected
Ġtruth ful
Ġball ot
Ġhat ched
Ġfun nel
ĠCar ry
Ġbell owing
imp ression
ming ton
ĠPl ougastel
has es
ĠGe o
Ġcoun cils
Ġ30 3
Ġ30 4
cr ime
cul es
Ġpursu its
Ġ24 1
Ġ24 6
por aries
ann ounced
bar bar
Ġ27 4
Ġ28 0
Ġ28 6
inst ance
Ġvoy agers
contin ually
ĠEn camped
Miss issippi
supp ly
ste am
pur chased
Ġpin ched
Ġfo emen
Ġpuzz ling
ĠComp are
Ġtap ering
imm ense
Ġmagnific ence
Ġnarr atives
ĠAnn apolis
const ant
Ġacquaint ances
Ġfanc iful
ĠMa har
Rob inson
ĠHead piece
ĠNotting hamshire
rigg a
Ġbeha vior
eck l
conn ection
Ġ177 6
Ġobsc urity
anx iously
Ġdismay ed
Ġaccur sed
ĠKnow ing
phin x
ĠJess ie
Far mer
Gl ass
Ġbi bl
Ġclust ered
Ġcove ted
Ġabolition ists
Ġsymb ols
Ġdod ged
Ġadvert isement
ĠBrad shaw
ĠDwarf s
ĠClats op
ĠSM ITH
Cy ril
Ġcert ific
ĠFRAN K
Ġpion eers
suck le
Ġbewit ched
Benj amin
oumer ous
incinn ati
! !
6 2
C ual
D addy
E re
F urther
G ot
G irls
N ational
P ages
R ay
T a
T ha
V an
W olf
X VIII
f et
h oun
j u
l ion
l ia
p ad
s har
w ake
w ls
z t
Ġt ug
Ġw ade
Ġs acked
nd a
Ġb ast
is piece
Ġf erv
Ġc i
Ġd ow
Ġd ir
Ġp ard
Ġbe in
ĠI mp
st ayed
im b
al ion
Ġfor ge
ad ies
ri um
Ġas cribed
ĠS igns
ĠS anza
ur geon
Ġst a
Ġst o
ĠA blett
ke la
th ood
ĠM umps
ĠH it
ĠH elp
Ġse est
Ġse ating
ĠP I
ĠP t
ĠP om
ĠP ad
ĠP LAY
ĠC art
ĠW ELL
to ss
ĠG ene
hen tic
ear lier
el o
ong o
ĠR om
ĠR other
um ann
Ġcon form
Ġab dom
Ġab bot
os aur
Ġcom ments
ĠJ upiter
ap at
Ġun cles
Ġun equal
Ġoff ense
ĠK laus
per ors
per formed
Ġper v
Ġ2 000
Ġpo ked
ĠU S
Ġcomp oser
ĠIn fant
Ġbet ook
Ġdon ned
med icine
wh oles
og ical
Ġri v
Ġfull est
ĠSo cial
Ġrep orter
Ġcr ags
ple as
ual ity
In stantly
Ġ4 00
ho en
Ġrec ourse
Ġrec reation
Ġpar ishes
Ġwa its
Ġdisc er
Ġtra pped
fl ood
Ġgold smith
ah n
tr ack
RE W
ĠPr inces
Ġtri angle
AT URE
Ġass isting
uff le
Ġleg itimate
Ġcur sing
ĠGr ound
Ġspec ulation
At lantic
Ġequ als
St ate
Ġfr action
dis position
Ġbright est
Ġcal ves
Ġpost pon
Ġdream y
Ġ19 13
Ġinf irm
inci ble
off ering
ENT Y
ĠLe andre
ĠPer rault
vol ume
reg or
Ġ20 7
Ġvolunte ered
imp ress
Ġtrust s
Ġspace port
Ġ30 7
ĠRobert a
wr ought
ĠEvery one
ivers al
prom pt
ĠAnt elope
run s
Ġconce aling
rap id
ĠMe g
ĠSer geant
ĠXX III
dist urbed
Ġbend s
Ġpure st
Ġdi agram
pur ple
Ġconqu ering
low e
Ġfoolish ness
Ġsigh s
access ible
mist ake
Ġfo aming
ĠKay dessa
ae us
proper ly
Ġrum ours
Ġdoub ting
Ġimper tinent
Ġswamp s
Ġ184 6
pol icy
Ġox ygen
haw ks
Col onel
ĠSpani ard
Ġrom ances
Ġ189 0
mis erable
const ructed
Ġhistor ians
ĠJon ah
Ġrev ive
hur ry
UM B
ĠSpe ed
Ġsovere igns
Ġsentiment al
dem and
Ġpred omin
rigg s
Ġstair way
recogn ition
Ġmyth ology
Ġwithdraw al
Ġconstitution al
vo ices
ĠHay dn
aston ished
ĠCru ach
Ġvolcan ic
ĠLuc as
Ġponder ing
ĠHung ry
cheer ful
Ġbenevol ent
inj ured
ĠFeder als
Ġcripp led
Ġaccus ation
Ġstagger ing
ĠAnim als
Ġtransmit ter
ĠPtole my
Ġmicro scope
ĠPlatt ner
Sor ry
neighbor hood
ĠCartha ge
Ġintric ate
Ġappare l
attlesn ake
Ġuten sils
ĠNes bit
Ġpyg mies
8 2
C a
C ity
D ark
F org
G Y
H ail
M ind
S P
V ye
W ILLIAM
X I
_ ),
a vers
b idding
d an
h it
i ative
l oo
l antern
m echan
n od
o z
o qu
p ardon
s olid
Ġt ides
Ġb ou
en hurst
Ġc ort
Ġc au
Ġm akers
Ġto kens
Ġp ope
Ġn iggers
om ot
ic orn
ve rest
ĠT ro
ĠT rem
ĠT ebbs
ĠS ister
ĠS hoe
Ġst umps
Ġst oop
Ġsa ucer
il ous
ĠM ic
ĠM os
ĠH ost
ĠB ats
ĠB oul
ĠC ob
ĠC AMP
Ġr ites
Ġr asp
ĠW AL
ers hot
est im
ĠD iana
um bed
The odore
Ġsp ine
Ġgo b
ĠN orton
ĠO UR
Ġpl undered
Ġj agged
Ġcan als
Ġli ed
Ġli eth
ĠK ala
ĠK angaroo
bl ade
Ġpart ition
Ġim minent
HE D
Ġgl ued
de y
Ġcont ag
Ġwr ithing
ens er
ĠYou th
Ġbu gs
Ġimp ossibility
ret reat
ins a
con taining
Ġte eny
Ġsur mounted
Ġhor rified
Ġdr owning
Ġhelp ers
IT T
mon strous
stand ard
af ayette
Ġyear ly
ĠCl ia
ĠGr im
Ġcor ps
Ġvol tage
Ġten ants
ney s
ĠCom ing
Ġce as
Ġaccess ion
Ġcamp ing
Ġappro x
ĠAp ost
Ġmus lin
ices ter
Ġpret ence
Ġ19 4
band s
Ġgrow ling
Ġins ure
Ġins ulated
Ġhot ter
RI D
Ġball ads
Ġbene fits
comp et
Ġfig ured
agon al
Ġhang ings
Ġban ana
ĠPe oples
Ġgall eries
ĠWho ever
Ġfro ze
Ġ24 8
pri ze
-------- ---
Ġ26 4
Ġty pical
Ġ27 7
Ġ28 7
Ġhabit ual
ĠCo pper
Ġpec k
inst ruction
Ġ29 0
Ġcloth s
Ġsaf est
Ġimpro ving
Ġrout es
da ily
Ġfac ulty
Con n
Ġdefend ing
Ġadmir ably
Ġproject s
Ġcrack ing
incre ase
hundred s
Ġinstinct ive
Ġalt itude
rep orted
Ġmurderer s
Ġhosp itable
Ġjack al
gener ation
ĠMus quet
Pe ace
ĠEst her
Ġunivers ally
scar ce
Ġpenet rating
Ġtid y
Ġsweep s
Ġinser t
Ġmant elpiece
ĠPR INC
Ġvivid ly
ĠSat isf
Ear th
tre acher
Ġbarbar ous
bi ades
separ ate
Sil ver
Ġsculpt ure
pock ets
Ġdiplom acy
Ġfiend s
Ġaer oplane
ĠClay ton
isha ble
ONS ENSE
Ġponder ous
Ġrighteous ness
ĠGRA ND
Ġrefres hing
unner y
Mus ic
caut ion
Ġsall ied
Ġapprent ices
gather ing
Ġment ally
Ġastr ay
ĠILL USTR
ĠWag ner
acquaint ance
ĠWOND ER
ipel ago
' ),
C arm
E conom
G S
J ournal
K ate
L IN
L ead
L ege
M a
M ON
R ich
R oy
S a
S aul
X III
b d
f ac
f ancy
k iri
m ock
n ants
p its
p ipes
r usted
s addle
t ask
u pe
Ġ ig
Ġ 00
Ġt art
Ġa ward
in ny
Ġs inks
Ġs incerity
re tain
re put
Ġb achel
en o
Ġc emeter
es ha
Ġd wind
Ġl iv
Ġl athe
Ġl anes
Ġhe ating
Ġhe mp
Ġha g
st ump
Ġe cl
ac han
ac ular
ĠT RI
al wart
Ġfor ged
Ġwh iz
Ġwh ims
ĠS ne
ĠS undays
ce lebr
Ġan ointed
ĠThe e
il ts
ĠM ab
ĠH IGH
ĠH TM
ĠH YMN
ĠB umble
ĠB eneath
all ied
ĠP UBL
Ġr ations
pp le
-- ?
un ter
ĠW AY
ĠG rie
ust ible
res ults
ell ation
ĠR hy
Ġsp ar
Ġab bey
ĠO pp
ĠO aks
Ġpl astic
Ġag on
ort ment
Ġro ost
pl ined
Ġus ur
Ġus hered
ine x
Ġbl asted
Ġdis closed
Ġmay est
Ġpe opled
Ġapp ar
Ġsl anting
ĠSt ruck
Ġsc andal
aw ig
ĠIn ch
air d
Ġgl ide
ian cy
ian na
Ġres erv
Ġri pped
Ġnight ly
ex ception
Ġent angled
Ġwater ing
Ġimp ly
uc han
Ġrep ented
Ġrep roduced
int ent
pr ice
pr inted
ĠAs aki
Ġsur faces
Ġsent ries
Ġinst all
ĠTHE IR
Ġgu ile
Ġdec isive
had n
br ass
Ġmoment arily
Ġwa vering
ier ra
Ġtra itors
Ġlo om
Ġair y
cha irs
tr oubled
RE AK
ĠBe hold
ĠDe v
Ġra fter
RO DU
str ict
Ġsum mar
Ġhun ch
Ġaf oot
Ġir ons
Ġdream t
Ġscar f
ĠAfter wards
Ġwid ened
Ġdisp atch
ĠChar ming
Ġorigin ated
ipp ers
ĠFl ashman
Ġban nock
rec overed
oom bes
Ġstro lling
Ġprev ailing
new sp
bu y
ev ident
Ġid ly
Ġsal ary
[...]
