{"<s>":0,"<pad>":1,"</s>":2,"<unk>":3,"<mask>":4,"!":5,"\"":6,"#":7,"$":8,"%":9,"&":10,"'":11,"(":12,")":13,"*":14,"+":15,",":16,"-":17,".":18,"/":19,"0":20,"1":21,"2":22,"3":23,"4":24,"5":25,"6":26,"7":27,"8":28,"9":29,":":30,";":31,"<":32,"=":33,">":34,"?":35,"@":36,"A":37,"B":38,"C":39,"D":40,"E":41,"F":42,"G":43,"H":44,"I":45,"J":46,"K":47,"L":48,"M":49,"N":50,"O":51,"P":52,"Q":53,"R":54,"S":55,"T":56,"U":57,"V":58,"W":59,"X":60,"Y":61,"Z":62,"[":63,"\\":64,"]":65,"^":66,"_":67,"`":68,"a":69,"b":70,"c":71,"d":72,"e":73,"f":74,"g":75,"h":76,"i":77,"j":78,"k":79,"l":80,"m":81,"n":82,"o":83,"p":84,"q":85,"r":86,"s":87,"t":88,"u":89,"v":90,"w":91,"x":92,"y":93,"z":94,"{":95,"|":96,"}":97,"~":98,"¡":99,"¢":100,"£":101,"¤":102,"¥":103,"¦":104,"§":105,"¨":106,"©":107,"ª":108,"«":109,"¬":110,"®":111,"¯":112,"°":113,"±":114,"²":115,"³":116,"´":117,"µ":118,"¶":119,"·":120,"¸":121,"¹":122,"º":123,"»":124,"¼":125,"½":126,"¾":127,"¿":128,"À":129,"Á":130,"Â":131,"Ã":132,"Ä":133,"Å":134,"Æ":135,"Ç":136,"È":137,"É":138,"Ê":139,"Ë":140,"Ì":141,"Í":142,"Î":143,"Ï":144,"Ð":145,"Ñ":146,"Ò":147,"Ó":148,"Ô":149,"Õ":150,"Ö":151,"×":152,"Ø":153,"Ù":154,"Ú":155,"Û":156,"Ü":157,"Ý":158,"Þ":159,"ß":160,"à":161,"á":162,"â":163,"ã":164,"ä":165,"å":166,"æ":167,"ç":168,"è":169,"é":170,"ê":171,"ë":172,"ì":173,"í":174,"î":175,"ï":176,"ð":177,"ñ":178,"ò":179,"ó":180,"ô":181,"õ":182,"ö":183,"÷":184,"ø":185,"ù":186,"ú":187,"û":188,"ü":189,"ý":190,"þ":191,"ÿ":192,"Ā":193,"ā":194,"Ă":195,"ă":196,"Ą":197,"ą":198,"Ć":199,"ć":200,"Ĉ":201,"ĉ":202,"Ċ":203,"ċ":204,"Č":205,"č":206,"Ď":207,"ď":208,"Đ":209,"đ":210,"Ē":211,"ē":212,"Ĕ":213,"ĕ":214,"Ė":215,"ė":216,"Ę":217,"ę":218,"Ě":219,"ě":220,"Ĝ":221,"ĝ":222,"Ğ":223,"ğ":224,"Ġ":225,"ġ":226,"Ģ":227,"ģ":228,"Ĥ":229,"ĥ":230,"Ħ":231,"ħ":232,"Ĩ":233,"ĩ":234,"Ī":235,"ī":236,"Ĭ":237,"ĭ":238,"Į":239,"į":240,"İ":241,"ı":242,"Ĳ":243,"ĳ":244,"Ĵ":245,"ĵ":246,"Ķ":247,"ķ":248,"ĸ":249,"Ĺ":250,"ĺ":251,"Ļ":252,"ļ":253,"Ľ":254,"ľ":255,"Ŀ":256,"ŀ":257,"Ł":258,"ł":259,"Ń":260,"Ġt":261,"he":262,"čĊ":263,"Ġa":264,"Ġthe":265,"in":266,"Ġw":267,"Ġo":268,"Ġs":269,"re":270,"nd":271,"er":272,"ha":273,"ou":274,"Ġb":275,"ed":276,"ĠĠ":277,"it":278,"is":279,"Ġf":280,"en":281,"on":282,"Ġand":283,"Ġof":284,"Ġc":285,"Ġm":286,"Ġto":287,"or":288,"ing":289,"ll":290,"es":291,"ar":292,"Ġd":293,"Ġp":294,"at":295,"as":296,"an":297,"Ġin":298,"Ġh":299,"Ġl":300,"Ġhe":301,"Ġn":302,"om":303,"le":304,"Ġha":305,"ut":306,"Ġg":307,"hat":308,"ot":309,"ow":310,"ic":311,"Ġbe":312,"id":313,"ĠI":314,"ĠĠĠĠ":315,"st":316,"ld":317,"ve":318,"Ġe":319,"Ġth":320,"se":321,"gh":322,"im":323,"ly":324,"Ġwas":325,"Ġy":326,"ent":327,"Ġon":328,"ion":329,"ay":330,"Ġthat":331,"ac":332,"ĠT":333,"et":334,"ro":335,"ith":336,"ir":337,"Ġu":338,"ver":339,"al":340,"Ġit":341,"Ġre":342,"Ġfor":343,"ad":344,"Ġyou":345,"ri":346,"Ġwe":347,"Ġwh":348,"Ġas":349,"Ġwith":350,"Ġhis":351,"ght":352,"ĠS":353,"am":354,"ur":355,"Ġst":356,"her":357,"ce":358,"oo":359,"ĠA":360,"ec":361,"Ġan":362,"Ġhad":363,"Ġis":364,"Ġ\"":365,"and":366,"ill":367,"ter":368,"ain":369,"ke":370,"Ġnot":371,"Ġat":372,"ould":373,"Ġsa":374,"ch":375,"ĠThe":376,"if":377,"th":378,"il":379,"red":380,"ĠM":381,"the":382,"ĠH":383,"ĠB":384,"'s":385,"all":386,"Ġhim":387,"rom":388,"Ġse":389,"ĠP":390,".\"":391,"Ġthey":392,"ĠC":393,"ore":394,"Ġr":395,"ome":396,"Ġher":397,"Ġso":398,"Ġor":399,"ess":400,"Ġme":401,"ag":402,"pp":403,"ight":404,"ich":405,"Ġby":406,"--":407,"Ġall":408,"ation":409,"un":410,"Ġk":411,"Ġthis":412,"ĠW":413,"Ġsaid":414,"to":415,"Ġbut":416,",\"":417,"ect":418,"Ġup":419,"Ġfrom":420,"ĠG":421,"Ġwere":422,"hen":423,"us":424,"em":425,"ĠĠĠĠĠĠĠĠ":426,"Ġhave":427,"Ġsh":428,"ul":429,"qu":430,"Ġshe":431,"ound":432,"ust":433,"Ġwhich":434,"out":435,"ard":436,"Ġsu":437,"ear":438,"el":439,"ers":440,"ab":441,"est":442,"Ġdo":443,"Ġthem":444,"ong":445,"op":446,"Ġwor":447,"ame":448,"res":449,"ood":450,"ant":451,"ĠF":452,"Ġmy":453,"ol":454,"ie":455,"Ġv":456,"ist":457,"art":458,"ast":459,"our":460,"nt":461,"ĠL":462,"ĠD":463,"Ġone":464,"ind":465,"ber":466,"Ġwho":467,"ell":468,"Ġare":469,"ra":470,"very":471,"Ġtheir":472,"own":473,"ĠR":474,"um":475,"ive":476,"Ġout":477,"The":478,"Ġman":479,"Ġcon":480,"Ġsp":481,"Ġal":482,"Ġde":483,"Ġab":484,"ct":485,"one":486,"Ġno":487,"Ġne":488,"Ġex":489,"itt":490,"ous":491,"ry":492,"reat":493,"ge":494,"ked":495,"ĠĠĠ":496,"ĠE":497,"ig":498,"os":499,"Ġ1":500,"ide":501,"ough":502,"ate":503,"ack":504,"Ġkn":505,"iv":506,"pt":507,"Ġgo":508,"ĠN":509,"ĠO":510,"han":511,"ace":512,"ther":513,"ak":514,"Ġpl":515,"Ġthere":516,"Ġcom":517,"Ġwill":518,"Ġwould":519,"ake":520,"Ġag":521,"Ġle":522,"sel":523,"ort":524,"ks":525,"Ġwhen":526,"hed":527,"Ġany":528,"ost":529,"ĠJ":530,"ĠHe":531,"'t":532,"ree":533,"au":534,"Ġj":535,"Ġpro":536,"Ġbeen":537,"ep":538,"od":539,"Ġro":540,"ose":541,"?\"":542,"pl":543,"ass":544,"ies":545,"Ġar":546,"ittle":547,"Ġinto":548,"Ġother":549,"Ġcan":550,"Ġus":551,"ime":552,"ject":553,"ven":554,"other":555,"Ġif":556,"Ġfe":557,"Ġdid":558,"way":559,"hi":560,"ap":561,"ure":562,"ade":563,"Ġcould":564,"ff":565,"ish":566,"Ġtr":567,"nder":568,"ck":569,"here":570,"ine":571,"Ġli":572,"urn":573,"Ġbr":574,"Ġqu":575,"we":576,"Ġabout":577,"te":578,"ity":579,"Ġtw":580,"are":581,"ice":582,"ite":583,"Ġcl":584,"fter":585,"Ġsha":586,"Ġyour":587,"Ġgr":588,"Ġsome":589,"fore":590,"Ġvery":591,"ook":592,"ought":593,"uten":594,"Ġlittle":595,"!\"":596,"of":597,"self":598,"ud":599,"berg":600,"ng":601,"Ġmore":602,"Ġwhat":603,"ance":604,"ove":605,"utenberg":606,"Ġun":607,"Ġday":608,"Ġtime":609,"ĠAnd":610,"ire":611,"Ġgreat":612,"ount":613,"ull":614,"able":615,"oy":616,"av":617,"hing":618,"Ġsee":619,"Ġdown":620,"Ġbl":621,"for":622,"Ġen":623,"age":624,"Ġour":625,"Ġover":626,"Ġam":627,"roject":628,"ment":629,"be":630,"ather":631,"right":632,"Ġagain":633,"Ġ_":634,"ans":635,"Ġthan":636,"wn":637,"Ġcame":638,"Ġnow":639,"cc":640,"Ġoff":641,"oll":642,"Ġthen":643,"Ġdis":644,"Ġtoo":645,"ings":646,"ond":647,"Ġlike":648,"end":649,"his":650,"ĠIt":651,"ord":652,"Ġupon":653,"Ġfl":654,"Ġmade":655,"ble":656,"Ġhand":657,"ick":658,"ally":659,"ue":660,"ink":661,"ary":662,"Ġpr":663,"uch":664,"Ġknow":665,"Ġwork":666,"ward":667,"ĠK":668,"bl":669,"old":670,"ĠProject":671,"ach":672,"per":673,"ĠY":674,"ated":675,"ved":676,"ave":677,"Ġafter":678,"Ġtwo":679,"Ġlong":680,"ĠBut":681,"ĠĠĠĠĠĠĠĠĠĠĠĠĠĠĠĠ":682,"Ġthr":683,"so":684,"ress":685,"ence":686,"orn":687,"Ġpart":688,"Ġwent":689,"ark":690,"ied":691,"ile":692,"ions":693,"Ġad":694,"Ġshould":695,"cl":696,"Ġmay":697,"Ġpe":698,"ried":699,"Ġhas":700,"ang":701,"ĠGutenberg":702,"ft":703,"Ġgood":704,"Ġold":705,"Ġ(":706,"Ġapp":707,"Ġwhere":708,"Ġmust":709,"Ġper":710,"Ġ2":711,"ci":712,"Ġmen":713,"ew":714,"Ġbefore":715,"Ġhow":716,"ru":717,"Ġback":718,"ife":719,"Ġonly":720,"Ġway":721,"Ġim":722,"amp":723,"ted":724,"iss":725,"irst":726,"Ġcome":727,"but":728,"Ġits":729,"Ġsay":730,"ful":731,"ater":732,"Ġsm":733,"tain":734,"Ġpo":735,"act":736,"ty":737,"ise":738,"ren":739,"Ġsl":740,"har":741,"Ġmuch":742,"Ġ'":743,"ps":744,"ered":745,"oth":746,"ĠSt":747,"tm":748,"ons":749,"Ġunder":750,"ne":751,"Ġsc":752,"Ġpre":753,"ople":754,"ouse":755,"ĠU":756,"aw":757,"not":758,"Ġbec":759,"that":760,"ath":761,"ĠMr":762,"Ġcomp":763,"Ġrem":764,"Ġaway":765,"ail":766,"Ġthrough":767,"iz":768,"mer":769,"Ġfirst":770,"Ġwell":771,"Ġget":772,"Ġsuch":773,"oss":774,"ms":775,"Ġthese":776,"ĠIn":777,"ors":778,"Ġhead":779,"Ġbeg":780,"ness":781,"hes":782,"ily":783,"Ġown":784,"ever":785,"Ġfound":786,"aid":787,"Ġdist":788,"Ġmake":789,"led":790,"ory":791,"ious":792,"lect":793,"fe":794,"ears":795,"Ġshall":796,"ron":797,"air":798,"man":799,"Ġbet":800,"And":801,"ations":802,"ened":803,"ph":804,"row":805,"pe":806,"Ġeven":807,"hild":808,"und":809,"HE":810,"Ġpass":811,"Ġnever":812,"Ġsaw":813,"igh":814,"Ġdon":815,"Ġpeople":816,"Ġmight":817,"Ġear":818,"ared":819,"Ġset":820,"Ġcall":821,"land":822,"ĠĠĠĠĠĠ":823,"Ġevery":824,"Ġke":825,"ause":826,"Ġhere":827,"Ġgl":828,"Ġthink":829,"Ġch":830,"Ġey":831,"ady":832,"Ġmany":833,"with":834,"Ġthought":835,"Ġthose":836,"Ġstr":837,"de":838,"..":839,"Ġdes":840,"Ġjust":841,"Ġlast":842,"Ġbel":843,"Ġacc":844,"ase":845,"Ġloo":846,"ates":847,"ited":848,"urned":849,"He":850,"ĠThey":851,"med":852,"ool":853,"Ġchild":854,"Ġplace":855,"It":856,"wh":857,"ollow":858,"ves":859,"og":860,"ting":861,"Ġter":862,"Ġlook":863,"Ġret":864,"Ġcar":865,"Ġseem":866,"ĠShe":867,"Ġcont":868,"ob":869,"ds":870,"rew":871,"ving":872,"Ġtake":873,"Ġwr":874,"ian":875,"Ġlet":876,"Ġwithout":877,"ER":878,"riend":879,"Ġhimself":880,"ip":881,"Ġbo":882,"Ġres":883,"Ġwhile":884,"Ġri":885,"Ġhar":886,"ign":887,"ition":888,"Ġend":889,"Ġright":890,"Ġnight":891,"Ġput":892,"less":893,"over":894,"Ġsw":895,"omet":896,"get":897,"Ġ*":898,"anc":899,"Ġ18":900,"ĠV":901,"Ġmost":902,"'ll":903,"Ġtook":904,"was":905,"ss":906,"Ġyoung":907,"ement":908,"aught":909,"Ġob":910,"Ġtell":911,"ild":912,"But":913,"ĠThen":914,"oc":915,"ens":916,"ĠYou":917,"ex":918,"Ġbeing":919,"Ġent":920,"Ġop":921,"ock":922,"ts":923,"Ġ3":924,"ribut":925,"Ġboy":926,"Ġnew":927,"ning":928,"Ġhouse":929,"up":930,"Ġcop":931,"ived":932,"oot":933,"Ġwar":934,"Ġcount":935,"Ġwater":936,"pped":937,"les":938,"aking":939,"Ġleft":940,"Ġthree":941,"atter":942,"ia":943,"lf":944,"Ġexp":945,"Ġfar":946,"Ġstill":947,"ix":948,"resent":949,"Ġalso":950,"Ġgive":951,"Ġnear":952,"irl":953,"Ġlife":954,"Ġeyes":955,"Ġfollow":956,"ished":957,"Ġfriend":958,"Ġatt":959,"Ġcour":960,"ower":961,"Ġbu":962,"Ġwant":963,"Ġlooked":964,"ged":965,"Ġonce":966,"Ġasked":967,"Ġimp":968,"Ġeach":969,"aster":970,"ched":971,"ody":972,"ince":973,"Ġac":974,"Ġhome":975,"Ġsec":976,"Ġser":977,"Ġsame":978,"Ġcomm":979,"Ġfull":980,"ĠIf":981,"ĠSo":982,"Ġmar":983,"Ġgot":984,"li":985,"Ġfind":986,"ense":987,"ĠTh":988,"Ġsoon":989,"ĠThere":990,"den":991,"Ġfell":992,"Ġelect":993,"Ġever":994,"thing":995,"vent":996,"Ġanother":997,"ible":998,"ross":999,"ial":1000,"ener":1001,"Ġside":1002,"Ġheard":1003,"Ġunt":1004,"Ġtold":1005,"ict":1006,"uc":1007,"Ġwom":1008,"Ġworks":1009,"You":1010,"cept":1011,"ung":1012,"atch":1013,"alk":1014,"read":1015,"Ġrep":1016,"int":1017,"Ġlight":1018,"Ġyet":1019,"Ġlar":1020,"Ġfather":1021,"Ġcr":1022,"Ġcons":1023,"imes":1024,"ret":1025,"ĠWe":1026,"ĠCh":1027,"aut":1028,"ott":1029,"Ġsupp":1030,"most":1031,"Ġyears":1032,"com":1033,"outh":1034,"ple":1035,"ways":1036,"Ġheart":1037,"ither":1038,"ertain":1039,"apt":1040,"ult":1041,"pr":1042,"Ġans":1043,"ustr":1044,"me":1045,"Ġcha":1046,"Ġland":1047,"ins":1048,"Ġsmall":1049,"Ġgoing":1050,"Ġface":1051,"ronic":1052,"ows":1053,"Ġcalled":1054,"ĠAr":1055,"EN":1056,"orning":1057,"ief":1058,"you":1059,"hy":1060,"Ġem":1061,"con":1062,"Ġind":1063,"Ġsomet":1064,"Ġthings":1065,"Ġgave":1066,"Ġgirl":1067,"Ġhapp":1068,"Ġte":1069,"ĠAs":1070,"Ġsur":1071,"Ġspe":1072,"Ġhel":1073,"ĠUn":1074,"Ġagainst":1075,"its":1076,"Ġking":1077,"Ġsent":1078,"Ġinst":1079,"ĠTHE":1080,"ired":1081,"ical":1082,"ĠWhen":1083,"Ġhands":1084,"der":1085,"my":1086,"Ġwind":1087,"Ġrest":1088,"inc":1089,"Ġthough":1090,"su":1091,"Ġthou":1092,"_,":1093,"ĠInd":1094,"form":1095,"day":1096,"Ġgiv":1097,"xt":1098,"eter":1099,"any":1100,"Ġuse":1101,"What":1102,"by":1103,"Then":1104,"Ġbegan":1105,"Ġknew":1106,"Ġfew":1107,"oh":1108,"ined":1109,"Ġcopy":1110,"sh":1111,"Ġple":1112,"Ġform":1113,"ON":1114,"Ġact":1115,"Ġdays":1116,"Ġchar":1117,"Ġuntil":1118,"ĠThis":1119,"ised":1120,"gether":1121,"Ġriver":1122,"oment":1123,"IN":1124,"Ġseen":1125,"vel":1126,"ner":1127,"Ġsat":1128,"Ġgu":1129,"ES":1130,"Ġdec":1131,"had":1132,"Ġco":1133,"ars":1134,"aken":1135,"Ġkind":1136,"Ġthing":1137,"Ġhor":1138,"rest":1139,"Ġdoor":1140,"ident":1141,"ee":1142,"Ġdone":1143,"Ġchan":1144,"Ġmorning":1145,".'":1146,"ual":1147,"ĠĠĠĠĠ":1148,"ustration":1149,"ale":1150,"Ġcried":1151,"illed":1152,"ank":1153,"chool":1154,"Ġsk":1155,"Ġmind":1156,"ield":1157,"Ġnothing":1158,"Ġworld":1159,"Ill":1160,"In":1161,"br":1162,"Ġmother":1163,"Ġread":1164,"app":1165,"gg":1166,"AR":1167,"att":1168,"elt":1169,"Ġkeep":1170,"ween":1171,"Ġ&":1172,"Ġ4":1173,"Ġdr":1174,"Ġadd":1175,"Ġrun":1176,"Illustration":1177,"Ġhigh":1178,"ains":1179,"ĠBr":1180,"Ġcountry":1181,"ream":1182,"als":1183,"ection":1184,"Ġfeet":1185,"Ġdif":1186,",'":1187,"Ġname":1188,"Ġlarge":1189,"oundation":1190,"Ġbecause":1191,"Ġbro":1192,"ully":1193,"Ġpers":1194,"ular":1195,"Ġchildren":1196,"now":1197,"Ġcle":1198,"Ġvo":1199,"Ġmoment":1200,"selves":1201,"Ġwood":1202,"Ġelectronic":1203,"ĠKing":1204,"Ġhard":1205,"side":1206,"Ġposs":1207,"Ġagre":1208,"ling":1209,"ĠOF":1210,"Ġseemed":1211,"rent":1212,"Ġhelp":1213,"men":1214,"Ġrepl":1215,"Ġmet":1216,"irect":1217,"Ġtre":1218,"Ġamong":1219,"Ġmo":1220,"Ġnor":1221,"ho":1222,"Ġref":1223,"oke":1224,"Ġhalf":1225,"Ġpur":1226,"Ġquite":1227,"Ġboth":1228,"Ġrec":1229,"Ġrece":1230,"sp":1231,"ubl":1232,"Ġalways":1233,"Ġste":1234,"ĠĠĠĠĠĠĠ":1235,"Ġwhite":1236,"Ġstood":1237,"'m":1238,"az":1239,"Ġroom":1240,"Ġche":1241,"ives":1242,"Ġprov":1243,"Ġpar":1244,"ohn":1245,"uck":1246,"ĠEng":1247,"Ġhold":1248,"Ġbrought":1249,"ained":1250,"ĠFor":1251,"ey":1252,"Ġnat":1253,"Ġround":1254,"OR":1255,"ached":1256,"ned":1257,"Ġwa":1258,"ating":1259,"Ġhop":1260,"Ġlove":1261,"ND":1262,"Ġturned":1263,"Ġdisc":1264,"Ġsil":1265,"ters":1266,"owed":1267,"ird":1268,"Ġcare":1269,"ently":1270,"ĠFoundation":1271,"Ġnum":1272,"ĠTom":1273,"Ġbetter":1274,"ier":1275,"Ġfeel":1276,"Ġenough":1277,"uth":1278,"Ġsle":1279,"wor":1280,"Ġpresent":1281,"Ġdark":1282,"Ġlay":1283,"Ġopen":1284,"ures":1285,"Ġsure":1286,"Ġel":1287,"Ġplay":1288,"Ġneed":1289,"Ġnext":1290,"they":1291,"Ġothers":1292,"fully":1293,"ĠGod":1294,"We":1295,"Ġfour":1296,"Ġbetween":1297,"oney":1298,"ians":1299,"iles":1300,"**":1301,"Ġes":1302,"Ġdistribut":1303,"Ġrel":1304,"ug":1305,"aim":1306,"Ġdel":1307,"ments":1308,"osed":1309,"ser":1310,"Ġbest":1311,"Ġhour":1312,"Ġmon":1313,"Ġcol":1314,"Ġfire":1315,"eng":1316,"which":1317,"ats":1318,"iter":1319,"Ġred":1320,"cle":1321,"gr":1322,"pro":1323,"Ġfore":1324,"Ġcourse":1325,"Ġreg":1326,"There":1327,"Ġcertain":1328,"oud":1329,"ĠAt":1330,"This":1331,"ided":1332,"Ġfall":1333,"bed":1334,"overed":1335,"him":1336,"iness":1337,"Ġsun":1338,"Ġeff":1339,"Ġwhole":1340,"tend":1341,"Ġpassed":1342,"Ġalong":1343,"Ġfree":1344,"00":1345,"Ġtoward":1346,"raph":1347,"Ġtogether":1348,"Ġsomething":1349,"So":1350,"IT":1351,"ĠMiss":1352,"ublic":1353,"Ġstand":1354,"Ġhear":1355,"ĠNo":1356,"Ġlaw":1357,"Ġtra":1358,"ason":1359,"Ġed":1360,"Ġwoman":1361,"Ġ5":1362,"meric":1363,"ĠJohn":1364,"ants":1365,"bit":1366,"undred":1367,"Ġterms":1368,"Ġvoice":1369,"Ġbus":1370,"Ġint":1371,"Ġblack":1372,"Ġwhom":1373,"iet":1374,"Ġson":1375,"'d":1376,"ax":1377,"Ġused":1378,"Ġhaving":1379,"Ġfam":1380,"Ġtaken":1381,"Ġbre":1382,"No":1383,"Ġturn":1384,"Oh":1385,"ls":1386,"ected":1387,"fl":1388,"enc":1389,"Ġsub":1390,"onder":1391,"clud":1392,"part":1393,"'ve":1394,"ĠAl":1395,"Ġgold":1396,"Ġbeaut":1397,"wered":1398,"Ġreturn":1399,"ute":1400,"IS":1401,"ceed":1402,"ah":1403,"ĠHis":1404,"Ġran":1405,"Ġmin":1406,"Ġthee":1407,"iting":1408,"uring":1409,"ets":1410,"raw":1411,"ides":1412,"ĠTo":1413,"ately":1414,"Ġgre":1415,"Ġpoor":1416,"Ġlo":1417,"Ġmount":1418,"Ġmatter":1419,"ased":1420,"ĠOn":1421,"Ġground":1422,"Ġfelt":1423,"ken":1424,"ages":1425,"Ġabove":1426,"Ġgiven":1427,"used":1428,"ny":1429,"oe":1430,"ub":1431,"Ġschool":1432,"Ġalmost":1433,"king":1434,"Ġgener":1435,"aces":1436,"where":1437,"Ġgone":1438,"fect":1439,"ison":1440,"Now":1441,"AN":1442,"ump":1443,"When":1444,"Ġbrother":1445,"hind":1446,"Ġstart":1447,"Ġnec":1448,"Ġbig":1449,"Ġprom":1450,"Ġocc":1451,"They":1452,"Ġdirect":1453,"ressed":1454,"aves":1455,"Ġdead":1456,"Ġtill":1457,"Ġlau":1458,"Ġbelie":1459,"Ġair":1460,"vers":1461,"ib":1462,"hip":1463,"Ġcut":1464,"rying":1465,"Ġagreement":1466,"Ġdoes":1467,"anger":1468,"Ġvis":1469,"akes":1470,"Ġanswered":1471,"Ġsound":1472,"Ġwife":1473,"ton":1474,"ission":1475,"ured":1476,"Ġaw":1477,"Ġfin":1478,"ĠNor":1479,"Well":1480,"Ġwithin":1481,"II":1482,"Ġsea":1483,"ene":1484,"ĠWhat":1485,"Ġinc":1486,"iful":1487,"what":1488,"Ġfair":1489,"cha":1490,"no":1491,"org":1492,"ring":1493,"Ġhundred":1494,"Ġless":1495,"Ġpap":1496,"Ġhorse":1497,"Ġforth":1498,"oun":1499,"Ġreplied":1500,"aced":1501,"haps":1502,"Ġsecond":1503,"Ġmoney":1504,"ten":1505,"ying":1506,"ĠIs":1507,"ities":1508,"Ġearth":1509,"Ġaround":1510,"cri":1511,"from":1512,"mon":1513,"Ġthy":1514,"stand":1515,"ĠAmeric":1516,"do":1517,"Ġstre":1518,"ider":1519,"Ġwords":1520,"CH":1521,"Ġmer":1522,"iew":1523,"tr":1524,"ane":1525,"That":1526,"ized":1527,"hile":1528,"ines":1529,"Ġconf":1530,"Ġpower":1531,"Ġdeep":1532,"were":1533,"Ġadv":1534,"unt":1535,"dden":1536,"Ġwish":1537,"Ġ[":1538,"RE":1539,"them":1540,"Ġwall":1541,"ooks":1542,"arch":1543,"Ġinter":1544,"ĠSp":1545,"aughter":1546,"ĠPr":1547,"ash":1548,"Ġbed":1549,"ents":1550,"Ġanything":1551,"Yes":1552,"af":1553,"eth":1554,"Ġperson":1555,"Ġcannot":1556,"Ġclose":1557,"Ġhowever":1558,"gl":1559,"Ġtri":1560,"Ġfear":1561,"Ġswe":1562,"Ġlear":1563,"ĠUnited":1564,"ably":1565,"Ġev":1566,"Ġstrong":1567,"ange":1568,"----":1569,"have":1570,"Gutenberg":1571,"ĠStates":1572,"AT":1573,"Ġsudden":1574,"Ġbody":1575,"Ġrather":1576,"cap":1577,"Ġword":1578,"oub":1579,"veral":1580,"Ġthemselves":1581,"Ġpri":1582,"If":1583,"terest":1584,"Ġstory":1585,"wer":1586,"lish":1587,"Ġrequ":1588,"this":1589,"Ġinde":1590,"Ġass":1591,"Ġhum":1592,"Ġdeath":1593,"),":1594,"enty":1595,"Ġmean":1596,"Ġmaster":1597,"owing":1598,"Ġcontin":1599,"eared":1600,"ĠArch":1601,"Ġbecame":1602,"Ġfriends":1603,"uff":1604,"let":1605,"Ġheld":1606,"'re":1607,"Ġdear":1608,"Ġleg":1609,"Ġlead":1610,"Ġserv":1611,"ĠAn":1612,"Ġ6":1613,"Ġbehind":1614,".,":1615,"idd":1616,"THE":1617,"Ġopp":1618,"ĠQ":1619,"ger":1620,"Ġ=":1621,"ards":1622,"ead":1623,"Ġeas":1624,"Ġeat":1625,"OU":1626,"there":1627,"she":1628,"Ġshort":1629,"Ġexpl":1630,"Ġmeet":1631,"son":1632,"Ġyear":1633,"ones":1634,"ued":1635,"Ġart":1636,"head":1637,"fort":1638,"orrow":1639,"Ġsince":1640,"uri":1641,"Ġpay":1642,"Ġwonder":1643,"Ġtown":1644,"Ġbring":1645,"their":1646,"Ġtree":1647,"Ġext":1648,"use":1649,"ention":1650,"ĠCl":1651,"iled":1652,"Ġmeans":1653,"ric":1654,"Ġwhe":1655,"ĠThat":1656,"empt":1657,"Ġdri":1658,"entle":1659,"inted":1660,"Ġfact":1661,"ĠBe":1662,"Ġcoming":1663,"ready":1664,"Ġsix":1665,"ĠHow":1666,"Ġorder":1667,"Ġindeed":1668,"She":1669,"Ġleave":1670,".]":1671,"Ġfur":1672,"alked":1673,"ific":1674,"Ġfoot":1675,"ĠSe":1676,"Ġsing":1677,"ery":1678,"iterary":1679,"ole":1680,"claim":1681,"ĠeB":1682,"Ġreturned":1683,"Ġaff":1684,"Ġlooking":1685,"body":1686,"Ġhur":1687,"Ġacross":1688,"Ġdro":1689,"....":1690,"Ġcur":1691,"icense":1692,"oes":1693,"Ġseveral":1694,"uct":1695,"ames":1696,"Ġfight":1697,"Ġnumber":1698,"Ġtimes":1699,"Ġquick":1700,"Ġquest":1701,"Ġcity":1702,"Ġhope":1703,"Ġtalk":1704,"Ġcreat":1705,"ĠGr":1706,"orts":1707,"iding":1708,"Ġfast":1709,"ĠMrs":1710,"ĠCon":1711,"aged":1712,"Ġpublic":1713,"Ġstate":1714,"Ġsight":1715,"agraph":1716,"Ġalone":1717,"iving":1718,"Ġsim":1719,"Ġlive":1720,"Ġstru":1721,"Ġsleep":1722,"ĠAll":1723,"Ġinv":1724,"ots":1725,"Ġclear":1726,"ember":1727,"ced":1728,"Ġready":1729,"Ġbad":1730,"pper":1731,"gin":1732,"Ġthus":1733,"rave":1734,"Ġkept":1735,"Th":1736,"iece":1737,"ize":1738,"aptain":1739,"arr":1740,"ww":1741,"aint":1742,"Ġcent":1743,"Ġdiffe":1744,"Ġexc":1745,"ĠĠĠĠĠĠĠĠĠĠĠĠĠĠĠĠĠĠĠĠĠĠĠĠ":1746,"Ġlost":1747,"ift":1748,"Ġbes":1749,"rie":1750,"Ġpol":1751,"Ġwon":1752,"Ġappear":1753,"Ġarri":1754,"ED":1755,"Ġreached":1756,"itted":1757,"tered":1758,"Ġbelow":1759,"fic":1760,"Ġhill":1761,"Ġoffic":1762,"ote":1763,"Ġparty":1764,"Ġinterest":1765,"adem":1766,"CT":1767,"oor":1768,"Ġ9":1769,"Ġinclud":1770,"Ġevening":1771,"Ġoften":1772,"Ġprep":1773,"Ġord":1774,"ering":1775,"Ġspec":1776,"ĠDe":1777,".--":1778,"asure":1779,"Ġarm":1780,"ox":1781,"Ġbeautiful":1782,"Ġreal":1783,"Ġra":1784,"pect":1785,"ĠNew":1786,"hil":1787,"AL":1788,"Ġbar":1789,"bert":1790,"Ġ180":1791,"note":1792,"add":1793,"As":1794,"IL":1795,"Ġmag":1796,"ually":1797,"Ġwild":1798,"Ġsays":1799,"orm":1800,"Ġsuff":1801,"ald":1802,"Ġmiles":1803,"Ġreceived":1804,"Ġpoint":1805,"though":1806,"ĠNow":1807,"Ġmyself":1808,"--\"":1809,"ĠSome":1810,"ush":1811,"Ġparagraph":1812,"TER":1813,"RO":1814,"Ġarms":1815,"tern":1816,"well":1817,"Ġknown":1818,"ative":1819,"aving":1820,"ĠSir":1821,"ilt":1822,"Ġwhose":1823,"aring":1824,"ges":1825,"orses":1826,"Ġtrou":1827,"Ġbelieve":1828,"Ġsn":1829,"under":1830,"Ġcond":1831,"Ġspir":1832,"ility":1833,"Ġill":1834,"like":1835,"will":1836,"rer":1837,"AP":1838,"Ġkilled":1839,"Ġlist":1840,"ruct":1841,"tt":1842,"Ġvar":1843,"gy":1844,"Ġtrue":1845,"oubt":1846,"Ġcopyright":1847,"Ġship":1848,"Ġhon":1849,"formation":1850,"ĠSc":1851,"Ġye":1852,"Ġhair":1853,"bled":1854,"Ġglad":1855,"ored":1856,"Ġfive":1857,"ĠJack":1858,"night":1859,"ousand":1860,"ĠArchive":1861,"Ġbur":1862,"rist":1863,"Ġbegin":1864,"str":1865,"osition":1866,"bers":1867,"Ġtop":1868,"Ġang":1869,"Ġspeak":1870,"attle":1871,"Ġgentle":1872,"Ġ8":1873,"Ġroad":1874,"Ġcor":1875,"Ġide":1876,"amed":1877,"At":1878,"Ġvol":1879,"iant":1880,"Ġsign":1881,"Ġbit":1882,"ĠFr":1883,"Ġwhy":1884,"ĠLord":1885,"els":1886,"Ġlived":1887,"Ġmem":1888,"ike":1889,"Ġwide":1890,"Ġlad":1891,"Ġwatch":1892,"ert":1893,"Ġcast":1894,"ution":1895,"Ġeither":1896,"ĠEnglish":1897,"would":1898,"ister":1899,"ĠBrit":1900,"Ġable":1901,"Ġmaking":1902,"ĠRob":1903,"Ġten":1904,"Ġhast":1905,"Ġfine":1906,"ude":1907,"Ġequ":1908,"Ġescap":1909,"ries":1910,"ney":1911,"ĠCom":1912,"itting":1913,"Ġdep":1914,"Ġstri":1915,"ĠOne":1916,"Ġsum":1917,"ern":1918,"Ġdidn":1919,"Ġcoll":1920,"Ġfa":1921,"Ġprop":1922,"wo":1923,"Ġherself":1924,"Ġmed":1925,"Ġboys":1926,"Ġsy":1927,"ĠPeter":1928,"Ġlow":1929,"Ġlim":1930,"SE":1931,"Ġstud":1932,"Ġdem":1933,"Ġdonations":1934,"medi":1935,"Ġtrees":1936,"Ġhun":1937,"ped":1938,"mission":1939,"Ġanim":1940,"Ġsend":1941,"Ġfield":1942,"Ġcarried":1943,"Ġfollowing":1944,"co":1945,"icular":1946,"Ġreally":1947,"Ġstrange":1948,"Ġalready":1949,"How":1950,"iam":1951,"Ġjo":1952,"ze":1953,"Ġce":1954,"Ġheav":1955,"when":1956,"Ġcir":1957,"ength":1958,"Ġmouth":1959,"ING":1960,"Ġsir":1961,"On":1962,"ony":1963,"rem":1964,"une":1965,"Ġshow":1966,"soci":1967,"sc":1968,"Ġwalk":1969,"Ġdog":1970,"ising":1971,"LE":1972,"ront":1973,"Ġelse":1974,"Ġfollowed":1975,"inter":1976,"ĠLiterary":1977,"Ġcold":1978,"Ġstay":1979,"Ġpast":1980,"Ġprod":1981,"iver":1982,"Ġask":1983,"Ġ7":1984,"how":1985,"vern":1986,"Ġforward":1987,"aven":1988,"Ġled":1989,"Ġnearly":1990,"ek":1991,"Ġsqu":1992,"Ġdest":1993,"To":1994,"Ġview":1995,"St":1996,"=,":1997,"Ġpal":1998,"Ġaccess":1999,"ĠTH":2000,"iddle":2001,"go":2002,"Ġvill":2003,"ces":2004,"Ġfle":2005,"Ġhung":2006,"Ġearly":2007,"Ġanswer":2008,"ley":2009,"uss":2010,"Ġhorses":2011,").":2012,"Ġconst":2013,"Ġwomen":2014,"Ġspoke":2015,"ushed":2016,"itten":2017,"Ġgirls":2018,"Ġgreen":2019,"Ġtried":2020,"Ġleast":2021,"Ġdaughter":2022,"ster":2023,"Ġslow":2024,"rough":2025,"ingly":2026,"Ġbott":2027,"Ġdifferent":2028,"ĠSm":2029,"Ġlaws":2030,"room":2031,"val":2032,"olly":2033,"ĠAd":2034,"Ġproper":2035,"Ġloc":2036,"ĠAND":2037,"Ġblood":2038,"ĠHer":2039,"Ġreason":2040,"Ġgrew":2041,"Ġcommand":2042,"come":2043,"Why":2044,"Ġtry":2045,"Ġpres":2046,"Ġsold":2047,"Ġfamily":2048,"For":2049,"bs":2050,"Ġtrans":2051,"Ġobtain":2052,"ories":2053,"Ġtou":2054,"Ġcase":2055,"ches":2056,"itions":2057,"play":2058,"uced":2059,"Ġfr":2060,"Ġsword":2061,"icked":2062,"Ġdom":2063,"ature":2064,"ially":2065,"ging":2066,"Ġchief":2067,"Ġboat":2068,"Project":2069,"Ġstep":2070,"Ġmove":2071,"ĠEngland":2072,"Ġbecome":2073,"owers":2074,"ham":2075,"dis":2076,"Ġcamp":2077,"Ġobser":2078,"Ġpossess":2079,"bo":2080,"Ġlonger":2081,"Ġappro":2082,"ient":2083,"Ġdev":2084,"Ġsweet":2085,"Ġeye":2086,"Ġdoubt":2087,"incess":2088,"Ġfort":2089,"Ġpaid":2090,"ĠRed":2091,"ught":2092,"oose":2093,"Ġthousand":2094,"Ġlength":2095,"sm":2096,"Ġbright":2097,"Ġadm":2098,"Ġsuddenly":2099,"ccess":2100,"Ġrose":2101,"Ġquiet":2102,",--":2103,"Ġpain":2104,"more":2105,"Ġpi":2106,"UT":2107,"Ġtable":2108,"Ġpiece":2109,"Ġdistance":2110,"ĠIndians":2111,"Ġbreak":2112,"Ġsit":2113,"Ġcross":2114,"ademark":2115,"pose":2116,"ĠWith":2117,"Ġappeared":2118,"ĠWill":2119,"Ġaf":2120,"ances":2121,"Ġdef":2122,"Ġexcept":2123,"ounded":2124,"ury":2125,"Ġmis":2126,"Ġsol":2127,"Ġrock":2128,"Ġbir":2129,"Ġcal":2130,"pre":2131,"Ġca":2132,"ĠDo":2133,"Ġnecess":2134,"Ġjoy":2135,"Ġir":2136,"?'":2137,"uly":2138,"Ġsurpr":2139,"Ġunderstand":2140,"Ġtem":2141,"alt":2142,"Ġdanger":2143,"Ġstra":2144,"Ġassoci":2145,"Ġfre":2146,"Ġcaught":2147,"ĠAp":2148,"hand":2149,"Ġconc":2150,"arent":2151,"ience":2152,"Ġcause":2153,"ĠRobin":2154,"Ġsaying":2155,"Ġut":2156,"urch":2157,"father":2158,"light":2159,"Ġpossible":2160,"ues":2161,"ask":2162,"raid":2163,"opped":2164,"wards":2165,"My":2166,"AM":2167,"Ġmist":2168,"Ġ17":2169,"Ġfee":2170,"Ġmus":2171,"Ġdraw":2172,"ously":2173,"Ġthick":2174,"Ġfellow":2175,"ety":2176,"who":2177,"said":2178,"ĠBl":2179,"alth":2180,"Ġperhaps":2181,"Ġstone":2182,"Ġhappened":2183,"work":2184,"rel":2185,"Ġwanted":2186,"IC":2187,"Ġfish":2188,"Ġsoft":2189,"Ġque":2190,"Ġwat":2191,"Ġwalked":2192,"Ġduring":2193,"Ġknight":2194,"Ġenem":2195,"ĠNorth":2196,"Ġlady":2197,"Ġpaper":2198,"Ġmot":2199,"ĠRe":2200,"ceeded":2201,"Ġcap":2202,"iff":2203,"Ġconsider":2204,"Ġplan":2205,"kn":2206,"oul":2207,"ĠX":2208,"Ġprot":2209,"ĠWh":2210,"Ġcommon":2211,"Ġbear":2212,"Ġagree":2213,"Ġfood":2214,"some":2215,"ales":2216,"Ġpost":2217,"Ġtwenty":2218,"Ġtreat":2219,"Ġfront":2220,"ighb":2221,"antly":2222,"ening":2223,"Ġmod":2224,"Ġlaid":2225,"mp":2226,"Ġcorn":2227,"ices":2228,"Ġcharge":2229,"ĠRo":2230,"Ġshout":2231,"ĠMar":2232,"Ġtaking":2233,"could":2234,"Ġ10":2235,"ĠSh":2236,"Ġquestion":2237,"Ġage":2238,"ths":2239,"formed":2240,"Ġ12":2241,"Ġlater":2242,"par":2243,"ists":2244,"Ġopened":2245,"Ġdream":2246,"Ġpret":2247,"Ġvi":2248,"Ġnone":2249,"ĠCol":2250,"ghed":2251,"ified":2252,"ellow":2253,"Ġvisit":2254,"Ġsort":2255,"about":2256,"Ġbound":2257,"Ġ19":2258,"ining":2259,"band":2260,"ips":2261,"Ġcomply":2262,"Ġimmedi":2263,"Foot":2264,"kin":2265,"Ġfurther":2266,"Ġ15":2267,"aj":2268,"Ġbuild":2269,"wood":2270,"rence":2271,"ĠMy":2272,"eterm":2273,"Ġinf":2274,"utes":2275,"ĠCan":2276,"ĠNot":2277,"Ġbusiness":2278,"Ġobject":2279,"ĠDan":2280,"Ġpull":2281,"umb":2282,"Ġwhether":2283,"Footnote":2284,"time":2285,"Ġcrow":2286,"again":2287,"Ġtowards":2288,"Ġbreat":2289,"Ġcarry":2290,"aff":2291,"Ġtherefore":2292,"oved":2293,"Ġsafe":2294,"Ġmanner":2295,"Ġaccept":2296,"airs":2297,"Ġcost":2298,"roy":2299,"rible":2300,"inci":2301,"lled":2302,"//":2303,"://":2304,"Ġfif":2305,"Ġdoing":2306,"tended":2307,"Ġbook":2308,"athe":2309,"ĠChrist":2310,"inary":2311,"Ġdied":2312,"pping":2313,"after":2314,"Mr":2315,"sha":2316,"hold":2317,"then":2318,"Ġpeace":2319,"ĠDr":2320,"Ġlaugh":2321,"ĠEl":2322,"ĠIndian":2323,"ĠOld":2324,"Ġscar":2325,"Ġplain":2326,"rang":2327,"iling":2328,"Ġgovern":2329,"APTER":2330,"ination":2331,"Ġgrow":2332,"err":2333,"can":2334,"mber":2335,"Ġdam":2336,"arm":2337,"Ġdrew":2338,"Ġwindow":2339,"Ġstat":2340,"line":2341,"ĠPro":2342,"fess":2343,"Ġins":2344,"claimed":2345,"ĠBritish":2346,"ĠAfter":2347,"Ġquar":2348,"Ġplaced":2349,"Ġclot":2350,"Ġitself":2351,"Ġhours":2352,"Ġcontinued":2353,"ĠLittle":2354,"Cl":2355,"ĠAmerican":2356,"Ġblue":2357,"yond":2358,"Ġimport":2359,"Ġlord":2360,"reek":2361,"pec":2362,"Ġhappy":2363,"Ġtax":2364,"ĠĠĠĠĠĠĠĠĠĠĠĠĠĠĠĠĠĠĠĠĠĠĠĠĠĠĠĠĠĠĠĠ":2365,"ION":2366,"Ġver":2367,"Ġfav":2368,"Ġpretty":2369,"Ġwit":2370,"isf":2371,"Ġdet":2372,"Not":2373,"Ġletter":2374,"Ġcomple":2375,"ium":2376,"off":2377,"itation":2378,"overn":2379,"iously":2380,"key":2381,"istribut":2382,"Ġrich":2383,"bec":2384,"ship":2385,"Ġdiffic":2386,"All":2387,"ENT":2388,"isted":2389,"Ġpray":2390,"aching":2391,"your":2392,"Ġmine":2393,"Ġcompl":2394,"ok":2395,"Ġhuman":2396,"Ġoutside":2397,"Ġassociated":2398,"Ġele":2399,"ĠST":2400,"Ġsett":2401,"Ġidea":2402,"Ġgard":2403,"Ġsupport":2404,"Ġspirit":2405,"Ġeng":2406,"Ġtail":2407,"Ġsave":2408,"Ġcry":2409,"into":2410,"lsie":2411,"Ġstarted":2412,"ĠGreat":2413,"Ġforg":2414,"dom":2415,"arrow":2416,"Ġshore":2417,"Ġjour":2418,"Ġheavy":2419,"Ġenc":2420,"Ġmain":2421,"Ġline":2422,"Ġkill":2423,"Ġforest":2424,"Ġparticular":2425,"Ġremain":2426,"Ġarrived":2427,"Ġdie":2428,"ĠLe":2429,"Ġgrass":2430,"ĠPer":2431,"Ġsuccess":2432,"Ġhot":2433,"Ġcontain":2434,"oman":2435,"Ġabs":2436,"Ġafraid":2437,"Ġest":2438,"rench":2439,"great":2440,"ploy":2441,"ara":2442,"Ġi":2443,"Ġvillage":2444,"acter":2445,"Ġentered":2446,"Ġeffect":2447,"little":2448,"ĠSouth":2449,"ĠĠĠĠĠĠĠĠĠ":2450,"enn":2451,"Ġprovide":2452,"through":2453,"anced":2454,"Ġru":2455,"cks":2456,"Ġsubject":2457,"Ġlie":2458,"ech":2459,"usband":2460,"Ġaccom":2461,"ope":2462,"Ġcomes":2463,"Ġstraight":2464,"CHAPTER":2465,"itude":2466,"Ġmur":2467,"Ġremember":2468,"Ġpat":2469,"cons":2470,"ils":2471,"ivid":2472,"Ġlaughed":2473,"._":2474,"Ġtruth":2475,"face":2476,"ngth":2477,"Ġpurpose":2478,"_.":2479,"Ġval":2480,"been":2481,"Ġtrouble":2482,"alph":2483,"Ġshar":2484,"Ġaccount":2485,"alley":2486,"Ġbottom":2487,"Ġcovered":2488,"Ġ16":2489,"RI":2490,"Ġbow":2491,"Ġtrademark":2492,"vol":2493,"che":2494,"ĠPhil":2495,"ural":2496,"ĠLicense":2497,"Ġsometimes":2498,"ledge":2499,"bes":2500,"don":2501,"Ġball":2502,"unte":2503,"Ġdecl":2504,"house":2505,"Ġadded":2506,"ashing":2507,"yr":2508,"Ġfly":2509,"Ġfail":2510,"Ġbene":2511,"Ġfing":2512,"ager":2513,"abbit":2514,"cess":2515,"Ġquickly":2516,"Ġseven":2517,"ression":2518,"Ġdisplay":2519,"before":2520,"asion":2521,"see":2522,"ume":2523,"sem":2524,"Ġstopped":2525,"Ġneighb":2526,"irm":2527,"OT":2528,"Ġbroken":2529,"Ġlab":2530,"hood":2531,"ires":2532,"asant":2533,"Ġ11":2534,"comp":2535,"Ġexper":2536,"Ġbird":2537,"Ġbeyond":2538,"gan":2539,"Ġeight":2540,"teen":2541,"Ġdeterm":2542,"vis":2543,"Ġcompan":2544,"LI":2545,"irty":2546,"resh":2547,"!'":2548,"Ġnews":2549,"Ġda":2550,"cious":2551,"upon":2552,"rod":2553,"Ġpict":2554,"Ġsky":2555,"Ġmiddle":2556,"ees":2557,"Ġisland":2558,"Ġband":2559,"Ġbattle":2560,"idence":2561,"Ġfut":2562,"Ġaccord":2563,"gypt":2564,"Ġ186":2565,"ĠBy":2566,"jo":2567,"Ġwhis":2568,"Ġperfect":2569,"Ġchance":2570,"Ġanyone":2571,"long":2572,"Ġstates":2573,"ouses":2574,"wise":2575,"Ġeverything":2576,"idge":2577,"dd":2578,"Ġshown":2579,"ĠSee":2580,"cient":2581,"AS":2582,"la":2583,"ma":2584,"ĠGer":2585,"Ġslowly":2586,"ĠOf":2587,"Ġbeside":2588,"Ġforce":2589,"ament":2590,"Ġstruck":2591,"Ġdrink":2592,"One":2593,"cont":2594,"EM":2595,"joy":2596,"cend":2597,"Ġfig":2598,"just":2599,"ĠMan":2600,"Ġliving":2601,"cy":2602,"Ġport":2603,"ogn":2604,"ĠHere":2605,"even":2606,"unk":2607,"ĠAb":2608,"ĠeBooks":2609,"Ġsharp":2610,"Ġchange":2611,"na":2612,"Ġworth":2613,"Ġhall":2614,"Ġthird":2615,"eces":2616,"Ġfilled":2617,"Ġhat":2618,"Ġmountains":2619,"Ġlate":2620,"udd":2621,"inks":2622,"ueen":2623,"Ġboard":2624,"Ġclass":2625,"ĠEd":2626,"Ġgrand":2627,"Ġemploy":2628,"iar":2629,"iers":2630,"ror":2631,"Ġdomain":2632,"ior":2633,"ler":2634,"ĠIN":2635,"set":2636,"Ġmere":2637,"reg":2638,"Ġrain":2639,"Ġprison":2640,"oon":2641,"Ġcopies":2642,"ston":2643,"Ġder":2644,"Ġgun":2645,"Ġwrong":2646,"fast":2647,"Ġfun":2648,"ested":2649,"eneral":2650,"ork":2651,"ĠYOU":2652,"Ġ20":2653,"Ġfeeling":2654,"iance":2655,"Ġdelight":2656,"Ġrap":2657,"olk":2658,"Ġjourney":2659,"ĠCar":2660,"inner":2661,"Ġseems":2662,"Ġfright":2663,"Ġprob":2664,"ational":2665,"Ġstanding":2666,"Ġstream":2667,"ests":2668,"Ġdeal":2669,"Ġdescri":2670,"ays":2671,"Ġexclaimed":2672,"Ġ13":2673,"Ġwarm":2674,"orge":2675,"Ġhist":2676,"rect":2677,"eder":2678,"acher":2679,"Ġdisapp":2680,"Ġanx":2681,"ĠThese":2682,"bling":2683,"Ġbeast":2684,"Ġsnow":2685,"Ġgetting":2686,"Ġclim":2687,"Ġattempt":2688,"gutenberg":2689,"oured":2690,"Ġborn":2691,"Ġmid":2692,"Ġeasy":2693,"Ġfuture":2694,"Ġought":2695,"Ġhusband":2696,"look":2697,"ĠBill":2698,"Ġneck":2699,"yn":2700,"Ġjud":2701,"Ġrefund":2702,"Ġtor":2703,"Ġspring":2704,"Ġdistributing":2705,"istance":2706,"Ġentire":2707,"Ġmoved":2708,"aded":2709,"inct":2710,"rog":2711,"Ġpract":2712,"Ġthinking":2713,"ounds":2714,"ortun":2715,"angu":2716,"Ġsuppose":2717,"Ġescape":2718,"uan":2719,"reen":2720,"Ġrunning":2721,"eks":2722,"uz":2723,"Ġ14":2724,"should":2725,"ĠDav":2726,"down":2727,"rigin":2728,"Ġwid":2729,"sed":2730,"Ġnamed":2731,"ams":2732,"Ġbell":2733,"Ġnature":2734,"cely":2735,"Ġdemand":2736,"uro":2737,"Ġstrength":2738,"Ġring":2739,"Ġav":2740,"Ġgeneral":2741,"Ġcapt":2742,"leep":2743,"des":2744,"Ġcirc":2745,"An":2746,"eds":2747,"ics":2748,"Ġprinci":2749,"bered":2750,"Ġmakes":2751,"18":2752,"Ġneither":2753,"Ġmaid":2754,"Ġyes":2755,"Ġve":2756,"After":2757,"ashed":2758,"noon":2759,"Ġjump":2760,"ĠeBook":2761,"AG":2762,"acked":2763,"Ġrespect":2764,"irt":2765,"did":2766,"iced":2767,"Do":2768,"Ġ|":2769,"Ġsearch":2770,"Ġfloor":2771,"Ġincluding":2772,"Ġlearn":2773,"Ġrapid":2774,"Ġshowed":2775,"ĠEgypt":2776,"while":2777,"Ġshot":2778,"Ġviol":2779,"Ġstop":2780,"Ġdisp":2781,"Ġfat":2782,"ĠOR":2783,"pecially":2784,"Ġwritten":2785,"Ġexam":2786,"Ġago":2787,"Ġminutes":2788,"ĠMary":2789,"erson":2790,"ĠChar":2791,"OO":2792,"Ġplaces":2793,"Ġseeing":2794,"Ġrequire":2795,"ĠRalph":2796,"Ġbox":2797,"rief":2798,"AD":2799,"Ġvolunte":2800,"Ġpalace":2801,"ĠWhy":2802,"than":2803,"Ġrul":2804,"ically":2805,"Ġbroke":2806,"Ġbeginning":2807,"orted":2808,"__":2809,"ustom":2810,"resident":2811,"car":2812,"ĠMay":2813,"uthor":2814,"ĠAmerica":2815,"ext":2816,"ĠQueen":2817,"ividual":2818,"Ġdesp":2819,"Ġunto":2820,"Ġfaith":2821,"Ġarmy":2822,"bles":2823,"Ġappl":2824,"Ġdestroy":2825,"Ġwise":2826,"Ġdry":2827,"imp":2828,"Ġorigin":2829,"ching":2830,"Ġplease":2831,"Ġsatisf":2832,"Ġbelong":2833,"Ġlearned":2834,"back":2835,"Ġusing":2836,"Ġevil":2837,"Ġbirds":2838,"Ġmountain":2839,"Ġmess":2840,"Ġdut":2841,"place":2842,"ik":2843,"ours":2844,"hard":2845,"Ġlegs":2846,"Ġsitting":2847,"Ġdiv":2848,"Ġremained":2849,"Ġfix":2850,"olf":2851,"ossible":2852,"made":2853,"Ġdress":2854,"ĠNed":2855,"Ġeasily":2856,"ett":2857,"Ġinstead":2858,"Ġbeat":2859,"Ġdra":2860,"ceived":2861,"Ġcompany":2862,"Ġsor":2863,"ANT":2864,"ĠEx":2865,"Al":2866,"Ġvict":2867,"Ġcat":2868,"Ġpermission":2869,"Ġcourt":2870,"hr":2871,"Ġhero":2872,"ĠDon":2873,"Ġgarden":2874,"uge":2875,"Ġposition":2876,"sy":2877,"ĠFrench":2878,"Ġbrown":2879,"Ġsick":2880,"Ġchair":2881,"ĠTO":2882,"Ġcrowd":2883,"Ġnecessary":2884,"rupt":2885,"agon":2886,"uce":2887,"Ġshad":2888,"elect":2889,"usion":2890,"Ġrepresent":2891,"Ġlives":2892,"Ġattack":2893,"Ġcomfort":2894,"Ġvarious":2895,"ipp":2896,"Ġhtt":2897,"ises":2898,"ont":2899,"Ġves":2900,"Ġcatch":2901,"Ġsilver":2902,"Ġglass":2903,"Ġpriv":2904,"Ġmeant":2905,"ĠElsie":2906,"arer":2907,"ator":2908,"Ġdiscovered":2909,"elled":2910,"Ġhang":2911,"ĠTr":2912,"vill":2913,"Ġhole":2914,"Ġregard":2915,"Is":2916,"Ġroy":2917,"Ġsad":2918,"pass":2919,"ĠSw":2920,"Ġheads":2921,"Ġguard":2922,"Ġsus":2923,"Ġsister":2924,"Ġdread":2925,"Ġwait":2926,"Ġgolden":2927,"aul":2928,"Ġsugg":2929,"Ġalthough":2930,"Ġreach":2931,"together":2932,"Ġcertainly":2933,"Ġparts":2934,"Ġmagic":2935,"12":2936,"Ġintell":2937,"pgl":2938,"Ġtall":2939,"pglaf":2940,"Ġcuri":2941,"Ġhid":2942,"Ġvessel":2943,"rill":2944,"Let":2945,"Ġsecret":2946,"iod":2947,"Ġwriting":2948,"Ġattention":2949,"With":2950,"ming":2951,"ism":2952,"Ġmoon":2953,"ĠPl":2954,"Ġowner":2955,"icks":2956,"alled":2957,"Ġspo":2958,"oly":2959,"Ġwis":2960,"Ġmiss":2961,"Ġspread":2962,"min":2963,"Ġobl":2964,"erv":2965,"ĠWest":2966,"Ġpieces":2967,"Ġspot":2968,"Ġsoul":2969,"Ġwalls":2970,"bet":2971,"morrow":2972,"Ġspeed":2973,"Ġyourself":2974,"Ġdirection":2975,"ril":2976,"Ġaddition":2977,"urope":2978,"Here":2979,"Ġhig":2980,"Ġmeat":2981,"ads":2982,"Ġimag":2983,"gu":2984,"LA":2985,"Ġthrew":2986,"Ġbuilt":2987,"Ġla":2988,"eal":2989,"Ġnote":2990,"Ġleaves":2991,"velop":2992,"has":2993,"mar":2994,"ĠFl":2995,"ina":2996,"Ġgreater":2997,"cop":2998,"Ġtrying":2999,"Ġships":3000,"ĠZ":3001,"ints":3002,"oles":3003,"ĠOr":3004,"ĠGe":3005,"Ġbreath":3006,"rit":3007,"IM":3008,"Ġstudy":3009,"Ġcover":3010,"ĠIsland":3011,"._,":3012,"ality":3013,"keep":3014,"ipped":3015,"ĠGovern":3016,"Ġbag":3017,"Ġenemy":3018,"Ġsong":3019,"Ġcru":3020,"athered":3021,"Ġclothes":3022,"stood":3023,"ĠWell":3024,"Ġcharacter":3025,"Ġagreed":3026,"Ġwaiting":3027,"people":3028,"hys":3029,"Ġpath":3030,"Ġwoods":3031,"Ġiron":3032,"anted":3033,"ĠRE":3034,"Ġedge":3035,"Ġsingle":3036,"Ġmark":3037,"Ġban":3038,"Ġloud":3039,"Ġraised":3040,".)":3041,"Ġrode":3042,"Ġoffice":3043,"Ġtrem":3044,"Ġsilence":3045,"bel":3046,"Ġmedium":3047,"Ġnotice":3048,"Ġweek":3049,"Ġears":3050,"ĠCaptain":3051,"ĠLet":3052,"fer":3053,"Ġlatter":3054,"Ġoccur":3055,"riage":3056,"Ġinside":3057,"ĠPe":3058,"Ġdepart":3059,"VE":3060,"bre":3061,"Ġloved":3062,"Ġconcer":3063,"Ġsides":3064,"Ġshut":3065,"Ġgentleman":3066,"Ġknowledge":3067,"Ġsand":3068,"pes":3069,"sell":3070,"Ġsomewhat":3071,"ĠFrom":3072,"Ġterrible":3073,"ground":3074,"Ġbank":3075,"hor":3076,"Ġslight":3077,"Ġwished":3078,"hod":3079,"Ġbrave":3080,"Ġgame":3081,"Ġsail":3082,"Ġfool":3083,"Ġcoun":3084,"Ġnorth":3085,"eed":3086,"Ġcomplete":3087,"Ġexact":3088,"Who":3089,"Ġgate":3090,"ĠSam":3091,"rec":3092,"Ġtears":3093,"stem":3094,"Ġexpect":3095,"Ġgoes":3096,"Be":3097,"Ġfresh":3098,"Ġminute":3099,"ĠPrince":3100,"Ġleaving":3101,"Ġcre":3102,"ĠAN":3103,"ivil":3104,"Ġtrust":3105,"po":3106,"iment":3107,"Ġcaptain":3108,"erc":3109,"two":3110,"ĠFig":3111,"Ġutter":3112,"Ġgall":3113,"ĠDavid":3114,"ĠMother":3115,"Ġlower":3116,"ively":3117,"Ġespecially":3118,"Ġblow":3119,"Ġrecogn":3120,"ĠHar":3121,"Ġchurch":3122,"Ġbrothers":3123,"lease":3124,"cial":3125,"Ġappearance":3126,"Come":3127,"every":3128,"Ġkiss":3129,"elve":3130,"oseph":3131,"Ġtravel":3132,"Ġyellow":3133,"Ġyouth":3134,"Ġunless":3135,"ĠGeneral":3136,"Ġnarrow":3137,"Ġprevent":3138,"Ġheaven":3139,"Ġimportant":3140,"ondon":3141,"...":3142,"oom":3143,"Ġcouldn":3144,"Ġguess":3145,"chant":3146,"By":3147,"Don":3148,"www":3149,"Where":3150,"Ġservice":3151,"happ":3152,"Ġafternoon":3153,"lt":3154,"Ġmad":3155,"Ġones":3156,"io":3157,"heart":3158,"Ġflew":3159,"Ġhouses":3160,"ĠWho":3161,"Ġoccasion":3162,"Ġhills":3163,"action":3164,"Ġdecided":3165,"Ġsurely":3166,"Ġimmediately":3167,"ases":3168,"Ġspace":3169,"Ġenjoy":3170,"Ġenter":3171,"Ġwinter":3172,"Ġleap":3173,"Ġann":3174,"Ġtrain":3175,"Ġeager":3176,"ĠPar":3177,"Ġsize":3178,"fessor":3179,"Ġbab":3180,"Ġefforts":3181,"LL":3182,"bing":3183,"Ġlot":3184,"count":3185,"Ġmach":3186,"good":3187,"Ġclaim":3188,"gar":3189,"Ġpen":3190,"kes":3191,"ades":3192,"inion":3193,"Ġbread":3194,"Ġnice":3195,"rid":3196,"child":3197,"Ġphys":3198,"Ġdeg":3199,"Ġperform":3200,"pal":3201,"Ġangry":3202,"Ġsorry":3203,"Ġgiant":3204,"Ġprovided":3205,"Ġpun":3206,"urd":3207,"ĠEm":3208,"ray":3209,"outher":3210,"Ġconn":3211,"Ġanimals":3212,"gain":3213,"Ġprobably":3214,"ĠYet":3215,"sl":3216,"oln":3217,"que":3218,"Ġ30":3219,"Ġdinner":3220,"Ġstar":3221,"Ġsense":3222,"leg":3223,"thought":3224,"Ġperiod":3225,"anguage":3226,"ruction":3227,"Ġstro":3228,"Ġresol":3229,"Ġfinished":3230,"only":3231,"Ġmil":3232,"Ġself":3233,"cr":3234,"Ġisn":3235,"ĠThus":3236,"urg":3237,"cher":3238,"Ġburn":3239,"Ġprev":3240,"Ġhardly":3241,"hel":3242,"incoln":3243,"Ġcastle":3244,"found":3245,"Ġpit":3246,"Ġhistory":3247,"law":3248,"ĠDor":3249,"Ġthirty":3250,"Ġvalley":3251,"Ar":3252,"fit":3253,"war":3254,"15":3255,"Ġinqu":3256,"Ġofficial":3257,"known":3258,"ceive":3259,"ĠEurope":3260,"nest":3261,"Ġusual":3262,"attered":3263,"Ġpleasure":3264,"Ġsouth":3265,"Ġinfl":3266,"icate":3267,"Ġpock":3268,"Ġwouldn":3269,"ails":3270,"Ġgiving":3271,"Ġdistribution":3272,"Ġbroad":3273,"BER":3274,"Ġmarked":3275,"CE":3276,"ĠFox":3277,"ples":3278,"Ġmusic":3279,"Ġrepe":3280,"Ġpleased":3281,"Ġvolunteers":3282,"vere":3283,"His":3284,"Ġincre":3285,"char":3286,"Ġfier":3287,"Ġlif":3288,"outhern":3289,"know":3290,"Ġformed":3291,"ĠDick":3292,"ĠPresident":3293,"Ġchanged":3294,"mit":3295,"sw":3296,"retched":3297,"Ġturning":3298,"mother":3299,"ended":3300,"otten":3301,"IR":3302,"eb":3303,"Ġgaz":3304,"Ġflowers":3305,"came":3306,"olog":3307,"ĠFOR":3308,"anch":3309,"chief":3310,"ĠAm":3311,"Ġsens":3312,"Ġoppos":3313,"ctor":3314,"Ġindividual":3315,"ĠBrer":3316,"Ġmighty":3317,"Ġlips":3318,"Ġoccup":3319,"==":3320,"Ġproceeded":3321,"hall":3322,"10":3323,"Ġauthor":3324,"Ġforget":3325,"Ġarrow":3326,"bey":3327,"Ġpassing":3328,"Ġobserved":3329,"Ġacqu":3330,"iety":3331,"Ġstrugg":3332,"ping":3333,"Ġbooks":3334,"Ġshook":3335,"Ġdifficult":3336,"lar":3337,"Ġprepared":3338,"acy":3339,"Ġweak":3340,"IES":3341,"new":3342,"ĠHen":3343,"Ġrocks":3344,"Ġfru":3345,"Ġdesire":3346,"idered":3347,"Ġmill":3348,"Ġinformation":3349,"Ġknows":3350,"16":3351,"zen":3352,"Ġremark":3353,"Ġwand":3354,"Ġslave":3355,"Ġeduc":3356,"Ġble":3357,"quently":3358,"Ġnoise":3359,"iny":3360,"ESS":3361,"Ġant":3362,"thur":3363,"Of":3364,"rance":3365,"Ġ.":3366,"amb":3367,"ĠBrown":3368,"ST":3369,"Ġmass":3370,"Section":3371,"ague":3372,"Ġanimal":3373,"ouis":3374,"ops":3375,"Ġrob":3376,"Ġlying":3377,"Ġgrave":3378,"ewis":3379,"Ġbeneath":3380,"ky":3381,"Ġden":3382,"ption":3383,"mn":3384,"ĠChief":3385,"Ġsurprise":3386,"inn":3387,"Ġpresently":3388,"Ġsummer":3389,"van":3390,"Ġupper":3391,"ĠRobert":3392,"Ġwonderful":3393,"Ġsorrow":3394,"mitted":3395,"pered":3396,"esus":3397,"Ġwhatever":3398,"lo":3399,"ĠWilliam":3400,"atic":3401,"Ġsuc":3402,"Ġstick":3403,"ĠPRO":3404,"omething":3405,"Ġordered":3406,"must":3407,"electronic":3408,"Ġlod":3409,"enth":3410,"ocked":3411,"ital":3412,"Ġdoll":3413,"Ġwrite":3414,"ECT":3415,"Ġaid":3416,"Ġaction":3417,"Ġwatched":3418,"ID":3419,"ĠTHIS":3420,"icy":3421,"Ġsuper":3422,"Ġnatural":3423,"Ġnation":3424,"Ġformer":3425,"Ġtruly":3426,"ĠYork":3427,"cul":3428,"Ġbless":3429,"Ġtro":3430,"Ġwrote":3431,"exp":3432,"ĠUncle":3433,"Ġmention":3434,"Ġpassage":3435,"Ġoffered":3436,"eness":3437,"ĠLondon":3438,"ITY":3439,"ĠWar":3440,"fle":3441,"otion":3442,"road":3443,"Ġhost":3444,"Ġallowed":3445,"Ġ1805":3446,"lling":3447,"Good":3448,"inet":3449,"ites":3450,"Ġcab":3451,"Ġcott":3452,"ĠRabbit":3453,"Ġthin":3454,"ussell":3455,"Ġcoast":3456,"Ġpop":3457,"omes":3458,"ĠBE":3459,"Ġconduct":3460,"ĠSmall":3461,"Ġtouch":3462,"........":3463,"Ġfro":3464,"Ġmission":3465,"ĠJoseph":3466,"Ġ25":3467,"such":3468,"Ġcow":3469,"cent":3470,"Ġice":3471,"because":3472,"ias":3473,"Ġinn":3474,"Ġund":3475,"ĠRoss":3476,"himself":3477,"gard":3478,"Ġdarkness":3479,"Ġburst":3480,"Ġtired":3481,"ĠPolly":3482,"onsie":3483,"Ġsons":3484,"rose":3485,"Ġmethod":3486,"Ġeffort":3487,"Ġcurrent":3488,"oup":3489,"ĠJim":3490,"Ġ22":3491,"Ġpursu":3492,"Ġreading":3493,"Ġsilent":3494,"ooked":3495,"Ġhurt":3496,"umber":3497,"arn":3498,"ĠOh":3499,"Ġways":3500,"Ġresp":3501,"sec":3502,"Ġneg":3503,"eff":3504,"master":3505,"Ġmonths":3506,"ĠWhere":3507,"Ġstories":3508,"Ġ24":3509,"Ġdiscover":3510,"Ġfallen":3511,"Ġtalking":3512,"Ġadvent":3513,"Ġimm":3514,"aled":3515,"Ġaccomp":3516,"Ġbold":3517,"Ġallow":3518,"round":3519,"Ġstones":3520,"Ġnose":3521,"Ġquoth":3522,"Ġsimple":3523,"Ġlines":3524,"Ġuncle":3525,"ses":3526,"Ġ23":3527,"',":3528,"Ġrise":3529,"may":3530,"Ġsmile":3531,"Ġshouted":3532,"ented":3533,"ument":3534,"Ġgathered":3535,"Ġwond":3536,"ĠBen":3537,"Ah":3538,"TH":3539,"edom":3540,"ords":3541,"Ġafterwards":3542,"Ġdeclared":3543,"ision":3544,"Ġdetermined":3545,"Ġtim":3546,"Ġfirm":3547,"Ġhide":3548,"much":3549,"isk":3550,"works":3551,"ency":3552,"Ġsystem":3553,"Ġsusp":3554,"OW":3555,"Ġrace":3556,"ability":3557,"Ġremar":3558,"exic":3559,"fall":3560,"Ġsteps":3561,"Ġgovernment":3562,"Ġpicture":3563,"Ġoblig":3564,"Ġroof":3565,"Ġcontact":3566,"ARR":3567,"Ġharm":3568,"Ġexpected":3569,"Ġreceive":3570,"Ġgenerally":3571,"Ġremem":3572,"Ġpromised":3573,"ĠFrance":3574,"cell":3575,"bu":3576,"cour":3577,"Ġspeech":3578,"ashington":3579,"hann":3580,"might":3581,"Ġ-":3582,"Ġfit":3583,"ilar":3584,"emed":3585,"Ġgreatly":3586,"ograph":3587,"ĠPrincess":3588,"Ġduty":3589,"Ġtale":3590,"those":3591,"Ġfeast":3592,"Ġshoulder":3593,"Ġcorner":3594,"Ġdistributed":3595,"Ind":3596,"Ġsurface":3597,"Ġthoughts":3598,"Ġstranger":3599,"riff":3600,"ĠTheir":3601,"ify":3602,"oses":3603,"esh":3604,"leen":3605,"pri":3606,"--------":3607,"Ġpulled":3608,"Ġsac":3609,"Ġparent":3610,"ĠLincoln":3611,"Ġnoble":3612,"Ġluck":3613,"Ġstreet":3614,"hot":3615,"water":3616,"Ġopportun":3617,"athleen":3618,"ences":3619,"Clark":3620,"por":3621,"000":3622,"ancy":3623,"Ġpapa":3624,"Ġtone":3625,"ĠSide":3626,"Ġinstant":3627,"Ġdrawn":3628,"sing":3629,"urt":3630,"Ġclean":3631,"dy":3632,"Ġtwelve":3633,"aterial":3634,"ply":3635,"uation":3636,"Ġweap":3637,"Ġpointed":3638,"Ġchap":3639,"Ġskin":3640,"Ġdropped":3641,"Ġcoat":3642,"AB":3643,"Ġwest":3644,"Ġpleasant":3645,"isters":3646,"Ġfamil":3647,"looking":3648,"Ġscarcely":3649,"Ġsmo":3650,"first":3651,"Ġslaves":3652,"Ġcup":3653,"Ġbeauty":3654,"certain":3655,"Ġmerry":3656,"Ġsoldiers":3657,"Ġsite":3658,"reme":3659,"hant":3660,"Ġdat":3661,"Ġpra":3662,"Ġinvent":3663,"Ġgods":3664,"away":3665,"asing":3666,"***":3667,"Ġremoved":3668,"pet":3669,"Ġwin":3670,"andfather":3671,"Ġdefect":3672,"Ġseek":3673,"ancing":3674,"wr":3675,"Ġsav":3676,"Ġcreature":3677,"Ġfolk":3678,"stit":3679,"Ġevent":3680,"Ġartic":3681,"Ġfurn":3682,"acing":3683,"Ġclosed":3684,"Ġhath":3685,"Ġswift":3686,"ocks":3687,"ĠApon":3688,"Ġthro":3689,"Ġorgan":3690,"IG":3691,"Ġplayed":3692,"ĠQu":3693,"Ġtakes":3694,"roo":3695,"Ġreply":3696,"lin":3697,"ĠEvery":3698,"Ġpale":3699,"never":3700,"erve":3701,"ĠBob":3702,"udden":3703,"Ġfigure":3704,"Ġtea":3705,"ann":3706,"Ġstir":3707,"bly":3708,"went":3709,"tering":3710,"Ch":3711,"Ġpress":3712,"Ġgra":3713,"Ġalive":3714,"ĠJuan":3715,"Ġrough":3716,"ishing":3717,"Ġprince":3718,"amped":3719,"Ġfifty":3720,"alty":3721,"Ġprocess":3722,"Ġarrang":3723,"Ġentirely":3724,"Ġaddress":3725,"OM":3726,"ĠTra":3727,"Ġdeer":3728,"othy":3729,"ference":3730,"take":3731,"Ġbod":3732,"Ġwasn":3733,"itable":3734,"osing":3735,"ishment":3736,"Ġcolor":3737,"Ġcontr":3738,"itive":3739,"everal":3740,"Ġwaited":3741,"Ġqueen":3742,"ĠĠĠĠĠĠĠĠĠĠĠĠĠĠĠĠĠĠĠĠĠĠĠĠĠĠĠĠĠĠĠĠĠĠĠĠĠĠĠĠ":3743,"ibly":3744,"Ġbitter":3745,"ading":3746,"JECT":3747,"Ġow":3748,"Ġur":3749,"Ġcand":3750,"rey":3751,"Ġdevelop":3752,"Ġvain":3753,"Ġimpossible":3754,"Ġprincess":3755,"Ġ26":3756,"board":3757,"mount":3758,"ointed":3759,"ĠHouse":3760,"uel":3761,"BERG":3762,"comm":3763,"ĠArthur":3764,"ĠJo":3765,"Ġtong":3766,"Ġgro":3767,"quest":3768,"habit":3769,"Ġwarri":3770,"ashion":3771,"etch":3772,"ulty":3773,"Ġspent":3774,"Ġfingers":3775,"UR":3776,"aked":3777,"three":3778,"Ġempt":3779,"Ġeld":3780,"Ġdirectly":3781,"friend":3782,"oted":3783,"Ġconv":3784,"Ġmagn":3785,"13":3786,"chan":3787,"Ġasleep":3788,"Ġstore":3789,"Ġsepar":3790,"Ġ(_":3791,"many":3792,"Ġfavor":3793,"UTEN":3794,"clock":3795,"aws":3796,"Ġpromise":3797,"\"'":3798,"ait":3799,"Ġwire":3800,"Ġnon":3801,"Ġrub":3802,"Ġanxious":3803,"Ġrequirements":3804,"Ġwear":3805,"Ġopinion":3806,"Ġmarried":3807,"ien":3808,"Ġcook":3809,"Ġseat":3810,"ushing":3811,"Ġholder":3812,"ĠGUTEN":3813,"Ġlean":3814,"Ġcarefully":3815,"ĠGUTENBERG":3816,"Ġmile":3817,"these":3818,"Ġcaused":3819,"terday":3820,"Some":3821,"Ġgrown":3822,"post":3823,"ciety":3824,"rif":3825,"Ġvast":3826,"umst":3827,"against":3828,"things":3829,"Ġproud":3830,"ĠGeorge":3831,"OL":3832,"Ġyards":3833,"ouble":3834,"Ġhorn":3835,"itical":3836,"Ġspite":3837,"ford":3838,"Ġdistribute":3839,"Ġdisplaying":3840,"raft":3841,"Ġappears":3842,"Ġty":3843,"ĠFather":3844,"Ġjoined":3845,"ATION":3846,"While":3847,"Ġwings":3848,"Ġdressed":3849,"Ġteacher":3850,"Ġtrade":3851,"Ġoffer":3852,"Ġholding":3853,"col":3854,"iring":3855,"ĠPROJECT":3856,"ĠRussell":3857,"Ġlikely":3858,"ivers":3859,"Ġconsiderable":3860,"ĠANY":3861,"Ġbull":3862,"ometimes":3863,"Ġpocket":3864,"igg":3865,"Ġevident":3866,"atched":3867,"acement":3868,"Ġloose":3869,"Ġprivate":3870,"ĠMexic":3871,"Ġworse":3872,"ani":3873,"Ġdrag":3874,"ables":3875,"ĠJesus":3876,"tw":3877,"ailed":3878,"Ġresult":3879,"Ġcompliance":3880,"Ġtast":3881,"rol":3882,"Ġfond":3883,"Ġnames":3884,"Ġdisclaim":3885,"ev":3886,"Ġid":3887,"Ġrid":3888,"ĠSl":3889,"ĠBlack":3890,"Ġfinally":3891,"ARRANT":3892,"Ġsal":3893,"Ġstout":3894,"Ġshoot":3895,"Ġpriest":3896,"Ġsuffic":3897,"ĠWhile":3898,"without":3899,"port":3900,"wen":3901,"erry":3902,"Ġbuy":3903,"kind":3904,"atur":3905,"osp":3906,"Ġfled":3907,"Ġhonour":3908,"Ġexactly":3909,"Ġopportunity":3910,"erous":3911,"Ġhen":3912,"acc":3913,"Ġcomb":3914,"Ġgreatest":3915,"say":3916,"icket":3917,"ĠAlice":3918,"Ġaccepted":3919,"Ġgas":3920,"Ġwel":3921,"anches":3922,"Ġrule":3923,"Ġmor":3924,"urely":3925,"Ġlooks":3926,"Ġlands":3927,"Ġinformed":3928,"Ġgrowing":3929,"Ġbelieved":3930,"Ġkeeping":3931,"Ġcheer":3932,"Ġexplan":3933,"ification":3934,"Ġet":3935,"Ġate":3936,"ĠHood":3937,"Ġthank":3938,"Ġrequired":3939,"Ġegg":3940,"ĠMany":3941,"Ġride":3942,"ĠRic":3943,"prom":3944,"Ġer":3945,"almost":3946,"eless":3947,"Ġseized":3948,"Ġshoulders":3949,"Ġpersons":3950,"ĠInformation":3951,"Ġformat":3952,"Ġonline":3953,"Ġinflu":3954,"Ġhuge":3955,"uzz":3956,"four":3957,"ois":3958,"wind":3959,"Ġtrave":3960,"Ġservants":3961,"Ġpossession":3962,"Ġdim":3963,"Ġthreat":3964,"Ġworked":3965,"Ġblind":3966,"Ġsurprised":3967,"bro":3968,"present":3969,"icable":3970,"epend":3971,"Ġrelig":3972,"bar":3973,"Ġerr":3974,":--":3975,"Ġdepend":3976,"rees":3977,"Ġstorm":3978,"think":3979,"ĠCr":3980,"Ġbent":3981,"Ġfought":3982,"Ġflat":3983,"ields":3984,"Ġbuilding":3985,"peror":3986,"14":3987,"ĠGovernment":3988,"Ġopening":3989,"hap":3990,"Ġcou":3991,"sur":3992,"Ġsole":3993,"ĠAnt":3994,"illy":3995,"ĠMc":3996,"Ġperfectly":3997,"Ġ1806":3998,"Ġlabor":3999,"ye":4000,"Ġwet":4001,"ĠAS":4002,"Ġheight":4003,"unch":4004,"Ġspeaking":4005,"enced":4006,"Ġphr":4007,"Ġlake":4008,"elp":4009,"Ġshare":4010,"IST":4011,"last":4012,"ada":4013,"Ġconcerning":4014,"RA":4015,"Ġbare":4016,"thern":4017,"Ġfeather":4018,"Ġhunting":4019,"nut":4020,"ĠWashington":4021,"Ġflesh":4022,"ĠCont":4023,"Ġmemory":4024,"ĠWhite":4025,"Ġapart":4026,"Ġwore":4027,"ĠMike":4028,"Ġcarrying":4029,"Ġmeeting":4030,"uous":4031,"ĠEast":4032,"Ġwalking":4033,"Ġbreakfast":4034,"Ġcruel":4035,"Ġvers":4036,"Ġaston":4037,"Ġfrightened":4038,"hal":4039,"orough":4040,"omen":4041,"Ġsmiled":4042,"Ġtender":4043,"run":4044,"Ġshape":4045,"Ġdistant":4046,"Ġhy":4047,"Ġ27":4048,"Ġlarger":4049,"III":4050,"Ġremembered":4051,"iently":4052,"tree":4053,"ĠVan":4054,"Ġteeth":4055,"Ġproperty":4056,"ker":4057,"Ġrushed":4058,"gress":4059,"ĠMin":4060,"Ġhigher":4061,"Ġfruit":4062,"een":4063,"Ġfaces":4064,"Ġweeks":4065,"Ġcolon":4066,"arther":4067,"Ġexist":4068,"uction":4069,"Ġwhispered":4070,"Ġmerely":4071,"Ġdust":4072,"ieve":4073,"Ġ***":4074,"Ġwaters":4075,"Ġprotect":4076,"Ġpot":4077,"antic":4078,"Ġcalm":4079,"Ġlaughing":4080,"Ġequip":4081,"Ġobliged":4082,"Ġvent":4083,"ĠIts":4084,"Ġ28":4085,"Ġnative":4086,"Ġhabit":4087,"ĠMount":4088,"hia":4089,"Ġscene":4090,"met":4091,"Ġhunt":4092,"Ġforced":4093,"Ġfighting":4094,"Ġlisten":4095,"ĠCount":4096,"ĠCreek":4097,"Ġextra":4098,"Ġtouched":4099,"Ġident":4100,"atives":4101,"ĠKathleen":4102,"Ġfaint":4103,"Ġforty":4104,"Ġhappen":4105,"01":4106,"view":4107,"ĠSchool":4108,"Ġancient":4109,"Ġtemple":4110,"ai":4111,"Ġcrew":4112,"Ġparents":4113,"half":4114,"Ġfill":4115,"Ġbreast":4116,"Ġprepare":4117,"Ġmachine":4118,"Ġofficers":4119,"Ġtight":4120,"Ġnine":4121,"Ġpresence":4122,"lend":4123,"Ġproceed":4124,"Ġknowing":4125,"itch":4126,"Ġincluded":4127,"Ġahead":4128,"Ġhealth":4129,"Ġgather":4130,"rict":4131,"ĠCap":4132,"Ġscr":4133,"ĠHenry":4134,"Per":4135,"Ġpair":4136,"Ġknife":4137,"Ġjoin":4138,"Ġfixed":4139,"fact":4140,"isions":4141,"Ġconvers":4142,"Ġbuff":4143,"hest":4144,"itary":4145,"Ġdare":4146,"ĠGl":4147,"Ġhungry":4148,"Ġmaterial":4149,"Ġfreedom":4150,"Ġmut":4151,"ĠEven":4152,"Ġordinary":4153,"Ġwatching":4154,"bell":4155,"being":4156,"Ġletters":4157,"Ġshadow":4158,"boy":4159,"mas":4160,"Ġthrown":4161,"tell":4162,"Ġrejo":4163,"Ġproduced":4164,"foot":4165,"Ġkey":4166,"Ġparticularly":4167,"Ġopposite":4168,"Ġweb":4169,"ĠCo":4170,"Ġservant":4171,"Ġattend":4172,"Ġfreely":4173,"Ġphysical":4174,"Ġmatch":4175,"Ġweight":4176,"Ġtelling":4177,"Ġmatters":4178,"Ġmotion":4179,"Ġpig":4180,"Ġgar":4181,"Ġcourage":4182,"Ġquestions":4183,"ĠColumb":4184,"_)":4185,"ĠSmith":4186,"De":4187,"ners":4188,"opp":4189,"Ġweather":4190,"ĠFar":4191,"ĠRiver":4192,"Ġliber":4193,"host":4194,"ĠGreen":4195,"Ġcentury":4196,"Ġfields":4197,"Ġarose":4198,"Ġorders":4199,"Ġdrawing":4200,"Ġestab":4201,"oice":4202,"Ġcave":4203,"elle":4204,"Ġproved":4205,"Ġadditional":4206,"ius":4207,"ĠCapt":4208,"ĠJames":4209,"yer":4210,"Ġquarter":4211,"Ġcompanions":4212,"Ġdate":4213,"ĠSet":4214,"ĠCome":4215,"rael":4216,"19":4217,"Ġtaught":4218,"Ġourselves":4219,"Ġhearts":4220,"Ġmoving":4221,"Ġcondition":4222,"roduced":4223,"Ġpick":4224,"Ġenemies":4225,"Ġequipment":4226,"Pro":4227,"Ġcustom":4228,"ĠJan":4229,"Ġ185":4230,"Ġnoticed":4231,"lected":4232,"Tom":4233,"follow":4234,"urs":4235,"Ġexpression":4236,"five":4237,"ĠMag":4238,"Ġconsidered":4239,"Ġhonor":4240,"lot":4241,"sequ":4242,"ĠJuly":4243,"cience":4244,"Ġsimply":4245,"others":4246,"Ġvan":4247,"ĠRep":4248,"Ġsupposed":4249,"Ġsentence":4250,"ART":4251,"Ġimmediate":4252,"Will":4253,"Ġloss":4254,"Ġlanguage":4255,"cean":4256,"ems":4257,"ugust":4258,"Ġfalling":4259,"sub":4260,"Ġdriven":4261,"uddenly":4262,"ĠTwo":4263,"shall":4264,"Ġphrase":4265,"took":4266,"Ġsplend":4267,"ĠNOT":4268,"Ġsought":4269,"rences":4270,"ĠThom":4271,"Ġmonth":4272,"Ġexplanation":4273,"ingu":4274,"ĠĠĠĠĠĠĠĠĠĠĠ":4275,"Ġgroup":4276,"Ġsymp":4277,"antage":4278,"umed":4279,"Ġnumbers":4280,"ule":4281,"Ġsaved":4282,"Ġworking":4283,"spect":4284,"Ġii":4285,"17":4286,"Ġbore":4287,"order":4288,"Ġlovely":4289,"Ġnatives":4290,"ids":4291,"olute":4292,"Ġrepeated":4293,"From":4294,"ĠBab":4295,"resp":4296,"Ġkingdom":4297,"Ġplaying":4298,"Ġspoken":4299,"Ġquietly":4300,"ĠEB":4301,"illa":4302,"Pl":4303,"Ġwicked":4304,"Ġshel":4305,"Ġknees":4306,"Ġlog":4307,"Ġrefused":4308,"ouds":4309,"ander":4310,"ĠJust":4311,"Ġburied":4312,"Ġspecial":4313,"Ġwine":4314,"Ġcrown":4315,"Ġclearly":4316,"Ġlistened":4317,"Ġempty":4318,"bus":4319,"Ġsimilar":4320,"Ġdar":4321,"Ġescaped":4322,"Ġflo":4323,"ample":4324,"chen":4325,"uted":4326,"Ġearnest":4327,"Ġhurried":4328,"Ġrising":4329,"ĠLand":4330,"Ġsprang":4331,"Ġends":4332,"ĠCH":4333,"ongress":4334,"make":4335,"Ġpec":4336,"Ġindic":4337,"Ġhttps":4338,"oring":4339,"ĠJune":4340,"Go":4341,"coll":4342,"kins":4343,"inst":4344,"Ġliked":4345,"Ġinches":4346,"inging":4347,"ĠJe":4348,"apped":4349,"Ġbade":4350,"Ġheat":4351,"Ġcloud":4352,"angers":4353,"arz":4354,"Ġlose":4355,"Ġbodies":4356,"itor":4357,"ĠWor":4358,"aker":4359,"Ġcheck":4360,"Ġextreme":4361,"Ġcivil":4362,"ĠDorothy":4363,"arily":4364,"Ġdogs":4365,"UN":4366,"Ġdwell":4367,"esty":4368,"Ġsecure":4369,"Ġmarry":4370,"irgin":4371,"Ġposted":4372,"Ġ$":4373,"Ġforms":4374,"ills":4375,"ĠAG":4376,"Ġentrance":4377,"cil":4378,"Ġcred":4379,"Ġthrow":4380,"Ġprincipal":4381,"Ġvoy":4382,"Ġexpress":4383,"ĠWeb":4384,"held":4385,"Ġconce":4386,"Ġbesides":4387,"Ġlocated":4388,"Ġobey":4389,"another":4390,"ĠSeveral":4391,"Ġ29":4392,"unday":4393,"Ġslept":4394,"contin":4395,"mund":4396,"Ġtrail":4397,"Ġforgotten":4398,"ville":4399,"Re":4400,"Ġfal":4401,"vey":4402,"ĠĠĠĠĠĠĠĠĠĠĠĠĠĠ":4403,"fortun":4404,"Ġremarked":4405,"Ġhit":4406,"Ġinteresting":4407,"Ġbaby":4408,"ĠLy":4409,"ĠLady":4410,"Ġcurious":4411,"ral":4412,"Ġwed":4413,"Ġpicked":4414,"Ġunderstood":4415,"izard":4416,"Ġchoose":4417,"Ġsquare":4418,"maid":4419,"Ġsolic":4420,"Ġtongue":4421,"Ġbushes":4422,"ulation":4423,"Ġgives":4424,"lavery":4425,"Ġdescribed":4426,"Ġyesterday":4427,"ĠMaster":4428,"Ġcalcul":4429,"ederal":4430,"called":4431,"pon":4432,"Ġcloth":4433,"Ġleading":4434,"Ġmembers":4435,"Ġaside":4436,"Ġstars":4437,"Ġequal":4438,"22":4439,"Ġmonkey":4440,"ounced":4441,"Ġcenter":4442,"fin":4443,"ipt":4444,"Ġeast":4445,"acks":4446,"bid":4447,"Ġgray":4448,"ĠState":4449,"Ġofficer":4450,"Ġfinger":4451,"Ġexperience":4452,"ban":4453,"Ġwealth":4454,"Ġdrove":4455,"early":4456,"umn":4457,"REE":4458,"irit":4459,"ĠRuth":4460,"Ġprinted":4461,"Ġanywhere":4462,"Ġdoesn":4463,"Ġsmoke":4464,"Ġscream":4465,"Ġcommun":4466,"Ġdifficulty":4467,"Ġfarther":4468,"Ġnur":4469,"acted":4470,"Ġmetal":4471,"Ġbusy":4472,"Ġintellect":4473,"Ġlifted":4474,"free":4475,"Ġbark":4476,"Ġgod":4477,"Ġdescend":4478,"Ġfellows":4479,"fund":4480,"Ġ200":4481,"ĠEn":4482,"mond":4483,"Ġpa":4484,"ĠIndia":4485,"Ġsaf":4486,"Ġputting":4487,"US":4488,"door":4489,"Ġmerchant":4490,"Ġcreated":4491,"Ġengaged":4492,"Ġmir":4493,"Ġho":4494,"Ġnest":4495,"Ġsake":4496,"ĠPal":4497,"ĠRoy":4498,"Ġbranches":4499,"ajor":4500,"Ġhidden":4501,"rap":4502,"white":4503,"ITED":4504,"Ġcircumst":4505,"something":4506,"Ġtalked":4507,"Ġdiam":4508,"Ġintended":4509,"Miss":4510,"oint":4511,"ĠSun":4512,"uliar":4513,"Ġhearing":4514,"ĠHowever":4515,"nec":4516,"Ġfamous":4517,"Ġoper":4518,"ĠMe":4519,"young":4520,"smith":4521,"aries":4522,"Ġplenty":4523,"Ġdrive":4524,"Ġsettle":4525,"ĠCity":4526,"Ġkindly":4527,"Ġsettled":4528,"Ġcompanion":4529,"Ġbase":4530,"Ġusually":4531,"ĠElk":4532,"Ġetc":4533,"aly":4534,"sit":4535,"ĠBar":4536,"arest":4537,"enger":4538,"Ġbuffal":4539,"Ġsevent":4540,"earing":4541,"These":4542,"ILL":4543,"Ġspirits":4544,"Ġoriginal":4545,"Ġlevel":4546,"Ġ1804":4547,"Ġflight":4548,"Ġfinding":4549,"Ġexerc":4550,"Ġjumped":4551,"Ġdreadful":4552,"children":4553,"estern":4554,"Ġmotor":4555,"dec":4556,"spe":4557,"isto":4558,"ĠAf":4559,"Ġimpro":4560,"Ġstatus":4561,"Ġfavour":4562,"Ġinj":4563,"Ġreve":4564,"ĠApril":4565,"covered":4566,"rs":4567,"Ġscattered":4568,"uses":4569,"Ġnumerous":4570,"Ġpossessed":4571,"Ġfox":4572,"amon":4573,"Ġplant":4574,"Can":4575,"dif":4576,"Ġwounded":4577,"igned":4578,"Ġserve":4579,"Ġneeded":4580,"standing":4581,"Ġax":4582,"ĠSer":4583,"Are":4584,"phe":4585,"icious":4586,"using":4587,"Ġhunters":4588,"Ġhaven":4589,"Ġspl":4590,"OOK":4591,"ouri":4592,"Ġdeb":4593,"Ġexplained":4594,"Ġtreated":4595,"Ġgrief":4596,"Ġnearer":4597,"Ġdue":4598,"ama":4599,"Ġwaves":4600,"Ġmix":4601,"eping":4602,"Ġchamber":4603,"ĠComm":4604,"Ġcollection":4605,"ĠSouthern":4606,"Ġtwice":4607,"ĠPeterkin":4608,"cellent":4609,"Ġ?":4610,"Ġhollow":4611,"umbled":4612,"Ġavo":4613,"Ġcomput":4614,"Ġpet":4615,"Ġpill":4616,"Ġfees":4617,"Ġrag":4618,"Ġreport":4619,"Ġfile":4620,"Ġsheep":4621,"Ġdesired":4622,"Ġswim":4623,"Ġpoet":4624,"ĠGrandfather":4625,"Ġrevol":4626,"Ġfully":4627,"ea":4628,"Ġtales":4629,"ĠSuch":4630,"Ġterror":4631,"ements":4632,"Ġgrey":4633,"Ġmurm":4634,"Ġaccording":4635,"John":4636,"Un":4637,"Ġlicense":4638,"Ġlinks":4639,"ĠCON":4640,"ults":4641,"Ġfer":4642,"Ġexped":4643,"CII":4644,"Ġstreets":4645,"Nor":4646,"Ġcareful":4647,"Ġfailed":4648,"Look":4649,"bow":4650,"Ġcool":4651,"aining":4652,"ĠUnder":4653,"ization":4654,"Ġpurcha":4655,"Ġmistress":4656,"Did":4657,"Gr":4658,"dr":4659,"ona":4660,"Ġinhabit":4661,"ĠTer":4662,"Ġsteam":4663,"ĠChristian":4664,"bits":4665,"Ġstepped":4666,"Ġtied":4667,"Ġcrying":4668,"Ġtower":4669,"ĠEar":4670,"Ġdeser":4671,"ĠSheriff":4672,"ĠIsrael":4673,"Ġmel":4674,"Ġfarm":4675,"Ġhelped":4676,"Ġeditions":4677,"Ġextent":4678,"ding":4679,"Ġwolf":4680,"Ġdistinct":4681,"serv":4682,"Ġladies":4683,"Ġmeal":4684,"ivered":4685,"Ġwilling":4686,".=":4687,"ĠJew":4688,"Ġhandsome":4689,"prov":4690,"Ġmaiden":4691,"Ġdefective":4692,"ĠSha":4693,"Ġsmooth":4694,"ege":4695,"ĠSept":4696,"Ġrapidly":4697,"iber":4698,"ousin":4699,"Ġplate":4700,"ode":4701,"ILITY":4702,"istribution":4703,"Ġtest":4704,"Ġaut":4705,"hael":4706,"Ġbra":4707,"Ġfate":4708,"asures":4709,"tained":4710,"ĠXX":4711,"Ġapplicable":4712,"mes":4713,"ĠCat":4714,"ucy":4715,"Ġflying":4716,"11":4717,"ĠLewis":4718,"nothing":4719,"supp":4720,"Ġparagraphs":4721,"itement":4722,"oned":4723,"ĠRuss":4724,"Ġrope":4725,"stone":4726,"unn":4727,"Ġknights":4728,"dist":4729,"sat":4730,"Ġterm":4731,"ĠThor":4732,"Ġlimitation":4733,"Ġderiv":4734,"_[":4735,"eas":4736,"Ġpor":4737,"Ġproble":4738,"AMAG":4739,"search":4740,"Ġwooden":4741,"Ġdrop":4742,"Ġcreatures":4743,"ĠLIM":4744,"ĠScot":4745,"Ġcircle":4746,"Ġsuggest":4747,"looked":4748,"armed":4749,"Ġbend":4750,"ĠGo":4751,"onsieur":4752,"asc":4753,"Ġanger":4754,"aved":4755,"Ġflag":4756,"Ġslain":4757,"Ġregular":4758,"lly":4759,"Ġceased":4760,";--":4761,"remon":4762,"Ġfashion":4763,"usted":4764,"Ġactive":4765,"put":4766,"Ġreplacement":4767,"Ġpayments":4768,"Ġwitness":4769,"cto":4770,"Ġshoes":4771,"ĠDown":4772,"iction":4773,"occ":4774,"Ġpp":4775,"Ġnaught":4776,"ainted":4777,"Ġrout":4778,"force":4779,"Ġfalls":4780,"41":4781,"osen":4782,"ĠPhilip":4783,"country":4784,"Ġtask":4785,"reet":4786,"rig":4787,"Ġsupper":4788,"Ġcomplying":4789,"Ġdawn":4790,"Ġroyal":4791,"ĠLIMITED":4792,"Ġpure":4793,"Ġleader":4794,"Ġinfluence":4795,"del":4796,"Ġdonate":4797,"enses":4798,"Ġlanded":4799,"Ġpowerful":4800,"Ġpaying":4801,"cast":4802,"ections":4803,"soever":4804,"Ġhoped":4805,"Just":4806,"Ġign":4807,"ĠAugust":4808,"Ġuser":4809,"Ġgen":4810,"ste":4811,"Ġreward":4812,"ĠMed":4813,"ĠFred":4814,"HT":4815,"Ġresem":4816,"Ġtrad":4817,"Ġreported":4818,"Ġobtained":4819,"Ġbeasts":4820,"upp":4821,"Ġcro":4822,"llen":4823,"Ġdoors":4824,"Ġquant":4825,"Ġserious":4826,"ĠASCII":4827,"Wh":4828,"Ġconstant":4829,"Ġmidst":4830,"heard":4831,"ĠMel":4832,"ĠOz":4833,"Ġsooner":4834,"inting":4835,"oming":4836,"Ġwindows":4837,"Ġforeign":4838,"Ġderivative":4839,"Ġdefe":4840,"Eng":4841,"Ġsailed":4842,"Ġbride":4843,"Ġapparent":4844,"engers":4845,"Ġprevious":4846,"Ġsang":4847,"Ġdance":4848,"ĠShann":4849,"Ġseated":4850,"sue":4851,"ĠCamp":4852,"ĠNature":4853,"ĠJac":4854,"vah":4855,"lex":4856,"stairs":4857,"Ġthunder":4858,"ĠMarch":4859,"Ġpack":4860,"Ġpoints":4861,"Ġdistur":4862,"Ġcalling":4863,"Ġfortune":4864,"Ġsafety":4865,"itchen":4866,"Ġrolled":4867,"Ġyours":4868,"Ġattr":4869,"hovah":4870,"Ġprovisions":4871,"Ġpage":4872,"seen":4873,"olin":4874,"CK":4875,"Ġhither":4876,"cribe":4877,"Ġmovement":4878,"IV":4879,"iest":4880,"Ġgle":4881,"ĠAdams":4882,"Ġmessage":4883,"Ġpity":4884,"Ġdemanded":4885,"Ġbased":4886,"ĠChurch":4887,"ĠProfessor":4888,"Ġeverybody":4889,"Ġdisappeared":4890,"ĠCongress":4891,"Ġproof":4892,"Ġkeen":4893,"Ġattached":4894,"ĠOnly":4895,"field":4896,"ĠTe":4897,"ols":4898,"clusion":4899,"addle":4900,"vert":4901,"Ġarmed":4902,"Ġdelay":4903,"EL":4904,"hum":4905,"sect":4906,"ĠMor":4907,"Ġfriendly":4908,"Ġadvice":4909,"Ġblew":4910,"Ġserved":4911,"Ġwelcome":4912,"Ġmam":4913,"Ġadvanced":4914,"Ġstrike":4915,"ichael":4916,"Ġsurv":4917,"Ġdangerous":4918,"orious":4919,"ental":4920,"ayen":4921,"aches":4922,"Ġguide":4923,"Ġverry":4924,"Ġdollars":4925,"Sir":4926,"Ġrage":4927,"Ġmeasure":4928,"ĠEr":4929,"Ġwants":4930,"Ġrules":4931,"Ġintellig":4932,"Ġvessels":4933,"Ġcliff":4934,"acle":4935,"Ġassem":4936,"thy":4937,"Ġinstruct":4938,"Ġsucceeded":4939,"Americ":4940,"Ġcell":4941,"Ġpowers":4942,"Ġcrossed":4943,"omans":4944,"ĠSig":4945,"ĠNe":4946,"forth":4947,"cip":4948,"Ġslay":4949,"theless":4950,"Ġnodd":4951,"ET":4952,"Ġstern":4953,"ĠJane":4954,"Ġsounds":4955,"saw":4956,"too":4957,"ishop":4958,"world":4959,"Than":4960,"yl":4961,"onor":4962,"athy":4963,"Ġbegun":4964,"Ġboats":4965,"Ġ50":4966,"ĠConf":4967,"Ġsending":4968,"Ġaccompl":4969,"Ġhttp":4970,"Ġstruggle":4971,"nat":4972,"Ġlies":4973,"eling":4974,"ĠOur":4975,"Ġroots":4976,"Ġshame":4977,"Ġamaz":4978,"ĠSea":4979,"Ġtemper":4980,"Ġsuggested":4981,"pent":4982,"shi":4983,"ĠGu":4984,"Ġshining":4985,"Ġamount":4986,"Ġolder":4987,"Ġmeaning":4988,"ĠBritain":4989,".=--":4990,"See":4991,"nes":4992,"Ġtent":4993,"ĠBo":4994,"oft":4995,"Ġamid":4996,"ĠWorld":4997,"itiz":4998,"still":4999,"ĠGood":5000,"Ġsuit":5001,"Ġclouds":5002,"Ġgloom":5003,"Ġweary":5004,"ĠMer":5005,"Ġshop":5006,"Never":5007,"Ġwhist":5008,"ĠSqu":5009,"Ġchest":5010,";\"":5011,"anny":5012,"Ġthorough":5013,"Ġthrust":5014,"Ġcountries":5015,"Ġtur":5016,"itle":5017,"Ġemp":5018,"Ġbirth":5019,"Ġresolved":5020,"erable":5021,"Ġbask":5022,"Ġdi":5023,"alks":5024,"Ġspr":5025,"Ġnobody":5026,"Ġexec":5027,"Ġfeathers":5028,"Ġnet":5029,"Ġdozen":5030,"cles":5031,"Ġdiscuss":5032,"Ġmentioned":5033,"ecause":5034,"Ġsituation":5035,"Ġleaped":5036,"Ġsplendid":5037,"Ġgenerations":5038,"addy":5039,"anied":5040,"Ġrate":5041,"Ġproduce":5042,"Ġfifteen":5043,"Ġvalue":5044,"rooge":5045,"pur":5046,"ĠSte":5047,"Ġfeelings":5048,"Ġfastened":5049,"Ġlimited":5050,"Ġconversation":5051,"ergy":5052,"Ġmort":5053,"Ġlesson":5054,"ĠRichard":5055,"cor":5056,"mind":5057,"Ġbones":5058,"Ġeating":5059,"ĠSara":5060,"iform":5061,"owned":5062,"ĠJer":5063,"going":5064,"ĠJimmy":5065,"ao":5066,"step":5067,"themselves":5068,"Ġcredit":5069,"Qu":5070,"river":5071,"ĠSec":5072,"aming":5073,"Ġstation":5074,"Ġfeared":5075,"Ġbrain":5076,"Ġgrad":5077,"Ġearli":5078,"Ġsuffer":5079,"Ġintellectual":5080,"ishes":5081,"ferences":5082,"ensive":5083,"Ġcommanded":5084,"Ġabsolute":5085,"ĠHall":5086,"Ġincident":5087,"horse":5088,"ais":5089,"rounded":5090,"Ġplains":5091,"Ġblock":5092,"Ġclimbed":5093,"20":5094,"Ġcities":5095,"istered":5096,"ittee":5097,"ibility":5098,"respond":5099,"ctober":5100,"Ġwound":5101,"ication":5102,"ĠMart":5103,"ĠHigh":5104,"Ġmead":5105,"ighed":5106,"Ġ90":5107,"Ġburning":5108,"uary":5109,"Ġtu":5110,"Ġreaching":5111,"unless":5112,"Ġskill":5113,"Ġodd":5114,"Ġsisters":5115,"ĠSand":5116,"ĠMon":5117,"ĠGree":5118,"Ġconqu":5119,"Ġrecord":5120,"Ġsinging":5121,"life":5122,"lock":5123,"adelp":5124,"ĠDem":5125,"izing":5126,"Ġfrequently":5127,"aver":5128,"Ġbrief":5129,"Ġarg":5130,"Ġfeed":5131,"States":5132,"Ġblank":5133,"Ġafterward":5134,"lands":5135,"Ġfamiliar":5136,"Ġpeculiar":5137,"IRE":5138,"Ġlack":5139,"ocr":5140,"Ġclosely":5141,"Ġarrows":5142,"God":5143,"Her":5144,"Ġnav":5145,"uments":5146,"Ġgrate":5147,"ailable":5148,"Ġdespair":5149,"adelphia":5150,"find":5151,"nor":5152,"vation":5153,"ĠTerr":5154,"ĠNE":5155,"Ġprove":5156,"hib":5157,"Ġcolour":5158,"Your":5159,"tter":5160,"Ġbought":5161,"Ġunknown":5162,"Ġbegged":5163,"ĠChristmas":5164,"mir":5165,"Very":5166,"Ġelectric":5167,"Ġlegal":5168,"Ġforgot":5169,"arms":5170,"Ġshell":5171,"Ġcontent":5172,"Ġuseful":5173,"Ġhurry":5174,"IVE":5175,"Ġmilk":5176,"school":5177,"Ġholy":5178,"apers":5179,"ĠPerhaps":5180,"ulf":5181,"Ġsoftly":5182,"Ġsour":5183,"ĠEX":5184,"Ġgrace":5185,"ĠVirgin":5186,"born":5187,"both":5188,"Ġbas":5189,"Ġgently":5190,"oting":5191,"Ġrow":5192,"ĠYes":5193,"Ġprecious":5194,"Ġham":5195,"phant":5196,"zz":5197,"ĠSunday":5198,"Louis":5199,"OSE":5200,"rate":5201,"vi":5202,"Ġvig":5203,"Ġaltogether":5204,"Ġcommer":5205,"mb":5206,"Ġcaut":5207,"seless":5208,"ĠStill":5209,"Ġstead":5210,"Ġcolored":5211,"ITH":5212,"ĠII":5213,"Ġvictory":5214,"low":5215,"Ġincl":5216,"ĠLake":5217,"clam":5218,"Ġvisited":5219,"ĠSwift":5220,"ĠLyons":5221,"Ġheap":5222,"sey":5223,"ĠDes":5224,"appro":5225,"Br":5226,"inking":5227,"Ġstayed":5228,"Ġfierce":5229,"ĠBear":5230,"Ġpresented":5231,"Ġremaining":5232,"].":5233,"Ġlamp":5234,"osity":5235,"Ġmarriage":5236,"Ġvoices":5237,"Ġworthy":5238,"ball":5239,"da":5240,"Ġsevere":5241,"Ġrail":5242,"Ġended":5243,"Ġadvantage":5244,"Ġsociety":5245,"ĠJoe":5246,"Ġpipe":5247,"Ġstock":5248,"Ġeducation":5249,"Ġhundreds":5250,"Ġhonest":5251,"Ġstared":5252,"Ġworst":5253,"ancelot":5254,"Ġinstantly":5255,"between":5256,"Ġsore":5257,"Ġlone":5258,"Ġstaff":5259,"Ġspend":5260,"Ġunable":5261,"olid":5262,"oston":5263,"ORY":5264,"consider":5265,"Ġsatisfied":5266,"ĠYour":5267,"ĠĠĠĠĠĠĠĠĠĠĠĠĠĠĠĠĠĠĠ":5268,"ĠJackson":5269,"isher":5270,"agle":5271,"Ġprogress":5272,"Ġholes":5273,"Ġnations":5274,"uts":5275,"ims":5276,"ĠChe":5277,"Ġexcellent":5278,"ĠArchie":5279,"Ġqueer":5280,"Ġsufficient":5281,"net":5282,"Ġsell":5283,"Ġyounger":5284,"velt":5285,"cluded":5286,"Ġtaste":5287,"mag":5288,"morning":5289,"Ġpine":5290,"ordinary":5291,"Ġfleet":5292,"Ġarticles":5293,"ĠDamon":5294,"Ġresc":5295,"Ġadvance":5296,"Tr":5297,"taken":5298,"utch":5299,"ternal":5300,"ACH":5301,"Pr":5302,"ĠMaid":5303,"ago":5304,"Ġflower":5305,"Ġpopular":5306,"Ġsin":5307,"Ġpushed":5308,"atus":5309,"ĠIND":5310,"ĠSim":5311,"ĠWizard":5312,"Ġwondered":5313,"Ġburned":5314,"ĠChild":5315,"Ġeaten":5316,"Ġguns":5317,"Ġvoyage":5318,"Ġain":5319,"Ġfac":5320,"anic":5321,"Ġhal":5322,"rier":5323,"Ġappre":5324,"Ġarrival":5325,"Ġcorrect":5326,"Ġthroat":5327,"Ġdig":5328,"ĠAny":5329,"Ġseason":5330,"ouring":5331,"reating":5332,"ferent":5333,"Ġjustice":5334,"Ġstretched":5335,"aper":5336,"Ġslipped":5337,"Ġchosen":5338,"ĠThose":5339,"brary":5340,"Ġcotton":5341,"esides":5342,"aling":5343,"agree":5344,"ĠLa":5345,"Ġtreatment":5346,"happy":5347,"sent":5348,"Ġfired":5349,"rived":5350,"top":5351,"Con":5352,"fire":5353,"non":5354,"quet":5355,"Ġclo":5356,"until":5357,"fell":5358,"Ġpup":5359,"Ġworn":5360,"Ġbridge":5361,"ĠThree":5362,"END":5363,"Ġindust":5364,"Ġconfess":5365,"ajesty":5366,"full":5367,"Ġfold":5368,"Ġfederal":5369,"Ġcart":5370,"Ġpin":5371,"ĠMen":5372,"Ġprec":5373,"comple":5374,"Ġrelations":5375,"oosevelt":5376,"atory":5377,"ĠRoman":5378,"eyes":5379,"Ġfairy":5380,"Ġexcitement":5381,"ĠCharles":5382,"Ġkissed":5383,"eav":5384,"Ġvirt":5385,"ĠMissouri":5386,"Ġbranch":5387,"Ġtreasure":5388,"Ġapproached":5389,"Ġwarriors":5390,"Com":5391,"gest":5392,"Ġdull":5393,"Ġdoctor":5394,"May":5395,"Ġstuff":5396,"thou":5397,"Ġspear":5398,"Ġflung":5399,"Ġaccident":5400,"ĠGwen":5401,"ributed":5402,"Ġsupply":5403,"Ġinstr":5404,"course":5405,"ĠRomans":5406,"beaut":5407,"Ġexcited":5408,"Ġlodge":5409,"Perhaps":5410,"tow":5411,"wild":5412,"Ġpil":5413,"Ġpressed":5414,"anish":5415,"Ġpapers":5416,"htt":5417,"whe":5418,"Ġlest":5419,"ĠColl":5420,"oused":5421,"Ġsmiling":5422,"Ġdesper":5423,"Ġexplain":5424,"Ġjudge":5425,"Ġhate":5426,"Ġgained":5427,"Ġimpl":5428,"Ġremarkable":5429,"ĠMichael":5430,"Ġwheel":5431,"ĠSeward":5432,"Ġpictures":5433,"fly":5434,"yright":5435,"Ġtoday":5436,"Ġmounted":5437,"Ġevidence":5438,"ĠCle":5439,"Ġalarm":5440,"Ġneeds":5441,"give":5442,"Ġere":5443,"ĠCour":5444,"Ġrang":5445,"Ġkitchen":5446,"Ġperformed":5447,"cluding":5448,"Ġsuffered":5449,"Ġfoolish":5450,"home":5451,"also":5452,"ception":5453,"Ġhappiness":5454,"Ġportion":5455,"otted":5456,"Ġthine":5457,"unning":5458,"umph":5459,"Ġpride":5460,"Ġcircumstances":5461,"nal":5462,"word":5463,"Ġocean":5464,"Ġmat":5465,"Ġupward":5466,"ĠFair":5467,"Ġscore":5468,"Ġaware":5469,"THER":5470,"direct":5471,"ka":5472,"pher":5473,"ris":5474,"asp":5475,"Ġbearing":5476,"ĠMake":5477,"ĠRem":5478,"Ġbrass":5479,"Ġremains":5480,"Ġsolemn":5481,"ĠThomas":5482,"ca":5483,"Every":5484,"lished":5485,"Ġfil":5486,"Ġotherwise":5487,"Ġcontrol":5488,"Ġcapital":5489,"iation":5490,"Ġclever":5491,"Ġcompletely":5492,"pers":5493,"years":5494,"stead":5495,"Ġaloud":5496,"Ġbringing":5497,"ĠBefore":5498,"Ġregarded":5499,"elling":5500,"Ġconsequ":5501,"ĠHeaven":5502,"Ġsigns":5503,"ĠJehovah":5504,"gend":5505,"Ġdefend":5506,"Ġaccordance":5507,"Ġfalse":5508,"left":5509,"ums":5510,"Ġanybody":5511,"Please":5512,"Ġfancy":5513,"Ġlin":5514,"ĠTur":5515,"Ġrare":5516,"Ġprepar":5517,"Once":5518,"ĠAfric":5519,"Ġsigh":5520,"ĠWood":5521,"Ġshowing":5522,"onds":5523,"Ġgreet":5524,"ĠHerbert":5525,"Ġincreased":5526,"six":5527,"vest":5528,"receive":5529,"Ġshaft":5530,"ovember":5531,"cho":5532,"Ġexample":5533,"ĠUse":5534,"each":5535,"Ġblaz":5536,"Ġpolicy":5537,"small":5538,"Ġtimber":5539,"Ġevidently":5540,"Ġliberty":5541,"asty":5542,"ĠNO":5543,"Ġteach":5544,"Ġactually":5545,"alem":5546,"Ġinterrupt":5547,"Ġswept":5548,"Ġap":5549,"Ġadventure":5550,"avery":5551,"cut":5552,"Ġcraft":5553,"Ġmember":5554,"Little":5555,"overy":5556,"Ġgay":5557,"prot":5558,"____":5559,"Ġbat":5560,"emple":5561,"Ġmarch":5562,"Ġsuppl":5563,"Nay":5564,"pen":5565,"Ġcard":5566,"ĠSaw":5567,"Ġriding":5568,"Ġfaithful":5569,"Ġ...":5570,"Ġdared":5571,"Ġassu":5572,"aks":5573,"Ġfault":5574,"ĠTit":5575,"rop":5576,"riet":5577,"ĠMass":5578,"Ġthrone":5579,"Ġobtaining":5580,"interest":5581,"adv":5582,"does":5583,"gly":5584,"sk":5585,"Ġbal":5586,"Ġpages":5587,"asons":5588,"ĠOctober":5589,"apan":5590,"Ġwhatsoever":5591,"Ġslavery":5592,"Ġkindness":5593,"Ġmercy":5594,"Ġbid":5595,"atures":5596,"Ġease":5597,"among":5598,"Ġtrick":5599,"anim":5600,"Ġwarning":5601,"Ġexpenses":5602,"Ġsafely":5603,"Ġshr":5604,"ĠDid":5605,"Ġfairly":5606,"Ġexchan":5607,"OS":5608,"ĠGreek":5609,"Ġuniform":5610,"Ġminds":5611,"brought":5612,"30":5613,"inite":5614,"Ġstage":5615,"oper":5616,"Ġ45":5617,"Thus":5618,"Ġspecies":5619,"Ġvariety":5620,"Ġsoldier":5621,"Ġproblem":5622,"olinayen":5623,"lers":5624,"poss":5625,"reading":5626,"Ġproviding":5627,"urious":5628,"====":5629,"XX":5630,"ares":5631,"bur":5632,"wall":5633,"told":5634,"Ġleaf":5635,"Ġhadn":5636,"ĠPaul":5637,"suff":5638,"Ġreceipt":5639,"ibolinayen":5640,"Ġcease":5641,"Ġdaily":5642,"Me":5643,"bon":5644,"ulated":5645,"ĠFirst":5646,"Ġthroughout":5647,"Ġfollows":5648,"care":5649,"Ġcord":5650,"Ġcases":5651,"ĠSil":5652,"ĠAunt":5653,"Ġgrat":5654,"Ġprisoner":5655,"Ġoccurred":5656,"Ġaim":5657,"ĠLong":5658,"ĠRose":5659,"Ġshalt":5660,"Ġprice":5661,"Ġdesign":5662,"Ġframe":5663,"Cont":5664,"IB":5665,"wers":5666,"isc":5667,"Ġdouble":5668,"Ġunl":5669,"black":5670,"Ġdrank":5671,"ĠSeptember":5672,"same":5673,"uated":5674,"Ġpounds":5675,"always":5676,"ĠWin":5677,"uries":5678,"Ġinterested":5679,"Ġversion":5680,"fam":5681,"ĠMo":5682,"isting":5683,"Ġawful":5684,"ĠTHAT":5685,"mouth":5686,"turned":5687,"uable":5688,"ival":5689,"Ġsmaller":5690,"Ġdeck":5691,"Ġdelighted":5692,"Ġnodded":5693,"gment":5694,"Ġlaughter":5695,"Ġhesit":5696,"ĠMore":5697,"astern":5698,"Ġcontaining":5699,"erved":5700,"ĠDE":5701,"raham":5702,"Ġdirected":5703,"Ġeleven":5704,"Ġperforming":5705,"Ġinhabitants":5706,"25":5707,"Ġtiny":5708,"Ġwilt":5709,"Ġbutter":5710,"ĠGrace":5711,"Sh":5712,"ĠSk":5713,"ĠReddy":5714,"Ġhanging":5715,"Ġbanks":5716,"Ġconnected":5717,"din":5718,"ration":5719,"Ġkinds":5720,"Ġaffection":5721,"Ġevents":5722,"aturday":5723,"Ġyield":5724,"abs":5725,"istic":5726,"Ġglance":5727,"Ġrelief":5728,"Ġclimb":5729,"Ġinquired":5730,"oms":5731,"Ġgrie":5732,"Ġerect":5733,"Ġrabbit":5734,"ummer":5735,"Ġremove":5736,"Ġindepend":5737,"Ġhorror":5738,"Ġfortun":5739,"cer":5740,"draw":5741,"Ġinsp":5742,"ĠBoston":5743,"ĠCal":5744,"ĠNever":5745,"Ġjew":5746,"Ġtells":5747,"IND":5748,"Ġfourth":5749,"Ġsolid":5750,"Ġsavage":5751,"Have":5752,"woman":5753,"Ġwww":5754,"Ġmud":5755,"access":5756,"Ġwisdom":5757,"Char":5758,"mist":5759,"enough":5760,"ĠDay":5761,"ĠOut":5762,"Ġlights":5763,"Ġdestroyed":5764,"Ġfo":5765,"Ġprompt":5766,"Ġleaders":5767,"ĠParis":5768,"Ġtroops":5769,"astic":5770,"ĠEach":5771,"Ġpermitted":5772,"Ġadmir":5773,"yram":5774,"Ġfigures":5775,"necess":5776,"sol":5777,"Ġcult":5778,"ĠSus":5779,"Ġmanaged":5780,"Ġpersonal":5781,"Ġdivided":5782,"Ġeggs":5783,"uke":5784,"Ġtend":5785,"Ġbill":5786,"Ġasking":5787,"Ġjolly":5788,"Ġpractice":5789,"ĠEmperor":5790,"arzan":5791,"ĠVirginia":5792,"Ġmap":5793,"ĠLucy":5794,"umes":5795,"ENSE":5796,"Ġaccompanied":5797,"Ġlonely":5798,"once":5799,"owder":5800,"iments":5801,"Ġreferences":5802,"inding":5803,"ĠOnce":5804,"large":5805,"Ġbol":5806,"Ġ60":5807,"Ab":5808,"Sp":5809,"Ġfol":5810,"Ġcitiz":5811,"Ġstiff":5812,"Ġentertain":5813,"ĠCanada":5814,"Ġris":5815,"text":5816,"Ġgranted":5817,"ĠAndre":5818,"Ġimportance":5819,"sil":5820,"ĠRoosevelt":5821,"ĠVol":5822,"Ġpossibly":5823,"urtle":5824,"Ġnigh":5825,"Ġcarriage":5826,"Ġceremon":5827,"Ġshelter":5828,"ULL":5829,"Ġtar":5830,"rily":5831,"ERS":5832,"uffal":5833,"ĠScrooge":5834,"King":5835,"Le":5836,"ys":5837,"Ġparties":5838,"Ġ21":5839,"Ġsteel":5840,"ROM":5841,"Ġmodern":5842,"girl":5843,"enance":5844,"istory":5845,"ĠLancelot":5846,"oser":5847,"ivity":5848,"Ġcosts":5849,"Ġprisoners":5850,"Ġexpedition":5851,"RS":5852,"Ġaud":5853,"arse":5854,"lebr":5855,"ldom":5856,"Ġthread":5857,"quar":5858,"aughters":5859,"Ġcommitted":5860,"ĠSoon":5861,"Ġcouple":5862,"rels":5863,"Ġfem":5864,"ators":5865,"omed":5866,"Ġemer":5867,"ĠDane":5868,"Ġweapons":5869,"Ġlion":5870,"ĠFore":5871,"lessly":5872,"Ġtowns":5873,"ĠPhiladelphia":5874,"break":5875,"Ġcabin":5876,"orous":5877,"ands":5878,"ĠWas":5879,"arted":5880,"ĠKay":5881,"comfort":5882,"Ġencour":5883,"mo":5884,"Ġpos":5885,"stru":5886,"rock":5887,"ĠCy":5888,"abel":5889,"Ġconscious":5890,"Ġsounded":5891,"Ġafford":5892,"ĠFrank":5893,"fig":5894,"Ġcries":5895,"Ġwaste":5896,"cember":5897,"Ġlessons":5898,"Ġhunter":5899,"Ġobjects":5900,"Ġspect":5901,"Ġabund":5902,"Ġleather":5903,"pless":5904,"Ġbelt":5905,"ĠThough":5906,"inced":5907,"Ġcreating":5908,"hands":5909,"ustomed":5910,"Ġexistence":5911,"Ġgates":5912,"Ġshone":5913,"permission":5914,"Ġdistingu":5915,"boat":5916,"Ġdegree":5917,"Ġchat":5918,"tending":5919,"Ġwishes":5920,"got":5921,"Ġappeal":5922,"Ġcoff":5923,"Ġcrept":5924,"Ġeagerly":5925,"rant":5926,"inently":5927,"including":5928,"Ġpubl":5929,"Ġreck":5930,"ĠSax":5931,"Ġdesert":5932,"Ġgentlemen":5933,"terms":5934,"Ġgoods":5935,"Ġexpressed":5936,"Ġdamages":5937,"Ġmoral":5938,"ux":5939,"thea":5940,"ĠLouis":5941,"Ġaffairs":5942,"Ġpainted":5943,"alties":5944,"Ġoccupied":5945,"itol":5946,"ĠIII":5947,"urning":5948,"Ġhandle":5949,"Ġstring":5950,"Ġfacts":5951,"ĠExcept":5952,"Ġhighest":5953,"Ġassured":5954,"number":5955,"piece":5956,"uster":5957,"Ġexceed":5958,"ributions":5959,"Ġimpat":5960,"Ġseries":5961,"Ġregistered":5962,"Ġdeeply":5963,"Ġdifference":5964,"Ġadmitted":5965,"better":5966,"Ex":5967,"ae":5968,"Ġcree":5969,"imate":5970,"Ġshows":5971,"Ġcanoe":5972,"Ġcompelled":5973,"Ġsurrounded":5974,"Ġpersu":5975,"Ġaffair":5976,"RIB":5977,"Ġfiles":5978,"Ġpuzz":5979,"ĠTex":5980,"riot":5981,"Ġowns":5982,"Ġrequest":5983,"Ġfires":5984,"Ġexempt":5985,"Ġproject":5986,"Ġadop":5987,"Ġrestrict":5988,"proper":5989,"Ġcontinue":5990,"Ġgain":5991,"ĠHad":5992,"Ġroll":5993,"insmore":5994,"Ġruns":5995,"Ġsilk":5996,"Ġweapon":5997,"ĠConfeder":5998,"dated":5999,"Ġwra":6000,"uns":6001,"Ġdisci":6002,"ĠSpanish":6003,"Ġmistake":6004,"Ġwhisper":6005,"Ġmarket":6006,"Ġthoroughly":6007,"Ġsorts":6008,"usual":6009,"Ġworship":6010,"olves":6011,"Ġaltern":6012,"Ġprofess":6013,"Ġprefer":6014,"Ġnatur":6015,"tic":6016,"expl":6017,"Ġattitude":6018,"apping":6019,"passed":6020,"zy":6021,"Ġsank":6022,"Ġcraw":6023,"ĠIng":6024,"ulous":6025,"ungle":6026,"ology":6027,"Tell":6028,"Ġdying":6029,"acious":6030,"aints":6031,"Ġorn":6032,"ĠFeb":6033,"Ġcarpet":6034,"Ġrifle":6035,"Ġrights":6036,"Ġfarmer":6037,"particular":6038,"Ġapproach":6039,"miss":6040,"aine":6041,"hens":6042,"Ġraise":6043,"Mrs":6044,"Ġnaturally":6045,"cond":6046,"Ġspake":6047,"Ġprof":6048,"soon":6049,"Ġtrial":6050,"EMENT":6051,"power":6052,"Ġdign":6053,"Ġkings":6054,"ĠEv":6055,"Ġbecomes":6056,"Ġneighbor":6057,"Old":6058,"Ġwing":6059,"ĠStr":6060,"Ġuntill":6061,"Ġhind":6062,"ĠBRE":6063,"ĠPort":6064,"ĠEle":6065,"Ġgrim":6066,"liament":6067,"ĠThou":6068,"Ġsubst":6069,"kerchief":6070,"ille":6071,"Ġsoil":6072,"inces":6073,"Ġamongst":6074,"collection":6075,"moment":6076,"yle":6077,"Ġmour":6078,"seemed":6079,"Ġflood":6080,"pring":6081,"Ġauthority":6082,"Ġspare":6083,"Ġglory":6084,"Ġdrift":6085,"Ġhastily":6086,"ippi":6087,"freely":6088,"Take":6089,"inal":6090,"Ġpoured":6091,"Ġwash":6092,"ĠPG":6093,"Ġlibrary":6094,"resently":6095,"Ġequally":6096,"Ġemployees":6097,"having":6098,"Ġcousin":6099,"ĠFrog":6100,"venge":6101,"Ġbasket":6102,"hus":6103,"Ġinch":6104,"ifts":6105,"ĠMark":6106,"Ġboots":6107,"Ġsteep":6108,"iggily":6109,"Ġsch":6110,"Ġbatter":6111,"Ġthanks":6112,"Ġapply":6113,"Ġgets":6114,"Ġcopying":6115,"Ġcheeks":6116,"Ġhaste":6117,"Ġimagine":6118,"ĠEBOOK":6119,"Ġpaused":6120,"clamation":6121,"80":6122,"Yet":6123,"Ġyard":6124,"ĠJud":6125,"Ġretreat":6126,"Ġmarched":6127,"pract":6128,"Ġinstance":6129,"Ġreflect":6130,"Ġpolitical":6131,"Ġthousands":6132,"ĠGerald":6133,"ĠEdmund":6134,"IRECT":6135,"ault":6136,"Ġbul":6137,"inger":6138,"Ġschools":6139,"Ġbadly":6140,"ĠBobb":6141,"Ġarranged":6142,"96":6143,"Ġlit":6144,"Ġstraw":6145,"ĠDeer":6146,"Ġwidest":6147,"Ġsolicit":6148,"Ġgift":6149,"Ġarch":6150,"Ġarrest":6151,"ĠGerman":6152,"Elsie":6153,"iants":6154,"aning":6155,"Ġlock":6156,"Ġghost":6157,"ĠAgain":6158,"Ġrush":6159,"Ġshield":6160,"Ġplans":6161,"vention":6162,"appeared":6163,"ucky":6164,"expected":6165,"Ġsmell":6166,"Ġlighted":6167,"Ġreadable":6168,"Ġmoments":6169,"Ġsleeping":6170,"Ġemployed":6171,"vir":6172,"Ġtoss":6173,"anwhile":6174,"Ġhiding":6175,"ĠSection":6176,"ction":6177,"Ġstands":6178,"ĠAbout":6179,"!--":6180,"pres":6181,"Ġfug":6182,"quis":6183,"Ġflame":6184,"ĠEdward":6185,"Ġignor":6186,"Ġrestrictions":6187,"wa":6188,"ete":6189,"Ġrice":6190,"osop":6191,"sued":6192,"Ġwhenever":6193,"ese":6194,"icated":6195,"ĠTell":6196,"Ġascend":6197,"ĠHor":6198,"anta":6199,"Ġpassion":6200,"Ġreceiving":6201,"ORE":6202,"\"--":6203,"ded":6204,"Ġnerv":6205,"Ġrust":6206,"unted":6207,"Ġappointed":6208,"issippi":6209,"Ġendeav":6210,"warf":6211,"public":6212,"ĠOther":6213,"ickly":6214,"Ġglo":6215,"Ġhopes":6216,"Ġspecified":6217,"Ġislands":6218,"].\"":6219,"Ġmult":6220,"Ġrum":6221,"ĠWOR":6222,"high":6223,"Ġscrew":6224,"Ġswall":6225,"AY":6226,"Ġ--":6227,"irmed":6228,"ado":6229,"Ġnotes":6230,"uls":6231,"ules":6232,"ieved":6233,"ĠDAMAG":6234,"Ġknocked":6235,"Ġblows":6236,"Ġoh":6237,"ndered":6238,"Ġfetch":6239,"ĠFULL":6240,"ailing":6241,"IGHT":6242,"ben":6243,"rous":6244,"uit":6245,"ugg":6246,"ĠAlex":6247,"Ġmyster":6248,"ARD":6249,"stitution":6250,"rifice":6251,"ĠWARRANT":6252,"Ġdey":6253,"Ġabide":6254,"ĠUp":6255,"Ġsetting":6256,"Ġcrack":6257,"ĠSpirit":6258,"however":6259,"Ġswiftly":6260,"Ġelder":6261,"subject":6262,"ĠDAMAGES":6263,"cir":6264,"ufact":6265,"ĠIr":6266,"ĠAre":6267,"Ġteam":6268,"Ġelectronically":6269,"Ġtribe":6270,"Ġinnoc":6271,"dark":6272,"ĠSn":6273,"ĠNovember":6274,"Ġbelief":6275,"Ġcrime":6276,"Ġformats":6277,"Ġbottle":6278,"Ġbelonged":6279,"RY":6280,"Se":6281,"wing":6282,"Ġoil":6283,"Ġbehold":6284,"iven":6285,"Ġstuck":6286,"Ġrad":6287,"agger":6288,"ĠĠĠĠĠĠĠĠĠĠ":6289,"Ġpromoting":6290,"ĠComp":6291,"istributing":6292,"Ġtraining":6293,"ĠJanuary":6294,"Plain":6295,"complete":6296,"Foundation":6297,"book":6298,"far":6299,"Ġtum":6300,"cription":6301,"edge":6302,"Ġheed":6303,"ico":6304,"ĠRome":6305,"Ġwhence":6306,"Ġprofit":6307,"active":6308,"Ġrooms":6309,"Ġbreaking":6310,"Ġlieu":6311,"Ġtorn":6312,"RIBUT":6313,"ture":6314,"Ġfitted":6315,"Ġphil":6316,"Ġugly":6317,"Ġshed":6318,"ĠFort":6319,"ĠDIST":6320,"----\"":6321,"Ġtroubles":6322,"Ġaccompany":6323,"itolau":6324,"burg":6325,"ĠLIC":6326,"Ġhanded":6327,"Ġpoison":6328,"harp":6329,"Ġenthus":6330,"Ġconfidence":6331,"ĠSpain":6332,"ĠWARRANTY":6333,"Ġcam":6334,"Ġstairs":6335,"Ġbrush":6336,"Ġreports":6337,"anything":6338,"Ġsubjects":6339,"mal":6340,"umps":6341,"taining":6342,"providing":6343,"ĠLICENSE":6344,"Ġtap":6345,"Ġlover":6346,"Ġgrin":6347,"Ġswung":6348,"Ġbuck":6349,"Ġawoke":6350,"business":6351,"Dear":6352,"Ġash":6353,"abor":6354,"Ġknock":6355,"Ġentity":6356,"coming":6357,"Ġdreams":6358,"istribute":6359,"posted":6360,"ĠVanilla":6361,"ĠTerms":6362,".[":6363,"equ":6364,"Ġfare":6365,"rial":6366,"Ġroyalties":6367,"23":6368,"riar":6369,"ĠWolf":6370,"Ġhighly":6371,"Ġawake":6372,"ĠDonations":6373,"name":6374,"hara":6375,"Ġbay":6376,"Ġnational":6377,"ĠHave":6378,"emon":6379,"ĠKat":6380,"Ġforever":6381,"Ġlocations":6382,"ĠBREACH":6383,"Literary":6384,"WARRANT":6385,"sters":6386,"Ġmonster":6387,"Ġsympathy":6388,"ĠRoyalty":6389,"WARRANTIES":6390,"lay":6391,"yet":6392,"enes":6393,"acles":6394,"Ġrisk":6395,"usk":6396,"Ġemail":6397,"Ġconstit":6398,"Ġwitch":6399,"lor":6400,"ref":6401,"Ġdoub":6402,"Ġven":6403,"Ġexha":6404,"ĠNan":6405,"ruary":6406,"trademark":6407,"volution":6408,"Ġavoid":6409,"Ġcomputers":6410,"yes":6411,"received":6412,"era":6413,"state":6414,"Ġsees":6415,"upid":6416,"Thou":6417,"Ġdamage":6418,"Ġengine":6419,"Ġgazed":6420,"Ġurged":6421,"Ġdisclaimer":6422,"Ġstret":6423,"ĠWil":6424,"ĠWiggily":6425,"Ġcanoes":6426,"Ġexpense":6427,"Ġindign":6428,"copying":6429,"ĠAGREE":6430,"ĠDISTRIBUT":6431,"87":6432,"awn":6433,"tra":6434,"stri":6435,"ĠDal":6436,"ĠDinsmore":6437,"Ġnights":6438,"Ġscarce":6439,"Ġreligious":6440,"Our":6441,"zed":6442,"Ġdeeds":6443,"Ġreturning":6444,"ĠSpec":6445,"Ġmurder":6446,"LIAB":6447,"Ġimmense":6448,"ĠWITH":6449,"Ġrange":6450,"License":6451,"gave":6452,"matter":6453,"ĠBuck":6454,"ĠDel":6455,"Ġapparently":6456,"Ġknee":6457,"Ġcomr":6458,"arrison":6459,"ĠDanes":6460,"rilliant":6461,"Ġrank":6462,"usalem":6463,"Ġforehead":6464,"Ġprophe":6465,"Ġcelebr":6466,"ĠAponibolinayen":6467,"pi":6468,"pat":6469,"ĠSnow":6470,"Ġric":6471,"Ġimper":6472,"common":6473,"ĠIndeed":6474,"Ġlistening":6475,"Am":6476,"done":6477,"Ġwept":6478,"Two":6479,"onel":6480,"Ġren":6481,"Ġsomewhere":6482,"incre":6483,"Ġassistance":6484,"strong":6485,"ĠRoad":6486,"ĠColumbus":6487,"IBILITY":6488,"rat":6489,"Ġsalt":6490,"ĠAh":6491,"Ġneat":6492,"ĠNat":6493,"glass":6494,"Ġprize":6495,"ormous":6496,"Up":6497,"eenth":6498,"making":6499,"town":6500,"hari":6501,"ĠSometimes":6502,"Ġouter":6503,"inese":6504,"ethod":6505,"Ġsnake":6506,"Ġtype":6507,"Lewis":6508,"Ġaunt":6509,"ĠBishop":6510,"appear":6511,"ĠSTART":6512,"hearted":6513,"inent":6514,"olen":6515,"Ġsatisfaction":6516,"Ġexercise":6517,"Peter":6518,"green":6519,"ĠHim":6520,"Ġclub":6521,"Ġperman":6522,"Ġperceived":6523,"ruce":6524,"Ġinvited":6525,"Mar":6526,"hundred":6527,"mod":6528,"Ġwave":6529,"aned":6530,"ĠBO":6531,"feet":6532,"Ġeverywhere":6533,"Ġattacked":6534,"Ġdeparted":6535,"trees":6536,"ĠTarzan":6537,"ardon":6538,"Ġpartly":6539,"fair":6540,"ĠLook":6541,"hamed":6542,"Ġgri":6543,"ĠMac":6544,"agg":6545,"open":6546,"Ġroar":6547,"Ġseeking":6548,"olden":6549,"Ġstrict":6550,"Ġdiscovery":6551,"Ġprayer":6552,"Ġz":6553,"inally":6554,"rev":6555,"ĠWH":6556,"quent":6557,"utions":6558,"Ġtrack":6559,"Ġsummon":6560,"Jack":6561,"ouch":6562,"ĠSal":6563,"ushes":6564,"began":6565,"Ġproport":6566,"ĠDanny":6567,"Ġgovernor":6568,"Ġslightly":6569,"oiselle":6570,"Ġbuffalo":6571,"Ġtempt":6572,"Ġpond":6573,"Ġinsect":6574,"Ġfinal":6575,"ĠDecember":6576,"97":6577,"Ġpool":6578,"ĠAg":6579,"Ġinstinct":6580,"Ġvaluable":6581,"Sm":6582,"Ġge":6583,"amin":6584,"illing":6585,"Ġamuse":6586,"Ġmarks":6587,"Ġtrip":6588,"Ġmilitary":6589,"ĠTravis":6590,"west":6591,"ĠLok":6592,"ĠDec":6593,"Ġlikewise":6594,"Ġsecured":6595,"Ġcrim":6596,"Ġrested":6597,"Ġsteady":6598,"build":6599,"Ġhence":6600,"Ġestablished":6601,"bal":6602,"gone":6603,"Ġdaughters":6604,"echan":6605,"Ġcomposed":6606,"Ġchoice":6607,"Ġcopper":6608,"Ġexperi":6609,"Ġcomfortable":6610,"'.":6611,"cur":6612,"Ġdancing":6613,"Ġthinks":6614,"ĠDaddy":6615,"Ġwholly":6616,"iger":6617,"Ġshade":6618,"derer":6619,"Ġswamp":6620,"ademoiselle":6621,"LD":6622,"wife":6623,"ĠPsmith":6624,"Ġshared":6625,"Ġtroubled":6626,"Ġbeaten":6627,"hun":6628,"ki":6629,"erness":6630,"imm":6631,"ulating":6632,"ĠON":6633,"rub":6634,"Ġ184":6635,"shine":6636,"Ġwalks":6637,"Ġsne":6638,"lee":6639,"Ġshaking":6640,"Ġprim":6641,"Ġassist":6642,")(":6643,"anz":6644,"rive":6645,"Ġsez":6646,"Ġspark":6647,"Ġvanished":6648,"ĠJacob":6649,"ĠFebruary":6650,"Ġess":6651,"Ġhomes":6652,"irds":6653,"ĠSU":6654,"ĠMead":6655,"Ġplun":6656,"Ġshake":6657,"Ġcricket":6658,"Ġpriests":6659,"Ġsignal":6660,"ĠFranc":6661,"Ġdevil":6662,"Ġdisplayed":6663,"ef":6664,"fish":6665,"opping":6666,"win":6667,"Ġscient":6668,"Ġfed":6669,"Ġhoney":6670,"ĠMonsieur":6671,"ĠPho":6672,"ĠWind":6673,"anther":6674,"orting":6675,"ĠStone":6676,"rows":6677,"Ġwaist":6678,"Ġlearning":6679,"Ġideas":6680,"Ġrespons":6681,"Ġliter":6682,"quite":6683,"Ġharb":6684,"Ġtele":6685,"ARK":6686,"Ġdamsel":6687,"Ġrecognized":6688,"Ġnegro":6689,"Thank":6690,"Ad":6691,"ĠBoy":6692,"agement":6693,"Ġnoon":6694,"perhaps":6695,"spread":6696,"Ġtrembling":6697,"Ġhabits":6698,"stra":6699,"verse":6700,"rific":6701,"ĠSher":6702,"Ġbush":6703,"ĠAnthea":6704,"Ġfunny":6705,"love":6706,"Ġcunning":6707,"ĠĠĠĠĠĠĠĠĠĠĠĠĠĠĠĠĠĠ":6708,"ĠUnion":6709,"Ġcorrespond":6710,"icted":6711,"Ġuseless":6712,"ĠAR":6713,"prise":6714,"Ġapproaching":6715,"ICE":6716,"Ġmental":6717,"orter":6718,"asked":6719,"ĠMississippi":6720,"pol":6721,"taking":6722,"Ġape":6723,"Ġox":6724,"haw":6725,"Ġcake":6726,"Ġdanced":6727,"ĠWal":6728,"Ġalter":6729,"Ġsomehow":6730,"Ġflash":6731,"ĠĠĠĠĠĠĠĠĠĠĠĠĠĠĠĠĠ":6732,"Ġreasonable":6733,"Ġmurmured":6734,"Right":6735,"pret":6736,"Ġpier":6737,"ĠHam":6738,"need":6739,"ĠBlue":6740,"Ġutterly":6741,"Fair":6742,"dep":6743,"hill":6744,"Ġded":6745,"asped":6746,"ĠServ":6747,"ĠFROM":6748,".'\"":6749,"57":6750,"PR":6751,"Ġtot":6752,"Ġanch":6753,"Ġseldom":6754,"Ġ32":6755,"ĠBesides":6756,"Ġenergy":6757,"Ġhorrible":6758,"ĠTrot":6759,"ĠREAD":6760,"chers":6761,"Ġsucceed":6762,"ĠDowning":6763,"Ġtin":6764,"ĠMabel":6765,"Ġsocial":6766,"Ġarise":6767,"Ġslip":6768,"Ġglanced":6769,"Ġtribes":6770,"Ġinventor":6771,"loc":6772,"Ġdish":6773,"oop":6774,"ĠLu":6775,"Ġconcluded":6776,"Ġdeed":6777,"Ġsomebody":6778,"Ġchase":6779,"Ġawa":6780,"Ġfrag":6781,"ĠDoctor":6782,"Ġsuccessful":6783,"Ġderived":6784,"Ġcottage":6785,"Ġfirmly":6786,"Ġastonished":6787,"ĠMagic":6788,"Col":6789,"VEN":6790,"ige":6791,"Ġsaddle":6792,"Ġgames":6793,"Ġcutting":6794,"Ġsuffering":6795,"Ġadmit":6796,"eight":6797,"Ġalt":6798,"Ġlegend":6799,"close":6800,"Ġcountenance":6801,"days":6802,"Ġtrap":6803,"Ġconstantly":6804,"point":6805,"ĠCommittee":6806,"VER":6807,"WN":6808,"ĠTw":6809,"teenth":6810,"Ġperf":6811,"fulness":6812,"Ġrefer":6813,"Ġelephant":6814,"Bl":6815,"lau":6816,"past":6817,"erk":6818,"chin":6819,"yramid":6820,"ram":6821,"earth":6822,"Ġjar":6823,"utenant":6824,"Ġdistress":6825,"whole":6826,"Ġrivers":6827,"hole":6828,"Ġdeliver":6829,"ĠNorthern":6830,"Ġhunger":6831,"lest":6832,"Ġ\"_":6833,"Ġpole":6834,"conf":6835,"EST":6836,"Ġrelated":6837,"Ġpolite":6838,"Ġpreserve":6839,"Ġneighbour":6840,"vision":6841,"Ġearlier":6842,"'-":6843,"Or":6844,"Ġhated":6845,"ilty":6846,"Ġabroad":6847,"Ġyoungest":6848,"Ġdelivered":6849,"Ġtransl":6850,"................":6851,"cross":6852,"sea":6853,"Ġseas":6854,"Ġshock":6855,"ĠLike":6856,"onday":6857,"Ġcouncil":6858,"Ġorganized":6859,"Ġextraordinary":6860,"Ġdarling":6861,"UL":6862,"Ġsighed":6863,"acco":6864,"ĠHonor":6865,"elf":6866,"Ġplat":6867,"sole":6868,"Ġobst":6869,"Ġregret":6870,"Ġmasters":6871,"Ġprotection":6872,"Ġduties":6873,"Ġabsolutely":6874,"reck":6875,"Ġdashed":6876,"ria":6877,"ĠAT":6878,"Ġpolice":6879,"Ġreligion":6880,"Ġdepends":6881,"acity":6882,"ĠSaul":6883,"ĠPut":6884,"Ġmyst":6885,"Ġswords":6886,"Ġcloak":6887,"yard":6888,"Ġdried":6889,"Ġpatter":6890,"ĠSaid":6891,"reeze":6892,"Ġclock":6893,"aval":6894,"Ġ1862":6895,"ĠTerran":6896,"Ġtide":6897,"ouched":6898,"Ġbeard":6899,"ĠSalt":6900,"ulted":6901,"above":6902,"weet":6903,"Ġprint":6904,"Ġapple":6905,"Ġemb":6906,"ĠToad":6907,"Ġtriumph":6908,"Ġsixty":6909,"knew":6910,"Ġcattle":6911,"ĠHA":6912,"Ġrude":6913,"Ġviolent":6914,"beautiful":6915,"UD":6916,"iel":6917,"ĠIm":6918,"along":6919,"Ġsticks":6920,"Ġintent":6921,"ĠSpani":6922,"ĠDeath":6923,"Ġcaptured":6924,"American":6925,"PLE":6926,"reason":6927,"ench":6928,"ĠHill":6929,"Ġowned":6930,"Ġterrit":6931,"Ġdragon":6932,"ĠScar":6933,"ĠWhich":6934,"overnment":6935,"Ġviolence":6936,"Ġwedding":6937,"Ġcommercial":6938,"VI":6939,"gs":6940,"Ġjungle":6941,"avy":6942,"Ġwrit":6943,"Ġhelpless":6944,"Ġsacred":6945,"Ġcandle":6946,"Ġtear":6947,"Ġnaked":6948,"lets":6949,"Ġnoted":6950,"ĠHol":6951,"Ġenormous":6952,"phone":6953,"iah":6954,"Ġintention":6955,"Ġplainly":6956,"Ġgrowth":6957,"operation":6958,"ipping":6959,"Ġrom":6960,"hered":6961,"Ġoak":6962,"Ġinform":6963,"Ġinner":6964,"urate":6965,"ĠMajesty":6966,"outside":6967,"icken":6968,"ĠEliz":6969,"OOD":6970,"hapter":6971,"necessary":6972,"Par":6973,"QU":6974,"die":6975,"Ġcher":6976,"irrel":6977,"ĠBal":6978,"ĠBart":6979,"ĠPers":6980,"ĠDun":6981,"Ġgrows":6982,"Ġunfortun":6983,"Ġcheek":6984,"Ġproposed":6985,"Ġ1861":6986,"hronsie":6987,"MP":6988,"ĠRou":6989,"Ġamb":6990,"Ġ33":6991,"Ġuttered":6992,"ealous":6993,"Ġconnection":6994,"Ġadventures":6995,"ĠAponitolau":6996,"Ġcontrary":6997,"Ġmagnific":6998,"ĠJews":6999,"Ġnearest":7000,"ĠChinese":7001,"Ġteaching":7002,"Ġrealized":7003,"Ġillustr":7004,"Ġlocked":7005,"Ġdetermine":7006,"lim":7007,"rep":7008,"itz":7009,"Ġplants":7010,"Ġagent":7011,"endous":7012,"Ġpursued":7013,"steps":7014,"ĠCyril":7015,"icing":7016,"ĠCha":7017,"ĠGaw":7018,"ĠFour":7019,"hire":7020,"Ġbecoming":7021,"ĠInter":7022,"Ġdischar":7023,"Ġreturns":7024,"Clock":7025,"Ġconcerned":7026,"Ġquantity":7027,"Ġgradually":7028,"Ġwuz":7029,"Ġsilly":7030,"Ġrear":7031,"ĠSen":7032,"ĠWall":7033,"Ġconven":7034,"why":7035,"Ġstriking":7036,"Ġconstruct":7037,"Ġnurse":7038,"hon":7039,"near":7040,"Ġwake":7041,"ula":7042,"estic":7043,"ĠRock":7044,"Ġfollowers":7045,"Ġimpression":7046,"Ġembr":7047,"appy":7048,"idding":7049,"ĠCourt":7050,"Produced":7051,"bott":7052,"ĠCor":7053,"asted":7054,"Ġresults":7055,"Ġturns":7056,"Ġcalculated":7057,"Ġbowed":7058,"Ġpause":7059,"oping":7060,"Ġmanage":7061,"Ġroot":7062,"pleasant":7063,"Ġwax":7064,"Ġjudgment":7065,"Ġshadows":7066,"Ġenjoyed":7067,"ĠEuropean":7068,"icine":7069,"stre":7070,"Ġashamed":7071,"ĠMad":7072,"ores":7073,"ighted":7074,"abled":7075,"Ġmaybe":7076,"Ġchose":7077,"Ġ189":7078,"Ġdragged":7079,"Because":7080,"IF":7081,"fa":7082,"table":7083,"var":7084,"Ġhut":7085,"thr":7086,"thren":7087,"ĠPan":7088,"Ġaband":7089,"Ġindicate":7090,"Ġaddressed":7091,"Ġwondering":7092,"Ġrepresented":7093,"ĠScotland":7094,"dro":7095,"Ġtal":7096,"Ġbund":7097,"Ġpace":7098,"Ġlaz":7099,"Ġthither":7100,"ĠTemple":7101,"ecting":7102,"eled":7103,"atching":7104,"Ġconsent":7105,"Ġguests":7106,"Ġcollected":7107,"possess":7108,"reland":7109,"anor":7110,"ache":7111,"ountain":7112,"Ġangel":7113,"Ġsuperior":7114,"TLE":7115,"case":7116,"Ġbath":7117,"ĠMouse":7118,"ĠBurg":7119,"itty":7120,"Ġfeatures":7121,"dead":7122,"INC":7123,"ĠBilly":7124,"ĠGovernor":7125,"Ġcreek":7126,"otes":7127,"Ġwashed":7128,"oof":7129,"ĠCab":7130,"Ġaccustomed":7131,"ogs":7132,"Ġ40":7133,"Ġclasses":7134,"ĠIslands":7135,"jud":7136,"lad":7137,"Ġretired":7138,"Ġhoriz":7139,"Ġexamined":7140,"Ġleaned":7141,"Ġdesperate":7142,"50":7143,"Sc":7144,"cked":7145,"mis":7146,"Ġnarr":7147,"Ġbeach":7148,"Ġthirst":7149,"ĠAng":7150,"ĠHaw":7151,"ĠCa":7152,"ĠCast":7153,"Ġsheet":7154,"hips":7155,"Ġloving":7156,"Ġvolume":7157,"Ġdevoted":7158,"Ġfamilies":7159,"edy":7160,"ionn":7161,"ĠTake":7162,"irby":7163,"Ġstyle":7164,"Ġstolen":7165,"Ġflour":7166,"ĠAshe":7167,"bridge":7168,"Ġavailable":7169,"ĠEgyptian":7170,"Ġannounced":7171,"Ġblessed":7172,"Ġfolks":7173,"ere":7174,"Ġsen":7175,"ayley":7176,"Ġdisk":7177,"Ġchain":7178,"Ġdriving":7179,"Ġcrowded":7180,"Ġcuriosity":7181,"human":7182,"ĠAfrica":7183,"Ġproc":7184,"Ġglorious":7185,"cript":7186,"Ġcentre":7187,"Ġmiserable":7188,"ynasty":7189,"Ġseparate":7190,"ointment":7191,"considerable":7192,"Ġrescue":7193,"AK":7194,"Ġcock":7195,"ĠSol":7196,"ĠHaving":7197,"Ġcounty":7198,"ĠTommy":7199,"Ġnecessity":7200,"ĠNothing":7201,"Ġabsence":7202,"Ġmissed":7203,"ĠHarry":7204,"satisf":7205,"ĠWinona":7206,"Ġnervous":7207,"Ġpermanent":7208,"Fig":7209,"bol":7210,"daughter":7211,"grow":7212,"anks":7213,"Ġhed":7214,"ĠBig":7215,"Ġqual":7216,"behind":7217,"Only":7218,"Ġcontained":7219,"twenty":7220,"Ġventure":7221,"PT":7222,"fellow":7223,"mat":7224,"Ġtext":7225,"Ġscience":7226,"Ġhay":7227,"Ġbeheld":7228,"Ġstated":7229,"Ġstupid":7230,"ĠMoses":7231,"ĠCorn":7232,"olved":7233,"ĠEs":7234,"Ġremind":7235,"Ġsurre":7236,"Ġrecovered":7237,"OUND":7238,"Ġtube":7239,"Ġinstrument":7240,"Contributed":7241,"vious":7242,"ayed":7243,"angle":7244,"ucked":7245,"letter":7246,"Ġfishing":7247,"Ġinterrupted":7248,"ĠWoman":7249,"asts":7250,"Ġspin":7251,"Ġstrangers":7252,"rewyer":7253,"Ġhousehold":7254,"Ġwinds":7255,"Ġinfant":7256,"Ġanxiety":7257,"Ġpurchased":7258,"Ed":7259,"Ġfears":7260,"Ġdoth":7261,"ĠRail":7262,"Ġpointing":7263,"Ġdirections":7264,"coat":7265,"Ġextremely":7266,"ĠJerusalem":7267,"best":7268,"ENCE":7269,"ĠAnn":7270,"Ġheavily":7271,"Ġwarrior":7272,"real":7273,"ĠIll":7274,"Ġrat":7275,"Ġmanners":7276,"Ġarticle":7277,"hibition":7278,"fles":7279,"Ġod":7280,"Ġbrilliant":7281,"idity":7282,"Ġforces":7283,"ĠSaturday":7284,"ĠHel":7285,"Ġsob":7286,"Ġunhappy":7287,"Ġrefuse":7288,"Ġdelicate":7289,"Ġ64":7290,"Ġmurderer":7291,"Ġcounsel":7292,"Ġcitizens":7293,"cing":7294,"fre":7295,"utive":7296,"ĠPat":7297,"ĠĠĠĠĠĠĠĠĠĠĠĠĠĠĠĠĠĠĠĠ":7298,"Ġperil":7299,"ounce":7300,"Ġobserve":7301,"Most":7302,"],":7303,"Ġretain":7304,"ĠAli":7305,"Ġfever":7306,"Ġcloser":7307,"Ġoffers":7308,"Ġcritical":7309,"Ġsuspic":7310,"written":7311,"ĠIrish":7312,"ĠPhoen":7313,"crow":7314,"pit":7315,"Ġsou":7316,"Ġfain":7317,"oration":7318,"Ġgrain":7319,"keeping":7320,"Ġpunishment":7321,"----------------":7322,"Yea":7323,"lord":7324,"rain":7325,"Ġack":7326,"Ġlap":7327,"ĠDuring":7328,"Ġplates":7329,"ccord":7330,"Ġwrath":7331,"Ġconfirmed":7332,"Ġimagination":7333,"Ġpursuit":7334,"Ġgathering":7335,"Ġmamma":7336,"26":7337,"ĠSince":7338,"Ġprospect":7339,"Ġtrace":7340,"spec":7341,"Ġdestruction":7342,"Before":7343,"Arch":7344,"ĠFarmer":7345,"Ġphilosop":7346,"24":7347,"box":7348,"sa":7349,"Ġmock":7350,"ential":7351,"irie":7352,"Ġstole":7353,"ĠCam":7354,"Ġcomment":7355,"Ġbrid":7356,"icking":7357,"ruly":7358,"strous":7359,"Ġdemon":7360,"Ġcapture":7361,"sper":7362,"Ġx":7363,"itic":7364,"around":7365,"Ġstaring":7366,"ĠMason":7367,"Ġimage":7368,"Ġ187":7369,"ensed":7370,"ĠAsia":7371,"Ġconfusion":7372,"cape":7373,"Ġutmost":7374,"ĠPeople":7375,"ĠMexican":7376,"Ġlift":7377,"ĠTown":7378,"ala":7379,"ĠPol":7380,"plain":7381,"Ġthence":7382,"const":7383,"success":7384,"natural":7385,"Ġconsequence":7386,"Ġacknow":7387,"En":7388,"bably":7389,"asper":7390,"several":7391,"thee":7392,"ĠBert":7393,"ĠPenn":7394,"Ġrobe":7395,"Ġthrowing":7396,"Ġ183":7397,"grace":7398,"Ġproperly":7399,"Ġneighbors":7400,"OH":7401,"year":7402,"ĠSch":7403,"indeed":7404,"Ġmanufact":7405,"Ġlightly":7406,"attles":7407,"Ġexcuse":7408,"Ġowed":7409,"wed":7410,"Ġpaint":7411,"Ġhastened":7412,"Ġcapable":7413,"Ġquarrel":7414,"Ġpublished":7415,"vals":7416,"Ġblade":7417,"Ġhorrid":7418,"Ġapplied":7419,"Ġdevelopment":7420,"ĠAlexander":7421,"Ne":7422,"ieves":7423,"Ġpassengers":7424,"Ġpresents":7425,"Ġedition":7426,"trans":7427,"Ġhistor":7428,"Ġmixed":7429,"Ġwolves":7430,"Ġber":7431,"Ġduck":7432,"ĠSE":7433,"ĠCould":7434,"Professor":7435,"rical":7436,"wit":7437,"Ġweeping":7438,"geon":7439,"osal":7440,"ension":7441,"ĠYoung":7442,"Ġpurple":7443,"Ġinsisted":7444,"Ġconvinced":7445,"Brit":7446,"dest":7447,"rather":7448,"Ġheels":7449,"ĠSent":7450,"ilities":7451,"odore":7452,"Ġhandkerchief":7453,"Ġscorn":7454,"Ġlimbs":7455,"Ġdescription":7456,"ĠRussian":7457,"Ġassembled":7458,"ĠBobbie":7459,"GE":7460,"bene":7461,"position":7462,"Ġbars":7463,"atin":7464,"seven":7465,"rah":7466,"Ġ(\"":7467,"ĠStreet":7468,"Ġcompar":7469,"Ġregion":7470,"ĠAlan":7471,"Ġfearful":7472,"Ġarmour":7473,"mediately":7474,"ĠCarol":7475,"Ġveget":7476,"haraoh":7477,"cover":7478,"tts":7479,"Ġtore":7480,"othes":7481,"Ġbears":7482,"Ġjob":7483,"returned":7484,"bye":7485,"Ġacts":7486,"Ġfinish":7487,"Ġinterests":7488,"Ġgaze":7489,"Ġwandered":7490,"IX":7491,"gentle":7492,"Ġpir":7493,"Ġhosp":7494,"Ġeagle":7495,"achuse":7496,"Ġsmart":7497,"Ġ36":7498,"letab":7499,"Ġrocky":7500,"Ġclothing":7501,"keeper":7502,"ĠPepper":7503,"Ġhalted":7504,"achusetts":7505,"El":7506,"Phil":7507,"hab":7508,"Ġmood":7509,"antern":7510,"ĠAss":7511,"ĠHIS":7512,"akened":7513,"NDER":7514,"conscious":7515,"Ġpractical":7516,"Ġtypes":7517,"Ġtitle":7518,"Ġwestern":7519,"Ġga":7520,"icip":7521,"ĠCop":7522,"ags":7523,"ĠWater":7524,"Ġalike":7525,"ĠEND":7526,"Ġclay":7527,"Ġpasses":7528,"oger":7529,"Ġsongs":7530,"letabille":7531,"sn":7532,"sun":7533,"Ġtomb":7534,"whom":7535,"Ġlightning":7536,"Ġcolony":7537,"Ġtaxes":7538,"Ġmidnight":7539,"Ġcreation":7540,"distance":7541,"list":7542,"since":7543,"zing":7544,"hast":7545,"utation":7546,"Ġjack":7547,"angerson":7548,"ĠVer":7549,"Ġstrongly":7550,"Ġinval":7551,"ĠCanoes":7552,"ĠCountry":7553,"Great":7554,"ĠGreg":7555,"Ġbrow":7556,"alking":7557,"Ġreadily":7558,"Ġinquir":7559,"Ġaccomplished":7560,"ĠLoki":7561,"27":7562,"tri":7563,"ĠApp":7564,"ĠHu":7565,"ĠHart":7566,"Ġguest":7567,"Ġstronger":7568,"Ġflee":7569,"English":7570,"28":7571,"given":7572,"isl":7573,"Ġfaster":7574,"lla":7575,"lying":7576,"alf":7577,"ĠSy":7578,"ĠDIS":7579,"ĠJon":7580,"angled":7581,"Ġcolors":7582,"Ġburnt":7583,"Ġattempted":7584,"Ġdeparture":7585,"https":7586,"wonder":7587,"Ġing":7588,"iture":7589,"Ġcu":7590,"ĠHome":7591,"ĠBro":7592,"Ġrolling":7593,"obody":7594,"Ġlargest":7595,"Ġvisible":7596,"ography":7597,"Ġmagnet":7598,"Ġestablish":7599,"Ġimprove":7600,"Ġwrapped":7601,"Ġissue":7602,"berry":7603,"Ġcompass":7604,"Ġdetails":7605,"ĠSigurd":7606,"Ġsteadily":7607,"poses":7608,"Ġpink":7609,"ĠDirect":7610,"Ġtrunk":7611,"Ġliqu":7612,"forward":7613,"Ġflow":7614,"Ġsurround":7615,"Ġpropriet":7616,"Ġmysterious":7617,"call":7618,"Ġoath":7619,"anting":7620,"clus":7621,"Ġperfor":7622,"Ġgladly":7623,"Christ":7624,"Ġmeadow":7625,"Ġfemale":7626,"ĠService":7627,"ĠSpaniards":7628,"gener":7629,"zes":7630,"Ġgoose":7631,"brother":7632,"Ġsunshine":7633,"Ġintense":7634,"Ġmessenger":7635,"Ġpraise":7636,"Ġinclined":7637,"Ġappreci":7638,"40":7639,"Ġwives":7640,"Ġmild":7641,"ana":7642,"ioned":7643,"Ġasser":7644,"ĠSlavery":7645,"Ġselect":7646,"ĠPhronsie":7647,"Ġdeemed":7648,"Ġflames":7649,"Ġprey":7650,"Ġinterview":7651,"atively":7652,"Ġprayers":7653,"oked":7654,"Ġtyr":7655,"ĠoClock":7656,"Ġphot":7657,"ĠIS":7658,"ĠHans":7659,"ulse":7660,"oped":7661,"ĠDave":7662,"Ġages":7663,"Ġwrought":7664,"Ġguilty":7665,"Ġfury":7666,"Ġcenturies":7667,"evening":7668,"Ġseparated":7669,"uppose":7670,"bury":7671,"ĠIreland":7672,"across":7673,"ĠCame":7674,"ĠĠĠĠĠĠĠĠĠĠĠĠ":7675,"Ġvague":7676,"ĠLhari":7677,"Ġjealous":7678,"Ġclaws":7679,"Ġcalls":7680,"Ġlanding":7681,"inson":7682,"Ġgrounds":7683,"Ġacquaint":7684,"Ġstirred":7685,"friends":7686,"Ġfanc":7687,"utter":7688,"ĠSix":7689,"Ġshouldn":7690,"Ġfriendship":7691,"headed":7692,"Ġcorpor":7693,"Ġstatement":7694,"Ġsacrifice":7695,"opportun":7696,"hour":7697,"Ġtones":7698,"enned":7699,"asions":7700,"omin":7701,"alog":7702,"Ġstored":7703,"Ġupright":7704,"Ġconclusion":7705,"ĠStep":7706,"axim":7707,"Ġshortly":7708,"villa":7709,"29":7710,"Again":7711,"creat":7712,"Ġcra":7713,"ifted":7714,"arded":7715,"oding":7716,"Ġunusual":7717,"Ġbetray":7718,"Ġchuck":7719,"Ġswam":7720,"Ġrepro":7721,"fects":7722,"Ġappearing":7723,"ALL":7724,"Ġpitch":7725,"Ġhammer":7726,"Mother":7727,"Many":7728,"Ġholid":7729,"Ġbeating":7730,"amo":7731,"Ġsport":7732,"Ġcharges":7733,"Ġvision":7734,"Ġmovements":7735,"Ġbands":7736,"Ġheroes":7737,"charge":7738,"second":7739,"ĠEarth":7740,"Give":7741,"aac":7742,"bear":7743,"fight":7744,"fav":7745,"houses":7746,"Ġ:":7747,"Ġwretched":7748,"Ġbos":7749,"Ġma":7750,"Ġmajor":7751,"Ġrev":7752,"ooped":7753,"ĠPet":7754,"rug":7755,"itional":7756,"Ġneedle":7757,"ugged":7758,"Ġloaded":7759,"Ġstartled":7760,"Ġcurtain":7761,"arrin":7762,"Ġruin":7763,"ĠColumbia":7764,"Ġoft":7765,"Ġming":7766,"Ġdug":7767,"Ġpowder":7768,"Ġuneas":7769,"Ġdownward":7770,"Ġchin":7771,"iasm":7772,"followed":7773,"ennedy":7774,"method":7775,"Ġbite":7776,"itated":7777,"Ġconfl":7778,"closed":7779,"Ġdesk":7780,"iano":7781,"fortune":7782,"ĠClark":7783,"Ġsource":7784,"New":7785,"fr":7786,"ĠAthen":7787,"iller":7788,"Ġseed":7789,"Ġexists":7790,"Ġresistance":7791,"remain":7792,"Ġastonishment":7793,"ĠForest":7794,"RAD":7795,"ele":7796,"fold":7797,"llis":7798,"Ġpile":7799,"Ġrenew":7800,"ĠBoth":7801,"aging":7802,"inder":7803,"Ġclad":7804,"Ġsomeone":7805,"Ġinstit":7806,"Ġcoal":7807,"Ġnorthern":7808,"Ġbrethren":7809,"Ġquarters":7810,"Father":7811,"bird":7812,"urther":7813,"Ġours":7814,"Ġseconds":7815,"Ġconditions":7816,"Ġcultiv":7817,"!)":7818,"OD":7819,"jour":7820,"Ġfame":7821,"Ġpan":7822,"thousand":7823,"emn":7824,"Ġsteal":7825,"Ġraft":7826,"ĠSamuel":7827,"Ġinnocent":7828,"Ġborrow":7829,"omb":7830,"Ġecho":7831,"ĠMa":7832,"arts":7833,"ĠKnight":7834,"Ġdecision":7835,"Ġdrunk":7836,"Ġgrandfather":7837,"Ġhorns":7838,"ATIONS":7839,"Captain":7840,"hope":7841,"tem":7842,"information":7843,"Ġwaved":7844,"Ġcared":7845,"ĠIvan":7846,"Ġreign":7847,"Ġattended":7848,"Ġshrie":7849,"ĠFe":7850,"Ġplague":7851,"ĠJul":7852,"udder":7853,"Ġovercome":7854,"orns":7855,"Ġscra":7856,"Ġfinan":7857,"Ġviews":7858,"Ġmistaken":7859,"Ġborne":7860,"Ġthreatened":7861,"Ġaxe":7862,"tle":7863,"vy":7864,"Ġfiew":7865,"ĠBible":7866,"ĠNap":7867,"deep":7868,"iana":7869,"Ġimpress":7870,"ĠTherefore":7871,"ĠJohnny":7872,"Ġproduction":7873,"Ġnecessarily":7874,"ĠMountains":7875,"illings":7876,"ifully":7877,"umper":7878,"Ġpreced":7879,"Ġboot":7880,"Ġextrem":7881,"Ġviewed":7882,"Ġshouting":7883,"regular":7884,"vania":7885,"Ġceremony":7886,"irs":7887,"ĠMus":7888,"Ġextended":7889,"ĠVill":7890,"exper":7891,"Those":7892,"offic":7893,"Lord":7894,"Rob":7895,"TON":7896,"ease":7897,"pin":7898,"sim":7899,"nded":7900,"itter":7901,"ĠBuffal":7902,"Ġrod":7903,"Ġskins":7904,"oleon":7905,"throughout":7906,"different":7907,"Ġintelligent":7908,"Ġpattern":7909,"olate":7910,"umin":7911,"Ġrecover":7912,"Ġload":7913,"Ġstarting":7914,"ĠGray":7915,"Ġencamped":7916,"Car":7917,"Ġ----":7918,"Ġsack":7919,"Ġlos":7920,"ĠWhe":7921,"respect":7922,"ryn":7923,"dev":7924,"Ġairship":7925,"ĠAdd":7926,"mpire":7927,"Nothing":7928,"everything":7929,"Ġannoy":7930,"Indeed":7931,"Ġdefeated":7932,"ĠSimon":7933,"NOT":7934,"haer":7935,"Ġtomorrow":7936,"Ġpardon":7937,"abb":7938,"opes":7939,"Ġjun":7940,"Ġfinds":7941,"ĠAmericans":7942,"Ġdignity":7943,"Ross":7944,"rot":7945,"eral":7946,"Ġstor":7947,"herself":7948,"Ġimposed":7949,"ĠShort":7950,"syl":7951,"Ġwandering":7952,"Ġeldest":7953,"ĠMartha":7954,"ĠGreeks":7955,"\",":7956,"sal":7957,"ĠShall":7958,"ĠBet":7959,"ĠPanther":7960,"Ġrav":7961,"ĠFull":7962,"ĠNight":7963,"ĠOdin":7964,"Ġbeloved":7965,"otton":7966,"Ġrestored":7967,"ĠAnother":7968,"Ġpalm":7969,"Ġcompleted":7970,"Ġexamination":7971,"chance":7972,"Ġerrors":7973,"ĠRepublic":7974,"Even":7975,"LES":7976,"hur":7977,"eding":7978,"Ġ38":7979,"Ġbarn":7980,"Ġbuildings":7981,"Ġexamine":7982,"ĠFrancis":7983,"vald":7984,"ougl":7985,"Ġbeads":7986,"Ġforbid":7987,"anded":7988,"ques":7989,"ĠLight":7990,"Ġwriter":7991,"Ġexcess":7992,"Ġobeyed":7993,"ĠOzma":7994,"Ġpuzzled":7995,"ĠPortug":7996,"page":7997,"Ġtoes":7998,"Ġhaw":7999,"aders":8000,"withstanding":8001,"Ġdrowned":8002,"Ġbigger":8003,"therefore":8004,"ĠMelville":8005,"mark":8006,"poor":8007,"Ġaver":8008,"Ġcong":8009,"Ġmechan":8010,"Ġfork":8011,"ĠBUT":8012,"neighb":8013,"Ġbenefit":8014,"Ġdrinking":8015,"Ġloudly":8016,"Ġcolonies":8017,"ouglas":8018,"ique":8019,"Ġpush":8020,"ĠPublic":8021,"Ġherd":8022,"ĠRich":8023,"Ġflies":8024,"perform":8025,"ultan":8026,"Ġhoping":8027,"became":8028,"Ġkilling":8029,"Ġsadly":8030,"effort":8031,"broken":8032,"PH":8033,"Que":8034,"folk":8035,"mus":8036,"Ġped":8037,"Ġreasons":8038,"ĠBook":8039,"ĠPage":8040,"ĠCivil":8041,"resses":8042,"Ġsnapped":8043,"Ġeffects":8044,"ĠFairy":8045,"OHN":8046,"sylvania":8047,"Book":8048,"sleep":8049,"tail":8050,"Ġmob":8051,"Ġbeings":8052,"sequently":8053,"ĠSar":8054,"ĠFionn":8055,"ĠDrewyer":8056,"Ġmarve":8057,"ucks":8058,"Ġprayed":8059,"DE":8060,"Ġtip":8061,"harm":8062,"onsense":8063,"ĠSheen":8064,"Ġ35":8065,"ĠUnless":8066,"Ġintroduced":8067,"Ġcorrid":8068,"Ġruler":8069,"import":8070,"Ġgazing":8071,"Ġsavages":8072,"Ġrubbed":8073,"miral":8074,"RAP":8075,"few":8076,"Ġbone":8077,"itives":8078,"ĠLife":8079,"Ġconvey":8080,"Ġability":8081,"Ġcontro":8082,"conom":8083,"Ġwilderness":8084,"Ġroads":8085,"zevir":8086,"Ġdefinite":8087,"Ġexception":8088,"Ġdamaged":8089,"istributed":8090,"ĠTitanic":8091,"lantic":8092,"voice":8093,"Ġcows":8094,"arks":8095,"leton":8096,"Ġgifts":8097,"ribly":8098,"ĠBruce":8099,"eman":8100,"igs":8101,"ĠJones":8102,"neath":8103,"Ġchamp":8104,"Ġ190":8105,"believe":8106,"Ġincrease":8107,"Ġeducational":8108,"ĠBenj":8109,"property":8110,"ĠPhoenix":8111,"pite":8112,"Ġbond":8113,"Ġfrog":8114,"Ġmouse":8115,"ĠCow":8116,"ulate":8117,"ĠNa":8118,"Ġrobes":8119,"orders":8120,"Ġpron":8121,"within":8122,"Ġimpr":8123,"short":8124,"Ġreplace":8125,"prod":8126,"Ġvirtue":8127,"UM":8128,"sure":8129,"Ġsway":8130,"Ġgross":8131,"Ġwearing":8132,"Ġlend":8133,"Ġsche":8134,"Ġbeggar":8135,"Ġguards":8136,"Ġinvest":8137,"Ġmisery":8138,"Ġstroke":8139,"rified":8140,"Ġdescended":8141,"Pe":8142,"slavery":8143,"reached":8144,"ĠĠĠĠĠĠĠĠĠĠĠĠĠ":8145,"ĠLau":8146,"ĠEst":8147,"ressing":8148,"Ġlads":8149,"Ġbowl":8150,"Ġwidow":8151,"Ġaudience":8152,"rd":8153,"Ġturtle":8154,"itud":8155,"Ġlic":8156,"ĠBY":8157,"ĠBudd":8158,"individual":8159,"Ġspell":8160,"Ġtwisted":8161,"class":8162,"next":8163,"Ġvoid":8164,"Ġinclude":8165,"ĠAbraham":8166,"Ġidle":8167,"Ġsurvive":8168,"Ġexchange":8169,"Ġterritory":8170,"Such":8171,"Ġtie":8172,"Ġdaz":8173,"Ġintend":8174,"Ġlately":8175,"ifies":8176,"Ġconcept":8177,"akers":8178,"ĠHead":8179,"Ġblame":8180,"Ġchanges":8181,"Ġdeeper":8182,"Ġarrive":8183,"ĠRevolution":8184,"ĠAmong":8185,"AND":8186,"Mike":8187,"till":8188,"words":8189,"ĠPri":8190,"ĠGar":8191,"Ġdoct":8192,"Ġ100":8193,"odes":8194,"phr":8195,"exc":8196,"Ġwarned":8197,"Ġsubs":8198,"onym":8199,"Ġrobber":8200,"Ġdistinguished":8201,"gage":8202,"ĠSpe":8203,"ĠPharaoh":8204,"Ġaren":8205,"ending":8206,"Ġ31":8207,"Ġdoorway":8208,"Ġbrook":8209,"Ġinvis":8210,"Ġcovering":8211,"Ġacquainted":8212,"Ġcoward":8213,"Ġdisturbed":8214,"kyn":8215,"ednes":8216,"icient":8217,"idly":8218,"Ġrendered":8219,"raising":8220,"Ġkne":8221,"blood":8222,"Ġchim":8223,"death":8224,"ĠSociety":8225,"Ġservices":8226,"Ġsyn":8227,"Ġmischief":8228,"Ġdiameter":8229,"\";":8230,"SON":8231,"burn":8232,"acific":8233,"Ġweep":8234,"ĠPart":8235,"Ġmeas":8236,"Ġforming":8237,"Ġcolumn":8238,"Ġconfirm":8239,"Ġstudied":8240,"Ġsharply":8241,"Ġfrost":8242,"Ralph":8243,"ĠBay":8244,"Ġdost":8245,"Ġflashed":8246,"Ġgoodness":8247,"Ġrefuge":8248,"Ġhumble":8249,"ĠNotting":8250,"ĠMexico":8251,"NESS":8252,"ĠMost":8253,"ĠCayley":8254,"rykyn":8255,"Ġbegins":8256,"ertainly":8257,"Ġparall":8258,"party":8259,"Ġchiefly":8260,"Another":8261,",-":8262,"VID":8263,"bad":8264,"eat":8265,"pir":8266,"sold":8267,"uish":8268,"Ġfulf":8269,"ĠIV":8270,"ĠSan":8271,"Ġissued":8272,"ĠMoon":8273,"ĠChina":8274,"Ġresting":8275,"Ġdeveloped":8276,"continued":8277,"Ġproportion":8278,"dra":8279,"killed":8280,"welt":8281,"Ġmaxim":8282,"ora":8283,"Ġwhip":8284,"eches":8285,"Ġshepher":8286,"ĠOwn":8287,"Ġthereof":8288,"Ġcannon":8289,"Ġacted":8290,"Ġlaying":8291,"ĠTravilla":8292,"Ġcheerful":8293,"Ġmuttered":8294,"Ġschol":8295,"Ġmagnificent":8296,"ednesday":8297,");":8298,"Having":8299,"live":8300,"pic":8301,"hem":8302,"Ġbon":8303,"Ġunion":8304,"Ġmarble":8305,"myself":8306,"Ġcharm":8307,"Ġdecide":8308,"Ġslender":8309,"Ġdoubtless":8310,"Ġearnestly":8311,"Ġconceal":8312,"ĠUnderground":8313,"ero":8314,"Ġseam":8315,"odd":8316,"Ġclam":8317,"Ġeveryone":8318,"ggy":8319,"Ġmonstrous":8320,"cribed":8321,"ĠĠĠĠĠĠĠĠĠĠĠĠĠĠĠĠĠĠĠĠĠĠĠĠĠ":8322,"Ġstrip":8323,"Ġvillages":8324,"Ġstatements":8325,"Ġinstructions":8326,"ĠKaty":8327,"Ġfinancial":8328,"CL":8329,"IAL":8330,"VII":8331,"gt":8332,"Ġast":8333,"ilst":8334,"Ġfounded":8335,"Ġedges":8336,"Ġmillion":8337,"Ġsufficiently":8338,"Ġpupils":8339,"ran":8340,"Ġvel":8341,"Ġfow":8342,"Ġtoler":8343,"Ġdwarf":8344,"Ġlat":8345,"Ġthir":8346,"Ġyonder":8347,"ĠCur":8348,"Ġrushing":8349,"agues":8350,"ĠFields":8351,"oyote":8352,"Ġwherever":8353,"iped":8354,"except":8355,"Ġloves":8356,"ternational":8357,"ettle":8358,"ĠParliament":8359,"21":8360,"Dr":8361,"felt":8362,"times":8363,"Ġbreeze":8364,"Ġmal":8365,"sett":8366,"Ġyo":8367,"already":8368,"ĠMine":8369,"Ġtrump":8370,"Ġcoach":8371,"Soon":8372,"Ġladder":8373,"compan":8374,"LIG":8375,"ĠCape":8376,"Ġfloating":8377,"squ":8378,"Ġsection":8379,"Ġthief":8380,"Ġnewsp":8381,"Ġemotion":8382,"Ġburden":8383,"Ġdelightful":8384,"Ġgallery":8385,"Ġscreamed":8386,"Ġhesitated":8387,"Ġcomrades":8388,"Ġplatform":8389,"34":8390,"Ro":8391,"rage":8392,"sight":8393,"Ġbough":8394,"Ġaspect":8395,"Ġstopping":8396,"ĠMademoiselle":8397,"ĠDutch":8398,"apa":8399,"Ġunexpected":8400,"Ġintrod":8401,"Ġinterior":8402,"Ġincludes":8403,"Ġdreamed":8404,"Ġmissing":8405,"Ġseventy":8406,"Ġdeserted":8407,"ĠMassachusetts":8408,"ELL":8409,"Ned":8410,"horses":8411,"mans":8412,"person":8413,"Ġfence":8414,"Ġcy":8415,"Ġmorn":8416,"Ġtools":8417,"omach":8418,"Ġashes":8419,"ĠDom":8420,"assistance":8421,"Ġresist":8422,"Ġ37":8423,"Ġhopeless":8424,"Ġunderstanding":8425,"Ġmodified":8426,"protect":8427,"Ġsouls":8428,"gre":8429,"Ġpisto":8430,"Ġlux":8431,"Ġgap":8432,"Ġwhirl":8433,"ĠBhaer":8434,"ĠWould":8435,"Ġunivers":8436,"ĠIsaac":8437,"Ġcauses":8438,"Ġaccepting":8439,"Ġbitterly":8440,"ĠChildren":8441,"ĠWORK":8442,"circ":8443,"money":8444,"stud":8445,"ĠTree":8446,"ĠPapers":8447,"Ġvac":8448,"ĠUpon":8449,"Ġexposed":8450,"Ġspecific":8451,"Ġsupported":8452,"Ġeighteen":8453,"Ġprairie":8454,"Ġfurnished":8455,"Ġenthusiasm":8456,"Ġplunged":8457,"Ġneighbourhood":8458,"ĠDISC":8459,",[":8460,"race":8461,"sound":8462,"ica":8463,"ĠTar":8464,"ĠLaw":8465,"ĠDarrin":8466,"Ġabrupt":8467,"Ġtwink":8468,"ogue":8469,"Ġactual":8470,"Ġcleared":8471,"clear":8472,"Ġsunset":8473,"Three":8474,"Ġlocal":8475,"Ġbelonging":8476,"Ġvictim":8477,"IDENT":8478,"William":8479,"ĠEBook":8480,"ĠCONT":8481,"Chapter":8482,"cest":8483,"pse":8484,"Ġfisher":8485,"ĠMil":8486,"ĠCoun":8487,"Ġalarmed":8488,"ĠOTHER":8489,"Ġpeep":8490,"Ġreader":8491,"Ġrelatives":8492,"ĠDragon":8493,"Ġindicating":8494,"diffic":8495,"AIN":8496,"city":8497,"ĠHoly":8498,"ĠPAR":8499,"Ġwillow":8500,"Ġflock":8501,"Ġrival":8502,"Ġexpend":8503,"Ġmarvel":8504,"Ġsketch":8505,"Ġrecall":8506,"ĠScott":8507,"Ġdefence":8508,"Ġfifth":8509,"Ġpatient":8510,"Ġaddresses":8511,"ĠBaba":8512,"banks":8513,"Ġadopted":8514,"Ġexhausted":8515,"nam":8516,"parent":8517,"Ġtheory":8518,"anag":8519,"--'":8520,"Ġshoe":8521,"Ġnovel":8522,"Ġdisgu":8523,"def":8524,"Ġheartily":8525,"Ġindirect":8526,"ĠAnna":8527,"Ġboldly":8528,"Ġfet":8529,"ĠGre":8530,"ĠGive":8531,"Ġworry":8532,"merston":8533,"Ġpurposes":8534,"ĠNoah":8535,"ILD":8536,"prep":8537,"Ġconcern":8538,"Ġpatience":8539,"Ġfailure":8540,"iki":8541,"Ġfavorite":8542,"Ġidentify":8543,"Ġbosom":8544,"onymous":8545,"nel":8546,"inth":8547,"hair":8548,"Ġpuff":8549,"immer":8550,"Ġspears":8551,"Ġunlike":8552,"Ġbloss":8553,"eyed":8554,"Ġmonarch":8555,"Ġbeds":8556,"scar":8557,"IONS":8558,"Ġaccordingly":8559,"uddy":8560,"Ġdisappointed":8561,"Ġprinciple":8562,"Ġheavens":8563,"Ġdifficulties":8564,"comfortable":8565,"Ġprofits":8566,"Ġmystery":8567,"oard":8568,"Ġpudd":8569,"osh":8570,"Ġprosper":8571,"Ġresumed":8572,"Ġfourteen":8573,"umped":8574,"preted":8575,"Ġbaggage":8576,"fallen":8577,"Ġowing":8578,"Ġteachers":8579,"Ġconquer":8580,"ĠGregory":8581,"eep":8582,"iable":8583,"oan":8584,"xed":8585,"iders":8586,"alone":8587,"Ġrender":8588,"ĠSanta":8589,"ela":8590,"reath":8591,"ĠNearly":8592,"Ġenchant":8593,"Ġactivity":8594,"Ġsilently":8595,"ĠGods":8596,"addin":8597,"Ġsumm":8598,"Ġcryst":8599,"Ġmethods":8600,"Ġpilot":8601,"UND":8602,"bacco":8603,"drew":8604,"erer":8605,"mill":8606,"possible":8607,"Ġmoss":8608,"Ġdwelt":8609,"ashes":8610,"ĠBuster":8611,"meet":8612,"Ġholds":8613,"ITTLE":8614,"Ġrecognition":8615,"legraph":8616,"Ġleaning":8617,"continue":8618,"Ġgratefully":8619,"ĠIngred":8620,"straight":8621,"Ġcure":8622,"Ġdirty":8623,"story":8624,"ĠCook":8625,"ĠĠĠĠĠĠĠĠĠĠĠĠĠĠĠ":8626,"Ġalien":8627,"osc":8628,"Ġperceive":8629,"ĠStangerson":8630,"Ġscenes":8631,"whose":8632,"Ġawfully":8633,"Ġmedicine":8634,"Ġexperiment":8635,"Ġclaimed":8636,"corn":8637,"Ġapt":8638,"Ġfoe":8639,"aratus":8640,"Ġninet":8641,"aying":8642,"ros":8643,"ilight":8644,"ĠMonday":8645,"Ġsovere":8646,"ecture":8647,"Ġharsh":8648,"Ġranks":8649,"Ġminister":8650,"Ġcollege":8651,"Ġpenet":8652,"Ġsenses":8653,"efferson":8654,"ĠJoel":8655,"Ġshooting":8656,"approach":8657,"agreeable":8658,"Long":8659,"Vol":8660,"nce":8661,"Ġfund":8662,"ĠSuddenly":8663,"Ġplanted":8664,"Ġslew":8665,"Ġconfident":8666,"Ġcavern":8667,"Ġdetach":8668,"Ġgardens":8669,"Ġruled":8670,"Ġprivile":8671,"Ġtremendous":8672,"mountains":8673,"Ġsettlement":8674,"Ġadmiration":8675,"ĠFranklin":8676,"Ġsubstance":8677,"Ġalteration":8678,"ĠNapoleon":8679,"?--":8680,"First":8681,"_\"":8682,"num":8683,"sometimes":8684,"Ġmast":8685,"icles":8686,"emp":8687,"ĠJapan":8688,"bler":8689,"Ġpurse":8690,"Ġtrembled":8691,"legs":8692,"England":8693,"=:":8694,"OP":8695,"VIII":8696,"vous":8697,"eddy":8698,"Ġfaced":8699,"Ġdaring":8700,"urred":8701,"ĠMER":8702,"ĠCross":8703,"ĠWILL":8704,"ĠDate":8705,"Ġconvert":8706,"ivities":8707,"Ġsharing":8708,"Ġadjust":8709,"ĠStar":8710,"Ġswear":8711,"prison":8712,"Ġraising":8713,"Ġhunted":8714,"ĠAntony":8715,"ursday":8716,"Ġdefeat":8717,"Ġmortal":8718,"Ġgratitude":8719,"mosp":8720,"Ġiv":8721,"nding":8722,"Ġtops":8723,"ĠSit":8724,"empl":8725,"ĠDouglas":8726,"Ġabode":8727,"ĠChuck":8728,"Ġrecoll":8729,"understand":8730,"Ġcollar":8731,"whenever":8732,"Ġpulling":8733,"Ġsailor":8734,"Ġimplied":8735,"increasing":8736,"women":8737,"oos":8738,"ĠChan":8739,"osure":8740,"Ġcopied":8741,"utely":8742,"Ġfatig":8743,"Ġcounter":8744,"ĠTeam":8745,"Ġintelligence":8746,"About":8747,"Ġprofession":8748,"vet":8749,"ĠSharp":8750,"Ġsails":8751,"ĠMid":8752,"ĠBel":8753,"ĠGiant":8754,"ĠUNDER":8755,"Ġentering":8756,"Though":8757,"ĠShore":8758,"Ġrespond":8759,"Ġchapter":8760,"Ġpressure":8761,"Ġindicated":8762,"Ġconcealed":8763,"Ġamazement":8764,"Ġwhistle":8765,"ĠCollege":8766,"OSS":8767,"Ġunfortunate":8768,"AC":8769,"IE":8770,"oa":8771,"Ġbows":8772,"lear":8773,"ĠTime":8774,"ongs":8775,"Ġvir":8776,"Ġgoat":8777,"Ġdaylight":8778,"Ġinstruction":8779,"Ġcharged":8780,"gram":8781,"Ġdrops":8782,"Ġspecim":8783,"Ġadmin":8784,"uesday":8785,"Ġblessing":8786,"Ġgarments":8787,"Ġlinked":8788,"RAPH":8789,"Get":8790,"fif":8791,"rated":8792,"Ġwounds":8793,"Ġmale":8794,"Ġresearch":8795,"cel":8796,"ilation":8797,"Ġseize":8798,"Ġmeasures":8799,"quiet":8800,"Ġsentiment":8801,"ĠAlso":8802,"Ġbedroom":8803,"ĠAnne":8804,"willing":8805,"Ġforests":8806,"guard":8807,"Ġsailors":8808,"whether":8809,"ĠHAVE":8810,",=":8811,"FORE":8812,"Next":8813,"anes":8814,"Ġstable":8815,"ĠJell":8816,"Ġconfined":8817,"Ġadvised":8818,"Ġtravell":8819,"boys":8820,"toward":8821,"Ġsupplied":8822,"ĠCarolina":8823,"dem":8824,"Ġtables":8825,"Ġcas":8826,"orus":8827,"Ġpred":8828,"Ġgang":8829,"thel":8830,"ĠBull":8831,"ĠLove":8832,"Ġsingular":8833,"Ġprinciples":8834,"Ġinvisible":8835,"Was":8836,"gold":8837,"isp":8838,"alian":8839,"urance":8840,"ĠCent":8841,"umbling":8842,"ĠValley":8843,"Ġ34":8844,"ĠConn":8845,"Ġproduct":8846,"Ġcommander":8847,"question":8848,"Ġdwelling":8849,"revor":8850,"\"),":8851,"During":8852,"PRO":8853,"TRAD":8854,"determ":8855,"gle":8856,"Ġtho":8857,"imore":8858,"Ġrises":8859,"Ġtricks":8860,"Ġthanked":8861,"Ġsecre":8862,"return":8863,"Ġsunk":8864,"ĠBeaut":8865,"Ġpainful":8866,"Ġsolution":8867,"Ġballs":8868,"Ġrepresentations":8869,"37":8870,"dri":8871,"Ġtunn":8872,"inate":8873,"owly":8874,"Ġrein":8875,"ĠPur":8876,"Ġnobles":8877,"Ġunited":8878,"ĠStan":8879,"lectric":8880,"ĠMaria":8881,"Ġremarks":8882,"Ġsummoned":8883,"Ġlazy":8884,"ĠRichmond":8885,"Author":8886,"faced":8887,"Ġwoke":8888,"Ġtoil":8889,"ĠTales":8890,"Ġum":8891,"ĠHo":8892,"agged":8893,"Ġupstairs":8894,"ĠDark":8895,"ĠOWN":8896,"Ġjest":8897,"Ġdisg":8898,"ĠĠĠĠĠĠĠĠĠĠĠĠĠĠĠĠĠĠĠĠĠĠĠĠĠĠ":8899,"carried":8900,"Ġgasped":8901,"Ġcelebrated":8902,"mail":8903,"ittering":8904,"Ġgest":8905,"Ġreference":8906,"ĠSame":8907,"aments":8908,"Ġrays":8909,"Their":8910,"Ġapples":8911,"compl":8912,"Ġdrum":8913,"Ġelement":8914,"Ġanxiously":8915,"Ġdebt":8916,"Ġacquaintance":8917,"bound":8918,"fear":8919,"hung":8920,"rice":8921,"turn":8922,"Ġach":8923,"inity":8924,"Ġpear":8925,"acters":8926,"etary":8927,"raven":8928,"ĠREM":8929,"Ġmanif":8930,"Ġens":8931,"izes":8932,"Ġbetel":8933,"hyllis":8934,"ĠGrand":8935,"Ġbargain":8936,"strange":8937,"Ġdressing":8938,"Ġexecution":8939,"Ġmaximum":8940,"ii":8941,"rise":8942,"Ġsouthern":8943,"Ġft":8944,"Ġhired":8945,"Ġyell":8946,"rigg":8947,"Ġ\"'":8948,"quired":8949,"ĠLE":8950,"ĠNext":8951,"mances":8952,"Ġglow":8953,"igns":8954,"Ġindif":8955,"Ġreduced":8956,"Ġfrequent":8957,"ĠGreece":8958,"Ġashore":8959,"35":8960,"Ġtid":8961,"request":8962,"ician":8963,"Ġbeet":8964,"ette":8965,"Ġrevenge":8966,"ofreading":8967,"Ġdeliber":8968,"Ġdeadly":8969,"Ġsixteen":8970,"remember":8971,"Ġforgive":8972,"Ġdisturb":8973,"Ġhitherto":8974,"Ġbundle":8975,"fashion":8976,"rane":8977,"ridge":8978,"sus":8979,"tis":8980,"wide":8981,"zip":8982,"Ġbench":8983,"Ġsoot":8984,"--_":8985,"rav":8986,"Ġunw":8987,"answered":8988,"actory":8989,"Ġdiscour":8990,"Ġrelation":8991,"ĠMission":8992,"ĠShould":8993,"Ġabsent":8994,"Ġgrateful":8995,"Ġalternate":8996,"PRESS":8997,"Hara":8998,"Mary":8999,"inf":9000,"Ġsan":9001,"Ġske":9002,"lder":9003,"roll":9004,"roft":9005,"Ġsugar":9006,"Ġnephe":9007,"Ġcompared":9008,"feel":9009,"Ġrib":9010,"Ġobed":9011,"Ġfathers":9012,"Ġadditions":9013,"Ġawhile":9014,"organ":9015,"Ġdepths":9016,"Ġgrandmother":9017,"Ġprobable":9018,"ĠContin":9019,"Ġnetwork":9020,"ĠNEW":9021,"Ġfacility":9022,"Ġnephew":9023,"President":9024,"Rem":9025,"danger":9026,"uy":9027,"Ġsex":9028,"ĠPed":9029,"ĠCham":9030,"Ġupset":9031,"abeth":9032,"ĠDog":9033,"ĠErec":9034,"permitted":9035,"Ġpretended":9036,"ribute":9037,"Ġwarn":9038,"Ġcontinually":9039,"ĠCloud":9040,"ĠElzevir":9041,"Ġdisposed":9042,"Ġspeedily":9043,"End":9044,"giving":9045,"rules":9046,"inions":9047,"arched":9048,"ĠThan":9049,"ĠSaint":9050,"ĠCons":9051,"ĠEli":9052,"Ġtrained":9053,"Ġcounted":9054,"ILLI":9055,"Ġobserv":9056,"altimore":9057,"Ġguessed":9058,"nuts":9059,"towards":9060,"Ġexceedingly":9061,"Ġtelephone":9062,".;--":9063,"mot":9064,"Ġ#":9065,"ĠTa":9066,"irts":9067,"Ġseats":9068,"ĠJOHN":9069,"Ġprow":9070,"ĠInstead":9071,"ĠThrough":9072,"Ġemperor":9073,"worth":9074,"Ġwishing":9075,"Ġsweep":9076,"Ġobservation":9077,"Ġderive":9078,"Ġpunish":9079,"ĠSecret":9080,"Ġpreparations":9081,"methods":9082,"want":9083,"Ġincomplete":9084,"Ġsailing":9085,"Ġselected":9086,"Ġshrill":9087,"ieutenant":9088,"ource":9089,"Ġextr":9090,"Ġblowing":9091,"perfect":9092,"Ġscent":9093,"subs":9094,"Ġdiff":9095,"ĠWhit":9096,"ĠDaniel":9097,"ĠSTORY":9098,"Ġdisposition":9099,"Ġsuspect":9100,"ĠREP":9101,"Ġopposit":9102,"Ġanti":9103,"Indians":9104,"Ġindependence":9105,"appearance":9106,"Ġexperienced":9107,"Ġsuspicion":9108,"ĠCopyright":9109,"36":9110,"CON":9111,"EY":9112,"pence":9113,"Ġgorge":9114,"hers":9115,"aba":9116,"iend":9117,"plied":9118,"Ġ188":9119,"Ġtreacher":9120,"Ġtouching":9121,"ĠEgyptians":9122,"Ġdata":9123,"saying":9124,"Ġventured":9125,"Ġfugitives":9126,"Ġindirectly":9127,"Dav":9128,"either":9129,"gro":9130,"mem":9131,"Ġlament":9132,"acon":9133,"andy":9134,"ĠCut":9135,"gered":9136,"Ġgrant":9137,"ĠKirby":9138,"Ġcontest":9139,"pleased":9140,"donate":9141,"Ġvolunteer":9142,"Ġmoonlight":9143,"Fl":9144,"IP":9145,"kward":9146,"Ġstag":9147,"ecutive":9148,"Ġram":9149,"ĠWestern":9150,"Ġropes":9151,"hio":9152,"often":9153,"Ġflut":9154,"Ġslope":9155,"Ġcharitable":9156,"Ġskull":9157,"Ġkeeps":9158,"Ġprotest":9159,"Ġcalculate":9160,"Ġsuggestion":9161,"Ġliterature":9162,"Ġsurrender":9163,"ASE":9164,"Suddenly":9165,"UST":9166,"bright":9167,"gun":9168,"suddenly":9169,"vate":9170,"hear":9171,"ito":9172,"Ġdangers":9173,"Ġlantern":9174,"ilion":9175,"ĠMont":9176,"iege":9177,"Ġextend":9178,"Ġgrasp":9179,"begin":9180,"ĠKennedy":9181,"Ġbackward":9182,"Ġchains":9183,"Ġpleas":9184,"Ġchecks":9185,"Ġpolit":9186,"Ġaccessible":9187,"Ġviolently":9188,"Ġrobbers":9189,"Ġmaterials":9190,"ĠSusy":9191,"Ġcorporation":9192,"ĠVillage":9193,"Would":9194,"gbert":9195,"Ġwrest":9196,"omon":9197,"Ġbeha":9198,"ĠIMP":9199,"seem":9200,"ĠWrykyn":9201,"Ġvote":9202,"ĠDey":9203,"ofty":9204,"Ġcontributions":9205,"Ġcommenced":9206,"princi":9207,"ĠArab":9208,"Ġfootsteps":9209,"ĠĠĠĠĠĠĠĠĠĠĠĠĠĠĠĠĠĠĠĠĠĠĠĠĠĠĠĠ":9210,"Ġreality":9211,"Ġconducted":9212,"OLD":9213,"Ġsplit":9214,"ĠScotch":9215,"Ġargument":9216,"Tis":9217,"mour":9218,"uv":9219,"Ġcub":9220,"ĠSH":9221,"aga":9222,"Ġvine":9223,"cloth":9224,"Ġbacks":9225,"aware":9226,"CTU":9227,"ĠColonel":9228,"ĠMinchin":9229,"North":9230,"Ġignorant":9231,"Ġinsects":9232,"Any":9233,"eous":9234,"itself":9235,"Ġnails":9236,"leave":9237,"ĠHind":9238,"ĠWy":9239,"Ġbutton":9240,"ĠLamb":9241,"ĠDON":9242,"ĠRO":9243,"Ġtramp":9244,"Ġnevertheless":9245,"Ġlasted":9246,"Ġcareer":9247,"oubted":9248,"Ġlegally":9249,"Ġelsewhere":9250,"Ġeste":9251,"THING":9252,"ĠRemus":9253,"Meanwhile":9254,"Ġornament":9255,"ĠBOY":9256,"Ġacknowled":9257,"Poor":9258,"cal":9259,"eg":9260,"really":9261,"Ġdamp":9262,"uter":9263,"Ġants":9264,"ifying":9265,"tho":9266,"alls":9267,"emned":9268,"Ġshirt":9269,"outs":9270,"ĠOtter":9271,"Ġsmote":9272,"Ġchallen":9273,"Ġacting":9274,"Ġrealize":9275,"boats":9276,"Ġmaintaining":9277,"Alas":9278,"ological":9279,"Ġglobe":9280,"Ger":9281,"rea":9282,"itors":9283,"itory":9284,"ĠSu":9285,"Ġkitten":9286,"Ġoutlaw":9287,"geance":9288,"pson":9289,"ĠStand":9290,"obser":9291,"Ġoccasions":9292,"Ġwheels":9293,"Ġsimpl":9294,"Ġdepth":9295,"Ġbells":9296,"Ġcaptive":9297,"Ġpockets":9298,"Ġwondrous":9299,"ĠMexicans":9300,"mosphere":9301,"mort":9302,"tales":9303,"Ġoars":9304,"ari":9305,"Ġthrill":9306,"Ġstair":9307,"ĠPresently":9308,"ĠLatin":9309,"ĠRaf":9310,"ĠRIGHT":9311,"Ġnois":9312,"Ġjoke":9313,"Ġroses":9314,"ĠUSE":9315,"Ġcontempt":9316,"Ġserpent":9317,"chair":9318,"Ġabsurd":9319,"Ġchairs":9320,"porary":9321,"RACT":9322,"speak":9323,"Ġjewels":9324,"ĠEleanor":9325,"Ġperformances":9326,"RAN":9327,"liness":9328,"rich":9329,"Ġfog":9330,"Ġpound":9331,"Ġnuts":9332,"ĠEmpire":9333,"placed":9334,"ordered":9335,"blue":9336,"Ġwhereas":9337,"ARY":9338,"Ġesc":9339,"Ġcollect":9340,"Ġcrossing":9341,"Ġtreaty":9342,"Ġwidth":9343,"Ġslightest":9344,"loading":9345,"Ġsezee":9346,"Ġconflict":9347,"Ġchimney":9348,"knight":9349,"ua":9350,"vas":9351,"Ġhare":9352,"entered":9353,"Ġrecomm":9354,"eck":9355,"Ġancest":9356,"umm":9357,"Ġneut":9358,"Ġswing":9359,"Ġcommission":9360,"ricks":9361,"Ġviewing":9362,"Ġstores":9363,"Ġnaughty":9364,"Ġscientific":9365,"located":9366,"British":9367,"Ġmingled":9368,"Ant":9369,"books":9370,"dered":9371,"Ġfurious":9372,"Ġdil":9373,"Ġlou":9374,"iron":9375,"Ġbutt":9376,"ĠLi":9377,"ĠLo":9378,"igation":9379,"Ġindul":9380,"grown":9381,"Ġpoles":9382,"ĠAdair":9383,"copy":9384,"ĠBEFORE":9385,"fundraising":9386,"ĠSpecial":9387,"ĠSherwood":9388,"phrase":9389,"Gu":9390,"Ġbidding":9391,"Ġwhilst":9392,"ĠPUR":9393,"Ġchildhood":9394,"Ġcarved":9395,"provision":9396,"ounter":9397,"ĠCanoe":9398,"Ġboxes":9399,"Ġcomputer":9400,"Ġpoetry":9401,"Ġautumn":9402,"ĠSaxons":9403,"Hart":9404,"Said":9405,"gen":9406,"Ġtour":9407,"Ġaught":9408,"represent":9409,"Ġcats":9410,"Ġmule":9411,"Ġridge":9412,"ĠĠĠĠĠĠĠĠĠĠĠĠĠĠĠĠĠĠĠĠĠĠĠ":9413,"Ġvisitors":9414,"cannot":9415,"Ġdetail":9416,"unteers":9417,"Ġdescribe":9418,"Ġroyalty":9419,"ĠREF":9420,"Ġoccasionally":9421,"effect":9422,"Ġpurchase":9423,"Ġneighborhood":9424,"practically":9425,"ĠRouletabille":9426,"\"_":9427,"range":9428,"whel":9429,"Ġwoe":9430,"ano":9431,"ĠFOUND":9432,"Ġdeem":9433,"ĠOver":9434,"pled":9435,"Ġbrings":9436,"ĠItaly":9437,"feeling":9438,"propri":9439,"Ġmerc":9440,"Ġinfring":9441,"Ġ2001":9442,"Ġgenius":9443,"Ġquantities":9444,"arie":9445,"ĠIF":9446,"Ġkin":9447,"ĠLion":9448,"Ġprohibition":9449,"ĠKIND":9450,"Ġreputation":9451,"Ġexplore":9452,"ĠAdmiral":9453,"ĠWithout":9454,"Ġplanet":9455,"Ġmodification":9456,"shaped":9457,"Ġcatching":9458,"CEPT":9459,"ĠPalmerston":9460,"ĠEXPRESS":9461,"ĠDespite":9462,"Ġanchor":9463,"Sw":9464,"inations":9465,"ĠBecause":9466,"ĠGold":9467,"plom":9468,"Ġarray":9469,"Ġliability":9470,"ĠĠĠĠĠĠĠĠĠĠĠĠĠĠĠĠĠĠĠĠĠĠ":9471,"intell":9472,"Ġcoil":9473,"Ġgenerous":9474,"arrant":9475,"Ġangrily":9476,"Still":9477,"ennes":9478,"etta":9479,"help":9480,"Ġfiercely":9481,"Ġpopulation":9482,"window":9483,"Ġabundance":9484,"ĠCompany":9485,"solete":9486,"ĠWallace":9487,"ĠBenjamin":9488,"Ge":9489,"Ha":9490,"IA":9491,"caught":9492,"miles":9493,"erves":9494,"Ġpenc":9495,"Ġnut":9496,"Ġep":9497,"ĠSto":9498,"ĠBur":9499,"ĠPass":9500,"uded":9501,"Ġthrong":9502,"fere":9503,"Ġslee":9504,"ĠĠĠĠĠĠĠĠĠĠĠĠĠĠĠĠĠĠĠĠĠĠĠĠĠĠĠ":9505,"Ġcorpse":9506,"Ġbottoms":9507,"Ġhatred":9508,"Ġgallant":9509,"Ġtraveling":9510,"Ġdegrees":9511,"mountain":9512,"ĠRepl":9513,"Ġhedge":9514,"Ġconfirmation":9515,"ĠNottingham":9516,"det":9517,"try":9518,"Ġtents":9519,"Ġsust":9520,"ata":9521,"Ġinacc":9522,"imony":9523,"ĠBer":9524,"Ġroared":9525,"Ġuncertain":9526,"ĠUr":9527,"HER":9528,"Ġcontents":9529,"Ġseriously":9530,"Ġconscience":9531,"Ġanswers":9532,"Ġprovince":9533,"ĠFrid":9534,"Ġ1863":9535,"Ġmagician":9536,"happened":9537,"Ġfruits":9538,"Ġtraveled":9539,"Ġpreparation":9540,"Ġtossed":9541,"Ġberries":9542,"LY":9543,"gent":9544,"lines":9545,"path":9546,"Ġwires":9547,"enforce":9548,"Ġcage":9549,"Ġyer":9550,"Ġrele":9551,"thus":9552,"cture":9553,"conn":9554,"Ġcorners":9555,"ĠColin":9556,"ĠSTRI":9557,"Ġhyper":9558,"corrupt":9559,"Ġindustry":9560,"Ġbattery":9561,"bot":9562,"cup":9563,"Ġcoc":9564,"Ġtobacco":9565,"Ġpains":9566,"irk":9567,"ĠHistory":9568,"Ġexclusion":9569,"ĠEnd":9570,"ĠEVEN":9571,"aps":9572,"Ġbrisk":9573,"Ġ177":9574,"Ġscarlet":9575,"Ġshores":9576,"Ġsuspected":9577,"mounted":9578,"Ġgloomy":9579,"Ġproprietary":9580,"Ġmajority":9581,"];":9582,"length":9583,"inery":9584,"ĠFire":9585,"asting":9586,"elly":9587,"udent":9588,"Ġenabled":9589,"Ġobsolete":9590,"concept":9591,"Ġfinest":9592,"Ġpreparing":9593,"Ġfrank":9594,"Ġpeaceful":9595,"Ġsettlers":9596,"Ġlucky":9597,"Ġcalmly":9598,"Ġvengeance":9599,"Ġdeduct":9600,"44":9601,"_;":9602,"_.\"":9603,"Ġwig":9604,"rely":9605,"itate":9606,"Ġdu":9607,"Ġlots":9608,"Ġthumb":9609,"Ġrelease":9610,"Ġyourselves":9611,"Ġunderneath":9612,"Ġripe":9613,"ixed":9614,"Ġcrash":9615,"CHANT":9616,"Ġeasier":9617,"Ġstudent":9618,"ĠZeb":9619,"Ġprevented":9620,"Ġscram":9621,"Ġswimming":9622,"Ġbalance":9623,"Ay":9624,"VAL":9625,"Ġwagon":9626,"Ġhound":9627,"Ġlofty":9628,"ĠPacific":9629,"ĠFinally":9630,"Ġclung":9631,"Ġoffering":9632,"Ġparted":9633,"clothes":9634,"Ġobsc":9635,"Ġ39":9636,"ĠAsgard":9637,"heads":9638,"ĠTHOSE":9639,"Ġmoder":9640,"ĠMaryland":9641,"LAIM":9642,"Ġfarewell":9643,"Ġrenamed":9644,"ĠCastle":9645,"Language":9646,"_--":9647,"cat":9648,"cold":9649,"fright":9650,"gall":9651,"Ġfert":9652,"Ġfoul":9653,"Ġcoo":9654,"Ġgn":9655,"Ġgit":9656,"Ġbeaver":9657,"stream":9658,"ĠPUN":9659,"ĠChat":9660,"Ġrings":9661,"Ġconvention":9662,"Ġpermit":9663,"ĠVery":9664,"ITIVE":9665,"uriously":9666,"Ġ1500":9667,"Ġbreathing":9668,"seeing":9669,"ĠExecutive":9670,"opportunities":9671,"CLUD":9672,"ba":9673,"dream":9674,"sweet":9675,"Ġshan":9676,"Ġnail":9677,"ĠPOSS":9678,"aste":9679,"ĠNile":9680,"Ġagony":9681,"Ġchill":9682,"Ġendure":9683,"Ġconsented":9684,"means":9685,"Ġdecor":9686,"Ġfeels":9687,"grass":9688,"ĠCompl":9689,"Ġagreeable":9690,"paragraph":9691,"change":9692,"ĠNEG":9693,"Ġfolded":9694,"ĠHolmes":9695,"Tra":9696,"Ġsink":9697,"Ġbits":9698,"Ġloy":9699,"Ġhell":9700,"omp":9701,"omer":9702,"Ġbeak":9703,"ĠAct":9704,"ando":9705,"ĠMAN":9706,"Ġhers":9707,"Ġkid":9708,"ĠRip":9709,"ĠEver":9710,"aud":9711,"places":9712,"ĠAndy":9713,"Ġbloom":9714,"Ġprinces":9715,"ĠStory":9716,"Ġprecip":9717,"ancholy":9718,"Ġmillions":9719,"Ġtightly":9720,"solic":9721,"Ġaltar":9722,"EX":9723,"iou":9724,"skin":9725,"wl":9726,"oups":9727,"anx":9728,"Ġinser":9729,"ĠDen":9730,"umble":9731,"Ġdismiss":9732,"Ġlonging":9733,"ucing":9734,"compressed":9735,"Ġfurniture":9736,"Ġprocession":9737,"Ġidentification":9738,"family":9739,"ranean":9740,"ILLIAM":9741,"SEND":9742,"big":9743,"treat":9744,"warrant":9745,"Ġwool":9746,"Ġtowers":9747,"Ġeconom":9748,"Ġonward":9749,"Ġwhither":9750,"ĠMajor":9751,"ĠPhyllis":9752,"Ġshine":9753,"ĠLang":9754,"Ġanyhow":9755,"Ġgoodly":9756,"attering":9757,"Ġlords":9758,"Ġruins":9759,"Ġemployee":9760,"Brown":9761,"ĠPennsylvania":9762,"IAN":9763,"Say":9764,"distribution":9765,"government":9766,"leness":9767,"rors":9768,"enem":9769,"especially":9770,"Ġbewild":9771,"ĠMiddle":9772,"Ġseeds":9773,"ĠCarm":9774,"ulting":9775,"ĠFenn":9776,"Ġdismay":9777,"Ġtermin":9778,"Ġindemn":9779,"Ġhappens":9780,"Ġstatue":9781,"shipman":9782,"Ġfatal":9783,"Ġmeantime":9784,"Ġfortunate":9785,"ĠDirector":9786,"Ġparallel":9787,"ta":9788,"Ġstomach":9789,"ĠGirl":9790,"ĠGIVE":9791,"Ġtherein":9792,"Ġbrick":9793,"Ġdisgrace":9794,"Ġrig":9795,"Ġregulating":9796,"Ġprominently":9797,"Ġlegisl":9798,"Ġangle":9799,"SEQU":9800,"....\"":9801,"Ġhideous":9802,"Ġinjured":9803,"Ġmultitude":9804,"harmless":9805,"doubt":9806,"mine":9807,"Ġwaving":9808,"editions":9809,"itled":9810,"Ġfacing":9811,"Ġink":9812,"Ġlust":9813,"Ġlunch":9814,"ader":9815,"Ġrot":9816,"ĠLard":9817,"Ġlonged":9818,"Ġpeasant":9819,"object":9820,"International":9821,"*****":9822,"Ġassure":9823,"Ġestate":9824,"Ġlabour":9825,"Ġimagined":9826,"Ġpenny":9827,"aisy":9828,"Ġgreeted":9829,"ĠWilson":9830,"Ġqualities":9831,"Ġlicensed":9832,"Ġinaccurate":9833,"33":9834,"622":9835,"NITY":9836,"hin":9837,"lur":9838,"lived":9839,"haired":9840,"athan":9841,"ĠAc":9842,"ĠFriend":9843,"ĠFIT":9844,"Ġknelt":9845,"ivs":9846,"Ġprofound":9847,"Ġlikes":9848,"ullo":9849,"Information":9850,"Ġhelping":9851,"Ġawakened":9852,"Ġoppon":9853,"ĠDefect":9854,"uese":9855,"Ġcomplex":9856,"LAC":9857,"Ġdiscussion":9858,"Ġpromptly":9859,"ĠMERCHANT":9860,"Ġinfringement":9861,"creating":9862,"laid":9863,"pop":9864,"Ġcodes":9865,"Ġmice":9866,"ĠDIRECT":9867,"Ġplacing":9868,"Ġquality":9869,"ĠKent":9870,"Ġscale":9871,"Ġboards":9872,"ĠOnline":9873,"Ġsigned":9874,"LIED":9875,"copyright":9876,"Ġdisclaimers":9877,"Ġmerchants":9878,"Ġproofread":9879,"Ġamidst":9880,"Character":9881,"Ġhorizon":9882,"Ġhypertext":9883,"47":9884,"Fr":9885,"Reven":9886,"license":9887,"Ġaven":9888,"Ġwha":9889,"Ġcakes":9890,"Ġhaul":9891,"ida":9892,"kept":9893,"ĠPoor":9894,"Ġoutward":9895,"Ġaroused":9896,"Ġtraces":9897,"Ġtwilight":9898,"ĠUT":9899,"Ġglowing":9900,"Ġharmon":9901,"inton":9902,"Ġhappily":9903,"Ġrestore":9904,"Ġlargely":9905,"Ġstreams":9906,"Ġragged":9907,"ĠCONSEQU":9908,"camp":9909,"fo":9910,"account":9911,"ĠHappy":9912,"ĠWild":9913,"Ġsuitable":9914,"olation":9915,"ĠLar":9916,"Ġjer":9917,"ĠInternal":9918,"mancip":9919,"Ġdonors":9920,"Ġdesir":9921,"ensions":9922,"ONG":9923,"Ġcentral":9924,"1887":9925,"Ġperiodic":9926,"icycle":9927,"Ġautom":9928,"Ġattracted":9929,"Ġconstructed":9930,"performing":9931,"ĠREMED":9932,"POSE":9933,"cry":9934,"mor":9935,"Ġale":9936,"Ġmate":9937,"Ġgig":9938,"ripp":9939,"ĠSaints":9940,"Ġsho":9941,"oster":9942,"pline":9943,"ĠKitty":9944,"Ġconsists":9945,"shot":9946,"Ġcharming":9947,"aze":9948,"interpreted":9949,"Ġtranscribe":9950,"company":9951,"Ġbelongs":9952,"rooked":9953,"Ġdistinctly":9954,"========":9955,"pieces":9956,"ĠSUCH":9957,"Ġcorridor":9958,"drawn":9959,"CLUDING":9960,"Title":9961,"gli":9962,"iot":9963,"iors":9964,"oubled":9965,"Ġfolly":9966,"Ġmant":9967,"asping":9968,"alay":9969,"although":9970,"ĠAccord":9971,"ĠCOM":9972,"olition":9973,"Ġard":9974,"udge":9975,"Ġscold":9976,"Ġjoint":9977,"LECT":9978,"Ġwithal":9979,"ĠINCLUDING":9980,"Ġmasses":9981,"Ġvirus":9982,"distribute":9983,"lost":9984,"pict":9985,"rants":9986,"Ġwashing":9987,"adron":9988,"ĠSav":9989,"ĠCave":9990,"ulpt":9991,"Ġspared":9992,"ĠEIN":9993,"Ġdonation":9994,"Ġharder":9995,"super":9996,"Ġcolours":9997,"ĠJohnson":9998,"OUR":9999,"array":10000,"Ġwont":10001,"Ġraven":10002,"Ġlowered":10003,"Ġinfer":10004,"Ġtorment":10005,"ĠNOTICE":10006,"Release":10007,"LIGENCE":10008,"IDENTAL":10009,"ĠFriday":10010,"ĠSTRICT":10011,"62215":10012,"ĠREMEDIES":10013,"LESS":10014,"PER":10015,"div":10016,"nold":10017,"Ġlas":10018,"ĠThing":10019,"ĠMand":10020,"ĠHun":10021,"Ġshy":10022,"else":10023,"Ġappet":10024,"Ġcareless":10025,"Ġaffected":10026,"Ġlively":10027,"Ġangels":10028,"Ġtranscription":10029,"ENTIAL":10030,"castle":10031,"ĠINDIRECT":10032,"struck":10033,"ĠConfederate":10034,"Ġsynonymous":10035,"VIDED":10036,"ĠDomain":10037,"ĠCONTRACT":10038,"ĠPURPOSE":10039,"Ġindemnify":10040,"Out":10041,"birds":10042,"txt":10043,"Ġbinary":10044,"Ġbattles":10045,"asy":10046,"stable":10047,"irled":10048,"ĠSections":10049,"ĠMat":10050,"esses":10051,"Ġvic":10052,"Ġdew":10053,"available":10054,"ĠKanag":10055,"Ġcompilation":10056,"Ġsets":10057,"exam":10058,"Ġindians":10059,"Ġcharacters":10060,"Ġredistributing":10061,"Ġ596":10062,"Ġ179":10063,"Ġpaperwork":10064,"ĠRefund":10065,"Ġcontains":10066,"EMNITY":10067,"copied":10068,"Ġfurnish":10069,"ĠANYTHING":10070,"Defects":10071,"ĠMelan":10072,"Ġcliffs":10073,"building":10074,"ĠDISCLAIM":10075,"ĠIMPLIED":10076,"ĠNEGLIGENCE":10077,"ĠFITNESS":10078,"ĠDISCLAIMER":10079,"filled":10080,"rained":10081,"spring":10082,"va":10083,"Ġwits":10084,"Ġpadd":10085,"Ġlosing":10086,"ĠBaltimore":10087,"ĠCass":10088,"olent":10089,"Ġmankind":10090,"Ġexisted":10091,"defect":10092,"brown":10093,"ĠBeing":10094,"ĠĠĠĠĠĠĠĠĠĠĠĠĠĠĠĠĠĠĠĠĠĠĠĠĠĠĠĠĠ":10095,"Ġconsideration":10096,"Ġstrode":10097,"Ġaverage":10098,"Ġensuring":10099,"CTUAL":10100,"ĠCONSEQUENTIAL":10101,"More":10102,"ni":10103,"Ġward":10104,"least":10105,"ĠSpart":10106,"ĠMR":10107,"ĠPR":10108,"ĠLITTLE":10109,"ĠOff":10110,"Ġdiscontinue":10111,"cier":10112,"ĠVen":10113,"Ġchanging":10114,"Ġsunlight":10115,"Ġ80":10116,"Ġcircuit":10117,"Ġoriginator":10118,"Ġprocessing":10119,"Ġdiamond":10120,"Ġconquered":10121,"Ġpupil":10122,"Ġpersuaded":10123,"ĠPUNITIVE":10124,"solicited":10125,"501":10126,"Presently":10127,"during":10128,"research":10129,"Ġcooked":10130,"Ġliterary":10131,"icago":10132,"staff":10133,"verted":10134,"ĠAK":10135,"ulations":10136,"Ġdisaster":10137,"peace":10138,"Ġplays":10139,"ĠAtlantic":10140,"Ġawkward":10141,"Ġdearly":10142,"Ġencoding":10143,"Ġstraightway":10144,"AGE":10145,"AGRAPH":10146,"Ġdivine":10147,"Ġerrand":10148,"ĠThorvald":10149,"Which":10150,"Ġpistol":10151,"ĠPARAGRAPH":10152,"ĠReplacement":10153,"6221541":10154,"uing":10155,"wart":10156,"erg":10157,"ĠIce":10158,"Ġult":10159,"Ġstamp":10160,"ĠBow":10161,"usually":10162,"Ġworshi":10163,"istence":10164,"Ġaged":10165,"Ġunsolicited":10166,"Ġdownloading":10167,"ĠStard":10168,"lfred":10169,"bring":10170,"ISH":10171,"Ġarmies":10172,"Ġpreserved":10173,"Ġnewsletter":10174,"Ġtrusted":10175,"Ġenterprise":10176,"Ġpunished":10177,"character":10178,"knowledge":10179,"ĠContact":10180,"Ġsolicitation":10181,"Ġmirror":10182,"ĠSquirrel":10183,"Ġscheme":10184,"ĠOWNER":10185,"ĠREPLAC":10186,"Creating":10187,"aur":10188,"ez":10189,"faces":10190,"Ġtumbled":10191,"refund":10192,"status":10193,"ĠAE":10194,"Ġsped":10195,"Ġwillingly":10196,"answer":10197,"ickens":10198,"fees":10199,"manner":10200,"Ġexporting":10201,"pleasure":10202,"Ġreflected":10203,"Ġpursue":10204,"Ġ841":10205,"Ġtemples":10206,"Ġinfinite":10207,"Ġviolates":10208,"recogn":10209,"Ġfrozen":10210,"iversity":10211,"promotion":10212,"ĠContributions":10213,"Ġ*****":10214,"ĠMountain":10215,"Ġattract":10216,"ĠEXCEPT":10217,"Ġseverely":10218,"Robin":10219,"ĠAdditional":10220,"Ġimprison":10221,"itudes":10222,"Volunteers":10223,"proprietary":10224,"801":10225,"god":10226,"entity":10227,"Ġascertain":10228,"urity":10229,"ĠACTUAL":10230,"Ġnotifies":10231,"redistribution":10232,"ĠFif":10233,"Ġmyth":10234,"Ġdelet":10235,"ĠJerry":10236,"Ġadapt":10237,"Ġdistr":10238,"liability":10239,"Ġelected":10240,"Ġconsisted":10241,"Ġ47":10242,"Ġ997":10243,"ĠNewby":10244,"Ġburgl":10245,"Ġelements":10246,"Ġabsor":10247,"Ġpractically":10248,"charities":10249,"ĠRussia":10250,"http":10251,"Ġarrested":10252,"Ġdeductible":10253,"ĠPOSSIBILITY":10254,"Revenue":10255,"Ġ84116":10256,"38":10257,"Man":10258,"Times":10259,"bnew":10260,"pill":10261,"shad":10262,"vain":10263,"Ġsits":10264,"aters":10265,"Ġgbnew":10266,"icle":10267,"ĠIRS":10268,"verty":10269,"Ġwithdraw":10270,"ĠSon":10271,"iforn":10272,"ĠDarz":10273,"Ġoutdated":10274,"Ġsports":10275,"ĠJefferson":10276,"plan":10277,"Ġshaken":10278,"Ġunenforce":10279,"forms":10280,"Ġslumber":10281,"Ġswitch":10282,"Ġredistribute":10283,"doing":10284,"REEMENT":10285,"Ġassumed":10286,"ĠGranny":10287,"Ġfasten":10288,"However":10289,"Ġaccessed":10290,"ĠRedistributing":10291,"EMARK":10292,"Ġsearching":10293,"LAF":10294,"ĠEmail":10295,"Ġnonproprietary":10296,"prominently":10297,"ĠAGREEMENT":10298,"Ġearliest":10299,"Ġ4557":10300,"Ġunlink":10301,"ĠDISTRIBUTOR":10302,"Updated":10303,"PLEASE":10304,"Ġconvenient":10305,"Archive":10306,"habited":10307,"Ġinvalidity":10308,"subscribe":10309,"ĠDONATIONS":10310,"ĠREFUND":10311,"ĠFOUNDATION":10312,"ĠREPLACEMENT":10313,"Ġdeletions":10314,"Ġ99712":10315,"Ġgbnewby":10316,"Ġunenforceability":10317,"Like":10318,"Shall":10319,"cause":10320,"Ġmas":10321,"ato":10322,"Ġgy":10323,"ĠPool":10324,"Ġratt":10325,"Ġsober":10326,"ĠDry":10327,"rett":10328,"concer":10329,"Ġwinding":10330,"Ġ70":10331,"Ġencamp":10332,"computer":10333,"AST":10334,"built":10335,"Ġarrangement":10336,"Ġrejoiced":10337,"LIABLE":10338,"laugh":10339,"Ġcrystal":10340,"($":10341,"DAMAG":10342,"rine":10343,"Ġton":10344,"Ġdumb":10345,"ĠHE":10346,"ĠDis":10347,"asses":10348,"Ġamused":10349,"Ġpoverty":10350,"attempt":10351,"ĠBrother":10352,"Ġsixth":10353,"Ġmouths":10354,"goals":10355,"ĠRedistribution":10356,"become":10357,"thinking":10358,"Ġcivilization":10359,"finished":10360,"Ġcellar":10361,"ĠINDEMNITY":10362,"ĠPGLAF":10363,"ĠDISTRIBUTE":10364,"LIABILITY":10365,"Fairbanks":10366,"INCIDENTAL":10367,"PROVIDED":10368,"TRADEMARK":10369,"ĠCompliance":10370,"warranties":10371,"DAMAGE":10372,"Vv":10373,"aign":10374,"bod":10375,"move":10376,"ĠTheodore":10377,"ĠHan":10378,"ĠCO":10379,"ĠEastern":10380,"Ġrecent":10381,"Ġregions":10382,"ĠAladdin":10383,"Ġincred":10384,"Ġrequested":10385,"arris":10386,"Ġyeomen":10387,"Ġideal":10388,"Ġdevice":10389,"Ġhotel":10390,"longer":10391,"Ġattempts":10392,"Ġstruggled":10393,"ĠFreddie":10394,"ĠDemi":10395,"gate":10396,"mid":10397,"tried":10398,"uk":10399,"Ġpacked":10400,"Ġgent":10401,"Ġunpleasant":10402,"Ġnowhere":10403,"ĠĠĠĠĠĠĠĠĠĠĠĠĠĠĠĠĠĠĠĠĠ":10404,"arker":10405,"Ġowners":10406,"Ġmostly":10407,"Ġhearty":10408,"spo":10409,"impse":10410,"Ġcuriously":10411,"Ġspoil":10412,"Ġrecognize":10413,"Ġreferred":10414,"Ġabandoned":10415,"dear":10416,"Ġtub":10417,"Ġnought":10418,"Ġsearched":10419,"isten":10420,"ĠLine":10421,"isely":10422,"aida":10423,"ĠVI":10424,"Ġconsult":10425,"attention":10426,"Ġdepos":10427,"Ġchiefs":10428,"discovered":10429,"Ġfeeble":10430,"Ġguarded":10431,"Ġincreasing":10432,"sword":10433,"mighty":10434,"Ġtravelled":10435,"Ġrevealed":10436,"Ġmelted":10437,"occup":10438,"girls":10439,"ĠDalgard":10440,"ĠPeters":10441,"46":10442,"nearly":10443,"pot":10444,"won":10445,"wine":10446,"Ġfest":10447,"onies":10448,"amm":10449,"Ġvivid":10450,"Ġexert":10451,"Ġroaring":10452,"apsed":10453,"Ġbrains":10454,"forest":10455,"Ġflushed":10456,"Ġhandful":10457,"Ġapparatus":10458,"Ġcompet":10459,"Ġletting":10460,"Ġrestless":10461,"ĠClover":10462,"ivering":10463,"Ġindependent":10464,"FF":10465,"paper":10466,"tan":10467,"Ġwot":10468,"idable":10469,"ĠHume":10470,"artment":10471,"owning":10472,"Ġgodd":10473,"Ġgran":10474,"ĠAndrew":10475,"ixt":10476,"ucation":10477,"Ġconsist":10478,"ieth":10479,"ĠAlthough":10480,"etsy":10481,"Ġextensive":10482,"ĠCommon":10483,"Ġbreathe":10484,"Ġballoon":10485,"Ġsickness":10486,"following":10487,"direction":10488,"ĠSilver":10489,"strength":10490,"Mc":10491,"bra":10492,"spr":10493,"Ġtha":10494,"enz":10495,"orse":10496,"Ġhom":10497,"Ġeastern":10498,"ĠSummer":10499,"ĠOhio":10500,"Ġleis":10501,"avilion":10502,"ĠKar":10503,"comed":10504,"Ġtriump":10505,"uffled":10506,"Ġrevolution":10507,"Ġcaution":10508,"Certainly":10509,"Master":10510,"fare":10511,"Ġpiled":10512,"immediately":10513,"ĠHy":10514,"ĠJasper":10515,"Ġpretend":10516,"Ġwars":10517,"ĠThrog":10518,"INE":10519,"Ġstreng":10520,"trouble":10521,"Ġhurled":10522,"Ġcondemned":10523,"Ġmemories":10524,"Ġplanned":10525,"Ġclimbing":10526,"Ġexamining":10527,"running":10528,"Ġbending":10529,"Ġblazing":10530,"Ġcoffin":10531,"Ġreckon":10532,"Ġcreeping":10533,"Ġthirteen":10534,"39":10535,"Mur":10536,"PE":10537,"capt":10538,"Ġcrest":10539,"ĠTrevor":10540,"ĠMO":10541,"ĠBell":10542,"ĠBald":10543,"ĠGRE":10544,"ĠFre":10545,"Ġvow":10546,"Ġdece":10547,"Ġaccur":10548,"didn":10549,"Ġresolution":10550,"Ġpreviously":10551,"Ġamazed":10552,"Ġincidents":10553,"Ġconsciousness":10554,"ĠSaxon":10555,"Ġphotograph":10556,"Bet":10557,"bread":10558,"viously":10559,"zer":10560,"Ġmould":10561,"Ġdun":10562,"Ġstare":10563,"estab":10564,"Ġdoc":10565,"ĠRay":10566,"Ġenable":10567,"blance":10568,"ossie":10569,"Ġrelieved":10570,"Ġcontinent":10571,"ĠSeen":10572,"Ġmuscles":10573,"Ġshouts":10574,"ĠPhilist":10575,"justice":10576,"Ġfrightful":10577,"recked":10578,"Ġrepeat":10579,"ĠSergt":10580,"Ġroute":10581,"Ġascended":10582,"ĠElizabeth":10583,"ACK":10584,"UE":10585,"ipe":10586,"Ġta":10587,"Ġfountain":10588,"ĠTor":10589,"adise":10590,"ĠMars":10591,"Ġkick":10592,"Ġblocks":10593,"inkled":10594,"Ġcontented":10595,"Ġsurvey":10596,"Ġcurse":10597,"Ġdomestic":10598,"Ġjumping":10599,"ependence":10600,"Ġlogs":10601,"Ġpillow":10602,"Ġstretch":10603,"Ġabruptly":10604,"Har":10605,"hist":10606,"Ġwhit":10607,"ĠSur":10608,"ĠCrow":10609,"ĠWAS":10610,"ĠGhost":10611,"osqu":10612,"Ġclerk":10613,"Ġblast":10614,"Ġoverhead":10615,"Ġslipp":10616,"ĠStri":10617,"Ġswinging":10618,"Ġanswering":10619,"ussy":10620,"Ġmisfortune":10621,"Ġprotected":10622,"Ġformerly":10623,"Ġfloated":10624,"ships":10625,"Ġsupplies":10626,"Ġrisen":10627,"Ġswallowed":10628,"Ġshepherd":10629,"pun":10630,"Ġfan":10631,"stones":10632,"ĠSat":10633,"Ġnotion":10634,"Ġatmosphere":10635,"Ġsaving":10636,"Ġrhy":10637,"Ġroused":10638,"ulc":10639,"iveness":10640,"Ġcane":10641,"Ġblown":10642,"Ġdishes":10643,"ĠItalian":10644,"Ġentitled":10645,"spirit":10646,"Ġgeneration":10647,"ĠConstitution":10648,"Ġruined":10649,"ĠDickon":10650,"Ġsensible":10651,"Ġcandid":10652,"accord":10653,"Ġvigor":10654,"Ġdisciples":10655,"809":10656,"Ġbridle":10657,"Ġpencil":10658,"Sam":10659,"ware":10660,"imag":10661,"Ġsale":10662,"ĠLod":10663,"ĠRover":10664,"Ġearn":10665,"flu":10666,"Ġconfused":10667,"bellion":10668,"ĠMoreover":10669,"Ġbolt":10670,"ĠWalter":10671,"pally":10672,"vil":10673,"ĠShan":10674,"ĠSER":10675,"ĠSomething":10676,"Ġstem":10677,"anda":10678,"third":10679,"ĠPlease":10680,"Ġrows":10681,"ĠGet":10682,"ĠOLD":10683,"aua":10684,"Ġark":10685,"Ġswore":10686,"Ġcrushed":10687,"Ġhelm":10688,"Ġsteed":10689,"Ġelbow":10690,"Ġstandard":10691,"Ġpresident":10692,"ICK":10693,"Ġportra":10694,"Ġmonkeys":10695,"Ġempire":10696,"Ġerected":10697,"Ġamusement":10698,"ĠHelen":10699,"David":10700,"Ibid":10701,"pa":10702,"posed":10703,"Ġcents":10704,"oro":10705,"Ġdash":10706,"Ġdining":10707,"Ġnic":10708,"ĠCraven":10709,"opened":10710,"Ġvest":10711,"Ġrifles":10712,"Ġwanting":10713,"Ġdram":10714,"Ġpossibility":10715,"Ġrecently":10716,"true":10717,"Ġopposition":10718,"Ġclearing":10719,"Ġtailor":10720,"RIVAL":10721,"Ġsensation":10722,"Ġgravely":10723,"Ġmurmur":10724,"Ġblankets":10725,"Ġimpatient":10726,"Ġmourn":10727,"ĠMERCHANTIBILITY":10728,"Hen":10729,"Put":10730,"TO":10731,"ga":10732,"sir":10733,"zu":10734,"Ġtiger":10735,"Ġdre":10736,"icity":10737,"ĠAust":10738,"ĠBinet":10739,"ĠCall":10740,"ppers":10741,"ĠLee":10742,"Ġknot":10743,"pton":10744,"Ġputs":10745,"flo":10746,"Ġfaire":10747,"Ġposts":10748,"ĠProofreading":10749,"Ġeighty":10750,"ĠGermany":10751,"Ġmaidens":10752,"Ġblanket":10753,"Ġcommerce":10754,"Ġcrawled":10755,"wanted":10756,"Ġinher":10757,"Ġthieves":10758,"rian":10759,"rious":10760,"Ġstub":10761,"Ġraw":10762,"unks":10763,"Ġdidst":10764,"Ġbron":10765,"Ġpoem":10766,"Ġcompre":10767,"Ġremo":10768,"Ġheaded":10769,"Ġdistrict":10770,"rewd":10771,"Ġboiled":10772,"liver":10773,"Ġelection":10774,"Ġ49":10775,"Ġintr":10776,"Ġopposed":10777,"Ġstudies":10778,"Ġquestioned":10779,"Ġfiery":10780,"Ġcombined":10781,"ĠSolomon":10782,"\".":10783,"Ear":10784,"Shann":10785,"Sometimes":10786,"bug":10787,"gd":10788,"twas":10789,"Ġsul":10790,"isis":10791,"ĠHand":10792,"Ġrats":10793,"ession":10794,"ĠDar":10795,"iges":10796,"Ġfoundation":10797,"Ġcourte":10798,"Ġbub":10799,"Ġembro":10800,"Ġdetect":10801,"Ġeffective":10802,"Ġmammy":10803,"ĠSecond":10804,"Ġprophet":10805,"Ġvelvet":10806,"ifornia":10807,"Several":10808,"kers":10809,"inv":10810,"Ġfishes":10811,"Ġmail":10812,"Ġpatch":10813,"throw":10814,"ĠHOW":10815,"Ġsem":10816,"ĠPyramid":10817,"ĠGib":10818,"sels":10819,"Ġtracks":10820,"ansas":10821,"Ġdisease":10822,"inker":10823,"actly":10824,"Ġdelicious":10825,"Ġinterfere":10826,"ĠProv":10827,"._--":10828,"Ġexpecting":10829,"swald":10830,"Ġdeny":10831,"Ġcoffee":10832,"Ġfugitive":10833,"ĠPutnam":10834,"important":10835,"Ġtunnel":10836,"Ġlouder":10837,"Men":10838,"Ġbind":10839,"icians":10840,"Ġbees":10841,"acqu":10842,"ĠTAL":10843,"ĠSub":10844,"ĠSpring":10845,"ĠFree":10846,"ĠRaj":10847,"Ġspider":10848,"igious":10849,"Ġthereby":10850,"Ġjaws":10851,"Ġ48":10852,"Ġinvite":10853,"arrass":10854,"Ġlimit":10855,"Ġconsidering":10856,"Ġneighbours":10857,"Ġweakness":10858,"occasion":10859,"ylon":10860,"ĠSkunk":10861,"ĠOthers":10862,"Ġcrimson":10863,"Ġtick":10864,"Ġbust":10865,"esc":10866,"Ġpie":10867,"Ġhoof":10868,"Ġling":10869,"Ġhalt":10870,"immed":10871,"Ġasks":10872,"ifull":10873,"istration":10874,"ousins":10875,"Ġremote":10876,"ungs":10877,"Ġcritic":10878,"ĠWere":10879,"arsan":10880,"Ġreaders":10881,"Ġclothed":10882,"ĠPhilipp":10883,"Ġavail":10884,"Ġrespects":10885,"Ġmachinery":10886,"amboo":10887,"ĠĠĠĠĠĠĠĠĠĠĠĠĠĠĠĠĠĠĠĠĠĠĠĠĠĠĠĠĠĠĠĠĠĠĠĠĠĠĠĠĠĠĠĠĠĠ":10888,"colored":10889,"Ġridic":10890,"rsula":10891,"Ġmelancholy":10892,"Ġextremity":10893,"ĠBuffalow":10894,"cod":10895,"fine":10896,"Ġwreck":10897,"eries":10898,"Ġborder":10899,"Ġfoes":10900,"Ġfiring":10901,"Ġdense":10902,"Ġpark":10903,"Ġstim":10904,"thick":10905,"ĠMess":10906,"ights":10907,"ĠLab":10908,"ĠLast":10909,"Ġplum":10910,"Ġmoreover":10911,"Ġoverwhel":10912,"Ġretorted":10913,"Ġimpulse":10914,"idently":10915,"Ġ46":10916,"Ġlawn":10917,"Ġcombat":10918,"America":10919,"oubtedly":10920,"ĠDarzac":10921,"Set":10922,"WH":10923,"cried":10924,"further":10925,"husband":10926,"tale":10927,"Ġbeer":10928,"Ġbehalf":10929,"rob":10930,"ĠBird":10931,"agers":10932,"ĠRoger":10933,"Ġgover":10934,"pling":10935,"Ġclosing":10936,"ĠYellow":10937,"Ġimages":10938,"Ġscri":10939,"Ġthoughtful":10940,"ipes":10941,"Ġreplies":10942,"Ġlawyer":10943,"ISS":10944,"ĠGerda":10945,"Ġanticip":10946,"ĠChiefs":10947,"Ġstirring":10948,"Ġemphas":10949,"ĠDemocr":10950,"Ġrarely":10951,"Ġconstitution":10952,"Among":10953,"Ho":10954,"iy":10955,"nine":10956,"tre":10957,"Ġfir":10958,"esp":10959,"esy":10960,"Ġinward":10961,"leans":10962,"ĠTen":10963,"ĠBess":10964,"ĠPE":10965,"ĠCoyote":10966,"Ġkicked":10967,"elcome":10968,"Ġworm":10969,"olis":10970,"Ġseeming":10971,"venture":10972,"uces":10973,"Ġinduced":10974,"Ġadding":10975,"Ġ501":10976,"Ġadvancing":10977,"Ġtails":10978,"village":10979,"Ġcheerfully":10980,"Ġinjury":10981,"famil":10982,"quarters":10983,"Ġresponsible":10984,"safe":10985,"Bless":10986,"Surely":10987,"front":10988,"Ġtune":10989,"Ġtheat":10990,"Ġlump":10991,"ido":10992,"Ġshower":10993,"Ġspots":10994,"ape":10995,"Ġclut":10996,"Ġperple":10997,"...\"":10998,"Ġwrist":10999,"Ġcoarse":11000,"OUS":11001,"Ġaffl":11002,"Ġ178":11003,"Ġdetermination":11004,"Ġdisappointment":11005,"LAND":11006,"Ġselfish":11007,"Ġacquired":11008,"Ġwander":11009,"Ġelectricity":11010,"Ġignorance":11011,"ĠSnake":11012,"Egypt":11013,"pgd":11014,"Ġze":11015,"Ġtread":11016,"Ġfist":11017,"Ġhaz":11018,"lyn":11019,"ĠTy":11020,"Ġstove":11021,"ooping":11022,"emen":11023,"quickly":11024,"Ġaboard":11025,"Ġprofessor":11026,"asso":11027,"ĠKnow":11028,"ĠButter":11029,"Ġswell":11030,"Ġactions":11031,"truth":11032,"ATH":11033,"remem":11034,"rooms":11035,"Ġappropri":11036,"ĠWhose":11037,"ENTS":11038,"Ġeleg":11039,"Ġstrove":11040,"Ġseventeen":11041,"purpose":11042,"ĠPortuguese":11043,"pgdp":11044,"sis":11045,"Ġcob":11046,"Ġung":11047,"Ġrent":11048,"ĠHard":11049,"ĠCold":11050,"ante":11051,"olas":11052,"Ġtheirs":11053,"ĠHend":11054,"Ġlip":11055,"beyond":11056,"Ġaccused":11057,"Ġharp":11058,"Ġchariot":11059,"Ġhelmet":11060,"Ġrecords":11061,"worthy":11062,"Ġthyself":11063,"Ġrequires":11064,"Ġbarbar":11065,"Ġconstruction":11066,"Ġaccounts":11067,"sych":11068,"Ġpaths":11069,"Indian":11070,"Ġsacrific":11071,"ĠTexas":11072,"Ġharbour":11073,"mancipation":11074,"Since":11075,"general":11076,"sac":11077,"Ġtough":11078,"Ġfaded":11079,"Ġlur":11080,"Ġgown":11081,"Ġupwards":11082,"Ġclaw":11083,"Ġshaped":11084,"ĠKilled":11085,"Ġresidence":11086,"getting":11087,"Ġnewly":11088,"show":11089,"Ġcountrymen":11090,"encies":11091,"ĠSmiling":11092,"Ġdisappear":11093,"arers":11094,"Ġbravely":11095,"Ġapartment":11096,"ĠThompson":11097,"White":11098,"Ġpositive":11099,"ĠCabinet":11100,"NG":11101,"South":11102,"eer":11103,"lie":11104,"Ġsinking":11105,"Ġhail":11106,"Ġstooped":11107,"ĠMah":11108,"ĠPoss":11109,"unts":11110,"Ġshillings":11111,"ĠDaisy":11112,"Ġbrut":11113,"grand":11114,"grims":11115,"Ġmemor":11116,"Ġstrips":11117,"Ġproposal":11118,"Ġlimb":11119,"Ġcommands":11120,"handed":11121,"Ġwestward":11122,"Ġinvention":11123,"Ġcommunication":11124,"Ġinstruments":11125,"Ġawaited":11126,"ĠSecretary":11127,"Had":11128,"Otho":11129,"Ġsiege":11130,"aron":11131,"ĠBag":11132,"ĠBright":11133,"Ġrushes":11134,"ĠGal":11135,"Ġvoc":11136,"Ġplot":11137,"anged":11138,"Ġglimpse":11139,"Ġentreat":11140,"Ġmermaid":11141,"glad":11142,"Ġwheat":11143,"Ġvisitor":11144,"Ġhumanity":11145,"Ġleaping":11146,"Ġchapel":11147,"Ġpillars":11148,"Ġmeadows":11149,"Ġgraceful":11150,"Ġabundant":11151,"Smith":11152,"54":11153,"EBook":11154,"iens":11155,"inety":11156,"replied":11157,"iser":11158,"Ġlance":11159,"enter":11160,"Ġreaches":11161,"agre":11162,"ĠWednesday":11163,"Ġperpet":11164,"phin":11165,"Ġstrain":11166,"Ġattent":11167,"comes":11168,"remained":11169,"passing":11170,"Ġbags":11171,"hallenger":11172,"Ġdenied":11173,"Ġwonders":11174,"Ġthankful":11175,"Ġerror":11176,"ĠMartin":11177,"Ġspinning":11178,"Ġfertile":11179,".-":11180,"bi":11181,"ino":11182,"edar":11183,"Ġcaval":11184,"lls":11185,"Ġlangu":11186,"utt":11187,"ĠSor":11188,"ainty":11189,"ĠHas":11190,"acts":11191,"Ġboiling":11192,"Ġchances":11193,"Ġreluct":11194,"ĠNora":11195,"Ġhorsemen":11196,"ademy":11197,"Ġsignific":11198,"althy":11199,"Ġpatriot":11200,"ferred":11201,"Ġcupboard":11202,"Ġfarmers":11203,"Ġpreferred":11204,"ĠCaes":11205,"oanna":11206,"sign":11207,"Ġhears":11208,"otions":11209,"start":11210,"ĠFriar":11211,"Ġdeaf":11212,"igaw":11213,"Ġgroups":11214,"shore":11215,"Ġmoist":11216,"Ġcheap":11217,"ĠAlbert":11218,"uffs":11219,"ĠDanish":11220,"Ġtorch":11221,"IRD":11222,"Ġlodges":11223,"stitute":11224,"Ġoperation":11225,"Ġfeeding":11226,"Ġingen":11227,"Ġrenewed":11228,"Dick":11229,"main":11230,"nature":11231,"uously":11232,"Ġwag":11233,"Ġcyl":11234,"Ġdur":11235,"Ġdusk":11236,"lement":11237,"ĠTim":11238,"ĠSuff":11239,"ĠMill":11240,"ĠBec":11241,"ĠRing":11242,"Ġdisagreeable":11243,"retch":11244,"ulture":11245,"Ġtelegraph":11246,"Ġtraitor":11247,"Ġleads":11248,"Ġstrangely":11249,"Ġvaliant":11250,"186":11251,"Ġsatisfy":11252,"ikki":11253,"Although":11254,"Ġimmort":11255,"ographical":11256,"Ġsmoking":11257,"ĠMorse":11258,"Ġessential":11259,"Az":11260,"Bill":11261,"TY":11262,"inqu":11263,"Ġdiver":11264,"ĠSa":11265,"ĠLind":11266,"Ġconceived":11267,"Ġjaw":11268,"Ġhasn":11269,"Ġchorus":11270,"Ġimpressed":11271,"Ġlandlord":11272,"azine":11273,"ROW":11274,"Ġceiling":11275,"Ġadmire":11276,"Ġvibr":11277,"athetic":11278,"Ġwarmth":11279,"ĠPlace":11280,"Ġlifting":11281,"Ġidol":11282,"Ġcolonists":11283,"ĠStrong":11284,"waiting":11285,"journey":11286,"ĠUrrea":11287,"Does":11288,"grew":11289,"later":11290,"nir":11291,"Ġowe":11292,"Ġbonds":11293,"Ġbinding":11294,"Ġeternal":11295,"ĠTri":11296,"ĠPil":11297,"ĠRand":11298,"Ġdeceived":11299,"olland":11300,"Ġpoems":11301,"Ġsubd":11302,"Ġsummit":11303,"Ġmusk":11304,"Ġ1864":11305,"Ġstruggling":11306,"Ġcandles":11307,"ĠEarl":11308,"Ġshells":11309,"Ġvigorous":11310,"Ġboughs":11311,"TS":11312,"mates":11313,"Ġ0":11314,"Ġole":11315,"onse":11316,"Ġcush":11317,"ington":11318,"arrived":11319,"stretched":11320,"ĠBu":11321,"ĠCotton":11322,"oples":11323,"ĠLieutenant":11324,"ĠJason":11325,"Ġclergy":11326,"Ġcarries":11327,"Ġcourts":11328,"ĠChicago":11329,"Ġsniff":11330,"Ġbury":11331,"Ġladen":11332,"knife":11333,"Ġdeclare":11334,"Ġowl":11335,"ĠMeanwhile":11336,"Ġgrip":11337,"Ġpirates":11338,"NOTES":11339,"Ġhawk":11340,"Robert":11341,"battle":11342,"Ġsins":11343,"Ġbrig":11344,"Ġpushing":11345,"Ġgiants":11346,"entire":11347,"rift":11348,"rail":11349,"ĠED":11350,"ureka":11351,"inkle":11352,"cia":11353,"rup":11354,"Ġemig":11355,"Ġcoats":11356,"Ġrelative":11357,"sery":11358,"ĠBeat":11359,"Ġinvitation":11360,"Ġbreathed":11361,"Ġmaintain":11362,"Ġmurdered":11363,"Ġdraught":11364,"Ġinvented":11365,"Ġmixture":11366,"Ġcautiously":11367,"Under":11368,"dog":11369,"mess":11370,"national":11371,"rality":11372,"llous":11373,"seus":11374,"separ":11375,"Ġforks":11376,"abbed":11377,"Ġspy":11378,"Ġalas":11379,"Ġgoats":11380,"ĠJess":11381,"Ġarchers":11382,"Ġbrute":11383,"ĠUtter":11384,"Ġglittering":11385,"eymour":11386,"Ġelo":11387,"atson":11388,"Ġeditor":11389,"Ġsends":11390,"Ġprotested":11391,"Ġmodel":11392,"afternoon":11393,"Ġsuccession":11394,"below":11395,"aturally":11396,"ĠTexans":11397,"Ġbulk":11398,"pretty":11399,"Ġtotal":11400,"ĠStephen":11401,"prepared":11402,"ĠBeauty":11403,"Juan":11404,"_.,":11405,"iated":11406,"vict":11407,"Ġstump":11408,"throp":11409,"ĠBat":11410,"ĠOx":11411,"aret":11412,"Ġoldest":11413,"ĠUrsula":11414,"comb":11415,"hoe":11416,"Ġnativs":11417,"ĠĠĠĠĠĠĠĠĠĠĠĠĠĠĠĠĠĠĠĠĠĠĠĠĠĠĠĠĠĠ":11418,"Ġcircular":11419,"Ġwisely":11420,"Ġpressing":11421,"Ġmotionless":11422,"Ġcommunity":11423,"Ġtradition":11424,"natured":11425,"elfth":11426,"vo":11427,"Ġlions":11428,"owgli":11429,"achel":11430,"ĠBetsy":11431,"antages":11432,"Ġju":11433,"Ġparting":11434,"Ġpersec":11435,"conven":11436,"Ġdecent":11437,"ĠAlamo":11438,"Ġintervals":11439,"Ġledge":11440,"Ġafar":11441,"Ġsolitary":11442,"Ġspiritual":11443,"uddin":11444,"Ġremarkably":11445,"OME":11446,"Ġcooking":11447,"Ġyielded":11448,"ĠMeadow":11449,"Ġgigantic":11450,"Ġgoddess":11451,"dam":11452,"iency":11453,"loe":11454,"pull":11455,"Ġdirt":11456,"ĠTill":11457,"agan":11458,"ĠEagle":11459,"Ġknives":11460,"uds":11461,"ometer":11462,"Ġobvious":11463,"meads":11464,"grim":11465,"Ġmeanwhile":11466,"Ġartist":11467,"Ġpolic":11468,"Ġtransport":11469,"Ġauthorities":11470,"Ġaccomplish":11471,"Ġnavy":11472,"ĠTurk":11473,"Ġcreep":11474,"Ġreflection":11475,"Ġdemonstr":11476,"Ġreleased":11477,"HOW":11478,"Sil":11479,"dress":11480,"sitting":11481,"Ġcream":11482,"Ġtoken":11483,"Ġweigh":11484,"ĠMRS":11485,"ĠStutely":11486,"Ġcho":11487,"Ġgotten":11488,"Ġrepent":11489,"ĠForm":11490,"Ġadvise":11491,"Ġpolished":11492,"Ġjoyous":11493,"Ġ150":11494,"instead":11495,"Ġavoided":11496,"Ġapprehens":11497,"Ġgrieved":11498,"ĠNevertheless":11499,"Ġjacket":11500,"Ġuneasy":11501,"ĠPedro":11502,"George":11503,"Wait":11504,"pain":11505,"sar":11506,"says":11507,"trem":11508,"uber":11509,"wixt":11510,"Ġsung":11511,"erted":11512,"Ġinev":11513,"rolled":11514,"ĠMist":11515,"ĠWILLIAM":11516,"ĠLO":11517,"ĠLarsan":11518,"Ġscant":11519,"Ġmoor":11520,"Ġsquadron":11521,"Ġremainder":11522,"Ġmessengers":11523,"Ġenjoying":11524,"laration":11525,"Ġrobbed":11526,"Ġarrangements":11527,"Ġrejoicing":11528,"suppose":11529,"Ġprecaut":11530,"Ġdoubted":11531,"ĠMeadows":11532,"ĠScarlet":11533,"Ġfancied":11534,"Ġtidings":11535,"URE":11536,"craft":11537,"fing":11538,"Ġwiped":11539,"Ġpony":11540,"imately":11541,"ĠHum":11542,"Ġorange":11543,"ĠFA":11544,"uma":11545,"udson":11546,"Ġperish":11547,"Ġsculpt":11548,"develop":11549,"Ġwarrant":11550,"OND":11551,"ĠAllison":11552,"Ġarmor":11553,"Ġpropose":11554,"Ġirregular":11555,"joined":11556,"Ġtenderly":11557,"Ġsprings":11558,"Ġmatches":11559,"Ġblaze":11560,"Ġreminded":11561,"Ġchallenge":11562,"intellig":11563,"ĠCarmel":11564,"Joseph":11565,"MER":11566,"Red":11567,"named":11568,"soft":11569,"Ġbother":11570,"Ġbob":11571,"Ġpaw":11572,"Ġpavilion":11573,"asks":11574,"Ġhook":11575,"owes":11576,"stick":11577,"rocks":11578,"ĠFin":11579,"Ġmaney":11580,"Ġanyway":11581,"Ġquoted":11582,"Ġdeserve":11583,"Ġneedn":11584,"Ġmagist":11585,"Ġcommonly":11586,"Ġneighboring":11587,"Ġveil":11588,"Grandfather":11589,"service":11590,"Ġbriefly":11591,"rockett":11592,"Ġresponded":11593,"48":11594,"General":11595,"bons":11596,"jun":11597,"uine":11598,"ouche":11599,"ĠTob":11600,"ĠSwe":11601,"aby":11602,"ĠDur":11603,"Ġarts":11604,"Ġclapped":11605,"ovel":11606,"deal":11607,"Ġretire":11608,"Ġharness":11609,"Ġharvest":11610,"Ġhearth":11611,"Ġdropping":11612,"Ġillustration":11613,"Ġbloody":11614,"Ġthicket":11615,"ĠPercy":11616,"cended":11617,"Ġrulers":11618,"Ġdivision":11619,"ĠFlossie":11620,"ĠGeorg":11621,"Ġperformance":11622,"changed":11623,"Ġwelcomed":11624,"ĠAnti":11625,"balaua":11626,"Ġdisgust":11627,"Apon":11628,"bia":11629,"iac":11630,"lings":11631,"Ġtun":11632,"Ġsadd":11633,"Ġinit":11634,"Ġyoke":11635,"aylor":11636,"ĠTuesday":11637,"Ġunseen":11638,"Ġflowed":11639,"Ġpeas":11640,"angs":11641,"conce":11642,"Ġmerrily":11643,"Ġassume":11644,"ĠAdam":11645,"Ġdresses":11646,"Ġbanquet":11647,"Ġcruelty":11648,"Ġentertained":11649,"conduct":11650,"ĠCouncil":11651,"LESSON":11652,"43":11653,"Bob":11654,"Each":11655,"West":11656,"gotten":11657,"Ġmart":11658,"ether":11659,"Ġseal":11660,"ĠDynasty":11661,"ĠRat":11662,"Ġrosy":11663,"ĠKad":11664,"Ġmustn":11665,"brothers":11666,"Ġprovision":11667,"Ġsorrowful":11668,"garden":11669,"Ġfilling":11670,"Ġfavourite":11671,"ĠFreder":11672,"Ġarchit":11673,"bottom":11674,"Ġforbidden":11675,"Ġbronze":11676,"Far":11677,"iate":11678,"pock":11679,"Ġmorrow":11680,"anas":11681,"ĠSultan":11682,"ĠME":11683,"Ġrasc":11684,"una":11685,"Ġshrewd":11686,"ources":11687,"ĠRead":11688,"umption":11689,"Ġoutline":11690,"terer":11691,"Ġgrasped":11692,"Ġunconscious":11693,"beat":11694,"clim":11695,"Ġmayst":11696,"ĠStra":11697,"ĠThursday":11698,"Ġcracked":11699,"Ġ55":11700,"Ġwildly":11701,"Ġstudents":11702,"Ġfuneral":11703,"Ġbasis":11704,"Ġdiscipline":11705,"Gl":11706,"Jim":11707,"Kathleen":11708,"Mag":11709,"phan":11710,"uity":11711,"Ġawe":11712,"itan":11713,"Ġdin":11714,"star":11715,"ĠTour":11716,"ĠTau":11717,"ĠAlfred":11718,"ĠCath":11719,"Ġtrot":11720,"Ġunjust":11721,"orned":11722,"ĠUN":11723,"ĠVII":11724,"ORD":11725,"Ġhumor":11726,"Ġstructure":11727,"Ġsleepy":11728,"Ġstrikes":11729,"Ġquarre":11730,"Ġcustoms":11731,"Ġrailway":11732,"Ġconfessed":11733,"Columb":11734,"Ġsurrounding":11735,"Ġdazz":11736,"observed":11737,"ulcie":11738,"Che":11739,"French":11740,"Stop":11741,"eau":11742,"pha":11743,"Ġsly":11744,"Ġgat":11745,"Ġgird":11746,"Ġwasted":11747,"ĠTW":11748,"irth":11749,"Ġreb":11750,"ĠVi":11751,"ials":11752,"Ġelabor":11753,"floor":11754,"Ġassault":11755,"Ġmeetings":11756,"Ġspeaks":11757,"Ġhasty":11758,"Ġcampaign":11759,"Ġsituated":11760,"eese":11761,"Ġsecretly":11762,"ĠOrleans":11763,"Ġclaims":11764,"ĠGlass":11765,"ĠShannon":11766,"Ġafforded":11767,"ĠHorace":11768,"Ġsovereign":11769,"Europe":11770,"nie":11771,"Ġbi":11772,"Ġtoe":11773,"Ġlame":11774,"started":11775,"send":11776,"Ġreef":11777,"ĠSic":11778,"ĠSkin":11779,"ĠMet":11780,"ĠMal":11781,"ĠMerry":11782,"ĠPre":11783,"ĠCamped":11784,"Ġkins":11785,"ounding":11786,"ĠRaven":11787,"ĠNaida":11788,"Ġjars":11789,"forced":11790,"lection":11791,"Ġshallow":11792,"undered":11793,"Ġboast":11794,"Ġhards":11795,"Ġbarrel":11796,"Ġ176":11797,"Ġthickly":11798,"Ġmotive":11799,"Ġdespite":11800,"Ġgravel":11801,"Ġroughly":11802,"ĠCountrey":11803,"ĠRoyal":11804,"ĠIsraelites":11805,"Ġlamps":11806,"Ġlinen":11807,"Ġencouraged":11808,"Black":11809,"determined":11810,"Ġacknowledged":11811,"45":11812,"WARD":11813,"pest":11814,"whis":11815,"ym":11816,"orig":11817,"asil":11818,"Ġhounds":11819,"ota":11820,"Ġbee":11821,"stopped":11822,"sex":11823,"ĠAL":11824,"Ġanon":11825,"Ġkettle":11826,"ĠWr":11827,"Ġsheer":11828,"Ġwhoever":11829,"Ġarrange":11830,"Ġheadmaster":11831,"author":11832,"Ġpleasing":11833,"Ġlearnt":11834,"Ġexplos":11835,"Ġdemocr":11836,"ĠMarquis":11837,"afterwards":11838,"palace":11839,"Ġoccupation":11840,"istocr":11841,"Ġgleaming":11842,"Maybe":11843,"Ġfoam":11844,"Dor":11845,"Hold":11846,"aired":11847,"moved":11848,"Ġbills":11849,"Ġcousins":11850,"Ġinspect":11851,"Ġhats":11852,"ayan":11853,"ĠSP":11854,"ĠSurely":11855,"ĠPerson":11856,"ĠLes":11857,"Ġgoal":11858,"ĠJay":11859,"Ġcanvas":11860,"hibit":11861,"ĠStories":11862,"feather":11863,"Ġchur":11864,"Ġbuzz":11865,"Ġchecked":11866,"useum":11867,"added":11868,"Ġmusical":11869,"carry":11870,"Ġhanged":11871,"Ġwiser":11872,"slowly":11873,"decl":11874,"Ġrags":11875,"ĠTitus":11876,"Ġriches":11877,"Ġholiday":11878,"Ġscholars":11879,"Ġgesture":11880,"beginning":11881,"BY":11882,"REN":11883,"Suppose":11884,"aus":11885,"bul":11886,"wan":11887,"inois":11888,"Ġfasc":11889,"Ġdorm":11890,"Ġdarted":11891,"Ġgarrison":11892,"Ġbeam":11893,"Ġreception":11894,"ador":11895,"Ġwee":11896,"ĠSign":11897,"ĠAbe":11898,"ĠMink":11899,"ĠBa":11900,"ĠBRO":11901,"Ġherds":11902,"Ġhaveing":11903,"berries":11904,"ĠOswald":11905,"Ġproclamation":11906,"orship":11907,"Ġdesires":11908,"Ġacid":11909,"Ġfairies":11910,"Ġdrill":11911,"Ġcapacity":11912,"Ġbounds":11913,"woods":11914,"Ġcomplain":11915,"court":11916,"ĠMcK":11917,"Ġhoarse":11918,"Ġdiamonds":11919,"Ġdisguise":11920,"Ġinferior":11921,"Ġappetite":11922,"Hullo":11923,"bour":11924,"buck":11925,"walk":11926,"Ġtact":11927,"Ġpour":11928,"Ġthorn":11929,"Ġyds":11930,"Ġyelled":11931,"aman":11932,"raised":11933,"Ġdearest":11934,"Ġmothers":11935,"Ġnormal":11936,"probably":11937,"Ġ57":11938,"Ġbeautifully":11939,"Ġmadness":11940,"bushes":11941,"hibited":11942,"quisite":11943,"ĠPersian":11944,"Ġinquiry":11945,"Ġmeasured":11946,"##":11947,"Could":11948,"NE":11949,"east":11950,"obey":11951,"pool":11952,"tion":11953,"uer":11954,"ithe":11955,"Ġmou":11956,"Ġlecture":11957,"roar":11958,"Ġreather":11959,"Ġaloft":11960,"Ġbru":11961,"neither":11962,"Ġscout":11963,"Ġhomeward":11964,"please":11965,"Ġsubmit":11966,"afraid":11967,"ifications":11968,"Ġfootball":11969,"Ġhurrying":11970,"Ġbarrier":11971,"yourself":11972,"Ġdecidedly":11973,"Ġresponse":11974,"Ġconviction":11975,"Ġtraders":11976,"Ġblockade":11977,"ĠClement":11978,"ĠTurkey":11979,"Ġexchanged":11980,"Ġindignation":11981,"Ġtrumpet":11982,"Murdo":11983,"Azyr":11984,"Besides":11985,"Child":11986,"Em":11987,"Hall":11988,"Queen":11989,"Ġwicket":11990,"Ġbicycle":11991,"itar":11992,"itality":11993,"Ġnests":11994,"teris":11995,"kel":11996,"ĠPoint":11997,"Ġray":11998,"ĠRec":11999,"Ġsparrow":12000,"Ġalert":12001,"ĠNone":12002,"Ġjail":12003,"Ġuses":12004,"Ġshapes":12005,"Ġslide":12006,"Ġthoughtfully":12007,"Ġinstances":12008,"Ġsnar":12009,"abouts":12010,"Ġgrowled":12011,"Ġrichly":12012,"greater":12013,"Ġcompanies":12014,"Ġspreading":12015,"Ġbullet":12016,"ĠNeither":12017,"animals":12018,"Ġstrictly":12019,"Ġliquid":12020,"_.--":12021,"bin":12022,"furn":12023,"none":12024,"tor":12025,"tur":12026,"escape":12027,"Ġnerve":12028,"ima":12029,"Ġrecon":12030,"artha":12031,"geant":12032,"Ġgracious":12033,"Ġpassages":12034,"Ġactivities":12035,"Ġcoin":12036,"Ġsunny":12037,"chamber":12038,"Ġinvolved":12039,"Ġstudying":12040,"Ġsurprising":12041,"ĠMarj":12042,"holding":12043,"Ġbabies":12044,"ĠSlid":12045,"Ġkeys":12046,"ĠCHILD":12047,"Ġdiplom":12048,"Ġornaments":12049,"rugged":12050,"ĠEstelle":12051,"circumst":12052,"MAN":12053,"Rep":12054,"food":12055,"hu":12056,"wig":12057,"Ġeh":12058,"ĠMong":12059,"ĠMiles":12060,"ĠGorge":12061,"ĠRad":12062,"ĠRam":12063,"Ġuncommon":12064,"former":12065,"Ġperished":12066,"Ġchanced":12067,"brance":12068,"Ġillness":12069,"beside":12070,"regard":12071,"Ġjudged":12072,"Ġmachines":12073,"Arthur":12074,"Ġtasted":12075,"Ġpigs":12076,"Ġtestimony":12077,"ĠGawaine":12078,"ĠSenate":12079,"Ġinvestig":12080,"Ġcycle":12081,"ĠIceland":12082,"';":12083,"Co":12084,"Lincoln":12085,"gi":12086,"groom":12087,"lady":12088,"Ġdict":12089,"Ġstool":12090,"Ġsturd":12091,"ĠPry":12092,"Ġsooth":12093,"unched":12094,"ĠDa":12095,"Ġclasped":12096,"ountered":12097,"sooth":12098,"Ġstrings":12099,"Ġboil":12100,"Ġcrisis":12101,"Ġsmallest":12102,"Ġhappening":12103,"ĠIndies":12104,"Ġreadiness":12105,"Ġreplaced":12106,"Ġhorseback":12107,"Ġdriver":12108,"ĠGrant":12109,"AMP":12110,"okes":12111,"ĠCarl":12112,"Ġspringing":12113,"Ġgrove":12114,"Ġgroaned":12115,"Ġsternly":12116,"Ġnegroes":12117,"gentleman":12118,"difficult":12119,"Ġfatigue":12120,"Ġindifferent":12121,"Ġpolitics":12122,"Washington":12123,"bone":12124,"holes":12125,"jac":12126,"turning":12127,"Ġwages":12128,"Ġsom":12129,"ouching":12130,"Ġnerves":12131,"Ġweird":12132,"amma":12133,"Ġank":12134,"ĠMight":12135,"ĠFolk":12136,"Ġquit":12137,"udence":12138,"Ġdownstairs":12139,"Ġflowing":12140,"Ġwherein":12141,"Ġprett":12142,"Ġterribly":12143,"Ġterrified":12144,"Ġribs":12145,"liked":12146,"ottie":12147,"iterranean":12148,"ĠQue":12149,"Ġescaping":12150,"Ġstripped":12151,"Ġdreaming":12152,"holders":12153,"ulsion":12154,"ĠPhilistines":12155,"remembered":12156,"GHT":12157,"fields":12158,"finger":12159,"mbers":12160,"pend":12161,"watch":12162,"warm":12163,"Ġ]":12164,"Ġpouring":12165,"Ġhint":12166,"leaves":12167,"ĠTag":12168,"ĠAld":12169,"ĠHER":12170,"ĠDistributed":12171,"rake":12172,"ummond":12173,"Ġmans":12174,"ousers":12175,"igher":12176,"acking":12177,"jected":12178,"ruit":12179,"Andre":12180,"spoke":12181,"flies":12182,"Ġapproval":12183,"Ġdefense":12184,"ĠSTOR":12185,"Ġ1860":12186,"shoulder":12187,"Ġcouch":12188,"Ġsteamer":12189,"Ġtrader":12190,"Ġpolitely":12191,"Ġcherry":12192,"Ġmanufacture":12193,"31":12194,"London":12195,"dread":12196,"lives":12197,"talk":12198,"walked":12199,"inch":12200,"alia":12201,"ĠSid":12202,"ĠAD":12203,"ĠAst":12204,"Ġnotwithstanding":12205,"ilful":12206,"ĠHence":12207,"ĠPo":12208,"unned":12209,"Ġsphere":12210,"Ġalway":12211,"Ġpluck":12212,"Ġleagues":12213,"Ġpeb":12214,"ciously":12215,"Ġchum":12216,"ĠVal":12217,"Ġopinions":12218,"ĠUniversity":12219,"arson":12220,"azed":12221,"ĠRoom":12222,"Ġstatues":12223,"OOL":12224,"Ġrecognised":12225,"Ġenjoyment":12226,"Ġofficials":12227,"ĠCrus":12228,"Ġseventh":12229,"interesting":12230,"ĠUpmeads":12231,"Down":12232,"Ruth":12233,"tom":12234,"Ġwoo":12235,"Ġdart":12236,"storm":12237,"Ġyawn":12238,"Ġforb":12239,"ĠSCH":12240,"ĠSuppose":12241,"Ġstake":12242,"ĠHell":12243,"Ġrattle":12244,"unci":12245,"ĠElectric":12246,"ĠNetta":12247,"Ġripp":12248,"sugg":12249,"Ġdiffer":12250,"Ġexciting":12251,"Ġfortnight":12252,"Ġmodest":12253,"ĠHarriet":12254,"Ġneglected":12255,"Ġoperations":12256,"ĠErnest":12257,"Thanks":12258,"Ġnaval":12259,"faith":12260,"Ġechoed":12261,"Ġchampion":12262,"fashioned":12263,"James":12264,"save":12265,"Ġshat":12266,"erity":12267,"Ġtom":12268,"oral":12269,"Ġpiano":12270,"Ġthres":12271,"ĠSay":12272,"ĠHay":12273,"ĠHudson":12274,"ĠBre":12275,"Ġraces":12276,"Ġshots":12277,"olence":12278,"ĠRhod":12279,"ctions":12280,"Ġuncomfortable":12281,"Ġdisorder":12282,"cled":12283,"Ġdescent":12284,"Ġchannel":12285,"Ġ41":12286,"Ġinterval":12287,"Ġpayment":12288,"Ġinvol":12289,"ĠEnglishmen":12290,"Ġconcent":12291,"couldn":12292,"office":12293,"Ġprincipally":12294,"neck":12295,"Uncle":12296,"Ġsurviv":12297,"ĠAfrican":12298,"burgh":12299,"strugg":12300,"Ġborrowed":12301,"ĠUtterbol":12302,"bag":12303,"jah":12304,"press":12305,"shed":12306,"Ġfitting":12307,"Ġef":12308,"irits":12309,"ĠSum":12310,"Ġath":12311,"ĠBOOK":12312,"Ġrowed":12313,"ĠWatson":12314,"ĠDuke":12315,"ĠEight":12316,"ĠNome":12317,"Ġleapt":12318,"Ġbrace":12319,"Ġmonsters":12320,"Ġ59":12321,"keness":12322,"ificial":12323,"Ġstrife":12324,"Ġ75":12325,"Ġdestined":12326,"Ġobjection":12327,"Ġverse":12328,"Ġremembering":12329,"Ġdispatched":12330,"belong":12331,"Ġeducated":12332,"Ġexercises":12333,"ĠCalifornia":12334,"Ġnarrative":12335,"AIL":12336,"ICH":12337,"Something":12338,"pan":12339,"rade":12340,"Ġwo":12341,"Ġbunch":12342,"ede":12343,"Ġfring":12344,"ĠId":12345,"rost":12346,"Ġstumbled":12347,"ĠPope":12348,"ĠChi":12349,"ĠCalled":12350,"uny":12351,"olph":12352,"ĠDear":12353,"ĠEben":12354,"ĠEgbert":12355,"Ġbrack":12356,"Ġslid":12357,"ĠStark":12358,"Ġconsisting":12359,"contr":12360,"Ġformidable":12361,"Ġrelax":12362,"ITIONS":12363,"whatever":12364,"Ġspeck":12365,"Ġrealm":12366,"Ġvaried":12367,"Ġcalf":12368,"ASS":12369,"Ġringing":12370,"Ġfaithfully":12371,"pointed":12372,"Ġoccupy":12373,"friendly":12374,"ĠMinister":12375,"finite":12376,"servants":12377,"Ġsorely":12378,"penny":12379,"Ġgloves":12380,"Ġgrinned":12381,"Ġzeal":12382,"dig":12383,"fat":12384,"hours":12385,"wear":12386,"heavy":12387,"Ġhob":12388,"Ġlass":12389,"Ġramp":12390,"Ġworried":12391,"ĠFoanna":12392,"ummy":12393,"Ġaliens":12394,"Ġpledge":12395,"Ġprejud":12396,"Ġnecks":12397,"aneous":12398,"Ġaffect":12399,"Thor":12400,"Ġanguish":12401,"Ġsquee":12402,"Ġlocks":12403,"Ġdevils":12404,"ennie":12405,"amental":12406,"Ġemployment":12407,"minutes":12408,"Ġtravels":12409,"ĠDora":12410,"Ġpicking":12411,"Ġgleam":12412,"Ġheaps":12413,"Ġgrimly":12414,"Ġnewspaper":12415,"Ġuniversal":12416,"Ġachieve":12417,"32":12418,"Jesus":12419,"Make":12420,"UB":12421,"chard":12422,"lod":12423,"Ġfiend":12424,"Ġpad":12425,"Ġpaces":12426,"Ġpanic":12427,"icoe":12428,"Ġrebellion":12429,"Ġfors":12430,"andra":12431,"allow":12432,"ĠCL":12433,"icholas":12434,"ĠGard":12435,"istry":12436,"osite":12437,"Ġcommence":12438,"Ġconsul":12439,"Ġcoloured":12440,"Ġmines":12441,"Ġvisits":12442,"Ġbelly":12443,"Ġdispute":12444,"Ġcharacteristic":12445,"Ġoccurs":12446,"Ġnorthward":12447,"portion":12448,"Ġlaboratory":12449,"Ġcircumstance":12450,"Ġturf":12451,"Ġlacking":12452,"Ġpierced":12453,"Ġobservations":12454,"EP":12455,"Tw":12456,"bank":12457,"iop":12458,"ko":12459,"ena":12460,"Ġinhabited":12461,"Ġninety":12462,"Ġseizing":12463,"ĠCub":12464,"orence":12465,"Ġshields":12466,"ulars":12467,"Ġdoings":12468,"Ġviz":12469,"Ġvault":12470,"Ġarea":12471,"Ġspun":12472,"Ġbrand":12473,"Ġloos":12474,"Ġworlds":12475,"Ġstealing":12476,"Ġbabe":12477,"Ġtroop":12478,"arnes":12479,"Ġelders":12480,"Ġrubbing":12481,"Ġfaintly":12482,"fortunately":12483,"Ġprecisely":12484,"Ġenthusi":12485,"Small":12486,"Ġembarrass":12487,"ĠEliza":12488,"Ġdischarge":12489,"ĠJonathan":12490,"Ġholidays":12491,"rynhild":12492,"learned":12493,"=.":12494,"AF":12495,"Bart":12496,"Mon":12497,"Sec":12498,"_,\"":12499,"cott":12500,"ipper":12501,"living":12502,"raged":12503,"Ġberry":12504,"Ġcore":12505,"Ġports":12506,"imin":12507,"ĠGolden":12508,"henomen":12509,"Ġshelf":12510,"ĠOcean":12511,"bei":12512,"Ġunderground":12513,"Ġremedy":12514,"Ġending":12515,"liest":12516,"Ġhighway":12517,"Ġdoubtful":12518,"Ġdragging":12519,"Ġscreaming":12520,"Ġprocure":12521,"Ġprocured":12522,"Ġancestors":12523,"Henry":12524,"ĠButterfly":12525,"Sunday":12526,"Upon":12527,"bows":12528,"kill":12529,"mur":12530,"mach":12531,"sky":12532,"tin":12533,"Ġwhar":12534,"requ":12535,"Ġpul":12536,"accept":12537,"Ġrevel":12538,"adle":12539,"Ġwholes":12540,"amouche":12541,"ĠHold":12542,"Ġsofa":12543,"Ġbutcher":12544,"ĠLinton":12545,"Ġquaint":12546,"udrun":12547,"ĠKate":12548,"Ġslim":12549,"ĠThy":12550,"Ġbrood":12551,"flowers":12552,"ĠPrarie":12553,"Ġpossessions":12554,"Ġmotives":12555,"ĠRev":12556,"Ġinsult":12557,"Ġmainly":12558,"Ġsatisfactory":12559,"Ġregarding":12560,"Ġoccasional":12561,"certainly":12562,"Ġrubber":12563,"coloured":12564,"Ġnursery":12565,"Ġsolemnly":12566,"________":12567,"Ġimpatiently":12568,"Ġsleeve":12569,"Ġleisure":12570,"Ben":12571,"Saturday":12572,"mel":12573,"Ġtank":12574,"Ġaided":12575,"iner":12576,"Ġoven":12577,"Ġcrooked":12578,"Ġdainty":12579,"Ġpump":12580,"atoes":12581,"acer":12582,"ĠTin":12583,"ura":12584,"ĠMak":12585,"ĠCre":12586,"ola":12587,"Ġvap":12588,"aston":12589,"ĠRun":12590,"ĠOliver":12591,"ĠJa":12592,"Ġproclaimed":12593,"Ġclinging":12594,"ends":12595,"Ġbetwixt":12596,"peare":12597,"Young":12598,"Ġcrouched":12599,"showed":12600,"Ġcharity":12601,"Ġopenly":12602,"Ġcurled":12603,"Ġsnatched":12604,"Ġverity":12605,"Ġencounter":12606,"ortunately":12607,"annah":12608,"command":12609,"Ġproceeding":12610,"Ġscratch":12611,"Ġgarment":12612,"advantage":12613,"Ġtendency":12614,"Ġcamera":12615,"travel":12616,"Ġprimitive":12617,"soldiers":12618,"ĠKentucky":12619,"49":12620,"Government":12621,"Ye":12622,"bable":12623,"wick":12624,"yellow":12625,"athi":12626,"ĠTrist":12627,"Ġreass":12628,"ĠSeymour":12629,"terrible":12630,"ilton":12631,"ĠMY":12632,"ĠRel":12633,"ĠEllen":12634,"Ġjug":12635,"Ġflocks":12636,"ango":12637,"iping":12638,"Ġentr":12639,"ictor":12640,"Ġinduce":12641,"Ġdelic":12642,"ibilities":12643,"ĠCliges":12644,"ĠPerseus":12645,"Ġjourneyed":12646,"Ġvictims":12647,"Ġspoiled":12648,"Ġfloat":12649,"burst":12650,"hunting":12651,"ĠRocky":12652,"Ġtalent":12653,"Ġpreceding":12654,"Ġwigw":12655,"Ġgymn":12656,"Ġtriumphant":12657,"codile":12658,"60":12659,"Ste":12660,"Sara":12661,"wish":12662,"Ġcad":12663,"Ġms":12664,"Ġmes":12665,"Ġmound":12666,"Ġpanting":12667,"uther":12668,"ĠTurtle":12669,"Ġconsequently":12670,"ĠJen":12671,"Ġunwilling":12672,"oys":12673,"Ġscreen":12674,"Ġglare":12675,"Ġswarm":12676,"ĠVIII":12677,"ensity":12678,"Ġmarching":12679,"Ġprominent":12680,"OUSE":12681,"Through":12682,"Ġdevotion":12683,"somewhat":12684,"impossible":12685,"Ġinquire":12686,"Ġhostile":12687,"Ġtimid":12688,"Ġwinning":12689,"broke":12690,"Ġbuffaloe":12691,"Ġporch":12692,"Ġswallow":12693,"Ġhistorical":12694,"Ġbetrayed":12695,"Ġmarvellous":12696,"Ġenchanted":12697,"tight":12698,"Ġtan":12699,"Ġaer":12700,"Ġborders":12701,"Ġlane":12702,"Ġnonsense":12703,"ĠTower":12704,"Ġwhipped":12705,"Ġstamped":12706,"Ġattain":12707,"ĠMem":12708,"ĠHalf":12709,"ĠPel":12710,"ĠCir":12711,"Ġrider":12712,"resist":12713,"ĠDulcie":12714,"ĠEureka":12715,"aren":12716,"Ġamusing":12717,"Ġperched":12718,"Ġcontempl":12719,"gging":12720,"Ġtreasures":12721,"Ġgenerals":12722,"Ġoriginally":12723,"Ġannounce":12724,"slave":12725,"Ġlodging":12726,"iskos":12727,"Ġgrav":12728,"ĠCampbell":12729,"Ġoxen":12730,"Ġelephants":12731,"Ġwriters":12732,"Ġkneeling":12733,"Ġivory":12734,"Ġtravellers":12735,"mil":12736,"suc":12737,"sitation":12738,"Ġbapt":12739,"itively":12740,"Ġdyn":12741,"Ġheel":12742,"Ġhesitation":12743,"Ġgale":12744,"ĠTeddy":12745,"ĠAustr":12746,"thirty":12747,"ĠFa":12748,"Ġspur":12749,"ollo":12750,"Ġflav":12751,"Ġchoked":12752,"Ġbored":12753,"Ġcheese":12754,"Ġexplo":12755,"CTION":12756,"score":12757,"ĠWithin":12758,"AME":12759,"Ġconsiderably":12760,"ĠEdith":12761,"desp":12762,"Ġvalleys":12763,"secret":12764,"writing":12765,"Ġorganization":12766,"Ġproudly":12767,"Ġmirth":12768,"ĠShaw":12769,"Ġbravery":12770,"Ġwhistled":12771,"Ġwhistling":12772,"north":12773,"walls":12774,"silver":12775,"Ġretainers":12776,"beneath":12777,"ĠGeorgia":12778,"civil":12779,"Ġafore":12780,"Ġbamboo":12781,"Ġcig":12782,"Ġreform":12783,"rival":12784,"ĠThebes":12785,"Ġplent":12786,"icker":12787,"ĠKab":12788,"ften":12789,"Ġsmith":12790,"Ġundertake":12791,"venth":12792,"meant":12793,"Ġskies":12794,"proceeded":12795,"Ġintim":12796,"axe":12797,"encing":12798,"Ġpromises":12799,"Ġjudges":12800,"Ġdemands":12801,"Ġtravelers":12802,"Ġsuspended":12803,"commun":12804,"evil":12805,"Ġhymn":12806,"ĠFarley":12807,"Ġgenuine":12808,"Ġcells":12809,"Ġrecorded":12810,"Ġcommented":12811,"abbath":12812,"Ġpronounced":12813,"Ġobedience":12814,"Ġworshipped":12815,"Ġburglar":12816,"Hur":12817,"brew":12818,"cre":12819,"maker":12820,"rad":12821,"summer":12822,"voc":12823,"Ġfuss":12824,"athed":12825,"Ġlent":12826,"ceiving":12827,"allowed":12828,"ĠPa":12829,"ĠPop":12830,"ĠCovered":12831,"unting":12832,"usty":12833,"Ġsuited":12834,"ĠEric":12835,"Ġworkers":12836,"ĠUt":12837,"Ġdesolate":12838,"Ġsworn":12839,"ĠChloe":12840,"shown":12841,"rents":12842,"eye":12843,"Ġminor":12844,"ĠClare":12845,"ĠAdela":12846,"Ġadmired":12847,"Ġheavenly":12848,"Ġcrews":12849,"Ġscratched":12850,"Ġimproved":12851,"Ġdebate":12852,"ĠSigmund":12853,"frequently":12854,"ĠAthens":12855,"died":12856,"gency":12857,"nation":12858,"sort":12859,"sized":12860,"Ġbully":12861,"Ġpail":12862,"ĠTurn":12863,"ĠPuddin":12864,"ĠCarr":12865,"ĠChallenger":12866,"ĠCrockett":12867,"Ġvital":12868,"ĠDO":12869,"umbs":12870,"Ġspray":12871,"Ġwouldst":12872,"Ġclust":12873,"ĠKor":12874,"Ġcargo":12875,"obed":12876,"attery":12877,"conv":12878,"shout":12879,"ethryn":12880,"Ġfearing":12881,"OUN":12882,"ĠAllan":12883,"Ġbrightly":12884,"Ġpatiently":12885,"Ġheroic":12886,"symp":12887,"Ġcomforted":12888,"IRST":12889,"Ġdollar":12890,"easily":12891,"Ġstockings":12892,"Ġharbor":12893,"Ġsobbed":12894,"ĠBOYS":12895,"Ġepis":12896,"Ġdreary":12897,"ĠAdelaide":12898,"Cur":12899,"FIN":12900,"kne":12901,"sides":12902,"influ":12903,"veland":12904,"alling":12905,"Ġrash":12906,"employ":12907,"Ġvile":12908,"ĠDep":12909,"indere":12910,"ĠRak":12911,"Ġexclus":12912,"ĠNag":12913,"arecrow":12914,"Ġscared":12915,"ssuri":12916,"ĠArt":12917,"Ġguided":12918,"Ġparrot":12919,"ĠNorris":12920,"Ġsnakes":12921,"understood":12922,"Ġspeaker":12923,"keys":12924,"echn":12925,"considered":12926,"expression":12927,"century":12928,"Ġversions":12929,"Ġcolonial":12930,"Ġexpressions":12931,"Ġdesigns":12932,"Ġjewel":12933,"ĠOutwood":12934,"Ġscrews":12935,"Ġstretching":12936,"Ġromance":12937,"Ġabandon":12938,"ĠIllinois":12939,"Ġcultivated":12940,"Ġpudding":12941,"Ġspecimen":12942,"Ġdismissed":12943,"alayapan":12944,"inderella":12945,"Both":12946,"Over":12947,"hills":12948,"lam":12949,"late":12950,"ov":12951,"Ġtribute":12952,"Ġcove":12953,"Ġtoy":12954,"Ġpenn":12955,"Ġhight":12956,"Ġhuts":12957,"Ġlamb":12958,"ĠAB":12959,"Ġanigh":12960,"Ġanaly":12961,"Ġattained":12962,"ĠMowgli":12963,"Ġhermit":12964,"oland":12965,"ieft":12966,"nton":12967,"ĠDer":12968,"ĠDuc":12969,"Ġtherewith":12970,"Ġtraged":12971,"Ġpartner":12972,"Ġdesigned":12973,"Ġchildish":12974,"ĠVd":12975,"convers":12976,"Ġadvoc":12977,"Ġwidely":12978,"Ġcares":12979,"Ġirrit":12980,"Ġera":12981,"Ġtravelling":12982,"ĠCrab":12983,"Ġeastward":12984,"fellows":12985,"Ġresponsibility":12986,"Ġperfection":12987,"Ġimprovement":12988,"generally":12989,"Ġchuckled":12990,"Ġmanifest":12991,"ĠBeatrice":12992,"Lady":12993,"Southern":12994,"coun":12995,"acre":12996,"Ġallowing":12997,"unition":12998,"usal":12999,"usky":13000,"ĠFive":13001,"ĠRey":13002,"Ġabolition":13003,"Ġjam":13004,"Ġblot":13005,"Ġscow":13006,"Ġchoo":13007,"Ġchicken":13008,"ventures":13009,"mead":13010,"Ġintimate":13011,"Ġsweat":13012,"Ġassigned":13013,"ĠClay":13014,"Ġspecially":13015,"Ġvolumes":13016,"ĠRobinson":13017,"Ġfreed":13018,"ĠGlad":13019,"footed":13020,"Ġbirthday":13021,"Ġdigging":13022,"Ġexhaust":13023,"Ġstubborn":13024,"Je":13025,"Whe":13026,"obl":13027,"sor":13028,"tim":13029,"isha":13030,"Ġcured":13031,"Ġpouch":13032,"Ġpsych":13033,"oma":13034,"uty":13035,"Ġweighed":13036,"Ġwhirled":13037,"church":13038,"ifting":13039,"ĠCru":13040,"emper":13041,"Ġshorter":13042,"Ġsupre":13043,"elope":13044,"istent":13045,"raz":13046,"Ġdealt":13047,"Ġlikeness":13048,"beard":13049,"aterpill":13050,"rene":13051,"Ġendless":13052,"Ġserving":13053,"plend":13054,"Ġemotions":13055,"ONE":13056,"brush":13057,"Ġrounded":13058,"Ġintently":13059,"Ġcalam":13060,"Alice":13061,"Ġcomfortably":13062,"Ġpitched":13063,"Ġsouthward":13064,"Ġbullets":13065,"telling":13066,"Ġrejoice":13067,"Ġvirtues":13068,"Ġdrifted":13069,"Ġcups":13070,"favor":13071,"Ġcongrat":13072,"ĠGREAT":13073,"ĠCaesar":13074,"cru":13075,"cular":13076,"lower":13077,"pos":13078,"swe":13079,"zell":13080,"reem":13081,"Ġcaves":13082,"ingle":13083,"escap":13084,"Ġlain":13085,"leigh":13086,"icut":13087,"iration":13088,"Ġretained":13089,"Ġstately":13090,"ĠMade":13091,"Ġkite":13092,"ĠWay":13093,"ĠGil":13094,"ĠOm":13095,"Ġtrading":13096,"weed":13097,"ĠKo":13098,"Ġolden":13099,"Ġslack":13100,"pses":13101,"obile":13102,"Ġrepair":13103,"Ġrecalled":13104,"Ġ58":13105,"Ġbelieving":13106,"rers":13107,"Ġcasting":13108,"wouldn":13109,"Ġtransformed":13110,"Ġsweetly":13111,"Ġfrontier":13112,"Ġobjected":13113,"kespeare":13114,"garde":13115,"Ġnegot":13116,"Ġneglect":13117,"surpr":13118,"Ġdusty":13119,"Ġdeserved":13120,"Ġproblems":13121,"delight":13122,"Ġmourning":13123,"Ġcriminal":13124,"Ġambition":13125,"Ġcrazy":13126,"Ġtooth":13127,"Ġlun":13128,"leaving":13129,"Ġgoss":13130,"ĠInt":13131,"ĠSold":13132,"ĠBumper":13133,"uncle":13134,"Ġshops":13135,"Ġsucc":13136,"Ġdove":13137,"oli":13138,"ĠDet":13139,"ĠObed":13140,"Ġpeered":13141,"Ġdistressed":13142,"mean":13143,"hipm":13144,"Ġsymb":13145,"Ġlowest":13146,"Ġapproved":13147,"Ġfortress":13148,"Ġmode":13149,"Ġestim":13150,"yrus":13151,"cycle":13152,"ooner":13153,"rection":13154,"ynch":13155,"Ġrepresentative":13156,"marked":13157,"hotep":13158,"phet":13159,"Ġsprung":13160,"Ġrescued":13161,"ĠRemember":13162,"Ġconsequences":13163,"Ġfortunes":13164,"Ġfragments":13165,"destroy":13166,"creatures":13167,"oscoe":13168,"Ġdilig":13169,"frightened":13170,"Ġbewildered":13171,"Ġencampment":13172,"Ġsupreme":13173,"Russell":13174,"Sha":13175,"pine":13176,"rising":13177,"yards":13178,"itations":13179,"Ġnay":13180,"leaf":13181,"Ġgau":13182,"ĠSides":13183,"ĠSize":13184,"ĠSkins":13185,"ĠMir":13186,"ĠHast":13187,"abama":13188,"olic":13189,"istics":13190,"Ġcanst":13191,"Ġrightly":13192,"Ġbestowed":13193,"ATE":13194,"ĠClowes":13195,"Ġvolcan":13196,"ĠReg":13197,"visions":13198,"Ġgallop":13199,"Ġpraised":13200,"Ġcontrast":13201,"Ġhealthy":13202,"Ġreverence":13203,"Ġdelayed":13204,"penter":13205,"Ġcitizen":13206,"Ġcomrade":13207,"Ġawaiting":13208,"Ġinstitutions":13209,"ĠFrancisco":13210,"Ġcavalry":13211,"Cr":13212,"Friend":13213,"cord":13214,"Ġwider":13215,"Ġsed":13216,"Ġbald":13217,"Ġbounded":13218,"enjoy":13219,"Ġlid":13220,"Ġemancipation":13221,"ĠTiger":13222,"Ġreigned":13223,"ĠSC":13224,"ĠCAR":13225,"elia":13226,"ava":13227,"Ġboar":13228,"Ġbuggy":13229,"ONS":13230,"Ġkeeper":13231,"Ġforemost":13232,"ibal":13233,"Ġassisted":13234,"Ġoppressed":13235,"Thom":13236,"ternity":13237,"prevent":13238,"Ġthickness":13239,"athemat":13240,"Ġgardener":13241,"Ġdivide":13242,"ontal":13243,"Ġmutual":13244,"ĠBabylon":13245,"Ġmiracle":13246,"Ġfavourable":13247,"Ġbasin":13248,"Ġdistinguish":13249,"Ġaccompanying":13250,"Ġintentions":13251,"Ġembrace":13252,"Ġasserted":13253,"Ġravine":13254,"Ġbondage":13255,"Ġlatest":13256,"Ġprivilege":13257,"ĠConnect":13258,").]":13259,"dressed":13260,"iary":13261,"ooth":13262,"tro":13263,"Ġmac":13264,"Ġmonsieur":13265,"ester":13266,"Ġducks":13267,"Ġgal":13268,"Ġeve":13269,"ĠHop":13270,"Ġmeek":13271,"ersed":13272,"ĠRound":13273,"Ġconceive":13274,"udg":13275,"Ġendured":13276,"ustrated":13277,"mengarde":13278,"Ġ66":13279,"Ġcurved":13280,"Ġstaying":13281,"ĠCharley":13282,"Ġglasses":13283,"Ġtremble":13284,"Ġprevailed":13285,"Ġundoubtedly":13286,"promise":13287,"ĠJacques":13288,"ĠSquire":13289,"Ġcautious":13290,"ĠCollins":13291,"Ġgreeting":13292,"pathia":13293,"Ġembraced":13294,"thrown":13295,"ĠSERIES":13296,"42":13297,"Cor":13298,"hide":13299,"sick":13300,"Ġbang":13301,"itating":13302,"Ġmand":13303,"anqu":13304,"Ġlined":13305,"Ġgor":13306,"lymp":13307,"Ġreview":13308,"ĠMas":13309,"ĠHolland":13310,"ĠGoose":13311,"Ġdoom":13312,"Ġvary":13313,"ĠRight":13314,"ctic":13315,"ittered":13316,"ĠEve":13317,"ĠNobody":13318,"Ġcanal":13319,"Ġuna":13320,"Ġterrific":13321,"ĠChop":13322,"Ġchased":13323,"Ġcuts":13324,"Ġawaken":13325,"coal":13326,"Ġpatron":13327,"content":13328,"Ġattendants":13329,"Ġcrowned":13330,"Ġwitnesses":13331,"Ġemphat":13332,"wheel":13333,"Ġfilm":13334,"Ġapolog":13335,"Ġaffectionate":13336,"Ġemerged":13337,"Ġexperiences":13338,"Ġannoyed":13339,"Ġloyal":13340,"Ġportrait":13341,"Im":13342,"breath":13343,"fool":13344,"lace":13345,"hero":13346,"Ġcards":13347,"Ġduly":13348,"Ġdynasty":13349,"ĠIX":13350,"Ġyouths":13351,"riers":13352,"quence":13353,"estone":13354,"ĠLottie":13355,"ella":13356,"umerable":13357,"ĠJos":13358,"Ġprogram":13359,"venant":13360,"ffic":13361,"Ġbricks":13362,"cling":13363,"Ġsled":13364,"oots":13365,"inside":13366,"Ġsteered":13367,"Ġ56":13368,"parts":13369,"ĠProt":13370,"ĠBeast":13371,"Ġ95":13372,"iverse":13373,"Ġcomplaint":13374,"Ġmaintained":13375,"Ġdreadfully":13376,"Ġtongues":13377,"lasting":13378,"inguian":13379,"Ġresemblance":13380,"sufficient":13381,"Ġexceeding":13382,"leston":13383,"Ġtranslated":13384,"ĠHawk":13385,"enemy":13386,"Ġtonight":13387,"familiar":13388,"Capt":13389,"Has":13390,"hid":13391,"sam":13392,"slight":13393,"Ġwrecked":13394,"oug":13395,"Ġfret":13396,"enched":13397,"Ġcel":13398,"Ġtow":13399,"arant":13400,"stant":13401,"entor":13402,"ayemon":13403,"alan":13404,"ĠSage":13405,"ĠMISS":13406,"ĠPor":13407,"Ġrab":13408,"Ġrained":13409,"quake":13410,"Ġdod":13411,"Ġvice":13412,"ĠLuc":13413,"Ġmane":13414,"Ġtram":13415,"Ġflashing":13416,"tyard":13417,"expect":13418,"Ġrepublic":13419,"Ġcrust":13420,"Ġminded":13421,"Ġ42":13422,"Ġredd":13423,"ĠĠĠĠĠĠĠĠĠĠĠĠĠĠĠĠĠĠĠĠĠĠĠĠĠĠĠĠĠĠĠ":13424,"ructed":13425,"Ġpaste":13426,"Ġsque":13427,"asket":13428,"ĠLeete":13429,"ettice":13430,"IRL":13431,"fleet":13432,"Ġbridegroom":13433,"Ġglee":13434,"Ġinstructed":13435,"Ġindustrial":13436,"Comm":13437,"Ġpersuade":13438,"ĠJudge":13439,"Ġsenior":13440,"Christian":13441,"Ġconveyed":13442,"ĠWyatt":13443,"Travis":13444,"Ġinserted":13445,"ĠSlidell":13446,"ĠPryor":13447,"hipmunk":13448,"56":13449,"Four":13450,"Sit":13451,"aum":13452,"lab":13453,"ns":13454,"surely":13455,"sharp":13456,"youth":13457,"Ġcited":13458,"Ġdome":13459,"Ġpots":13460,"ĠSin":13461,"threat":13462,"Ġraid":13463,"Ġweren":13464,"Ġsullen":13465,"Ġaltered":13466,"igi":13467,"areth":13468,"Ġoffence":13469,"orne":13470,"phys":13471,"Ġchickens":13472,"Ġlookt":13473,"Ġwarfare":13474,"Ġlighter":13475,"Ġparlor":13476,"Ġcertainty":13477,"axter":13478,"flower":13479,"Ġpasture":13480,"arently":13481,"Ġsuccessfully":13482,"Ġbowling":13483,"Ġdealing":13484,"ĠCharteris":13485,"ĠSammy":13486,"Ġinspection":13487,"Ġcorresponding":13488,"Ġtotally":13489,"wonderful":13490,"ĠBrook":13491,"Ġtwinkling":13492,"Ġnineteen":13493,"Dane":13494,"Pol":13495,"erest":13496,"lit":13497,"Ġsire":13498,"Ġcul":13499,"Ġdivers":13500,"ila":13501,"ĠPot":13502,"ĠChap":13503,"ĠWm":13504,"ĠGraham":13505,"ieu":13506,"ieving":13507,"Ġvul":13508,"ĠDiskos":13509,"ello":13510,"Ġexquisite":13511,"ĠOl":13512,"Ġtrousers":13513,"Ġworkmen":13514,"avement":13515,"Ġsmashed":13516,"Ġresources":13517,"Ġchal":13518,"Ġspeeches":13519,"Ġpromising":13520,"versed":13521,"Ġdeepest":13522,"Ġangles":13523,"ĠEnglishman":13524,"Ġfaults":13525,"Ġobserving":13526,"Ġlieutenant":13527,"chet":13528,"shoulders":13529,"Ġrapids":13530,"married":13531,"Ġsticking":13532,"Ġharmless":13533,"Ġthreatening":13534,"Ġ1857":13535,"decided":13536,"Ġbaskets":13537,"Ġnavig":13538,"Princess":13539,"Ġhesitate":13540,"Ġtempted":13541,"Ġlegends":13542,"Ġadministration":13543,"Ġsecrets":13544,"Ġsturdy":13545,"latter":13546,"Ġtearing":13547,"island":13548,"Ġhire":13549,"ĠTaylor":13550,"Ġweeds":13551,"tery":13552,"thro":13553,"ĠHope":13554,"Ġrug":13555,"ĠLiber":13556,"osa":13557,"Ġtray":13558,"Ġdislike":13559,"Ġflu":13560,"blem":13561,"bless":13562,"Ġponder":13563,"Ġscales":13564,"izz":13565,"ĠVye":13566,"Ġtries":13567,"Ġstrongest":13568,"ĠSeven":13569,"Ġjoyful":13570,"Ġwarmly":13571,"Ġforgetting":13572,"ĠEverything":13573,"Ġcombination":13574,"ĠAnton":13575,"Ġrejoined":13576,"magn":13577,"condition":13578,"darkness":13579,"equal":13580,"ĠSpecies":13581,"Ġneatly":13582,"Ġpearls":13583,"Ġharmony":13584,"92":13585,"bat":13586,"golden":13587,"material":13588,"oid":13589,"pole":13590,"Ġauth":13591,"inhabit":13592,"Ġfuriously":13593,"Ġpant":13594,"Ġhailed":13595,"Ġbeef":13596,"stro":13597,"ithmet":13598,"adually":13599,"ĠSac":13600,"urbed":13601,"abao":13602,"ĠDuck":13603,"Ġextending":13604,"geons":13605,"ĠNational":13606,"Ġplunder":13607,"Ġenv":13608,"clad":13609,"Ġbackground":13610,"Ġloop":13611,"Ġrighteous":13612,"Ġpleaded":13613,"ORN":13614,"prove":13615,"Ġregards":13616,"Ġearthly":13617,"Ġtrifle":13618,"Ġdeprived":13619,"Ġlimits":13620,"Ġcircles":13621,"Ġencountered":13622,"Ġcaptives":13623,"Ġthrob":13624,"ĠTerra":13625,"Ġwitnessed":13626,"Conf":13627,"carefully":13628,"Ġculture":13629,"Ġreckless":13630,"Ġcrawl":13631,"ĠBoys":13632,"companions":13633,"Ġnineteenth":13634,"Ġbuttons":13635,"anasief":13636,"ĠSTORIES":13637,"Cle":13638,"Gwen":13639,"KE":13640,"Ric":13641,"cu":13642,"cill":13643,"dale":13644,"goes":13645,"history":13646,"Ġtack":13647,"Ġware":13648,"isms":13649,"aration":13650,"ĠTu":13651,"ĠSabbath":13652,"Ġsting":13653,"Ġsoap":13654,"toe":13655,"ĠGra":13656,"ĠGRA":13657,"ĠDoes":13658,"ĠRy":13659,"Ġbrows":13660,"Ġbegging":13661,"Ġmars":13662,"velope":13663,"Ġguilt":13664,"Ġrelieve":13665,"ITE":13666,"Ġbesie":13667,"Ġtempest":13668,"Ġinfected":13669,"ĠDrummond":13670,"Ġverd":13671,"overnor":13672,"uddled":13673,"Ġbeastly":13674,"Ġcourtesy":13675,"ĠJosephus":13676,"Ġaddressing":13677,"Ġheights":13678,"ĠXXX":13679,"Ġresembles":13680,"Ġaimed":13681,"quarter":13682,"Ġassistant":13683,"Ġtyrant":13684,"favour":13685,"DEFIN":13686,"scarcely":13687,"Ġtreachery":13688,"Dorothy":13689,"Mer":13690,"dle":13691,"dinner":13692,"garet":13693,"ja":13694,"ras":13695,"rick":13696,"sens":13697,"south":13698,"tone":13699,"Ġicy":13700,"Ġtool":13701,"Ġhood":13702,"Ġheated":13703,"Ġbeams":13704,"imming":13705,"Ġreeds":13706,"ĠWAR":13707,"tok":13708,"Ġsheriff":13709,"idea":13710,"ĠNicholas":13711,"ĠOb":13712,"reezes":13713,"Ġdissol":13714,"renched":13715,"Ġcounting":13716,"Ġrepose":13717,"Ġformal":13718,"proceed":13719,"Ġadvantages":13720,"RED":13721,"Ġsnap":13722,"disc":13723,"Ġ120":13724,"Ġinfection":13725,"Ġfrighten":13726,"Ġbreathless":13727,"Ġgalloped":13728,"knowing":13729,"Ġrobin":13730,"inners":13731,"Ġfavorable":13732,"ĠJanie":13733,"Ġwealthy":13734,"speed":13735,"United":13736,"ĠMercier":13737,"Ġexecuted":13738,"minded":13739,"Prince":13740,"animal":13741,"satisfied":13742,"Ġdecorated":13743,"Ġhoofs":13744,"Win":13745,"broad":13746,"jar":13747,"nant":13748,"pical":13749,"wished":13750,"Ġtuck":13751,"inated":13752,"Ġsar":13753,"edo":13754,"stock":13755,"lymouth":13756,"kee":13757,"thened":13758,"ĠPen":13759,"ĠPres":13760,"Ġsheets":13761,"ardly":13762,"ĠField":13763,"Ġmanhood":13764,"Ġnoses":13765,"Ġtwigs":13766,"Ġunkind":13767,"forgotten":13768,"ĠKot":13769,"ĠYvain":13770,"noticed":13771,"Ġcomposition":13772,"Ġresent":13773,"Ġmoves":13774,"eyond":13775,"working":13776,"ĠPray":13777,"Ġsweeping":13778,"ĠGrimm":13779,"Ġ78":13780,"Ġcausing":13781,"Ġtemporary":13782,"imply":13783,"hardly":13784,"Ġcovers":13785,"ĠWilliams":13786,"ipton":13787,"drink":13788,"Ġappealed":13789,"laughed":13790,"Ġappreciate":13791,"picuous":13792,"Ġsanct":13793,"ĠFifth":13794,"pendicular":13795,"!_":13796,"fresh":13797,"gathered":13798,"moon":13799,"sister":13800,"Ġmajesty":13801,"atha":13802,"Ġgalley":13803,"seems":13804,"Ġsealed":13805,"ĠGro":13806,"opard":13807,"ĠDead":13808,"umsy":13809,"igger":13810,"ĠOri":13811,"ĠOwen":13812,"blest":13813,"ĠYe":13814,"Ġslipping":13815,"oths":13816,"Ġkindred":13817,"Ġrefres":13818,"Ġreceives":13819,"irdre":13820,"proved":13821,"Ġcursed":13822,"Ġideals":13823,"udding":13824,"Ġphysician":13825,"Ġmassive":13826,"Ġbarely":13827,"Ġchestnut":13828,"Ġdiscussed":13829,"respondence":13830,"ĠCheif":13831,"particularly":13832,"Ġdignified":13833,"Ġwinged":13834,"ĠDelaware":13835,"Ġillustrated":13836,"Ġinstitution":13837,"susp":13838,"spoken":13839,"Ġinevitable":13840,"Ġsurvivors":13841,"'--":13842,"Time":13843,"cand":13844,"doll":13845,"gers":13846,"ji":13847,"narrow":13848,"informed":13849,"repe":13850,"Ġnasty":13851,"lead":13852,"Ġbefallen":13853,"Ġyon":13854,"ĠShad":13855,"ilias":13856,"Ġselling":13857,"Ġrotten":13858,"ĠGunn":13859,"quick":13860,"ĠLower":13861,"Ġoverfl":13862,"Ġcommittee":13863,"Ġcrush":13864,"retty":13865,"meaning":13866,"Ġcheered":13867,"ĠSTILL":13868,"Ġengage":13869,"Ġ168":13870,"Ġapplication":13871,"wrong":13872,"servant":13873,"ĠMediterranean":13874,"Ġfortunately":13875,"breakfast":13876,"Ġthirsty":13877,"Ġcomparatively":13878,"Ġliquor":13879,"ĠAthenians":13880,"Ġcolumns":13881,"Ġnewspapers":13882,"Ġbriskly":13883,"Ġimprisoned":13884,"ĠPossum":13885,"(_":13886,"90":13887,"ACE":13888,"Accord":13889,"Fred":13890,"Keep":13891,"RU":13892,"diam":13893,"riment":13894,"sle":13895,"heim":13896,"Ġsections":13897,"Ġmold":13898,"Ġpoo":13899,"assem":13900,"Ġhush":13901,"Ġhopped":13902,"ĠHa":13903,"ĠHear":13904,"ĠHung":13905,"toise":13906,"Ġshivered":13907,"ĠFRI":13908,"ntil":13909,"hanging":13910,"Ġrods":13911,"endricks":13912,"ĠKn":13913,"ĠKeep":13914,"iley":13915,"ronted":13916,"Ġstillness":13917,"Ġattic":13918,"pray":13919,"Ġministers":13920,"doors":13921,"ĠĠĠĠĠĠĠĠĠĠĠĠĠĠĠĠĠĠĠĠĠĠĠĠĠĠĠĠĠĠĠĠĠĠ":13922,"Ġdetained":13923,"Ġexpert":13924,"Ġdais":13925,"system":13926,"Without":13927,"ĠFlorence":13928,"Ġdiscoveries":13929,"Ġremembrance":13930,"presently":13931,"ĠCHAPTER":13932,"Ġresembling":13933,"Ġsources":13934,"Ġknocking":13935,"ĠDeclaration":13936,"Ġdischarged":13937,"successful":13938,"creature":13939,"Ġpeeped":13940,"ĠJapanese":13941,"Ġdeliberately":13942,"perfectly":13943,"ĠEverard":13944,"Ġwhale":13945,"Ġdesirable":13946,"Ġabsorbed":13947,"fingers":13948,"feathers":13949,"DEFINITIONS":13950,"Last":13951,"Other":13952,"Str":13953,"di":13954,"fier":13955,"nigh":13956,"sense":13957,"vice":13958,"Ġavenge":13959,"Ġther":13960,"Ġbould":13961,"Ġbats":13962,"isation":13963,"Ġdad":13964,"Ġpyramid":13965,"Ġgear":13966,"Ġbeck":13967,"ĠTzu":13968,"rib":13969,"amer":13970,"ĠAmen":13971,"echer":13972,"illes":13973,"ĠPost":13974,"agen":13975,"agog":13976,"Ġshudder":13977,"opl":13978,"ĠFel":13979,"ĠFrey":13980,"Ġnod":13981,"ĠJad":13982,"Ġtrotted":13983,"oyne":13984,"Ġchaps":13985,"ĠAsh":13986,"Ġnamely":13987,"Ġmonot":13988,"ĠNoel":13989,"Ġ96":13990,"Ġ97":13991,"Ġtransp":13992,"Ġsweetness":13993,"ĠShields":13994,"Ġcomplained":13995,"ĠDavis":13996,"Ġrespectable":13997,"Ġmessages":13998,"thoughts":13999,"innie":14000,"Ġproceedings":14001,"Ġslaying":14002,"Nevertheless":14003,"hawk":14004,"Ġillustrations":14005,"Ġvegetable":14006,"Ġcurtains":14007,"ĠWhether":14008,"Ġfulfilled":14009,"Ġfetched":14010,"Ġprosperity":14011,"Ġadapted":14012,"Ġchurches":14013,"Des":14014,"NOW":14015,"War":14016,"hine":14017,"nis":14018,"ties":14019,"upper":14020,"nders":14021,"Ġbun":14022,"Ġfab":14023,"Ġfant":14024,"Ġpall":14025,"asium":14026,"Ġnap":14027,"Ġgeese":14028,"ications":14029,"iculars":14030,"stat":14031,"stay":14032,"Ġeate":14033,"imon":14034,"ĠAges":14035,"ilian":14036,"ĠMuch":14037,"ĠHarrison":14038,"ĠChad":14039,"agu":14040,"unto":14041,"ĠRes":14042,"ĠRoscoe":14043,"Ġtwist":14044,"udged":14045,"Ġprime":14046,"hards":14047,"Ġyoungster":14048,"Ġ300":14049,"Ġconsulted":14050,"Ġchambers":14051,"Ġmetals":14052,"ĠNov":14053,"Ġbiggest":14054,"ĠNorse":14055,"Ġsnug":14056,"Ġ76":14057,"ĠXI":14058,"ĠĠĠĠĠĠĠĠĠĠĠĠĠĠĠĠĠĠĠĠĠĠĠĠĠĠĠĠĠĠĠĠĠ":14059,"warri":14060,"Ġnegative":14061,"promised":14062,"surface":14063,"ĠCHAR":14064,"Ġpillar":14065,"Ġdistinction":14066,"ĠMorris":14067,"True":14068,"Ġgeography":14069,"possession":14070,"growing":14071,"Ġseamen":14072,"Ġblossoms":14073,"Ġtheatre":14074,"ĠKadalayapan":14075,"Ġshattered":14076,"55":14077,"Source":14078,"dess":14079,"nings":14080,"oons":14081,"pul":14082,"trying":14083,"Ġtame":14084,"Ġtons":14085,"Ġwretch":14086,"aton":14087,"Ġheir":14088,"ĠFIRST":14089,"ĠRED":14090,"Ġexclamation":14091,"Ġaristocr":14092,"wealth":14093,"angular":14094,"Ġglist":14095,"lier":14096,"Ġyeoman":14097,"remark":14098,"Ġvillain":14099,"Ġpainting":14100,"Ġmiser":14101,"preter":14102,"Ġurging":14103,"Ġhyp":14104,"Ġflags":14105,"Trans":14106,"Ġceremonies":14107,"Ġgorgeous":14108,"Es":14109,"cas":14110,"lies":14111,"mad":14112,"si":14113,"trave":14114,"eded":14115,"Ġcash":14116,"Ġwelf":14117,"ĠSend":14118,"ĠSupp":14119,"ilance":14120,"ĠHipp":14121,"ĠBurn":14122,".\"]":14123,"ĠGen":14124,"ĠFederal":14125,"Ġnoises":14126,"Ġagitation":14127,"Ġfeud":14128,"Ġbrist":14129,"Ġdismal":14130,"Ġhowling":14131,"tains":14132,"neg":14133,"Ġscal":14134,"Ġreserved":14135,"ĠArnold":14136,"suit":14137,"Ġdecline":14138,"appointed":14139,"Ġbroom":14140,"Ġrefresh":14141,"Ġstepping":14142,"clude":14143,"Ġassail":14144,"Ġ92":14145,"Ġhairs":14146,"Ġdepended":14147,"Ġbrighter":14148,"ĠXII":14149,"fastened":14150,"ĠCarpathia":14151,"Ġattacks":14152,"Ġeagerness":14153,"Ġporter":14154,"Quite":14155,"Ġargued":14156,"IFE":14157,"Ġhospital":14158,"Ġinquiries":14159,"Ġpleasantly":14160,"Ġopponent":14161,"popular":14162,"Ġimmortal":14163,"ĠLindsay":14164,"Ġwelfare":14165,"):":14166,"Count":14167,"Six":14168,"song":14169,"spl":14170,"reve":14171,"Ġetext":14172,"ĠTad":14173,"ĠSW":14174,"thiop":14175,"tos":14176,"ĠGIRL":14177,"ĠLin":14178,"uming":14179,"ĠYue":14180,"Ġhowl":14181,"ruff":14182,"Ġprem":14183,"princess":14184,"Ġchant":14185,"Ġpleasures":14186,"attack":14187,"ATHER":14188,"Ġ67":14189,"iddy":14190,"ĠClara":14191,"Ġ99":14192,"Ġstrive":14193,"played":14194,"discover":14195,"Ġbreaks":14196,"Ġpraying":14197,"Ġvexed":14198,"ĠFlor":14199,"legged":14200,"Ġurge":14201,"ĠHorse":14202,"Ġindignant":14203,"ĠDalzell":14204,"Ġestablishment":14205,"Ġvicinity":14206,"Better":14207,"Ġelaborate":14208,"Distributed":14209,"MENT":14210,"SC":14211,"SH":14212,"Truly":14213,"cab":14214,"fled":14215,"lan":14216,"language":14217,"mate":14218,"talking":14219,"uf":14220,"xes":14221,"Ġtut":14222,"Ġwert":14223,"Ġfriar":14224,"Ġhing":14225,"Ġholl":14226,"uting":14227,"otan":14228,"iciently":14229,"stories":14230,"sever":14231,"ĠMiller":14232,"ĠHare":14233,"Ġrans":14234,"ĠGi":14235,"ĠGudrun":14236,"Ġsuck":14237,"Ġsuits":14238,"olution":14239,"Ġprolong":14240,"Ġfeature":14241,"Ġtrout":14242,"Ġgram":14243,"Ġadvert":14244,"Ġsecurity":14245,"Ġdecre":14246,"Ġ54":14247,"Ġmounting":14248,"umping":14249,"Ġartificial":14250,"ĠBehind":14251,"ĠScarecrow":14252,"Ġburd":14253,"Ġjoints":14254,"Ġdevoured":14255,"ĠReview":14256,"Ġjournal":14257,"Ġnicely":14258,"courage":14259,"Ġbitterness":14260,"ĠCourse":14261,"Ġbathed":14262,"Ġimpatience":14263,"Ġprojecting":14264,"Ġdoubts":14265,"Ġperfume":14266,"Ġbeetles":14267,"Early":14268,"Ġsubdued":14269,"entirely":14270,"ĠMarjory":14271,"circumstances":14272,"ĠTagalog":14273,"AH":14274,"Ap":14275,"Bar":14276,"None":14277,"Sire":14278,"middle":14279,"wait":14280,"inating":14281,"Ġmuddy":14282,"roads":14283,"ĠHAR":14284,"ĠBack":14285,"ĠCousin":14286,"Ġmend":14287,"Ġmanly":14288,"Ġconquest":14289,"Ġje":14290,"Ġtraced":14291,"Ġclan":14292,"ountains":14293,"Ġcompare":14294,"anche":14295,"ĠBrad":14296,"space":14297,"Ġsunrise":14298,"Ġvisiting":14299,"ĠWhatever":14300,"Ġintercourse":14301,"Ġ62":14302,"Ġ87":14303,"ĠCommission":14304,"ĠXIV":14305,"ĠMaybe":14306,"ĠTrade":14307,"Ġdreaded":14308,"Ġbreadth":14309,"Ġsensitive":14310,"single":14311,"Ġdimin":14312,"Ġbatteries":14313,"Ġhenceforth":14314,"Ġtranslation":14315,"Ġphilosophy":14316,"ĠRepublican":14317,"Ġprowess":14318,"Antony":14319,"Ġgnaw":14320,"ĠOxford":14321,"Ġtragedy":14322,"-.":14323,"100":14324,"EC":14325,"MY":14326,"OOT":14327,"_]":14328,"loy":14329,"powder":14330,"sum":14331,
[...]
